<unk>	0
<s>	0
</s>	0
<brk>	0
です	-0
ます	-1
って	-2
して	-3
した	-4
▁そ	-5
ない	-6
から	-7
います	-8
った	-9
ました	-10
さん	-11
あり	-12
こと	-13
んです	-14
いた	-15
いて	-16
する	-17
はい	-18
します	-19
しょ	-20
いる	-21
では	-22
いい	-23
しょう	-24
▁そう	-25
よう	-26
ですか	-27
と思	-28
んだ	-29
ので	-30
ですね	-31
▁はい	-32
▁あ	-33
どう	-34
▁それ	-35
でき	-36
ある	-37
そう	-38
しい	-39
にな	-40
ります	-41
ござ	-42
ませ	-43
この	-44
ません	-45
でしょう	-46
さい	-47
よね	-48
じゃ	-49
でも	-50
がと	-51
かった	-52
だけ	-53
ありがと	-54
ありがとう	-55
くだ	-56
いう	-57
▁今	-58
っと	-59
ください	-60
りました	-61
れて	-62
もし	-63
につ	-64
には	-65
ですが	-66
かな	-67
▁お	-68
社の	-69
けど	-70
について	-71
ございます	-72
でしょうか	-73
れる	-74
あります	-75
それ	-76
願い	-77
れば	-78
お願い	-79
と思います	-80
▁こ	-81
たい	-82
ール	-83
▁え	-84
▁私	-85
時間	-86
まで	-87
えて	-88
もら	-89
がある	-90
▁では	-91
ちら	-92
いただ	-93
んな	-94
かりました	-95
という	-96
ありがとうございます	-97
▁う	-98
会社	-99
その	-100
▁ま	-101
のは	-102
ング	-103
電話	-104
▁い	-105
せて	-106
イン	-107
っている	-108
なく	-109
ですよ	-110
ちょ	-111
なんです	-112
▁でも	-113
らい	-114
できる	-115
必要	-116
いました	-117
しました	-118
とこ	-119
でした	-120
ティ	-121
ック	-122
しく	-123
しま	-124
なら	-125
ちの	-126
ように	-127
もう	-128
のですが	-129
▁その	-130
している	-131
ますか	-132
仕事	-133
ところ	-134
ット	-135
ちょっと	-136
商品	-137
よろ	-138
日は	-139
お願いします	-140
どの	-141
だった	-142
良い	-143
ないと	-144
きます	-145
してお	-146
確認	-147
れた	-148
何か	-149
連絡	-150
ことが	-151
▁それは	-152
スト	-153
丈夫	-154
大丈夫	-155
じゃない	-156
▁この	-157
える	-158
▁じゃ	-159
にも	-160
ント	-161
んで	-162
予定	-163
くらい	-164
しています	-165
とか	-166
製品	-167
ート	-168
▁な	-169
メール	-170
▁わ	-171
と思う	-172
なた	-173
もの	-174
▁どう	-175
めて	-176
▁ええ	-177
ってる	-178
っています	-179
ージ	-180
になる	-181
日本	-182
ですよね	-183
▁彼	-184
があ	-185
▁もし	-186
がいい	-187
だから	-188
したい	-189
ほど	-190
ちゃ	-191
いただけ	-192
これ	-193
リー	-194
れない	-195
なかった	-196
ことは	-197
だね	-198
ター	-199
フィ	-200
みたい	-201
だよ	-202
本当	-203
ちは	-204
させて	-205
日の	-206
されて	-207
▁いい	-208
んだけど	-209
ーム	-210
ティング	-211
に行	-212
を見	-213
ような	-214
ョン	-215
いけ	-216
ース	-217
会議	-218
ラン	-219
んですか	-220
ほう	-221
かり	-222
ても	-223
ましょう	-224
▁そうですね	-225
前に	-226
聞いて	-227
▁分	-228
もち	-229
▁ああ	-230
んだよ	-231
10	-232
社員	-233
もちろ	-234
ため	-235
にお	-236
をお	-237
しゃ	-238
つも	-239
▁わかりました	-240
より	-241
になります	-242
出来	-243
質問	-244
ける	-245
プロ	-246
オフィ	-247
きました	-248
んですが	-249
▁実	-250
オフィス	-251
けて	-252
かります	-253
すぐ	-254
なん	-255
来週	-256
として	-257
問題	-258
くれる	-259
▁ありがとうございます	-260
まり	-261
上げ	-262
情報	-263
また	-264
ップ	-265
ード	-266
よろしく	-267
ありますか	-268
少し	-269
ライ	-270
ございました	-271
ってお	-272
っしゃ	-273
スタ	-274
教えて	-275
してみ	-276
合わ	-277
コン	-278
▁これ	-279
さんの	-280
ジェ	-281
やって	-282
▁もちろ	-283
してもら	-284
があります	-285
新しい	-286
▁何	-287
通り	-288
かもし	-289
とは	-290
なる	-291
に入	-292
できます	-293
しか	-294
可能	-295
いません	-296
▁分かりました	-297
ことを	-298
それは	-299
本当に	-300
かる	-301
からね	-302
研修	-303
あなた	-304
に関	-305
のお	-306
サム	-307
ータ	-308
こちら	-309
▁ご	-310
なの	-311
▁じゃあ	-312
たち	-313
営業	-314
さんが	-315
まして	-316
ありがとうございました	-317
るの	-318
的に	-319
んですよ	-320
ミー	-321
客様	-322
▁A	-323
かに	-324
かも	-325
ステ	-326
場合	-327
ったら	-328
たら	-329
どこ	-330
まだ	-331
サー	-332
ないといけ	-333
ただ	-334
自分	-335
さんは	-336
ション	-337
▁最	-338
パー	-339
申し	-340
説明	-341
資料	-342
▁一	-343
んと	-344
マー	-345
▁うん	-346
▁実は	-347
▁先	-348
ここ	-349
の方	-350
ろう	-351
らっしゃ	-352
ミーティング	-353
なので	-354
データ	-355
担当	-356
なくて	-357
はどう	-358
らしい	-359
▁もしもし	-360
いたします	-361
ということ	-362
そこ	-363
ディ	-364
始め	-365
顧客	-366
▁私は	-367
なんだ	-368
いただき	-369
いいですか	-370
他の	-371
よく	-372
時に	-373
いない	-374
うちの	-375
ければ	-376
言って	-377
▁僕	-378
社長	-379
とても	-380
ファ	-381
大変	-382
したら	-383
はず	-384
べて	-385
を使	-386
かなり	-387
れません	-388
しましょう	-389
▁さ	-390
システ	-391
システム	-392
だと	-393
部長	-394
プレ	-395
価格	-396
同じ	-397
さんに	-398
チーム	-399
してください	-400
いく	-401
すみ	-402
たく	-403
との	-404
んに	-405
大き	-406
知ら	-407
▁こちら	-408
かが	-409
を持	-410
終わ	-411
れます	-412
よろしい	-413
ありません	-414
すみません	-415
つか	-416
とも	-417
会社の	-418
んにちは	-419
フォ	-420
対応	-421
感じ	-422
考え	-423
よろしくお願いします	-424
20	-425
と申	-426
ると	-427
中に	-428
受け	-429
そうです	-430
▁それでは	-431
えば	-432
こう	-433
など	-434
ドル	-435
社に	-436
部署	-437
される	-438
合わせ	-439
テル	-440
人が	-441
経験	-442
見て	-443
までに	-444
良かった	-445
ナー	-446
企業	-447
週間	-448
んじゃない	-449
取り	-450
待ち	-451
ホテル	-452
考えて	-453
▁今日は	-454
ですから	-455
と申します	-456
での	-457
クト	-458
バー	-459
私の	-460
興味	-461
出張	-462
▁また	-463
お話	-464
を送	-465
アン	-466
事業	-467
明日	-468
▁あと	-469
だけど	-470
んなに	-471
ないといけない	-472
曜日	-473
書類	-474
社は	-475
ではない	-476
変更	-477
▁なる	-478
すぐに	-479
もっと	-480
をして	-481
と思って	-482
プロジェ	-483
予約	-484
来て	-485
いますか	-486
どれ	-487
のか	-488
のが	-489
部の	-490
開発	-491
をする	-492
確かに	-493
プロジェクト	-494
▁そうなんです	-495
べき	-496
全て	-497
彼ら	-498
楽し	-499
しよう	-500
ってき	-501
どうか	-502
▁それで	-503
サイ	-504
方が	-505
された	-506
▁なるほど	-507
助かります	-508
を作	-509
チェ	-510
▁ただ	-511
られる	-512
そうですね	-513
15	-514
せる	-515
結構	-516
▁何か	-517
ご連絡	-518
しても	-519
すご	-520
ジュ	-521
ンス	-522
一緒	-523
人事	-524
早く	-525
管理	-526
▁まず	-527
が必要	-528
▁うちの	-529
させていただ	-530
くな	-531
コー	-532
メリ	-533
契約	-534
持ち	-535
準備	-536
私が	-537
たちの	-538
っても	-539
プレゼ	-540
よかった	-541
▁と	-542
とな	-543
める	-544
了解	-545
休み	-546
現在	-547
▁ここ	-548
ために	-549
どんな	-550
皆さん	-551
かどうか	-552
ーん	-553
事を	-554
去年	-555
参加	-556
見積	-557
▁もう	-558
いたい	-559
いただけますか	-560
は何	-561
キャ	-562
ダー	-563
言う	-564
お待ち	-565
すれば	-566
マーケ	-567
いですね	-568
▁もちろん	-569
▁そうですか	-570
▁本	-571
いつ	-572
が多	-573
っけ	-574
のに	-575
ビス	-576
ピー	-577
引き	-578
業界	-579
特に	-580
▁いえ	-581
お電話	-582
みます	-583
欲しい	-584
▁あなた	-585
っております	-586
やす	-587
ャー	-588
市場	-589
的な	-590
からの	-591
下さい	-592
サービス	-593
プレゼン	-594
ほうがいい	-595
かもしれない	-596
▁他	-597
ビジ	-598
ベン	-599
好き	-600
送り	-601
▁私も	-602
してる	-603
だろう	-604
れました	-605
ありました	-606
いらっしゃ	-607
はありますか	-608
▁で	-609
ュー	-610
一番	-611
失礼	-612
心配	-613
意見	-614
相談	-615
請求	-616
関係	-617
あった	-618
お客様	-619
はない	-620
聞いた	-621
ってもら	-622
▁1	-623
たり	-624
グラ	-625
全部	-626
アップ	-627
に関して	-628
チェック	-629
▁ありがとう	-630
..	-631
xx	-632
にか	-633
スク	-634
バイ	-635
世話	-636
年間	-637
セント	-638
申し訳	-639
▁うーん	-640
からない	-641
すること	-642
ネス	-643
レー	-644
後に	-645
我が	-646
業員	-647
食べ	-648
きたい	-649
▁そして	-650
▁確かに	-651
できない	-652
ビジネス	-653
▁こんにちは	-654
しております	-655
だな	-656
タイ	-657
以上	-658
内容	-659
出て	-660
希望	-661
後で	-662
社内	-663
▁いつ	-664
▁来週	-665
のこと	-666
みんな	-667
いただく	-668
▁2	-669
かし	-670
によ	-671
注文	-672
田中	-673
販売	-674
購入	-675
▁いや	-676
▁どの	-677
▁了解	-678
すると	-679
を見て	-680
アメリ	-681
従業員	-682
アメリカ	-683
くて	-684
イル	-685
紹介	-686
製造	-687
▁えー	-688
があれば	-689
なければ	-690
になって	-691
▁そうです	-692
くる	-693
ニア	-694
事が	-695
提案	-696
申請	-697
番号	-698
言わ	-699
▁私の	-700
しない	-701
もある	-702
ランチ	-703
一緒に	-704
時間が	-705
だと思います	-706
んでしょうか	-707
▁もちろんです	-708
かもしれません	-709
00	-710
わけ	-711
リン	-712
ンド	-713
理解	-714
間に	-715
なんて	-716
らない	-717
▁だから	-718
ようです	-719
▁ちょっと	-720
かい	-721
上が	-722
人の	-723
今日	-724
色々	-725
部屋	-726
くれて	-727
時間を	-728
そういう	-729
▁君	-730
をご	-731
を出	-732
オー	-733
スケ	-734
工場	-735
手伝	-736
提供	-737
私は	-738
▁しか	-739
くない	-740
ポート	-741
楽しみ	-742
いただいて	-743
についての	-744
大丈夫です	-745
マーケティング	-746
▁や	-747
▁大	-748
こそ	-749
ウェ	-750
クリ	-751
フト	-752
今年	-753
全員	-754
名前	-755
東京	-756
間違	-757
▁今年	-758
請求書	-759
ちゃんと	-760
っぱ	-761
るよ	-762
を入	-763
事は	-764
元気	-765
午後	-766
回の	-767
支払	-768
施設	-769
来月	-770
状況	-771
▁そこ	-772
▁彼ら	-773
▁彼女	-774
はよう	-775
ますよ	-776
ライン	-777
自分の	-778
▁なので	-779
しますね	-780
されている	-781
30	-782
、1	-783
くの	-784
への	-785
まず	-786
よい	-787
マネ	-788
ロー	-789
社が	-790
素晴	-791
設定	-792
話し	-793
...	-794
ジュール	-795
してくれる	-796
うち	-797
かけ	-798
すぎ	-799
シー	-800
報告	-801
少々	-802
研究	-803
詳細	-804
▁さて	-805
どちら	-806
リスト	-807
田さん	-808
のですか	-809
▁そうだね	-810
については	-811
しておきます	-812
よろしいでしょうか	-813
の一	-814
の人	-815
ブル	-816
レス	-817
伝え	-818
彼女	-819
打ち	-820
承知	-821
気が	-822
経営	-823
話を	-824
ぐらい	-825
のところ	-826
素晴らしい	-827
ってください	-828
スケジュール	-829
あげ	-830
なあ	-831
なが	-832
りに	-833
オン	-834
変わ	-835
英語	-836
▁まあ	-837
可能性	-838
大きな	-839
御社の	-840
があった	-841
できますか	-842
んですよね	-843
くれ	-844
テー	-845
ルー	-846
合い	-847
売上	-848
簡単	-849
あまり	-850
それで	-851
できて	-852
カード	-853
ページ	-854
今日は	-855
▁いいえ	-856
▁いつも	-857
予定です	-858
まりました	-859
つけ	-860
とん	-861
のを	-862
めに	-863
を取	-864
デザ	-865
一度	-866
作業	-867
我々	-868
技術	-869
私も	-870
がない	-871
したの	-872
ネット	-873
▁しかし	-874
▁それから	-875
ましょうか	-876
はお	-877
りの	-878
ヶ月	-879
予算	-880
使用	-881
個人	-882
全体	-883
取引	-884
次の	-885
結果	-886
見た	-887
込み	-888
選択	-889
いつも	-890
じゃあ	-891
そちら	-892
を確認	-893
場合は	-894
ってこと	-895
▁すみません	-896
▁ほ	-897
いで	-898
エン	-899
値段	-900
向け	-901
投資	-902
業者	-903
決め	-904
▁まだ	-905
▁今日	-906
すべて	-907
っかり	-908
会社に	-909
▁本当に	-910
んですね	-911
メールで	-912
方がいい	-913
ございません	-914
きた	-915
ケー	-916
リア	-917
保険	-918
出荷	-919
回は	-920
売り	-921
機会	-922
計画	-923
いです	-924
さんと	-925
商品の	-926
▁それに	-927
になった	-928
デザイン	-929
んですけど	-930
パーセント	-931
、「	-932
あと	-933
いろ	-934
トラ	-935
ヒー	-936
料金	-937
業務	-938
知り	-939
通勤	-940
違う	-941
たちは	-942
ること	-943
サイト	-944
出来る	-945
忙しい	-946
▁これは	-947
えますか	-948
んだよね	-949
マネージ	-950
なんですか	-951
しね	-952
の中	-953
やり	-954
ッチ	-955
マイ	-956
ワー	-957
学校	-958
導入	-959
責任	-960
頑張	-961
▁あの	-962
▁承知	-963
っちゃ	-964
ほしい	-965
仕事を	-966
働いて	-967
っていた	-968
ないです	-969
世話にな	-970
打ち合わせ	-971
はようございます	-972
▁例	-973
あの	-974
が入	-975
まく	-976
アド	-977
ショ	-978
ベル	-979
上司	-980
方法	-981
用件	-982
際に	-983
かしこ	-984
だけで	-985
だよね	-986
ながら	-987
時から	-988
はずです	-989
みたいな	-990
をお願い	-991
コーヒー	-992
お待ちください	-993
、3	-994
えず	-995
ずに	-996
っち	-997
とき	-998
メン	-999
ラス	-1000
企画	-1001
作成	-1002
料理	-1003
来た	-1004
用意	-1005
あれば	-1006
そうな	-1007
それを	-1008
たちが	-1009
とって	-1010
はいい	-1011
ベース	-1012
知らせ	-1013
製品の	-1014
難しい	-1015
▁どうも	-1016
おります	-1017
ファイル	-1018
どのくらい	-1019
オンライン	-1020
わかりました	-1021
かしこまりました	-1022
大学	-1023
日に	-1024
残業	-1025
目標	-1026
高い	-1027
あえず	-1028
ほとん	-1029
キャン	-1030
コース	-1031
たくさん	-1032
だと思う	-1033
ってきて	-1034
通りです	-1035
することが	-1036
世話になっております	-1037
▁弊	-1038
、2	-1039
っき	-1040
らく	-1041
一人	-1042
会い	-1043
時は	-1044
有難	-1045
理由	-1046
輸出	-1047
週末	-1048
▁日本	-1049
▁最近	-1050
お時間	-1051
ばかり	-1052
▁大丈夫	-1053
があって	-1054
もう少し	-1055
りあえず	-1056
を教えて	-1057
もあります	-1058
かと思います	-1059
マネージャー	-1060
▁かしこまりました	-1061
えた	-1062
アイ	-1063
カー	-1064
キー	-1065
ラー	-1066
後の	-1067
手配	-1068
提出	-1069
数字	-1070
気を	-1071
直接	-1072
社と	-1073
▁去年	-1074
▁私が	-1075
えない	-1076
すごく	-1077
そんな	-1078
どうぞ	-1079
にして	-1080
のです	-1081
はいつ	-1082
ほうが	-1083
られた	-1084
られて	-1085
伝えて	-1086
空いて	-1087
しまして	-1088
そんなに	-1089
聞いてみ	-1090
しましょうか	-1091
▁は	-1092
かと	-1093
ぜひ	-1094
もん	-1095
を開	-1096
サン	-1097
代わ	-1098
基本	-1099
承認	-1100
株式	-1101
検討	-1102
社で	-1103
記載	-1104
課長	-1105
過ぎ	-1106
部門	-1107
▁あっ	-1108
▁良い	-1109
かって	-1110
これは	-1111
なくな	-1112
に行く	-1113
はある	-1114
ジョン	-1115
持って	-1116
的には	-1117
行った	-1118
ところで	-1119
インター	-1120
▁いいですよ	-1121
と思いますよ	-1122
▁B	-1123
ねえ	-1124
ニー	-1125
中国	-1126
事務	-1127
付け	-1128
写真	-1129
問い	-1130
多分	-1131
早速	-1132
確か	-1133
起こ	-1134
飲み	-1135
▁あー	-1136
かかる	-1137
しまう	-1138
グラム	-1139
プライ	-1140
会社は	-1141
情報を	-1142
有難う	-1143
▁えっと	-1144
あなたの	-1145
致します	-1146
されています	-1147
50	-1148
▁皆	-1149
か月	-1150
きて	-1151
印刷	-1152
常に	-1153
最近	-1154
案件	-1155
立ち	-1156
追加	-1157
いった	-1158
っぱり	-1159
といい	-1160
になり	-1161
るのは	-1162
を受け	-1163
アント	-1164
クライ	-1165
▁そんな	-1166
▁例えば	-1167
売り上げ	-1168
してみます	-1169
クライアント	-1170
と思っています	-1171
をお願いします	-1172
▁よろしくお願いします	-1173
▁へ	-1174
とお	-1175
なさ	-1176
を行	-1177
アー	-1178
レン	-1179
以外	-1180
全然	-1181
場所	-1182
悪い	-1183
日を	-1184
程度	-1185
金額	-1186
▁あぁ	-1187
▁他に	-1188
するよ	-1189
ちょう	-1190
にある	-1191
に電話	-1192
のため	-1193
エンジ	-1194
カスタ	-1195
会議室	-1196
初めて	-1197
必要な	-1198
曜日の	-1199
いくつか	-1200
ですので	-1201
によって	-1202
はいかが	-1203
▁どうして	-1204
をしている	-1205
少々お待ちください	-1206
▁次	-1207
▁誰	-1208
ウィ	-1209
ウチ	-1210
休憩	-1211
具体	-1212
大事	-1213
新規	-1214
期間	-1215
残念	-1216
気づ	-1217
絶対	-1218
続き	-1219
落ち	-1220
行く	-1221
食事	-1222
▁明日	-1223
ずっと	-1224
のある	-1225
ソフト	-1226
ニング	-1227
ンさん	-1228
商品を	-1229
知って	-1230
行って	-1231
調べて	-1232
進めて	-1233
▁本日は	-1234
するのは	-1235
りますね	-1236
できません	-1237
どれくらい	-1238
必要がある	-1239
いただきたい	-1240
させていただきます	-1241
申し訳ございません	-1242
▁ト	-1243
▁パ	-1244
▁当	-1245
くり	-1246
っか	-1247
つの	-1248
のご	-1249
のよ	-1250
スペ	-1251
セル	-1252
フェ	-1253
ンの	-1254
人に	-1255
使い	-1256
処理	-1257
出し	-1258
合う	-1259
大切	-1260
後は	-1261
昨日	-1262
来る	-1263
機能	-1264
用の	-1265
疲れ	-1266
移動	-1267
輸送	-1268
うまく	-1269
かも知	-1270
だって	-1271
レスト	-1272
▁お客様	-1273
▁お電話	-1274
▁そうか	-1275
▁今日の	-1276
▁皆さん	-1277
いまして	-1278
ちょうど	-1279
っていう	-1280
と思った	-1281
なんだよ	-1282
に行って	-1283
プログラム	-1284
レストラン	-1285
▁「	-1286
▁高	-1287
だし	-1288
に出	-1289
まる	-1290
を探	-1291
他に	-1292
休暇	-1293
入れ	-1294
全く	-1295
午前	-1296
思い	-1297
早い	-1298
注意	-1299
監査	-1300
越し	-1301
返金	-1302
面接	-1303
▁他の	-1304
▁僕は	-1305
▁我が	-1306
▁現在	-1307
が多い	-1308
きっと	-1309
くれた	-1310
したり	-1311
グルー	-1312
明日の	-1313
▁お願い	-1314
そうだね	-1315
でしたか	-1316
ないから	-1317
に関する	-1318
知ってる	-1319
かりますか	-1320
どのような	-1321
なんだけど	-1322
オフィスに	-1323
必要があります	-1324
しないといけない	-1325
お金	-1326
さま	-1327
すで	-1328
そろ	-1329
の件	-1330
みて	-1331
れど	-1332
佐藤	-1333
勉強	-1334
子供	-1335
来年	-1336
物を	-1337
目を	-1338
部分	-1339
▁サム	-1340
▁田中	-1341
ことに	-1342
っくり	-1343
とは思	-1344
ないよ	-1345
の仕事	-1346
まった	-1347
ソコン	-1348
担当者	-1349
支払い	-1350
見積も	-1351
▁それが	-1352
でしたね	-1353
ませんか	-1354
もらえる	-1355
れている	-1356
を使って	-1357
かりません	-1358
でしょうね	-1359
はいらっしゃ	-1360
になっています	-1361
よろしいですか	-1362
12	-1363
▁つ	-1364
がい	-1365
が出	-1366
ひと	-1367
テナ	-1368
ビル	-1369
前の	-1370
効率	-1371
日程	-1372
月末	-1373
無理	-1374
経費	-1375
美味	-1376
聞こ	-1377
話す	-1378
調査	-1379
通常	-1380
▁どこ	-1381
▁失礼	-1382
▁彼は	-1383
▁本当	-1384
えます	-1385
くださ	-1386
んでも	-1387
ツアー	-1388
早めに	-1389
置いて	-1390
自分で	-1391
おきます	-1392
だったら	-1393
ではなく	-1394
のために	-1395
ほとんど	-1396
ればいい	-1397
グループ	-1398
スタート	-1399
いただいた	-1400
こんにちは	-1401
になりました	-1402
良かったです	-1403
▁承知しました	-1404
したいのですが	-1405
ミーティングを	-1406
お世話になっております	-1407
▁ロ	-1408
お客	-1409
かわ	-1410
きゃ	-1411
なり	-1412
に対	-1413
に送	-1414
アル	-1415
シャ	-1416
スー	-1417
ッド	-1418
ミス	-1419
ワイ	-1420
人数	-1421
何も	-1422
別に	-1423
外国	-1424
存知	-1425
彼の	-1426
時期	-1427
最初	-1428
最終	-1429
月の	-1430
株主	-1431
様に	-1432
次第	-1433
消費	-1434
解決	-1435
調べ	-1436
配達	-1437
▁特に	-1438
かなか	-1439
からは	-1440
くなる	-1441
けどね	-1442
ここに	-1443
ご用件	-1444
すでに	-1445
である	-1446
までの	-1447
もらう	-1448
もんね	-1449
トレー	-1450
会社が	-1451
助かる	-1452
始めて	-1453
書いて	-1454
気に入	-1455
させて頂	-1456
しないと	-1457
合わせて	-1458
私たちの	-1459
▁そういう	-1460
▁そうそう	-1461
ことがある	-1462
となります	-1463
エンジニア	-1464
どうでしょうか	-1465
はいらっしゃいますか	-1466
され	-1467
のも	-1468
チャ	-1469
プル	-1470
予測	-1471
事項	-1472
人も	-1473
修正	-1474
候補	-1475
勤務	-1476
多い	-1477
実は	-1478
意味	-1479
検収	-1480
沢山	-1481
海外	-1482
結局	-1483
良く	-1484
見つ	-1485
都合	-1486
電車	-1487
▁営業	-1488
かけて	-1489
かない	-1490
さんも	-1491
してた	-1492
つもり	-1493
などの	-1494
よりも	-1495
イント	-1496
ニュー	-1497
バイス	-1498
厳しい	-1499
嬉しい	-1500
時間は	-1501
来週の	-1502
疲れ様	-1503
社員の	-1504
製品を	-1505
覚えて	-1506
もらって	-1507
ることが	-1508
見積もり	-1509
▁それなら	-1510
▁ところで	-1511
そうですか	-1512
問い合わせ	-1513
▁こちらこそ	-1514
がありました	-1515
していただく	-1516
についてお話	-1517
データベース	-1518
よろしくお願い	-1519
▁新	-1520
▁朝	-1521
お店	-1522
マン	-1523
上手	-1524
光栄	-1525
共有	-1526
利用	-1527
同僚	-1528
山本	-1529
影響	-1530
是非	-1531
立て	-1532
総会	-1533
職場	-1534
部に	-1535
けれど	-1536
これで	-1537
する事	-1538
までは	-1539
やすい	-1540
ディア	-1541
リング	-1542
日本の	-1543
連れて	-1544
▁そこで	-1545
さんから	-1546
しておく	-1547
してみて	-1548
るように	-1549
ポイント	-1550
しておいて	-1551
でください	-1552
でしたっけ	-1553
というのは	-1554
なんですが	-1555
に関しては	-1556
教えてください	-1557
▁木	-1558
がお	-1559
させ	-1560
を受	-1561
一つ	-1562
依頼	-1563
別の	-1564
力を	-1565
半期	-1566
差し	-1567
弁当	-1568
掛け	-1569
書を	-1570
月に	-1571
正直	-1572
生産	-1573
聞き	-1574
重要	-1575
▁あら	-1576
▁うわ	-1577
▁えっ	-1578
▁僕も	-1579
そう思	-1580
でしょ	-1581
にする	-1582
に連絡	-1583
るから	-1584
コスト	-1585
会議を	-1586
商品は	-1587
間違い	-1588
▁そちら	-1589
▁ですが	-1590
▁まずは	-1591
ができる	-1592
と思うよ	-1593
までには	-1594
を持って	-1595
サポート	-1596
申し上げ	-1597
社のサム	-1598
いいですよ	-1599
があるので	-1600
知っている	-1601
▁お願いします	-1602
▁おはようございます	-1603
いただきありがとうございます	-1604
▁3	-1605
▁カ	-1606
▁中	-1607
▁前	-1608
あれ	-1609
いき	-1610
くら	-1611
まま	-1612
やら	-1613
ッフ	-1614
ニュ	-1615
ブラ	-1616
メラ	-1617
ンを	-1618
予想	-1619
二人	-1620
交渉	-1621
今週	-1622
伺い	-1623
何を	-1624
地域	-1625
学生	-1626
家族	-1627
方は	-1628
旅行	-1629
有給	-1630
貿易	-1631
面白	-1632
▁今は	-1633
▁今週	-1634
▁仕事	-1635
▁先週	-1636
▁最初	-1637
▁製品	-1638
ここで	-1639
ってた	-1640
のもの	-1641
ティー	-1642
ピック	-1643
四半期	-1644
曜日に	-1645
▁それと	-1646
いますが	-1647
しかった	-1648
しっかり	-1649
していた	-1650
ならない	-1651
られない	-1652
んでいる	-1653
スタッフ	-1654
パソコン	-1655
メンバー	-1656
可能です	-1657
楽しみに	-1658
▁私たちの	-1659
するように	-1660
できました	-1661
オフィスの	-1662
元気ですか	-1663
▁とりあえず	-1664
と思いますか	-1665
したほうがいい	-1666
いえ	-1667
らの	-1668
り返	-1669
わね	-1670
を増	-1671
ザー	-1672
メモ	-1673
今の	-1674
何人	-1675
内に	-1676
分の	-1677
切り	-1678
到着	-1679
忘れ	-1680
感謝	-1681
物の	-1682
環境	-1683
知識	-1684
経理	-1685
者の	-1686
表示	-1687
評価	-1688
買い	-1689
避難	-1690
長い	-1691
000	-1692
100	-1693
▁へえ	-1694
▁先日	-1695
かもね	-1696
がいる	-1697
ことも	-1698
ご質問	-1699
すごい	-1700
ている	-1701
でいい	-1702
なきゃ	-1703
の予定	-1704
まって	-1705
みよう	-1706
ウェブ	-1707
コピー	-1708
フォル	-1709
ホーム	-1710
メント	-1711
ワーク	-1712
細かい	-1713
xxxx	-1714
▁どんな	-1715
▁今年は	-1716
▁新しい	-1717
▁来週の	-1718
いますよ	-1719
こちらの	-1720
これから	-1721
ってきた	-1722
を送って	-1723
クリック	-1724
サプライ	-1725
トラック	-1726
光栄です	-1727
▁よかった	-1728
▁わかった	-1729
ありますよ	-1730
していない	-1731
してもらう	-1732
そうなんです	-1733
でございます	-1734
ということは	-1735
▁オ	-1736
▁シ	-1737
いの	-1738
おう	-1739
きち	-1740
くは	-1741
でお	-1742
の事	-1743
ジャ	-1744
不足	-1745
人は	-1746
人を	-1747
会の	-1748
会話	-1749
働く	-1750
十分	-1751
小さ	-1752
手元	-1753
改善	-1754
更新	-1755
様子	-1756
発注	-1757
相手	-1758
私に	-1759
自動	-1760
規模	-1761
近く	-1762
返事	-1763
頂き	-1764
▁残念	-1765
があり	-1766
がたい	-1767
と思わ	-1768
のかな	-1769
るのに	-1770
わかる	-1771
カメラ	-1772
クラス	-1773
ケージ	-1774
サイズ	-1775
ックス	-1776
ットを	-1777
ムさん	-1778
事務所	-1779
引き継	-1780
社長が	-1781
▁えーと	-1782
▁すぐに	-1783
▁今回は	-1784
いけない	-1785
お知らせ	-1786
くれない	-1787
されます	-1788
しまった	-1789
でしたら	-1790
なくても	-1791
はいつも	-1792
られます	-1793
テーブル	-1794
リーダー	-1795
されました	-1796
アドバイス	-1797
分からない	-1798
▁いいですね	-1799
いたしました	-1800
になっている	-1801
大丈夫ですよ	-1802
知っています	-1803
▁そうですよね	-1804
ことはありますか	-1805
▁エ	-1806
▁ス	-1807
かを	-1808
に移	-1809
の話	-1810
まと	-1811
られ	-1812
をと	-1813
アウ	-1814
ジョ	-1815
ビー	-1816
ヨー	-1817
ーン	-1818
交換	-1819
削減	-1820
受注	-1821
安い	-1822
安全	-1823
度の	-1824
建設	-1825
時の	-1826
締め	-1827
行き	-1828
記入	-1829
迎え	-1830
配送	-1831
▁よく	-1832
▁ベン	-1833
▁多分	-1834
▁大変	-1835
あたり	-1836
いえば	-1837
しくて	-1838
すべき	-1839
できた	-1840
に興味	-1841
はもう	-1842
るので	-1843
るんだ	-1844
クリス	-1845
デスク	-1846
トップ	-1847
リティ	-1848
ーター	-1849
宜しく	-1850
手伝い	-1851
手続き	-1852
時には	-1853
社から	-1854
送って	-1855
きちんと	-1856
こういう	-1857
っちゃう	-1858
できれば	-1859
を作って	-1860
を考えて	-1861
確認して	-1862
言ってた	-1863
▁いえいえ	-1864
▁とんでも	-1865
して欲しい	-1866
しましたか	-1867
のでしょう	-1868
カスタマー	-1869
連絡します	-1870
いたしまして	-1871
と思いまして	-1872
▁その通りです	-1873
XX	-1874
▁上	-1875
▁毎	-1876
じめ	-1877
ずれ	-1878
と言	-1879
にご	-1880
のみ	-1881
はり	-1882
やる	-1883
キュ	-1884
セミ	-1885
ッツ	-1886
プリ	-1887
レビ	-1888
ログ	-1889
人材	-1890
何が	-1891
僕は	-1892
分か	-1893
判断	-1894
君が	-1895
待た	-1896
応募	-1897
曜の	-1898
無い	-1899
無駄	-1900
特別	-1901
目に	-1902
積み	-1903
聞く	-1904
良さ	-1905
観光	-1906
許可	-1907
調整	-1908
近い	-1909
過去	-1910
達は	-1911
頂け	-1912
頼む	-1913
▁10	-1914
おいて	-1915
が出て	-1916
これが	-1917
そうだ	-1918
なんか	-1919
に来て	-1920
はこの	-1921
コンピ	-1922
ッキー	-1923
リース	-1924
今回の	-1925
今日の	-1926
会社を	-1927
入れて	-1928
分かる	-1929
受け取	-1930
日本語	-1931
社内で	-1932
私たち	-1933
考える	-1934
非常に	-1935
▁みんな	-1936
あなたが	-1937
があると	-1938
しかない	-1939
しますよ	-1940
それから	-1941
なかなか	-1942
に行った	-1943
オーダー	-1944
フォーム	-1945
ホテルの	-1946
レポート	-1947
何ですか	-1948
始めます	-1949
▁あなたの	-1950
くださいね	-1951
したかった	-1952
について話	-1953
良いですか	-1954
▁助かります	-1955
いただければ	-1956
はどうですか	-1957
もらえますか	-1958
ホームページ	-1959
▁了解しました	-1960
11	-1961
▁ク	-1962
▁小	-1963
おり	-1964
が見	-1965
しば	-1966
だわ	-1967
と話	-1968
なぁ	-1969
わよ	-1970
ウォ	-1971
ウン	-1972
コミ	-1973
スキ	-1974
テキ	-1975
ナル	-1976
ヤー	-1977
不安	-1978
世界	-1979
使わ	-1980
先方	-1981
分野	-1982
協力	-1983
年の	-1984
必ず	-1985
放題	-1986
書き	-1987
業績	-1988
決定	-1989
生徒	-1990
発送	-1991
終了	-1992
組み	-1993
給料	-1994
航空	-1995
記録	-1996
資金	-1997
銀行	-1998
関連	-1999
面倒	-2000
▁うち	-2001
▁おお	-2002
▁リー	-2003
▁来月	-2004
いかが	-2005
お越し	-2006
かしい	-2007
すぎる	-2008
するの	-2009
そこに	-2010
に対応	-2011
の準備	-2012
はどこ	-2013
を提供	-2014
アウト	-2015
ウェア	-2016
セキュ	-2017
使える	-2018
各部署	-2019
実際に	-2020
当社の	-2021
御社は	-2022
経営陣	-2023
詳しく	-2024
▁とても	-2025
▁どうぞ	-2026
▁ほんと	-2027
ことです	-2028
してます	-2029
しますか	-2030
する予定	-2031
どういう	-2032
にとって	-2033
に対して	-2034
ッケージ	-2035
時間がか	-2036
知り合い	-2037
▁お疲れ様	-2038
▁やっぱり	-2039
▁了解です	-2040
▁分かった	-2041
ありがたい	-2042
ってるんだ	-2043
できるだけ	-2044
どうですか	-2045
わからない	-2046
▁どのような	-2047
ということで	-2048
について話し	-2049
のでしょうか	-2050
トレーニング	-2051
スタートアップ	-2052
▁そうなんですね	-2053
有難うございます	-2054
IT	-2055
▁M	-2056
々な	-2057
が遅	-2058
けば	-2059
さら	-2060
じて	-2061
だめ	-2062
やつ	-2063
りは	-2064
イベ	-2065
イメ	-2066
シア	-2067
セス	-2068
セン	-2069
トル	-2070
レッ	-2071
万円	-2072
中で	-2073
仕方	-2074
伸び	-2075
使う	-2076
価値	-2077
先週	-2078
取締	-2079
名刺	-2080
大型	-2081
宣伝	-2082
御社	-2083
想像	-2084
教え	-2085
方向	-2086
時々	-2087
満足	-2088
発表	-2089
空港	-2090
輸入	-2091
迷惑	-2092
運転	-2093
運送	-2094
違い	-2095
▁あれ	-2096
▁彼の	-2097
▁次に	-2098
▁顧客	-2099
、10	-2100
お送り	-2101
が好き	-2102
ご相談	-2103
となる	-2104
どう思	-2105
にかく	-2106
のほう	-2107
もいい	-2108
んまり	-2109
ウチの	-2110
カバー	-2111
スキル	-2112
ファー	-2113
ランド	-2114
レイン	-2115
一週間	-2116
今から	-2117
会議の	-2118
取締役	-2119
向こう	-2120
始めた	-2121
少ない	-2122
弊社の	-2123
我々の	-2124
明日は	-2125
時間に	-2126
簡単に	-2127
色々と	-2128
落ち着	-2129
野さん	-2130
▁あとは	-2131
▁いいよ	-2132
▁そっか	-2133
▁もっと	-2134
いつでも	-2135
しなくて	-2136
しばらく	-2137
すべての	-2138
だけです	-2139
と考えて	-2140
ゆっくり	-2141
をお送り	-2142
を見つけ	-2143
アドレス	-2144
イベント	-2145
イメージ	-2146
コンテナ	-2147
サンプル	-2148
知らない	-2149
頑張って	-2150
▁そうだよ	-2151
▁その通り	-2152
ですからね	-2153
ないように	-2154
やっている	-2155
ようですね	-2156
をクリック	-2157
▁そういえば	-2158
▁そうなんだ	-2159
いらっしゃる	-2160
しまいました	-2161
についてです	-2162
になりますか	-2163
ると思います	-2164
田と申します	-2165
なんでしょうか	-2166
はいかがですか	-2167
▁そうなんですよ	-2168
くれてありがとう	-2169
ないといけません	-2170
25	-2171
40	-2172
▁5	-2173
▁C	-2174
▁ふ	-2175
▁マ	-2176
▁数	-2177
おく	-2178
に戻	-2179
の数	-2180
ぶり	-2181
ほぼ	-2182
みな	-2183
わざ	-2184
を与	-2185
を買	-2186
を通	-2187
アク	-2188
イス	-2189
シュ	-2190
ダメ	-2191
バス	-2192
パン	-2193
ポジ	-2194
マス	-2195
ルソ	-2196
ーズ	-2197
出席	-2198
原因	-2199
女性	-2200
日間	-2201
時半	-2202
期待	-2203
木材	-2204
検索	-2205
確実	-2206
者が	-2207
聞か	-2208
自己	-2209
設置	-2210
▁一度	-2211
▁元気	-2212
▁東京	-2213
お話し	-2214
それが	-2215
たって	-2216
ですし	-2217
ときに	-2218
どうな	-2219
どうも	-2220
なのは	-2221
の方が	-2222
ますね	-2223
まれて	-2224
らせて	-2225
り返し	-2226
コード	-2227
ジェイ	-2228
タイプ	-2229
テスト	-2230
ランス	-2231
ワイン	-2232
一日を	-2233
万ドル	-2234
入社員	-2235
全ての	-2236
向けの	-2237
少なく	-2238
当たり	-2239
彼らが	-2240
彼らの	-2241
待たせ	-2242
後ほど	-2243
業界に	-2244
様々な	-2245
番号は	-2246
言うと	-2247
電話を	-2248
▁うちは	-2249
▁うわー	-2250
▁つまり	-2251
▁彼らは	-2252
いろいろ	-2253
きますね	-2254
こちらで	-2255
そちらの	-2256
としては	-2257
ましたよ	-2258
サムさん	-2259
データを	-2260
フォロー	-2261
ューター	-2262
具体的に	-2263
気がする	-2264
▁アメリカ	-2265
▁他に何か	-2266
じゃなくて	-2267
することは	-2268
なんですよ	-2269
キャンセル	-2270
パーティー	-2271
ポジション	-2272
構いません	-2273
聞きました	-2274
いただけます	-2275
わかりません	-2276
を持っている	-2277
セキュリティ	-2278
させてください	-2279
でお願いします	-2280
インターネット	-2281
コンピューター	-2282
プロジェクトの	-2283
んじゃないですか	-2284
おはようございます	-2285
宜しくお願いします	-2286
▁ありがとうございました	-2287
よろしくお願いいたします	-2288
BA	-2289
om	-2290
▁ハ	-2291
▁フ	-2292
、5	-2293
が増	-2294
で行	-2295
とう	-2296
なし	-2297
にく	-2298
に乗	-2299
の上	-2300
の高	-2301
まあ	-2302
を変	-2303
トン	-2304
ナン	-2305
ユー	-2306
リュ	-2307
レイ	-2308
ロジ	-2309
・・	-2310
乗り	-2311
交通	-2312
付き	-2313
以前	-2314
会う	-2315
先に	-2316
先日	-2317
公開	-2318
内の	-2319
出勤	-2320
利永	-2321
卒業	-2322
対象	-2323
専門	-2324
店舗	-2325
当社	-2326
成長	-2327
替え	-2328
最高	-2329
月曜	-2330
材料	-2331
案内	-2332
様な	-2333
済み	-2334
種類	-2335
緊急	-2336
若い	-2337
見直	-2338
議題	-2339
車両	-2340
項目	-2341
▁20	-2342
▁ねえ	-2343
▁商品	-2344
▁正直	-2345
いって	-2346
させる	-2347
つけて	-2348
つける	-2349
と同じ	-2350
ならば	-2351
にこの	-2352
の商品	-2353
または	-2354
もので	-2355
を上げ	-2356
を作成	-2357
を使用	-2358
を取り	-2359
アンケ	-2360
イッチ	-2361
オープ	-2362
ナッツ	-2363
パート	-2364
・・・	-2365
上手く	-2366
事前に	-2367
今回は	-2368
助けて	-2369
多くの	-2370
幾つか	-2371
待って	-2372
言った	-2373
▁だけど	-2374
▁彼女は	-2375
▁御社の	-2376
あったら	-2377
だからね	-2378
だったよ	-2379
はいくら	-2380
ようなら	-2381
りますよ	-2382
チャンス	-2383
プション	-2384
差し上げ	-2385
我が社の	-2386
気になる	-2387
があるから	-2388
しますので	-2389
そうですよ	-2390
と思ってる	-2391
みましょう	-2392
アンケート	-2393
ケーション	-2394
嬉しいです	-2395
▁残念ながら	-2396
かも知れない	-2397
したんですか	-2398
してもらえる	-2399
っていました	-2400
と思いますが	-2401
と思っている	-2402
よかったです	-2403
▁大丈夫ですよ	-2404
ことがあります	-2405
じゃないですか	-2406
ではありません	-2407
んじゃないかな	-2408
メールアドレス	-2409
ということですね	-2410
▁どういたしまして	-2411
いらっしゃいますか	-2412
楽しみにしています	-2413
▁S	-2414
▁デ	-2415
お昼	-2416
がか	-2417
が高	-2418
ごと	-2419
さえ	-2420
るわ	-2421
わか	-2422
を得	-2423
を選	-2424
シェ	-2425
タル	-2426
テク	-2427
ペー	-2428
リク	-2429
ルメ	-2430
レジ	-2431
一日	-2432
不満	-2433
事も	-2434
人で	-2435
今後	-2436
以降	-2437
体調	-2438
健康	-2439
働き	-2440
入社	-2441
内で	-2442
受付	-2443
完成	-2444
役員	-2445
成功	-2446
携帯	-2447
条件	-2448
段階	-2449
気に	-2450
点は	-2451
為に	-2452
状態	-2453
繋が	-2454
署名	-2455
翻訳	-2456
者は	-2457
自信	-2458
自転	-2459
見せ	-2460
言葉	-2461
計算	-2462
訓練	-2463
証券	-2464
調子	-2465
講師	-2466
費用	-2467
返品	-2468
達成	-2469
限り	-2470
▁なん	-2471
▁君は	-2472
▁実際	-2473
▁研修	-2474
▁確認	-2475
いくら	-2476
いたら	-2477
うちに	-2478
お会い	-2479
が終わ	-2480
が良い	-2481
ご存知	-2482
そらく	-2483
ための	-2484
につき	-2485
の良い	-2486
まずは	-2487
ものは	-2488
りたい	-2489
を選択	-2490
テレビ	-2491
バイト	-2492
バージ	-2493
マイク	-2494
ラップ	-2495
レット	-2496
ワード	-2497
契約書	-2498
彼らは	-2499
意見を	-2500
戻って	-2501
時間の	-2502
気持ち	-2503
決めて	-2504
自転車	-2505
込んで	-2506
関係の	-2507
▁どちら	-2508
▁他にも	-2509
▁自分の	-2510
あなたは	-2511
いている	-2512
いますね	-2513
おっしゃ	-2514
だいたい	-2515
どれだけ	-2516
みたいで	-2517
スーパー	-2518
セミナー	-2519
ナンシー	-2520
リリース	-2521
個人的に	-2522
出来ます	-2523
私たちは	-2524
言われて	-2525
▁こちらの	-2526
▁そうだな	-2527
▁ですので	-2528
▁田中さん	-2529
いいですね	-2530
いただける	-2531
があったら	-2532
が必要です	-2533
ってもらう	-2534
ないですよ	-2535
なのですが	-2536
テーション	-2537
パッケージ	-2538
失礼します	-2539
▁素晴らしい	-2540
ご連絡します	-2541
したのですが	-2542
していました	-2543
んでください	-2544
ウェブサイト	-2545
ラップトップ	-2546
分かりました	-2547
かも知れません	-2548
ご連絡ください	-2549
▁そうなんですか	-2550
させていただきました	-2551
▁H	-2552
▁急	-2553
▁水	-2554
うん	-2555
かの	-2556
が一	-2557
が届	-2558
げて	-2559
しろ	-2560
ぞれ	-2561
に向	-2562
の後	-2563
べく	-2564
まい	-2565
みた	-2566
めた	-2567
めで	-2568
りが	-2569
サル	-2570
スポ	-2571
ッパ	-2572
バル	-2573
ボブ	-2574
ュニ	-2575
ラル	-2576
リス	-2577
ロゴ	-2578
ロン	-2579
上の	-2580
住所	-2581
何度	-2582
信頼	-2583
僕が	-2584
古い	-2585
合計	-2586
安心	-2587
実際	-2588
履歴	-2589
広告	-2590
広報	-2591
弊社	-2592
強い	-2593
扱い	-2594
指示	-2595
挨拶	-2596
掃除	-2597
採用	-2598
文字	-2599
昼食	-2600
時で	-2601
最新	-2602
有名	-2603
検査	-2604
画面	-2605
発生	-2606
発行	-2607
目的	-2608
総務	-2609
自身	-2610
設備	-2611
証明	-2612
課題	-2613
進め	-2614
運営	-2615
過ご	-2616
領収	-2617
飛行	-2618
▁社長	-2619
が出来	-2620
ことで	-2621
してい	-2622
そして	-2623
ちゃん	-2624
ったり	-2625
なこと	-2626
なって	-2627
みるよ	-2628
る前に	-2629
を決め	-2630
アプリ	-2631
エスト	-2632
セール	-2633
ニーズ	-2634
ペルソ	-2635
ミング	-2636
レベル	-2637
人事部	-2638
会社で	-2639
困った	-2640
時間も	-2641
田です	-2642
...。	-2643
▁それも	-2644
▁ジョン	-2645
▁ホテル	-2646
▁ランチ	-2647
▁今回の	-2648
▁弊社の	-2649
があるか	-2650
がとても	-2651
くれます	-2652
しければ	-2653
したもの	-2654
するべき	-2655
ってます	-2656
できたら	-2657
ですかね	-2658
とっても	-2659
と一緒に	-2660
ないので	-2661
に連れて	-2662
もらった	-2663
を入れて	-2664
オファー	-2665
コミュニ	-2666
サーバー	-2667
ペルソナ	-2668
ユーザー	-2669
分かった	-2670
引き出し	-2671
折り返し	-2672
時間ある	-2673
株式会社	-2674
立ち上げ	-2675
締め切り	-2676
迷惑をお	-2677
▁あなたは	-2678
▁そうなの	-2679
▁とにかく	-2680
▁良かった	-2681
くださって	-2682
してほしい	-2683
そうだった	-2684
だと思うよ	-2685
でしたよね	-2686
ところです	-2687
としている	-2688
とりあえず	-2689
と思うので	-2690
どのように	-2691
システムの	-2692
バージョン	-2693
メールを送	-2694
リクエスト	-2695
大丈夫だよ	-2696
▁そうすると	-2697
いただきます	-2698
いただけると	-2699
はいいですね	-2700
ソフトウェア	-2701
そうなんですね	-2702
かもしれませんね	-2703
したいと思います	-2704
できると思います	-2705
申し訳ありません	-2706
▁いつもお世話になっております	-2707
▁9	-2708
▁俺	-2709
▁年	-2710
▁昨	-2711
だい	-2712
に話	-2713
の下	-2714
の大	-2715
の量	-2716
を保	-2717
を含	-2718
を雇	-2719
アカ	-2720
アレ	-2721
オリ	-2722
ソン	-2723
タブ	-2724
ドア	-2725
メー	-2726
一回	-2727
一年	-2728
今は	-2729
仕様	-2730
会計	-2731
住宅	-2732
佐々	-2733
便利	-2734
先生	-2735
再度	-2736
助け	-2737
君の	-2738
呼び	-2739
回答	-2740
夕方	-2741
存じ	-2742
学ぶ	-2743
完了	-2744
室の	-2745
家に	-2746
尽く	-2747
展示	-2748
得意	-2749
手順	-2750
拡大	-2751
整理	-2752
新人	-2753
本日	-2754
機関	-2755
毎年	-2756
比較	-2757
渡し	-2758
無料	-2759
産休	-2760
男性	-2761
答え	-2762
維持	-2763
考慮	-2764
言語	-2765
誰か	-2766
負担	-2767
賛成	-2768
通知	-2769
進捗	-2770
遠慮	-2771
鈴木	-2772
関税	-2773
xxx	-2774
▁ぜひ	-2775
▁佐藤	-2776
▁価格	-2777
▁君の	-2778
▁心配	-2779
▁早く	-2780
▁昨日	-2781
あって	-2782
かける	-2783
この件	-2784
こんな	-2785
ご説明	-2786
さんを	-2787
しちゃ	-2788
しまい	-2789
の売上	-2790
の資料	-2791
ほどの	-2792
やり方	-2793
ようか	-2794
を説明	-2795
キング	-2796
スピー	-2797
タイム	-2798
ビール	-2799
フォー	-2800
フード	-2801
リスク	-2802
人たち	-2803
今年の	-2804
今年は	-2805
仕事に	-2806
仕事の	-2807
付けて	-2808
何とか	-2809
作った	-2810
喜んで	-2811
外国人	-2812
宜しい	-2813
忘れて	-2814
本さん	-2815
楽しい	-2816
社員に	-2817
終わり	-2818
絶対に	-2819
責任者	-2820
頼んで	-2821
飛行機	-2822
▁ここで	-2823
▁ここに	-2824
▁すごく	-2825
お時間を	-2826
くなって	-2827
したんだ	-2828
した方が	-2829
してきた	-2830
しようか	-2831
そうなの	-2832
でしたよ	-2833
でもない	-2834
という事	-2835
どうして	-2836
において	-2837
やっぱり	-2838
りますか	-2839
んだから	-2840
んだよな	-2841
アンディ	-2842
オープン	-2843
スタント	-2844
スペース	-2845
メニュー	-2846
メールを	-2847
レンダー	-2848
出来ない	-2849
分くらい	-2850
助かるよ	-2851
基本的に	-2852
株式公開	-2853
皆さんに	-2854
美味しい	-2855
聞きたい	-2856
▁オフィス	-2857
ありますが	-2858
ことになる	-2859
したらいい	-2860
しなかった	-2861
どうしても	-2862
どうやって	-2863
なりません	-2864
についても	-2865
は何ですか	-2866
リンピック	-2867
少なくとも	-2868
申し訳ない	-2869
▁失礼します	-2870
いきましょう	-2871
大丈夫ですか	-2872
聞いてみます	-2873
ということです	-2874
大丈夫だと思います	-2875
.5	-2876
BC	-2877
▁K	-2878
▁た	-2879
▁全	-2880
▁山	-2881
々に	-2882
かげ	-2883
が始	-2884
ぎり	-2885
に変	-2886
みに	-2887
らず	-2888
らせ	-2889
るね	-2890
アジ	-2891
クマ	-2892
ソー	-2893
ナス	-2894
パス	-2895
人々	-2896
今回	-2897
仮装	-2898
修理	-2899
優先	-2900
入力	-2901
出す	-2902
利益	-2903
品の	-2904
在庫	-2905
声を	-2906
大体	-2907
専務	-2908
小売	-2909
息子	-2910
招待	-2911
掲載	-2912
数の	-2913
期に	-2914
機械	-2915
決断	-2916
焼き	-2917
物は	-2918
発売	-2919
給与	-2920
船荷	-2921
言い	-2922
訪問	-2923
貢献	-2924
資産	-2925
込む	-2926
追跡	-2927
退職	-2928
鉄道	-2929
集中	-2930
電池	-2931
需要	-2932
順調	-2933
駐車	-2934
com	-2935
▁30	-2936
▁ある	-2937
▁やあ	-2938
▁先月	-2939
▁同じ	-2940
▁彼が	-2941
▁早速	-2942
▁是非	-2943
▁次の	-2944
いいの	-2945
うちは	-2946
お休み	-2947
からも	-2948
が変わ	-2949
こない	-2950
さっき	-2951
さらに	-2952
して頂	-2953
するか	-2954
そこの	-2955
そこは	-2956
それに	-2957
だけに	-2958
だけの	-2959
っきり	-2960
どこに	-2961
ないの	-2962
なのに	-2963
に参加	-2964
に相談	-2965
の確認	-2966
はその	-2967
ひとつ	-2968
まれる	-2969
やった	-2970
れたら	-2971
をご覧	-2972
を使う	-2973
を担当	-2974
アカウ	-2975
アジア	-2976
サンド	-2977
シート	-2978
プリン	-2979
メイン	-2980
ルール	-2981
レート	-2982
付ける	-2983
使って	-2984
分かり	-2985
好きな	-2986
小さな	-2987
履歴書	-2988
川さん	-2989
日本に	-2990
書類の	-2991
来ます	-2992
研修の	-2993
社長の	-2994
簡単な	-2995
興味深	-2996
見込み	-2997
詳細を	-2998
資料の	-2999
遅れて	-3000
重要な	-3001
▁あまり	-3002
▁いつ頃	-3003
▁かなり	-3004
▁さっき	-3005
▁会社の	-3006
いいです	-3007
が欲しい	-3008
ことある	-3009
さまです	-3010
してから	-3011
するのを	-3012
たかった	-3013
であれば	-3014
にお電話	-3015
になると	-3016
の可能性	-3017
ほうから	-3018
みんなに	-3019
めでとう	-3020
もう一度	-3021
やってる	-3022
れますか	-3023
をお持ち	-3024
を使った	-3025
を増やす	-3026
アクセス	-3027
セールス	-3028
ソーシャ	-3029
ディナー	-3030
ファンド	-3031
メーカー	-3032
レジット	-3033
人がいる	-3034
新入社員	-3035
決まった	-3036
知らせて	-3037
船荷証券	-3038
言ってる	-3039
▁ちょうど	-3040
▁ですから	-3041
しまいます	-3042
できますよ	-3043
よい一日を	-3044
んだけどね	-3045
アカウント	-3046
オプション	-3047
カレンダー	-3048
システムを	-3049
タイミング	-3050
パートナー	-3051
レーション	-3052
致しました	-3053
▁そうだった	-3054
▁それはいい	-3055
▁どうやって	-3056
▁大丈夫です	-3057
お元気ですか	-3058
がありまして	-3059
してきました	-3060
する予定です	-3061
っているので	-3062
と思いました	-3063
はどのくらい	-3064
をしています	-3065
代わりました	-3066
スケジュールを	-3067
カスタマーサービス	-3068
コミュニケーション	-3069
▁申し訳ございません	-3070
99	-3071
an	-3072
▁4	-3073
▁E	-3074
▁よ	-3075
▁ケ	-3076
▁ド	-3077
▁帰	-3078
▁日	-3079
▁社	-3080
、6	-3081
がつ	-3082
が来	-3083
すが	-3084
でね	-3085
ひど	-3086
へ行	-3087
るか	-3088
エク	-3089
カテ	-3090
ガス	-3091
ジム	-3092
タク	-3093
ッセ	-3094
ナダ	-3095
二つ	-3096
今度	-3097
会は	-3098
会場	-3099
何年	-3100
信じ	-3101
借り	-3102
公共	-3103
冷蔵	-3104
割引	-3105
効果	-3106
印象	-3107
取得	-3108
君に	-3109
国の	-3110
変化	-3111
失敗	-3112
安定	-3113
完璧	-3114
客先	-3115
平均	-3116
店の	-3117
彼に	-3118
彼は	-3119
想定	-3120
意外	-3121
戦略	-3122
手数	-3123
探し	-3124
既存	-3125
普通	-3126
木曜	-3127
機密	-3128
次に	-3129
比べ	-3130
求人	-3131
海棠	-3132
火災	-3133
物流	-3134
現状	-3135
生活	-3136
約束	-3137
苦手	-3138
要望	-3139
評判	-3140
読み	-3141
調達	-3142
連れ	-3143
部品	-3144
郵便	-3145
開催	-3146
関わ	-3147
風に	-3148
▁ほら	-3149
▁わー	-3150
▁会社	-3151
▁大学	-3152
▁少し	-3153
▁工場	-3154
▁来年	-3155
▁結構	-3156
▁部長	-3157
▁電話	-3158
あげて	-3159
いいよ	-3160
いても	-3161
えれば	-3162
かなあ	-3163
が上が	-3164
が悪い	-3165
けない	-3166
こっち	-3167
ご希望	-3168
そこで	-3169
だっけ	-3170
っちの	-3171
つかれ	-3172
と言わ	-3173
なると	-3174
に記載	-3175
に関わ	-3176
のよね	-3177
の一つ	-3178
の予約	-3179
の顧客	-3180
やはり	-3181
よりは	-3182
る予定	-3183
れてる	-3184
を持ち	-3185
を購入	-3186
カテゴ	-3187
クター	-3188
グラフ	-3189
シング	-3190
スライ	-3191
バック	-3192
フライ	-3193
ラフト	-3194
ラベル	-3195
リンク	-3196
ロック	-3197
仕事が	-3198
企画部	-3199
作って	-3200
出張の	-3201
分から	-3202
午前中	-3203
口さん	-3204
可能な	-3205
名前を	-3206
大きい	-3207
小さい	-3208
思い出	-3209
思った	-3210
曜日は	-3211
正しい	-3212
見つけ	-3213
誰かが	-3214
近くの	-3215
部署の	-3216
開発部	-3217
関係を	-3218
食べて	-3219
▁ええと	-3220
▁きっと	-3221
▁彼らの	-3222
▁従業員	-3223
▁明日の	-3224
▁最後に	-3225
いいかな	-3226
くなった	-3227
こちらに	-3228
こんなに	-3229
するので	-3230
だろうね	-3231
できるか	-3232
ところは	-3233
とします	-3234
によると	-3235
に入って	-3236
に置いて	-3237
のように	-3238
ましたか	-3239
ますよね	-3240
もしくは	-3241
らしいよ	-3242
をします	-3243
ショップ	-3244
ストレス	-3245
タクシー	-3246
ニュース	-3247
ブランド	-3248
メールに	-3249
問題ない	-3250
大型案件	-3251
忘れない	-3252
海棠部長	-3253
皆さんの	-3254
私たちが	-3255
▁お待たせ	-3256
▁そんなに	-3257
▁ではまた	-3258
▁どうやら	-3259
▁サムさん	-3260
いなかった	-3261
えるように	-3262
かったです	-3263
くなります	-3264
したくない	-3265
して下さい	-3266
しなければ	-3267
じめまして	-3268
っておいて	-3269
どうしたの	-3270
なんだよね	-3271
のデザイン	-3272
みたいです	-3273
るんですか	-3274
クリスマス	-3275
クレジット	-3276
メールで送	-3277
使っている	-3278
問題はない	-3279
▁さようなら	-3280
▁本当ですか	-3281
いただけない	-3282
ございますか	-3283
と思っていた	-3284
になりますね	-3285
はありません	-3286
ませんでした	-3287
やってみます	-3288
よろしければ	-3289
サンドイッチ	-3290
社のサムです	-3291
させて頂きます	-3292
する必要がある	-3293
つかれさまです	-3294
となっています	-3295
▁マーケティング	-3296
かもしれませんが	-3297
ご用件でしょうか	-3298
らないといけない	-3299
宜しいでしょうか	-3300
▁それはいいですね	-3301
▁それは助かります	-3302
▁とんでもないです	-3303
▁少々お待ちください	-3304
18	-3305
24	-3306
CX	-3307
ce	-3308
▁6	-3309
▁ど	-3310
▁ビ	-3311
▁二	-3312
▁各	-3313
▁美	-3314
、4	-3315
ごろ	-3316
さあ	-3317
さに	-3318
たま	-3319
たよ	-3320
ちな	-3321
に住	-3322
めの	-3323
よな	-3324
アシ	-3325
カリ	-3326
ガソ	-3327
クス	-3328
シン	-3329
タリ	-3330
デル	-3331
トム	-3332
プラ	-3333
ボー	-3334
リエ	-3335
不明	-3336
主な	-3337
事故	-3338
井上	-3339
人気	-3340
任せ	-3341
何と	-3342
作り	-3343
供給	-3344
保存	-3345
先月	-3346
公園	-3347
冗談	-3348
努力	-3349
動作	-3350
勧め	-3351
化学	-3352
化粧	-3353
及び	-3354
合併	-3355
周知	-3356
場で	-3357
天気	-3358
存在	-3359
実施	-3360
実績	-3361
建物	-3362
当日	-3363
役に	-3364
役職	-3365
所の	-3366
指定	-3367
掲示	-3368
提示	-3369
政府	-3370
最適	-3371
機器	-3372
毎日	-3373
点を	-3374
特化	-3375
用紙	-3376
用車	-3377
異動	-3378
盛り	-3379
真理	-3380
確定	-3381
積極	-3382
置き	-3383
者も	-3384
苦情	-3385
草案	-3386
認証	-3387
誰も	-3388
足り	-3389
送付	-3390
達が	-3391
金を	-3392
開示	-3393
階の	-3394
随分	-3395
雰囲	-3396
韓国	-3397
200	-3398
500	-3399
MBA	-3400
▁こう	-3401
▁どれ	-3402
▁よし	-3403
▁一緒	-3404
▁今朝	-3405
▁何で	-3406
▁何の	-3407
▁先方	-3408
▁君が	-3409
▁我々	-3410
▁質問	-3411
▁通常	-3412
あとで	-3413
か確認	-3414
が来て	-3415
が高い	-3416
この後	-3417
この辺	-3418
さない	-3419
するね	-3420
それも	-3421
ったの	-3422
っぱい	-3423
ですと	-3424
に取り	-3425
の件で	-3426
の方に	-3427
の研修	-3428
の結果	-3429
はまだ	-3430
ほうで	-3431
らずに	-3432
るって	-3433
るのが	-3434
わから	-3435
をした	-3436
を手伝	-3437
を用意	-3438
エラー	-3439
ケース	-3440
シップ	-3441
ショー	-3442
センス	-3443
ピング	-3444
ペット	-3445
マニュ	-3446
マーク	-3447
メッセ	-3448
ヨーク	-3449
事業部	-3450
仕事で	-3451
任せて	-3452
会って	-3453
会議で	-3454
入って	-3455
入れる	-3456
冷蔵庫	-3457
出張で	-3458
出荷を	-3459
合って	-3460
名前は	-3461
商品が	-3462
営業の	-3463
営業部	-3464
大切な	-3465
思いつ	-3466
情報は	-3467
掲示板	-3468
最初に	-3469
月曜日	-3470
本日は	-3471
業界の	-3472
火曜日	-3473
目を通	-3474
社では	-3475
社との	-3476
社員が	-3477
私から	-3478
管理職	-3479
経験が	-3480
証明書	-3481
詳しい	-3482
,000	-3483
▁これが	-3484
▁ご用件	-3485
▁そうね	-3486
▁なんだ	-3487
▁今から	-3488
▁今まで	-3489
▁他には	-3490
▁弊社は	-3491
▁当社の	-3492
▁御社は	-3493
えている	-3494
えません	-3495
お客様の	-3496
お手伝い	-3497
か教えて	-3498
ことない	-3499
していて	-3500
してない	-3501
しまって	-3502
そこから	-3503
そこまで	-3504
それぞれ	-3505
それでは	-3506
それなら	-3507
そろそろ	-3508
って感じ	-3509
に必要な	-3510
のような	-3511
もちろん	-3512
を入れる	-3513
を取って	-3514
んだろう	-3515
ガソリン	-3516
スライド	-3517
フォーマ	-3518
ブルース	-3519
ペーパー	-3520
今日中に	-3521
何か問題	-3522
引き継ぎ	-3523
忘れずに	-3524
運送業者	-3525
金曜日の	-3526
鉄道車両	-3527
▁ベンさん	-3528
▁我が社の	-3529
からお電話	-3530
があるんだ	-3531
くれました	-3532
くれますか	-3533
くれるかな	-3534
ことがない	-3535
したいです	-3536
しましたが	-3537
すいません	-3538
そうですが	-3539
だったよね	-3540
というわけ	-3541
にあります	-3542
はあります	-3543
ほとんどの	-3544
ようになる	-3545
んでしょう	-3546
インターン	-3547
カテゴリー	-3548
フォルニア	-3549
マニュアル	-3550
メッセージ	-3551
ルメディア	-3552
今のところ	-3553
仕事をする	-3554
働いている	-3555
▁オンライン	-3556
ことができる	-3557
してもらって	-3558
そうですよね	-3559
について説明	-3560
んですけどね	-3561
アシスタント	-3562
サプライヤー	-3563
チェックイン	-3564
ニューヨーク	-3565
楽しみですね	-3566
▁お疲れ様です	-3567
ありがたいです	-3568
がありますので	-3569
ことができます	-3570
ことになります	-3571
していいですか	-3572
しているんです	-3573
してもらいたい	-3574
してもらいます	-3575
そうなんですか	-3576
と思うのですが	-3577
お願いできますか	-3578
を教えてください	-3579
していただけますか	-3580
する必要があります	-3581
スタートアップ企業	-3582
ソーシャルメディア	-3583
プレゼンテーション	-3584
▁宜しくお願いします	-3585
いただきたいのですが	-3586
▁お世話になっております	-3587
▁お電話ありがとうございます	-3588
IR	-3589
▁リ	-3590
▁単	-3591
▁国	-3592
いな	-3593
いら	-3594
かは	-3595
が決	-3596
くん	-3597
ずつ	-3598
そば	-3599
っぽ	-3600
なお	-3601
なぜ	-3602
にあ	-3603
の為	-3604
もお	-3605
を待	-3606
を求	-3607
エイ	-3608
ギン	-3609
スム	-3610
テン	-3611
デア	-3612
ハイ	-3613
ハー	-3614
フル	-3615
ラッ	-3616
下さ	-3617
久し	-3618
互い	-3619
今月	-3620
代表	-3621
以来	-3622
似た	-3623
体の	-3624
倉庫	-3625
入り	-3626
分析	-3627
制限	-3628
労働	-3629
募集	-3630
医者	-3631
友人	-3632
回数	-3633
地元	-3634
基準	-3635
外出	-3636
外回	-3637
定期	-3638
宿泊	-3639
将来	-3640
届け	-3641
工事	-3642
年前	-3643
年末	-3644
忘年	-3645
思う	-3646
急ぎ	-3647
恥ず	-3648
払う	-3649
把握	-3650
接待	-3651
数が	-3652
明後	-3653
時差	-3654
期限	-3655
正確	-3656
気分	-3657
特許	-3658
現地	-3659
用に	-3660
由美	-3661
画像	-3662
番の	-3663
発掘	-3664
登録	-3665
真剣	-3666
真面	-3667
確保	-3668
秘密	-3669
空き	-3670
競争	-3671
節約	-3672
継ぎ	-3673
続け	-3674
職務	-3675
能勢	-3676
自宅	-3677
英国	-3678
落と	-3679
視察	-3680
認識	-3681
警察	-3682
議論	-3683
豊富	-3684
貴重	-3685
転送	-3686
遅く	-3687
配属	-3688
配布	-3689
長く	-3690
開始	-3691
間の	-3692
電気	-3693
駅の	-3694
▁15	-3695
▁えぇ	-3696
▁おい	-3697
▁トム	-3698
▁ビル	-3699
▁中国	-3700
▁予算	-3701
▁今の	-3702
▁今後	-3703
▁個人	-3704
▁僕の	-3705
▁後で	-3706
▁必要	-3707
▁過去	-3708
、12	-3709
おいた	-3710
おかけ	-3711
お弁当	-3712
かげで	-3713
からな	-3714
が出る	-3715
ごとに	-3716
ご報告	-3717
ご提案	-3718
じゃん	-3719
ちゃう	-3720
なにか	-3721
にいる	-3722
に変更	-3723
のお店	-3724
のない	-3725
の田中	-3726
の間に	-3727
みたら	-3728
わない	-3729
を増や	-3730
を理解	-3731
を見直	-3732
を達成	-3733
サーチ	-3734
スティ	-3735
チャー	-3736
ツール	-3737
ティブ	-3738
テクノ	-3739
ニック	-3740
ブース	-3741
モデル	-3742
ヨーロ	-3743
ロジー	-3744
ンです	-3745
上司に	-3746
中には	-3747
今まで	-3748
会社と	-3749
全員が	-3750
出来て	-3751
商品に	-3752
大きく	-3753
大事な	-3754
契約を	-3755
学んで	-3756
届いて	-3757
展示会	-3758
帰って	-3759
弊社に	-3760
彼女は	-3761
御社に	-3762
忙しく	-3763
我々が	-3764
提案書	-3765
時まで	-3766
村さん	-3767
決めた	-3768
状況を	-3769
確実に	-3770
社です	-3771
藤さん	-3772
言えば	-3773
読んで	-3774
返事を	-3775
送った	-3776
途中で	-3777
連絡先	-3778
違って	-3779
選んで	-3780
野です	-3781
金曜日	-3782
電話で	-3783
頂いて	-3784
顧客の	-3785
▁この件	-3786
▁こんな	-3787
▁そうだ	-3788
▁その後	-3789
▁それを	-3790
▁去年は	-3791
▁彼らが	-3792
▁請求書	-3793
あんまり	-3794
いたので	-3795
から始め	-3796
してある	-3797
だけでは	-3798
ちなみに	-3799
っておく	-3800
でもいい	-3801
としても	-3802
ないけど	-3803
なくなる	-3804
なるべく	-3805
における	-3806
にお伺い	-3807
にします	-3808
にしよう	-3809
に行こう	-3810
のはどう	-3811
ましては	-3812
ものです	-3813
ようかな	-3814
りまして	-3815
わかった	-3816
を受ける	-3817
を通して	-3818
アイデア	-3819
サムです	-3820
シアトル	-3821
タリアン	-3822
バランス	-3823
ピーター	-3824
プラット	-3825
リュック	-3826
二人とも	-3827
交通機関	-3828
代わりに	-3829
伝えます	-3830
具体的な	-3831
商品開発	-3832
山本さん	-3833
田さんが	-3834
自己紹介	-3835
製造施設	-3836
言っても	-3837
間に合う	-3838
飲み放題	-3839
▁こちらは	-3840
▁ちゃんと	-3841
▁よろしく	-3842
▁今日中に	-3843
▁何か質問	-3844
いますので	-3845
おきますね	-3846
がたくさん	-3847
することも	-3848
たんだけど	-3849
ってくれる	-3850
できますが	-3851
なくなった	-3852
にしている	-3853
についてお	-3854
にならない	-3855
はちょっと	-3856
もあるので	-3857
よいですか	-3858
を見つける	-3859
アイディア	-3860
ライセンス	-3861
気をつけて	-3862
落ち着いて	-3863
頂けますか	-3864
▁いつまでに	-3865
▁そうすれば	-3866
▁それじゃあ	-3867
▁今のところ	-3868
ありましたか	-3869
がありますか	-3870
した方がいい	-3871
でいいですか	-3872
なかったんだ	-3873
なんですけど	-3874
なんですよね	-3875
もちろんです	-3876
ようにします	-3877
んじゃないか	-3878
テクノロジー	-3879
ネットワーク	-3880
公共交通機関	-3881
助かりました	-3882
迷惑をおかけ	-3883
▁はじめまして	-3884
していただいて	-3885
聞いてください	-3886
▁それは良かった	-3887
ことはできますか	-3888
してみてください	-3889
になると思います	-3890
クレジットカード	-3891
プラットフォーム	-3892
▁おつかれさまです	-3893
▁それは素晴らしい	-3894
▁確かにそうですね	-3895
はいかがでしょうか	-3896
よろしくお願い致します	-3897
を教えていただけますか	-3898
▁どうもありがとうございます	-3899
いただきありがとうございました	-3900
16	-3901
DF	-3902
EO	-3903
OK	-3904
Wi	-3905
▁コ	-3906
▁後	-3907
▁早	-3908
▁松	-3909
▁色	-3910
、8	-3911
、9	-3912
かね	-3913
が無	-3914
きつ	-3915
きる	-3916
げる	-3917
ごめ	-3918
たの	-3919
たる	-3920
だろ	-3921
っこ	-3922
で見	-3923
と呼	-3924
ども	-3925
どん	-3926
なよ	-3927
なー	-3928
にい	-3929
に何	-3930
に反	-3931
に応	-3932
に着	-3933
に進	-3934
ぶん	-3935
らす	-3936
をも	-3937
を押	-3938
を挙	-3939
を超	-3940
ガイ	-3941
ゴル	-3942
タグ	-3943
ヘル	-3944
ラウ	-3945
ラム	-3946
ンが	-3947
ヴィ	-3948
不便	-3949
世代	-3950
中の	-3951
以内	-3952
佐伯	-3953
保持	-3954
保証	-3955
僕も	-3956
充分	-3957
先の	-3958
全社	-3959
共通	-3960
出発	-3961
別途	-3962
単純	-3963
原料	-3964
原産	-3965
口座	-3966
台湾	-3967
君は	-3968
品質	-3969
困る	-3970
困難	-3971
土産	-3972
基づ	-3973
増加	-3974
士号	-3975
外部	-3976
大手	-3977
学を	-3978
完全	-3979
就職	-3980
帰り	-3981
年度	-3982
延ば	-3983
式の	-3984
役割	-3985
後半	-3986
懸命	-3987
成績	-3988
戸倉	-3989
手段	-3990
手紙	-3991
授業	-3992
散ら	-3993
数は	-3994
新た	-3995
方も	-3996
時も	-3997
機材	-3998
正規	-3999
活動	-4000
海瑠	-4001
添付	-4002
測定	-4003
滞在	-4004
番組	-4005
相当	-4006
社を	-4007
精算	-4008
納得	-4009
組織	-4010
経済	-4011
義務	-4012
耐震	-4013
苦労	-4014
菓子	-4015
装置	-4016
解雇	-4017
診断	-4018
貨物	-4019
車で	-4020
遅い	-4021
遅れ	-4022
達の	-4023
避け	-4024
野菜	-4025
鉱業	-4026
雑誌	-4027
電子	-4028
魅力	-4029
PDF	-4030
cel	-4031
▁すぐ	-4032
▁なぜ	-4033
▁なら	-4034
▁はは	-4035
▁まぁ	-4036
▁ウィ	-4037
▁予約	-4038
▁人事	-4039
▁今回	-4040
▁今月	-4041
▁何を	-4042
▁全部	-4043
▁問題	-4044
▁確か	-4045
▁結局	-4046
▁見て	-4047
▁資料	-4048
▁鈴木	-4049
、20	-4050
いいね	-4051
えたら	-4052
お手元	-4053
かしら	-4054
かなぁ	-4055
が一番	-4056
が発生	-4057
くつか	-4058
ご意見	-4059
ご確認	-4060
たまに	-4061
だなあ	-4062
ったよ	-4063
どこか	-4064
どなた	-4065
どもの	-4066
などが	-4067
などは	-4068
なんと	-4069
に出て	-4070
に移り	-4071
に記入	-4072
のかい	-4073
の中で	-4074
の変更	-4075
の手配	-4076
の書類	-4077
の経験	-4078
の違い	-4079
ひとり	-4080
ほんと	-4081
もいる	-4082
もない	-4083
やっと	-4084
ようと	-4085
るよう	-4086
われて	-4087
を予約	-4088
を入れ	-4089
を入力	-4090
を利用	-4091
を取得	-4092
を始め	-4093
んだが	-4094
エリア	-4095
カレー	-4096
キッチ	-4097
グロー	-4098
ゲット	-4099
ゲーム	-4100
ゴルフ	-4101
シェア	-4102
セット	-4103
タログ	-4104
ッケー	-4105
テック	-4106
テーマ	-4107
ブライ	-4108
ベスト	-4109
ボスト	-4110
ボット	-4111
ボール	-4112
ポール	-4113
マネジ	-4114
ユージ	-4115
ルーズ	-4116
レード	-4117
ートル	-4118
一人で	-4119
事業を	-4120
今週末	-4121
会った	-4122
会議は	-4123
何度も	-4124
値引き	-4125
全員に	-4126
内容は	-4127
写真を	-4128
出した	-4129
原産地	-4130
取れる	-4131
売上計	-4132
当日の	-4133
意外と	-4134
感じる	-4135
担当の	-4136
改めて	-4137
時ごろ	-4138
最初の	-4139
最後の	-4140
木さん	-4141
沢山の	-4142
消費者	-4143
現在の	-4144
理由は	-4145
研修は	-4146
考えた	-4147
英会話	-4148
見直し	-4149
話して	-4150
辞めて	-4151
部屋の	-4152
集めて	-4153
雰囲気	-4154
頂いた	-4155
頼むよ	-4156
顧客が	-4157
食べる	-4158
xcel	-4159
▁お手数	-4160
▁ここの	-4161
▁ご存知	-4162
▁どこか	-4163
▁なんで	-4164
▁やはり	-4165
▁チーム	-4166
▁今年の	-4167
▁今年も	-4168
▁私たち	-4169
かないと	-4170
があまり	-4171
が少ない	-4172
こちらが	-4173
されない	-4174
しますが	-4175
するから	-4176
するのが	-4177
ずれ込む	-4178
だったの	-4179
ったので	-4180
ってない	-4181
ってるの	-4182
に入れて	-4183
に対する	-4184
はお持ち	-4185
はどうな	-4186
まとめて	-4187
りますが	-4188
を与える	-4189
クマラン	-4190
スタイル	-4191
スムーズ	-4192
ディング	-4193
ドラフト	-4194
ボーナス	-4195
リサーチ	-4196
力を尽く	-4197
株主総会	-4198
注文した	-4199
生徒さん	-4200
田さんの	-4201
研究開発	-4202
社の社長	-4203
結構です	-4204
賛成です	-4205
送られて	-4206
遠慮なく	-4207
▁お忙しい	-4208
▁ここまで	-4209
▁こちらが	-4210
▁これから	-4211
▁そちらの	-4212
▁ちなみに	-4213
▁できれば	-4214
▁どういう	-4215
▁もう少し	-4216
▁リーです	-4217
▁佐藤部長	-4218
▁具体的に	-4219
▁私たちは	-4220
かかります	-4221
かと思って	-4222
かなかった	-4223
したいので	-4224
したほうが	-4225
するという	-4226
そうします	-4227
だったから	-4228
って聞いた	-4229
でなければ	-4230
という意見	-4231
とおっしゃ	-4232
によっては	-4233
のではない	-4234
ようなので	-4235
れなかった	-4236
わかります	-4237
オフィスで	-4238
オフィスは	-4239
サプライヤ	-4240
スピーカー	-4241
ベンチャー	-4242
マンション	-4243
ユージニア	-4244
ヨーロッパ	-4245
何でしょう	-4246
持ってきて	-4247
考えですね	-4248
自転車通勤	-4249
頑張ります	-4250
▁できるだけ	-4251
▁どれくらい	-4252
▁アドバイス	-4253
いただいても	-4254
お会いできて	-4255
がありますね	-4256
すごいですね	-4257
するんですか	-4258
その通りです	-4259
って何ですか	-4260
みましょうか	-4261
もらえるかな	-4262
わけじゃない	-4263
わけではない	-4264
ナンシーさん	-4265
ペーパーレス	-4266
問い合わせて	-4267
申し上げます	-4268
▁ミーティング	-4269
いたしますので	-4270
いただきました	-4271
ございましたら	-4272
っているんです	-4273
と思うんだけど	-4274
と考えています	-4275
どうしたらいい	-4276
をご覧ください	-4277
良いでしょうか	-4278
いかがでしょうか	-4279
お知らせください	-4280
とのミーティング	-4281
はどうでしょうか	-4282
ることができます	-4283
エンジニアリング	-4284
ビジネスチャンス	-4285
しておいてください	-4286
めでとうございます	-4287
有難うございました	-4288
▁お電話代わりました	-4289
いただけますでしょうか	-4290
14	-4291
17	-4292
89	-4293
SB	-4294
▁7	-4295
▁G	-4296
▁L	-4297
▁ん	-4298
▁三	-4299
▁主	-4300
▁内	-4301
▁広	-4302
▁有	-4303
▁田	-4304
。。	-4305
えー	-4306
が悪	-4307
こな	-4308
とい	-4309
に通	-4310
のせ	-4311
の際	-4312
ほら	-4313
を伺	-4314
を務	-4315
を引	-4316
を表	-4317
アナ	-4318
オフ	-4319
カル	-4320
サラ	-4321
シナ	-4322
スコ	-4323
デー	-4324
ナツ	-4325
バタ	-4326
リオ	-4327
ワク	-4328
ンで	-4329
ンに	-4330
ンク	-4331
ーキ	-4332
一旦	-4333
上で	-4334
上場	-4335
不動	-4336
事で	-4337
事に	-4338
交流	-4339
今期	-4340
仰る	-4341
伊藤	-4342
伝票	-4343
位置	-4344
傾向	-4345
僕の	-4346
優秀	-4347
切な	-4348
初め	-4349
加工	-4350
動か	-4351
動き	-4352
動画	-4353
半年	-4354
参入	-4355
取材	-4356
同感	-4357
品は	-4358
品を	-4359
団体	-4360
国際	-4361
場に	-4362
増や	-4363
変え	-4364
多く	-4365
夜は	-4366
大谷	-4367
好み	-4368
委託	-4369
定の	-4370
射撃	-4371
居る	-4372
展開	-4373
工業	-4374
帰国	-4375
年は	-4376
年生	-4377
幹事	-4378
店長	-4379
建築	-4380
当て	-4381
当初	-4382
懸念	-4383
所に	-4384
所有	-4385
手術	-4386
手間	-4387
払い	-4388
拠点	-4389
振り	-4390
挿入	-4391
捨て	-4392
撮影	-4393
操作	-4394
教授	-4395
教育	-4396
文書	-4397
文章	-4398
方の	-4399
日で	-4400
普段	-4401
最大	-4402
材木	-4403
概要	-4404
構成	-4405
正式	-4406
流れ	-4407
消火	-4408
物も	-4409
産業	-4410
病院	-4411
皆様	-4412
目の	-4413
知る	-4414
秘書	-4415
窓口	-4416
立つ	-4417
範囲	-4418
納品	-4419
者を	-4420
自由	-4421
至急	-4422
行か	-4423
行動	-4424
覚え	-4425
覚悟	-4426
記事	-4427
設計	-4428
話が	-4429
語学	-4430
読む	-4431
誰が	-4432
議事	-4433
買収	-4434
費や	-4435
起動	-4436
転職	-4437
遅延	-4438
運動	-4439
達に	-4440
選び	-4441
選べ	-4442
選手	-4443
邪魔	-4444
配荷	-4445
長期	-4446
間は	-4447
関西	-4448
防犯	-4449
飲食	-4450
麦粉	-4451
USB	-4452
▁おー	-4453
▁お客	-4454
▁ウォ	-4455
▁オー	-4456
▁ジュ	-4457
▁保険	-4458
▁前回	-4459
▁料金	-4460
▁普通	-4461
▁朝の	-4462
▁自分	-4463
▁製造	-4464
▁週末	-4465
▁食事	-4466
、15	-4467
。。。	-4468
あっと	-4469
いいな	-4470
いこう	-4471
お世話	-4472
が原因	-4473
が違う	-4474
くちゃ	-4475
けると	-4476
ここの	-4477
ご興味	-4478
すぎて	-4479
って何	-4480
って言	-4481
でない	-4482
と言う	-4483
どこで	-4484
どっち	-4485
などを	-4486
なのよ	-4487
なんで	-4488
にでも	-4489
に入れ	-4490
に基づ	-4491
の一部	-4492
の市場	-4493
の承認	-4494
の方で	-4495
はいる	-4496
ひどい	-4497
ましい	-4498
まれた	-4499
ものに	-4500
ものを	-4501
も同じ	-4502
らせる	-4503
を作る	-4504
を引き	-4505
を持つ	-4506
を立て	-4507
を見る	-4508
を起こ	-4509
んだね	-4510
イスギ	-4511
インク	-4512
カナダ	-4513
クリー	-4514
ゴール	-4515
シーズ	-4516
ストア	-4517
ドット	-4518
ネラル	-4519
ハワイ	-4520
フリー	-4521
ブラウ	-4522
プラス	-4523
プラン	-4524
ベガス	-4525
ベルト	-4526
マイズ	-4527
ミリー	-4528
ラウド	-4529
リック	-4530
レンス	-4531
ヴィー	-4532
不動産	-4533
中です	-4534
事です	-4535
今すぐ	-4536
今月末	-4537
仕上げ	-4538
仕組み	-4539
他にも	-4540
以内に	-4541
何人か	-4542
価格は	-4543
価格を	-4544
全体で	-4545
内容を	-4546
分ほど	-4547
初めに	-4548
前から	-4549
去年の	-4550
合った	-4551
名前と	-4552
向けに	-4553
大きさ	-4554
完全に	-4555
実際の	-4556
工場を	-4557
年度の	-4558
座って	-4559
御社が	-4560
数字が	-4561
施設は	-4562
日から	-4563
日本人	-4564
昼休み	-4565
時間と	-4566
書類を	-4567
期間は	-4568
来月の	-4569
業界で	-4570
歩いて	-4571
水曜日	-4572
異なる	-4573
発注書	-4574
研究室	-4575
程度の	-4576
紹介を	-4577
終わる	-4578
続けて	-4579
続ける	-4580
聞こえ	-4581
自動車	-4582
製品は	-4583
見える	-4584
見せて	-4585
計画書	-4586
詳細は	-4587
責任を	-4588
質問に	-4589
近くに	-4590
通りに	-4591
進める	-4592
遅れる	-4593
選択肢	-4594
部分は	-4595
配達員	-4596
集まり	-4597
領収書	-4598
▁あとで	-4599
▁ええっ	-4600
▁もしか	-4601
▁メール	-4602
▁今月末	-4603
▁明日は	-4604
▁最初は	-4605
▁本日の	-4606
▁正直な	-4607
▁自分で	-4608
いるから	-4609
いるので	-4610
えばいい	-4611
お客さん	-4612
お客様に	-4613
お疲れ様	-4614
かなくて	-4615
から連絡	-4616
があなた	-4617
が気に入	-4618
くらいの	-4619
こちらは	-4620
されたら	-4621
さんです	-4622
しくない	-4623
していく	-4624
してきて	-4625
してみた	-4626
してみる	-4627
しないで	-4628
するには	-4629
そちらで	-4630
つもりで	-4631
でお願い	-4632
ですけど	-4633
といった	-4634
なんとか	-4635
にお送り	-4636
に入った	-4637
のお客様	-4638
のことで	-4639
のための	-4640
のコース	-4641
はあった	-4642
はいない	-4643
はとても	-4644
ましたが	-4645
みなさん	-4646
もうすぐ	-4647
ようこそ	-4648
られたら	-4649
りません	-4650
わないと	-4651
をお考え	-4652
を出して	-4653
を受けた	-4654
を受け取	-4655
を開いて	-4656
んだっけ	-4657
んでしょ	-4658
エレイン	-4659
カードの	-4660
シンプル	-4661
ジュアル	-4662
ステーキ	-4663
センター	-4664
テキスト	-4665
ピーナツ	-4666
フィート	-4667
フェンス	-4668
ブラッド	-4669
ベイスギ	-4670
ホテルは	-4671
・・・。	-4672
ーション	-4673
事ですか	-4674
人もいる	-4675
会社です	-4676
会社では	-4677
合わない	-4678
向こうの	-4679
四半期の	-4680
年くらい	-4681
従業員を	-4682
感じです	-4683
戸倉さん	-4684
時間ほど	-4685
気づいて	-4686
真面目に	-4687
知らせる	-4688
空いてる	-4689
経費削減	-4690
良くない	-4691
話し合い	-4692
送ります	-4693
週間前に	-4694
集まって	-4695
▁こういう	-4696
▁そしたら	-4697
▁どれどれ	-4698
▁トムさん	-4699
いないので	-4700
いましょう	-4701
いませんか	-4702
いるんです	-4703
お客さんが	-4704
から始めて	-4705
がちょっと	-4706
してくれて	-4707
してみるよ	-4708
しなくても	-4709
しましたら	-4710
することで	-4711
するための	-4712
たくさんの	-4713
だそうです	-4714
だったっけ	-4715
って言って	-4716
できるかな	-4717
と思うけど	-4718
と思うんだ	-4719
ないといい	-4720
なかったら	-4721
なくなって	-4722
なんだよな	-4723
に合わせて	-4724
に関しての	-4725
みたいだよ	-4726
もらいます	-4727
ようですが	-4728
られません	-4729
りますので	-4730
をお知らせ	-4731
をチェック	-4732
アレックス	-4733
グローバル	-4734
スティクス	-4735
ターゲット	-4736
パソコンの	-4737
ビジネスの	-4738
ファイルを	-4739
ラスベガス	-4740
全力を尽く	-4741
出来ますよ	-4742
基本的には	-4743
恥ずかしい	-4744
様子を見て	-4745
気を付けて	-4746
目標を達成	-4747
終わったら	-4748
良いですね	-4749
防犯カメラ	-4750
▁そうですよ	-4751
▁そう言って	-4752
▁大丈夫だよ	-4753
▁少なくとも	-4754
がありますよ	-4755
がいいですか	-4756
ご存知ですか	-4757
していますよ	-4758
しているので	-4759
じゃなかった	-4760
っていますか	-4761
できるように	-4762
どうでしょう	-4763
なかったので	-4764
みたいですね	-4765
を知っている	-4766
オリンピック	-4767
オンラインで	-4768
カスタマイズ	-4769
ワーポイント	-4770
分かりますか	-4771
時間がかかる	-4772
東京オフィス	-4773
▁すみませんが	-4774
▁マネージャー	-4775
おいてください	-4776
かもしれないね	-4777
かわかりますか	-4778
させていただく	-4779
しておきますね	-4780
そうでしょうか	-4781
たいと思います	-4782
できるはずです	-4783
についてお話し	-4784
になりますので	-4785
は何でしょうか	-4786
よいでしょうか	-4787
ミーティングは	-4788
大丈夫でしょう	-4789
失礼いたします	-4790
お待ちしています	-4791
がいいと思います	-4792
ご連絡いたします	-4793
させていただいて	-4794
さないといけない	-4795
ってもいいですか	-4796
希望はありますか	-4797
▁申し訳ありません	-4798
かもしれないですね	-4799
ちょっといいですか	-4800
のはどうでしょうか	-4801
ございますでしょうか	-4802
したいと思っています	-4803
んじゃないでしょうか	-4804
いつもお世話になっております	-4805
23	-4806
Fi	-4807
▁T	-4808
▁レ	-4809
▁再	-4810
▁奥	-4811
▁岡	-4812
▁現	-4813
▁送	-4814
いね	-4815
いま	-4816
いや	-4817
おい	-4818
おき	-4819
お子	-4820
かお	-4821
が含	-4822
ころ	-4823
ご飯	-4824
さか	-4825
しら	-4826
たて	-4827
ちに	-4828
つな	-4829
に従	-4830
に積	-4831
に見	-4832
ねて	-4833
のチ	-4834
の子	-4835
の実	-4836
の手	-4837
の新	-4838
りで	-4839
りゃ	-4840
をし	-4841
を加	-4842
イト	-4843
イブ	-4844
ガル	-4845
ガー	-4846
ギリ	-4847
ギー	-4848
セク	-4849
チョ	-4850
ッグ	-4851
ニス	-4852
ハウ	-4853
ハロ	-4854
ベジ	-4855
ボタ	-4856
モニ	-4857
リサ	-4858
リル	-4859
ーチ	-4860
一般	-4861
中は	-4862
丸太	-4863
了承	-4864
事情	-4865
何時	-4866
余裕	-4867
保護	-4868
倫理	-4869
先輩	-4870
割り	-4871
北米	-4872
半分	-4873
参考	-4874
合同	-4875
同士	-4876
同期	-4877
名簿	-4878
商業	-4879
固体	-4880
国語	-4881
大阪	-4882
嫌い	-4883
実行	-4884
対策	-4885
専用	-4886
小島	-4887
小川	-4888
小計	-4889
年に	-4890
建て	-4891
形で	-4892
徒歩	-4893
怒鳴	-4894
悪く	-4895
成分	-4896
戦争	-4897
拝見	-4898
指摘	-4899
指紋	-4900
授賞	-4901
排出	-4902
文化	-4903
書く	-4904
最低	-4905
林業	-4906
案を	-4907
様で	-4908
次は	-4909
歓迎	-4910
歴史	-4911
気軽	-4912
法人	-4913
洗い	-4914
洗濯	-4915
派遣	-4916
渋滞	-4917
漏れ	-4918
物や	-4919
特集	-4920
現行	-4921
田様	-4922
発言	-4923
皆に	-4924
直ぐ	-4925
積も	-4926
突然	-4927
紛失	-4928
綺麗	-4929
緑茶	-4930
練習	-4931
臨時	-4932
自家	-4933
自然	-4934
船員	-4935
補助	-4936
規制	-4937
規則	-4938
講座	-4939
質疑	-4940
通訳	-4941
重い	-4942
関東	-4943
階段	-4944
飛び	-4945
食品	-4946
馴染	-4947
高め	-4948
2、3	-4949
CEO	-4950
XXX	-4951
any	-4952
▁12	-4953
▁お昼	-4954
▁なぁ	-4955
▁はあ	-4956
▁わざ	-4957
▁んー	-4958
▁ジェ	-4959
▁ジョ	-4960
▁マイ	-4961
▁一番	-4962
▁以前	-4963
▁休み	-4964
▁休暇	-4965
▁佐々	-4966
▁何が	-4967
▁僕が	-4968
▁全て	-4969
▁全然	-4970
▁午後	-4971
▁印刷	-4972
▁参加	-4973
▁子供	-4974
▁学校	-4975
▁実を	-4976
▁後は	-4977
▁最終	-4978
▁残業	-4979
▁海外	-4980
▁準備	-4981
▁美里	-4982
▁色々	-4983
▁英語	-4984
▁誰か	-4985
あれは	-4986
いれば	-4987
お伝え	-4988
お伺い	-4989
かせる	-4990
からさ	-4991
が多く	-4992
が来た	-4993
こだわ	-4994
ご用意	-4995
ご都合	-4996
ざっと	-4997
せっか	-4998
そうか	-4999
その後	-5000
たくて	-5001
たちで	-5002
たった	-5003
づらい	-5004
といて	-5005
とおり	-5006
とした	-5007
と感じ	-5008
と相談	-5009
と話す	-5010
なのか	-5011
にもよ	-5012
に反映	-5013
に合う	-5014
に行か	-5015
のお客	-5016
の問題	-5017
の日程	-5018
の通り	-5019
の際に	-5020
は必要	-5021
めます	-5022
るべき	-5023
われた	-5024
われる	-5025
をもら	-5026
を予定	-5027
を出す	-5028
を受講	-5029
を拠点	-5030
を迎え	-5031
を食べ	-5032
んでる	-5033
アンス	-5034
ギフト	-5035
ケット	-5036
ケータ	-5037
サイン	-5038
シニア	-5039
スタン	-5040
スター	-5041
スーツ	-5042
チョコ	-5043
チーズ	-5044
ティム	-5045
ディネ	-5046
ディー	-5047
デート	-5048
ファイ	-5049
プレス	-5050
ボリュ	-5051
リハー	-5052
ルギー	-5053
ルート	-5054
レッス	-5055
ロール	-5056
一つの	-5057
一日中	-5058
予算は	-5059
今後の	-5060
仕方が	-5061
以上の	-5062
以前の	-5063
休憩室	-5064
作業着	-5065
候補者	-5066
全体の	-5067
助ける	-5068
十分に	-5069
周りの	-5070
地域の	-5071
売上が	-5072
大学の	-5073
市場に	-5074
弊社は	-5075
彼らに	-5076
忘れた	-5077
急いで	-5078
技術を	-5079
投資家	-5080
料理の	-5081
施設の	-5082
日です	-5083
時以降	-5084
木曜日	-5085
機会を	-5086
止めて	-5087
比べて	-5088
泊まり	-5089
特別な	-5090
生懸命	-5091
直前に	-5092
社員は	-5093
社員を	-5094
社長に	-5095
答えて	-5096
製品が	-5097
説明を	-5098
誰かに	-5099
課長が	-5100
議題は	-5101
貴重な	-5102
返事が	-5103
違った	-5104
部署で	-5105
部署は	-5106
配荷率	-5107
間に合	-5108
駅から	-5109
pany	-5110
▁ABC	-5111
▁あれは	-5112
▁いいね	-5113
▁ううん	-5114
▁ご理解	-5115
▁なんか	-5116
▁今週の	-5117
▁今週末	-5118
▁会議室	-5119
▁実際に	-5120
▁彼女の	-5121
▁早めに	-5122
▁最近は	-5123
▁細かい	-5124
▁聞いた	-5125
▁誰かが	-5126
あるから	-5127
いきたい	-5128
おそらく	-5129
お客様が	-5130
お電話を	-5131
かってる	-5132
かという	-5133
かなりの	-5134
が初めて	-5135
が始まる	-5136
が必要な	-5137
けません	-5138
したから	-5139
したくて	-5140
した時に	-5141
してるの	-5142
しなきゃ	-5143
しません	-5144
じっくり	-5145
するのか	-5146
するまで	-5147
それとも	-5148
それほど	-5149
たいです	-5150
だけどね	-5151
だとは思	-5152
だろうし	-5153
ちゃった	-5154
ちゃって	-5155
って言う	-5156
ています	-5157
でやって	-5158
というか	-5159
ところに	-5160
と聞いて	-5161
と言って	-5162
どうなる	-5163
なくちゃ	-5164
にお会い	-5165
になれる	-5166
に取り組	-5167
に応じて	-5168
のことを	-5169
のできる	-5170
のですね	-5171
の人たち	-5172
の請求書	-5173
はずだよ	-5174
ましたね	-5175
また連絡	-5176
みたいに	-5177
みますね	-5178
みんなで	-5179
もあるし	-5180
やり取り	-5181
よくない	-5182
るんだよ	-5183
わかって	-5184
をお見せ	-5185
をご提供	-5186
をやって	-5187
を受けて	-5188
を始めて	-5189
を進めて	-5190
んだって	-5191
アンさん	-5192
インスト	-5193
イントラ	-5194
クルーズ	-5195
グラフィ	-5196
グレード	-5197
コメント	-5198
シナリオ	-5199
ジェット	-5200
スクリー	-5201
スクール	-5202
チェーン	-5203
チームに	-5204
テナンス	-5205
トピック	-5206
ハロウィ	-5207
フォント	-5208
ラックス	-5209
リーさん	-5210
ヶ月前に	-5211
久しぶり	-5212
以上です	-5213
会うこと	-5214
何とかな	-5215
健康診断	-5216
分かって	-5217
問題なく	-5218
多いから	-5219
市場調査	-5220
当たって	-5221
従業員が	-5222
念のため	-5223
手伝って	-5224
日本から	-5225
田中です	-5226
由美さん	-5227
社からの	-5228
積極的に	-5229
聞かせて	-5230
聞こえる	-5231
見つかる	-5232
話し合う	-5233
連絡して	-5234
野さんの	-5235
金曜日に	-5236
間違った	-5237
関係を築	-5238
頂けます	-5239
食べたい	-5240
Excel	-5241
▁あなたが	-5242
▁いくつか	-5243
▁おそらく	-5244
▁お客様の	-5245
▁これらの	-5246
▁それだけ	-5247
▁どちらの	-5248
▁アンディ	-5249
▁エレイン	-5250
▁オーケー	-5251
▁コーヒー	-5252
▁高田さん	-5253
ありまして	-5254
いくつかの	-5255
いただくと	-5256
いますから	-5257
かったから	-5258
きましたか	-5259
こちらから	-5260
ことは可能	-5261
したばかり	-5262
していると	-5263
しているよ	-5264
しておいた	-5265
してみたら	-5266
してもいい	-5267
しましたよ	-5268
じゃないの	-5269
じゃないよ	-5270
するために	-5271
するんです	-5272
っちゃった	-5273
っていない	-5274
っているの	-5275
できている	-5276
ではなくて	-5277
どういった	-5278
どうすれば	-5279
にしますか	-5280
になったら	-5281
もらいたい	-5282
られますか	-5283
コンセント	-5284
コンプライ	-5285
コーディネ	-5286
サンジェイ	-5287
ジャッキー	-5288
トレーナー	-5289
プリンター	-5290
ボリューム	-5291
マクマラン	-5292
マーケット	-5293
リハーサル	-5294
勧めします	-5295
声をかけて	-5296
大変ですね	-5297
必要ですか	-5298
必要はない	-5299
楽しかった	-5300
気がします	-5301
良かったよ	-5302
▁いらっしゃ	-5303
▁ここまでで	-5304
▁そんなこと	-5305
▁どうしたの	-5306
▁どのように	-5307
▁今日の午後	-5308
▁実を言うと	-5309
▁早速ですが	-5310
▁良いですね	-5311
いかがですか	-5312
いたのですが	-5313
お問い合わせ	-5314
がありません	-5315
が必要ですね	-5316
されていない	-5317
さんにお願い	-5318
してしまった	-5319
そう思います	-5320
っていますよ	-5321
って言ってた	-5322
と思われます	-5323
と申しますが	-5324
なかったから	-5325
について質問	-5326
みたいですよ	-5327
みてください	-5328
わかりますか	-5329
んでしたっけ	-5330
んでしょうね	-5331
グラフィック	-5332
ケータリング	-5333
パーセントの	-5334
ベジタリアン	-5335
メンテナンス	-5336
何でしょうか	-5337
手伝ってもら	-5338
新しいことを	-5339
美味しかった	-5340
船荷証券草案	-5341
質問があれば	-5342
面白いですね	-5343
▁そういうこと	-5344
▁よかったです	-5345
▁クライアント	-5346
▁スケジュール	-5347
▁今日はお越し	-5348
かと思いますが	-5349
があるかどうか	-5350
があるのですが	-5351
があるようです	-5352
ことがあったら	-5353
していますよね	-5354
しておりました	-5355
してすみません	-5356
してみましょう	-5357
っているところ	-5358
といいのですが	-5359
と思われますか	-5360
についてですが	-5361
に移りましょう	-5362
ような気がする	-5363
んでしょうかね	-5364
イントラネット	-5365
カリフォルニア	-5366
クライアントに	-5367
ミーティングで	-5368
ロジスティクス	-5369
伝えてください	-5370
感謝しています	-5371
時間がかかって	-5372
知っていますか	-5373
興味深いですね	-5374
いらっしゃいます	-5375
お時間ありますか	-5376
かもしれないです	-5377
してもらえますか	-5378
についてもう少し	-5379
について話し合い	-5380
コンプライアンス	-5381
マーケティングの	-5382
▁承知いたしました	-5383
と思ってるんだけど	-5384
をお願いできますか	-5385
いただきたいと思います	-5386
いただけないでしょうか	-5387
をお願いしたいのですが	-5388
▁お電話ありがとうございました	-5389
45	-5390
5%	-5391
80	-5392
CR	-5393
ID	-5394
al	-5395
▁イ	-5396
▁ダ	-5397
▁ホ	-5398
▁初	-5399
▁夏	-5400
▁多	-5401
▁月	-5402
▁竹	-5403
▁見	-5404
▁車	-5405
▁近	-5406
▁違	-5407
▁重	-5408
」「	-5409
いが	-5410
うる	-5411
かか	-5412
かつ	-5413
が不	-5414
が利	-5415
が混	-5416
が生	-5417
けた	-5418
げた	-5419
しが	-5420
しな	-5421
そも	-5422
だが	-5423
でや	-5424
に分	-5425
に力	-5426
に来	-5427
に沿	-5428
に置	-5429
に載	-5430
に違	-5431
はか	-5432
は出	-5433
は前	-5434
は高	-5435
ほか	-5436
みる	-5437
も含	-5438
も増	-5439
も見	-5440
やめ	-5441
よさ	-5442
りと	-5443
りも	-5444
を外	-5445
を承	-5446
を稼	-5447
を設	-5448
アミ	-5449
イレ	-5450
カン	-5451
ガン	-5452
キシ	-5453
キン	-5454
ケア	-5455
ケビ	-5456
シッ	-5457
スピ	-5458
タビ	-5459
マジ	-5460
モン	-5461
ヤモ	-5462
リモ	-5463
ルト	-5464
レベ	-5465
ワン	-5466
下が	-5467
中学	-5468
主に	-5469
主張	-5470
予報	-5471
予防	-5472
事件	-5473
事実	-5474
人生	-5475
代替	-5476
件で	-5477
会で	-5478
会を	-5479
会食	-5480
低い	-5481
側の	-5482
僕ら	-5483
元に	-5484
全額	-5485
共に	-5486
出せ	-5487
出社	-5488
助言	-5489
半は	-5490
危険	-5491
反対	-5492
反応	-5493
受験	-5494
和食	-5495
喜ば	-5496
回収	-5497
夕食	-5498
大石	-5499
大量	-5500
女子	-5501
委員	-5502
学び	-5503
実現	-5504
寿司	-5505
専攻	-5506
尊敬	-5507
届く	-5508
山元	-5509
州の	-5510
幹線	-5511
広い	-5512
当然	-5513
形式	-5514
彼が	-5515
従来	-5516
心地	-5517
心強	-5518
応援	-5519
応答	-5520
急に	-5521
怪我	-5522
意向	-5523
所属	-5524
推進	-5525
支援	-5526
教わ	-5527
数年	-5528
整備	-5529
文句	-5530
料が	-5531
方で	-5532
方針	-5533
既に	-5534
日と	-5535
明る	-5536
時点	-5537
景気	-5538
最悪	-5539
朝礼	-5540
期末	-5541
本社	-5542
村上	-5543
東南	-5544
業種	-5545
気付	-5546
沙汰	-5547
活用	-5548
消化	-5549
渡す	-5550
点と	-5551
父親	-5552
片づ	-5553
物件	-5554
用品	-5555
皆が	-5556
監視	-5557
目で	-5558
目は	-5559
瞑想	-5560
短縮	-5561
確信	-5562
社食	-5563
移行	-5564
稼働	-5565
競合	-5566
第一	-5567
精査	-5568
納期	-5569
統一	-5570
羽田	-5571
聴器	-5572
育成	-5573
能力	-5574
荷物	-5575
融通	-5576
被害	-5577
要求	-5578
訂正	-5579
詫び	-5580
詰め	-5581
話せ	-5582
説得	-5583
負う	-5584
費が	-5585
購買	-5586
躊躇	-5587
転勤	-5588
込ま	-5589
返信	-5590
進出	-5591
遠い	-5592
部は	-5593
都市	-5594
都度	-5595
配置	-5596
量を	-5597
鉱山	-5598
隣の	-5599
電源	-5600
音が	-5601
順番	-5602
風邪	-5603
駐在	-5604
高く	-5605
高校	-5606
ABC	-5607
▁IT	-5608
▁ご覧	-5609
▁そろ	-5610
▁へー	-5611
▁より	-5612
▁ライ	-5613
▁上司	-5614
▁上野	-5615
▁井上	-5616
▁今度	-5617
▁今期	-5618
▁企業	-5619
▁会議	-5620
▁何も	-5621
▁入社	-5622
▁出荷	-5623
▁別に	-5624
▁利永	-5625
▁契約	-5626
▁常に	-5627
▁年間	-5628
▁当初	-5629
▁新規	-5630
▁時々	-5631
▁書類	-5632
▁最低	-5633
▁本日	-5634
▁次は	-5635
▁申請	-5636
▁社員	-5637
▁経験	-5638
▁販売	-5639
、11	-5640
あげる	-5641
あとは	-5642
あり得	-5643
いたよ	-5644
いぶん	-5645
お互い	-5646
お見積	-5647
お返事	-5648
かもよ	-5649
がその	-5650
がまだ	-5651
が出た	-5652
が安い	-5653
が届く	-5654
が表示	-5655
けます	-5656
この間	-5657
これも	-5658
ご了承	-5659
ご協力	-5660
したよ	-5661
するわ	-5662
せずに	-5663
たんだ	-5664
つまり	-5665
でこの	-5666
で一番	-5667
で対応	-5668
ときは	-5669
とその	-5670
と話を	-5671
ないか	-5672
なもの	-5673
にはい	-5674
には何	-5675
による	-5676
に入り	-5677
に入る	-5678
に出る	-5679
に来た	-5680
に行き	-5681
のはず	-5682
の事を	-5683
の仕方	-5684
の使い	-5685
の前に	-5686
の営業	-5687
の場合	-5688
の後に	-5689
の後ろ	-5690
の情報	-5691
の方々	-5692
の時に	-5693
の職場	-5694
の見積	-5695
の開発	-5696
は何も	-5697
は全部	-5698
は高い	-5699
もなく	-5700
も必要	-5701
も良い	-5702
やれば	-5703
ようで	-5704
るのも	-5705
るよね	-5706
を借り	-5707
を取る	-5708
を製造	-5709
を見た	-5710
を計画	-5711
んだろ	-5712
アプロ	-5713
カラー	-5714
ガイド	-5715
ギンズ	-5716
ゲスト	-5717
コーポ	-5718
コール	-5719
ジタル	-5720
スキー	-5721
ドルで	-5722
ハード	-5723
バッチ	-5724
ベビー	-5725
メモリ	-5726
リーグ	-5727
ルさん	-5728
レンド	-5729
ロット	-5730
ロビー	-5731
ロント	-5732
ントン	-5733
一年間	-5734
一番の	-5735
不明な	-5736
予定の	-5737
予定は	-5738
事を願	-5739
二週間	-5740
互いの	-5741
今年も	-5742
仕事は	-5743
仕事も	-5744
仕入れ	-5745
代わり	-5746
以外の	-5747
企業が	-5748
企業と	-5749
企業は	-5750
会話を	-5751
伝える	-5752
何より	-5753
作れる	-5754
例えば	-5755
供給元	-5756
価格に	-5757
偽物を	-5758
入った	-5759
全員の	-5760
出して	-5761
十分な	-5762
取引先	-5763
報告書	-5764
場所は	-5765
多くて	-5766
学校で	-5767
学校の	-5768
学生の	-5769
寄って	-5770
射撃犯	-5771
小規模	-5772
屋さん	-5773
山さん	-5774
市場の	-5775
帰りの	-5776
引継ぎ	-5777
当たる	-5778
当日は	-5779
従来の	-5780
御社と	-5781
情報の	-5782
感じが	-5783
慣れる	-5784
払い戻	-5785
数時間	-5786
方向で	-5787
方向性	-5788
日の夜	-5789
日前に	-5790
日本は	-5791
時です	-5792
時間で	-5793
来期に	-5794
残って	-5795
残りの	-5796
決まり	-5797
決める	-5798
理由で	-5799
理由を	-5800
生産性	-5801
目標は	-5802
真剣に	-5803
研修で	-5804
社さん	-5805
社には	-5806
社内の	-5807
私には	-5808
結果を	-5809
給料が	-5810
航空券	-5811
行こう	-5812
補聴器	-5813
製造業	-5814
要注意	-5815
話せる	-5816
読んだ	-5817
警察官	-5818
議事録	-5819
費用は	-5820
資料が	-5821
資料を	-5822
質問を	-5823
辞める	-5824
通常の	-5825
週間の	-5826
運転手	-5827
過ぎて	-5828
部門間	-5829
面白い	-5830
項目を	-5831
預かり	-5832
領収証	-5833
食べ物	-5834
駐車場	-5835
1000	-5836
▁2、3	-5837
▁MBA	-5838
▁あちら	-5839
▁いかが	-5840
▁いずれ	-5841
▁いやあ	-5842
▁いやー	-5843
▁うまく	-5844
▁ええー	-5845
▁ご興味	-5846
▁しかも	-5847
▁じゃぁ	-5848
▁すでに	-5849
▁それか	-5850
▁もしも	-5851
▁ハワイ	-5852
▁パート	-5853
▁今すぐ	-5854
▁会社が	-5855
▁先ほど	-5856
▁全部で	-5857
▁前回の	-5858
▁去年の	-5859
▁喜んで	-5860
▁急いで	-5861
▁本当は	-5862
▁皆さま	-5863
▁社長は	-5864
▁詳しく	-5865
あなたに	-5866
いう間に	-5867
おはよう	-5868
お待たせ	-5869
お支払い	-5870
からです	-5871
があるの	-5872
がおあり	-5873
がかかる	-5874
がないか	-5875
が出来る	-5876
くらいに	-5877
くれると	-5878
ぐらいで	-5879
ここから	-5880
ここには	-5881
ここまで	-5882
こちらも	-5883
ご連絡を	-5884
したけど	-5885
したのは	-5886
しながら	-5887
すっかり	-5888
するだけ	-5889
するのも	-5890
する事が	-5891
する事に	-5892
する前に	-5893
そうかな	-5894
そうだよ	-5895
そう思う	-5896
たくない	-5897
ためには	-5898
だったね	-5899
だろうか	-5900
だろうな	-5901
ったのか	-5902
で働いて	-5903
としての	-5904
となると	-5905
なるほど	-5906
なんだか	-5907
なんでも	-5908
にお持ち	-5909
にしたい	-5910
にしても	-5911
に乗って	-5912
に向けて	-5913
のお弁当	-5914
のリスト	-5915
の手続き	-5916
ばっかり	-5917
まってる	-5918
まとめる	-5919
めている	-5920
もう一つ	-5921
もう一人	-5922
もしもし	-5923
ることに	-5924
をもらう	-5925
を上げる	-5926
を変えて	-5927
を挙げて	-5928
を考える	-5929
を見せて	-5930
んなさい	-5931
アイコン	-5932
インタビ	-5933
エクスペ	-5934
カタログ	-5935
カードを	-5936
キャリア	-5937
コンサル	-5938
サイトウ	-5939
スタンド	-5940
スピード	-5941
ゼネラル	-5942
ソンさん	-5943
タイプの	-5944
ッピング	-5945
バイリン	-5946
パレット	-5947
パーティ	-5948
ヒギンズ	-5949
フォルダ	-5950
フライト	-5951
ブラウン	-5952
プリンタ	-5953
マンです	-5954
メリット	-5955
メートル	-5956
ラッキー	-5957
リエンス	-5958
レベルの	-5959
ログイン	-5960
下さって	-5961
事業部の	-5962
付き合い	-5963
付けます	-5964
会社から	-5965
出来れば	-5966
分かれば	-5967
午前中に	-5968
参加人数	-5969
合いたい	-5970
報告書を	-5971
変わった	-5972
大事です	-5973
役に立て	-5974
忘れてた	-5975
忙しい中	-5976
忙しくて	-5977
時までに	-5978
有給休暇	-5979
来月から	-5980
業績予想	-5981
構わない	-5982
気をつけ	-5983
水曜日の	-5984
田さんは	-5985
盛り上が	-5986
知りたい	-5987
私の名刺	-5988
終わって	-5989
終わらせ	-5990
聞いても	-5991
行きたい	-5992
行ってる	-5993
言えない	-5994
言ってお	-5995
貿易戦争	-5996
質疑応答	-5997
足りない	-5998
野さんは	-5999
開発部の	-6000
間違って	-6001
▁あんまり	-6002
▁いつでも	-6003
▁えーっと	-6004
▁お客様は	-6005
▁しばらく	-6006
▁その点は	-6007
▁それだと	-6008
▁そろそろ	-6009
▁だいたい	-6010
▁では早速	-6011
▁どうぞお	-6012
▁なかなか	-6013
▁なんだか	-6014
▁もしくは	-6015
▁わざわざ	-6016
▁オッケー	-6017
▁テーブル	-6018
▁パソコン	-6019
▁プレゼン	-6020
▁メールで	-6021
▁元気です	-6022
▁生徒さん	-6023
▁見積もり	-6024
ありますね	-6025
えることが	-6026
おりまして	-6027
かったので	-6028
がいっぱい	-6029
ができます	-6030
くれている	-6031
ことですか	-6032
ことはない	-6033
こともある	-6034
このような	-6035
されるから	-6036
しちゃって	-6037
しておこう	-6038
してくださ	-6039
してしまう	-6040
じゃないか	-6041
じゃないと	-6042
すればいい	-6043
そういうの	-6044
そのように	-6045
それじゃあ	-6046
たのですが	-6047
だけでいい	-6048
だけでなく	-6049
だったので	-6050
っていたら	-6051
って書いて	-6052
できますね	-6053
ですもんね	-6054
ではかなり	-6055
と話をして	-6056
なかったの	-6057
なかったよ	-6058
なさらずに	-6059
なんだって	-6060
なんですね	-6061
になっちゃ	-6062
によります	-6063
のことです	-6064
のドラフト	-6065
はいけない	-6066
はずですよ	-6067
まいります	-6068
みたいだね	-6069
もらえれば	-6070
らしいです	-6071
られました	-6072
をもらって	-6073
を立ち上げ	-6074
を見ている	-6075
んでいます	-6076
アプローチ	-6077
アレルギー	-6078
サービスの	-6079
バーコード	-6080
パスポート	-6081
パスワード	-6082
ピーナッツ	-6083
ファレンス	-6084
ペルソナは	-6085
リアムさん	-6086
リラックス	-6087
レッシング	-6088
今日の午後	-6089
似たような	-6090
出来るだけ	-6091
分かります	-6092
同じような	-6093
同じ時間に	-6094
売り上げを	-6095
変わらない	-6096
少々お待ち	-6097
心強いです	-6098
早いですね	-6099
最終的には	-6100
来てくれる	-6101
東南アジア	-6102
泊まり放題	-6103
申し上げた	-6104
確認します	-6105
聞いている	-6106
見つかった	-6107
関係を築く	-6108
▁そうします	-6109
▁そうだよな	-6110
▁その場合は	-6111
▁どのくらい	-6112
▁アメリカの	-6113
▁オフィスの	-6114
▁個人的には	-6115
▁分からない	-6116
あるんですか	-6117
いただきたく	-6118
おりますので	-6119
かかりますか	-6120
か分からない	-6121
がありますが	-6122
がいいですね	-6123
くれないかな	-6124
されましたか	-6125
したんですが	-6126
していただけ	-6127
していますか	-6128
していますが	-6129
しておくべき	-6130
してみますね	-6131
じゃないかな	-6132
だけではなく	-6133
ちょうどいい	-6134
っていますが	-6135
ってもらった	-6136
ってもらって	-6137
できないので	-6138
でしょうかね	-6139
と聞きました	-6140
どのくらいの	-6141
ならなかった	-6142
なんでしょう	-6143
になりますが	-6144
に入っている	-6145
のポジション	-6146
はできません	-6147
はどうだった	-6148
はどうやって	-6149
もうちょっと	-6150
を担当します	-6151
んじゃないの	-6152
アップデート	-6153
インタビュー	-6154
ガイドライン	-6155
コースを受講	-6156
テキスタイル	-6157
バイリンガル	-6158
バックアップ	-6159
フォーマット	-6160
了解しました	-6161
何かあったら	-6162
何をしている	-6163
始めましょう	-6164
用でしょうか	-6165
知ってますか	-6166
言われました	-6167
連絡しますね	-6168
▁お元気ですか	-6169
▁そうなんだよ	-6170
▁それにしても	-6171
▁ということは	-6172
▁とんでもない	-6173
▁ホームページ	-6174
▁正直なところ	-6175
お願い致します	-6176
があったんです	-6177
があるんですが	-6178
ことが出来ます	-6179
していただいた	-6180
しておきました	-6181
してくださいね	-6182
だと思いますか	-6183
だと思いますが	-6184
と思ったんです	-6185
と言われました	-6186
どうしましたか	-6187
につきましては	-6188
のデータベース	-6189
はありましたか	-6190
はどうでしょう	-6191
をクリックして	-6192
パワーポイント	-6193
プロジェクトに	-6194
メールを送って	-6195
ワークショップ	-6196
研修プログラム	-6197
社でございます	-6198
▁お疲れ様でした	-6199
▁できるだけ早く	-6200
▁どうしてですか	-6201
▁失礼いたします	-6202
▁承知致しました	-6203
いただけませんか	-6204
かもしれないけど	-6205
があると思います	-6206
がございましたら	-6207
ことがあるんです	-6208
してもいいですか	-6209
しないでください	-6210
しようとしている	-6211
それは助かります	-6212
ってもらえますか	-6213
となっております	-6214
と思っていました	-6215
と考えております	-6216
ないといけなくて	-6217
らないでください	-6218
わないといけない	-6219
エクスペリエンス	-6220
コーディネーター	-6221
お待ちしております	-6222
できますでしょうか	-6223
はどうしましょうか	-6224
▁それは良かったです	-6225
ことは可能でしょうか	-6226
ゼネラルマネージャー	-6227
▁お待たせいたしました	-6228
ミーティングを始めます	-6229
方はいらっしゃいますか	-6230
お時間よろしいでしょうか	-6231
さんはいらっしゃいますか	-6232
について話し合いましょう	-6233
申し訳ございませんでした	-6234
▁よろしくお願いいたします	-6235
どうもありがとうございます	-6236
カスタマーエクスペリエンス	-6237
13	-6238
19	-6239
43	-6240
60	-6241
67	-6242
90	-6243
AT	-6244
TO	-6245
or	-6246
▁8	-6247
▁ね	-6248
▁ア	-6249
▁ネ	-6250
▁ノ	-6251
▁ボ	-6252
▁ミ	-6253
▁不	-6254
▁土	-6255
▁家	-6256
▁平	-6257
▁幸	-6258
▁怒	-6259
▁戻	-6260
▁昔	-6261
▁昼	-6262
▁河	-6263
▁海	-6264
▁相	-6265
▁西	-6266
▁赤	-6267
▁連	-6268
▁金	-6269
▁青	-6270
」、	-6271
いち	-6272
いは	-6273
かん	-6274
がで	-6275
がね	-6276
が開	-6277
ごく	-6278
さが	-6279
ざり	-6280
すす	-6281
すっ	-6282
そく	-6283
たが	-6284
たっ	-6285
ちこ	-6286
つき	-6287
で働	-6288
で大	-6289
とら	-6290
な人	-6291
にね	-6292
に与	-6293
に残	-6294
に立	-6295
に適	-6296
の前	-6297
の匂	-6298
の日	-6299
の時	-6300
の首	-6301
は全	-6302
は皆	-6303
ぷり	-6304
まら	-6305
もい	-6306
を再	-6307
を切	-6308
を呼	-6309
を失	-6310
を扱	-6311
を着	-6312
イギ	-6313
イズ	-6314
イラ	-6315
ウム	-6316
オペ	-6317
カス	-6318
キロ	-6319
グア	-6320
ジー	-6321
ッサ	-6322
ハラ	-6323
パレ	-6324
ビア	-6325
ビニ	-6326
プト	-6327
ペス	-6328
ペン	-6329
ュッ	-6330
リカ	-6331
ロス	-6332
ンは	-6333
ーツ	-6334
上海	-6335
下げ	-6336
中山	-6337
中間	-6338
二度	-6339
人と	-6340
人前	-6341
人員	-6342
代は	-6343
代理	-6344
以下	-6345
仲間	-6346
件は	-6347
伝言	-6348
但馬	-6349
何で	-6350
俺も	-6351
倒し	-6352
側で	-6353
公立	-6354
具合	-6355
内陸	-6356
円で	-6357
分で	-6358
分は	-6359
分割	-6360
制度	-6361
副業	-6362
加藤	-6363
勿論	-6364
単位	-6365
印鑑	-6366
原稿	-6367
友達	-6368
収益	-6369
只今	-6370
可愛	-6371
台風	-6372
名の	-6373
名を	-6374
図面	-6375
国籍	-6376
土地	-6377
在宅	-6378
地震	-6379
基礎	-6380
売却	-6381
外の	-6382
大抵	-6383
好評	-6384
嫌が	-6385
実家	-6386
実践	-6387
客の	-6388
家庭	-6389
容量	-6390
寒い	-6391
尋ね	-6392
席で	-6393
年齢	-6394
店に	-6395
度に	-6396
度も	-6397
弁護	-6398
強く	-6399
強化	-6400
後程	-6401
徹底	-6402
心が	-6403
必死	-6404
必須	-6405
思議	-6406
急な	-6407
性格	-6408
性能	-6409
恐れ	-6410
恐縮	-6411
意図	-6412
慎重	-6413
慰労	-6414
成田	-6415
戻す	-6416
所は	-6417
手が	-6418
手を	-6419
手当	-6420
手短	-6421
投票	-6422
招き	-6423
指導	-6424
揚げ	-6425
損傷	-6426
支社	-6427
故障	-6428
救急	-6429
数で	-6430
数を	-6431
斉藤	-6432
新聞	-6433
方に	-6434
日が	-6435
日中	-6436
早退	-6437
旬に	-6438
明け	-6439
明確	-6440
映画	-6441
昨年	-6442
曜に	-6443
書式	-6444
最も	-6445
最後	-6446
有効	-6447
有望	-6448
本人	-6449
来客	-6450
構築	-6451
様の	-6452
次回	-6453
毎回	-6454
気の	-6455
気温	-6456
水準	-6457
決算	-6458
泊ま	-6459
法務	-6460
洋食	-6461
洗車	-6462
活躍	-6463
海岸	-6464
液体	-6465
減ら	-6466
満た	-6467
独身	-6468
現場	-6469
現実	-6470
生き	-6471
田村	-6472
皆で	-6473
直近	-6474
短い	-6475
社会	-6476
社風	-6477
禁止	-6478
私共	-6479
空調	-6480
精神	-6481
納入	-6482
経路	-6483
結婚	-6484
結論	-6485
絞り	-6486
継続	-6487
線を	-6488
編集	-6489
翌日	-6490
背景	-6491
自体	-6492
若干	-6493
若松	-6494
荒川	-6495
薄い	-6496
薦め	-6497
表を	-6498
表現	-6499
規定	-6500
規範	-6501
解約	-6502
解除	-6503
試験	-6504
話は	-6505
該当	-6506
誰と	-6507
課の	-6508
請負	-6509
資材	-6510
贈り	-6511
足労	-6512
距離	-6513
逆に	-6514
速い	-6515
進行	-6516
運ぶ	-6517
酷い	-6518
量は	-6519
閉鎖	-6520
関心	-6521
防ぐ	-6522
際の	-6523
集め	-6524
集合	-6525
頂戴	-6526
頃に	-6527
額の	-6528
額は	-6529
顧問	-6530
飾り	-6531
高齢	-6532
123	-6533
2.5	-6534
600	-6535
89」	-6536
▁11	-6537
▁50	-6538
▁いろ	-6539
▁つい	-6540
▁なあ	-6541
▁へぇ	-6542
▁ほお	-6543
▁一つ	-6544
▁一年	-6545
▁一応	-6546
▁世界	-6547
▁人数	-6548
▁何て	-6549
▁俺も	-6550
▁値段	-6551
▁先程	-6552
▁全く	-6553
▁全体	-6554
▁全員	-6555
▁冗談	-6556
▁写真	-6557
▁変更	-6558
▁安全	-6559
▁家族	-6560
▁市場	-6561
▁広報	-6562
▁携帯	-6563
▁政府	-6564
▁時間	-6565
▁最も	-6566
▁木下	-6567
▁毎年	-6568
▁毎日	-6569
▁消費	-6570
▁火災	-6571
▁発送	-6572
▁皆様	-6573
▁移動	-6574
▁良く	-6575
▁見た	-6576
▁見積	-6577
▁記録	-6578
▁追加	-6579
▁連絡	-6580
▁避難	-6581
▁配送	-6582
▁金額	-6583
▁電車	-6584
▁韓国	-6585
あちら	-6586
いける	-6587
いとこ	-6588
うちが	-6589
うちも	-6590
えっと	-6591
お仕事	-6592
お名前	-6593
から外	-6594
がかか	-6595
がこの	-6596
ができ	-6597
が何か	-6598
が結構	-6599
が落ち	-6600
が起こ	-6601
けどな	-6602
この二	-6603
これを	-6604
ごちゃ	-6605
ご家族	-6606
ご案内	-6607
ご紹介	-6608
さえて	-6609
さまで	-6610
しそう	-6611
したく	-6612
してて	-6613
してね	-6614
しゃべ	-6615
しやす	-6616
すすめ	-6617
するし	-6618
するに	-6619
せいで	-6620
そうで	-6621
そうね	-6622
そっち	-6623
たくの	-6624
だしね	-6625
だなぁ	-6626
っそく	-6627
っその	-6628
っちに	-6629
っちは	-6630
って事	-6631
って思	-6632
つなぎ	-6633
で使用	-6634
で働く	-6635
とかで	-6636
とかも	-6637
ともに	-6638
と一緒	-6639
と表示	-6640
と記載	-6641
どこの	-6642
どもは	-6643
ないし	-6644
にくい	-6645
にした	-6646
に入力	-6647
に出席	-6648
に問題	-6649
に影響	-6650
に来る	-6651
に注意	-6652
に特化	-6653
に移動	-6654
に繋が	-6655
に説明	-6656
に輸出	-6657
に近い	-6658
のでは	-6659
の一覧	-6660
の中の	-6661
の人に	-6662
の方は	-6663
の状況	-6664
の申請	-6665
の設置	-6666
の詳細	-6667
の調子	-6668
はただ	-6669
は全て	-6670
は大切	-6671
は少し	-6672
は無理	-6673
は結構	-6674
へのご	-6675
まいち	-6676
ままで	-6677
めない	-6678
もちゃ	-6679
ものが	-6680
やめて	-6681
やる気	-6682
ょっと	-6683
りして	-6684
り始め	-6685
り次第	-6686
るだけ	-6687
るのを	-6688
れると	-6689
わかり	-6690
わって	-6691
を中国	-6692
を優先	-6693
を元に	-6694
を卒業	-6695
を導入	-6696
を必要	-6697
を所有	-6698
を手配	-6699
を拡大	-6700
を決定	-6701
を紹介	-6702
を経験	-6703
を行い	-6704
を行う	-6705
を開始	-6706
んじゃ	-6707
んだい	-6708
ェント	-6709
エレン	-6710
エージ	-6711
オリジ	-6712
キャピ	-6713
クール	-6714
シャツ	-6715
シャー	-6716
スルー	-6717
センチ	-6718
チキン	-6719
ッショ	-6720
ドルは	-6721
パター	-6722
パンフ	-6723
ファン	-6724
プレッ	-6725
ミレス	-6726
ライラ	-6727
リアル	-6728
リーズ	-6729
レター	-6730
ローン	-6731
ーンズ	-6732
一か月	-6733
上げて	-6734
予約が	-6735
二人の	-6736
井さん	-6737
人事で	-6738
仕様書	-6739
付けた	-6740
以上に	-6741
以前に	-6742
企業を	-6743
伊藤様	-6744
休みを	-6745
会計士	-6746
何かお	-6747
何でも	-6748
使った	-6749
信じて	-6750
個人の	-6751
先方に	-6752
先方の	-6753
全てが	-6754
内容の	-6755
出せる	-6756
分後に	-6757
前回の	-6758
労力を	-6759
医者の	-6760
収まる	-6761
取って	-6762
受けて	-6763
受付で	-6764
口です	-6765
各社の	-6766
同僚の	-6767
同時に	-6768
君たち	-6769
周りに	-6770
場合の	-6771
場所で	-6772
売れて	-6773
大好き	-6774
学とか	-6775
学士号	-6776
家に帰	-6777
寂しく	-6778
専門家	-6779
居心地	-6780
島です	-6781
希望者	-6782
年ほど	-6783
年前に	-6784
延ばし	-6785
弁護士	-6786
弊社が	-6787
当番の	-6788
彼らを	-6789
彼女が	-6790
彼女に	-6791
忘年会	-6792
情報が	-6793
感謝祭	-6794
手助け	-6795
手順書	-6796
技術部	-6797
投資を	-6798
抜けて	-6799
担当に	-6800
授業料	-6801
支払わ	-6802
支社の	-6803
新しく	-6804
新たな	-6805
日にち	-6806
日まで	-6807
日本杉	-6808
日本食	-6809
曜の朝	-6810
書いた	-6811
替える	-6812
最近の	-6813
有名な	-6814
朝一番	-6815
木材を	-6816
業務を	-6817
楽しく	-6818
様です	-6819
比較的	-6820
気づき	-6821
気軽に	-6822
液漏れ	-6823
無料で	-6824
無沙汰	-6825
的にも	-6826
直ぐに	-6827
相手の	-6828
研究所	-6829
社の高	-6830
社用車	-6831
私達は	-6832
程度で	-6833
経験を	-6834
総務部	-6835
義務化	-6836
職場の	-6837
英語の	-6838
落ち込	-6839
製品と	-6840
誰にも	-6841
買い物	-6842
費やす	-6843
起きた	-6844
追って	-6845
過ぎた	-6846
過ごし	-6847
部分を	-6848
部屋で	-6849
部署に	-6850
部署を	-6851
部長が	-6852
部長に	-6853
野菜を	-6854
銀行の	-6855
長い間	-6856
関連の	-6857
顧客は	-6858
飲み物	-6859
飲食店	-6860
駅まで	-6861
5000	-6862
▁xxx	-6863
▁あそこ	-6864
▁あのー	-6865
▁いくら	-6866
▁うちも	-6867
▁お世話	-6868
▁お会い	-6869
▁お待ち	-6870
▁お時間	-6871
▁これを	-6872
▁さすが	-6873
▁すごい	-6874
▁そこは	-6875
▁そこを	-6876
▁その為	-6877
▁ただし	-6878
▁できる	-6879
▁なにか	-6880
▁はいっ	-6881
▁ふーん	-6882
▁やって	-6883
▁スミス	-6884
▁データ	-6885
▁一緒に	-6886
▁仕事の	-6887
▁何かお	-6888
▁彼女が	-6889
▁必要な	-6890
▁情報を	-6891
▁我々の	-6892
▁日本語	-6893
▁時には	-6894
▁最初に	-6895
▁最初の	-6896
▁来年の	-6897
▁来月の	-6898
▁社内で	-6899
▁私には	-6900
▁簡単に	-6901
、2、3	-6902
あったの	-6903
いきます	-6904
いってる	-6905
いつから	-6906
いないと	-6907
いらした	-6908
えますが	-6909
えますね	-6910
えられた	-6911
おうかな	-6912
かなきゃ	-6913
から電話	-6914
か月前に	-6915
か聞いて	-6916
があるよ	-6917
がわかる	-6918
が入った	-6919
が入って	-6920
が増えて	-6921
が来たら	-6922
きますか	-6923
ぐらいは	-6924
ことをお	-6925
こないだ	-6926
この件は	-6927
されてる	-6928
さんがお	-6929
したよね	-6930
した通り	-6931
してくる	-6932
してるよ	-6933
するのに	-6934
するよう	-6935
する必要	-6936
する方法	-6937
する様に	-6938
せっかく	-6939
そちらに	-6940
その時に	-6941
それだけ	-6942
そんな事	-6943
たっぷり	-6944
たんです	-6945
だけでも	-6946
だけなら	-6947
ってると	-6948
ってるよ	-6949
でしたが	-6950
でもある	-6951
とかって	-6952
ところが	-6953
とのこと	-6954
と思うわ	-6955
と日本語	-6956
どうにか	-6957
どうやら	-6958
どう思う	-6959
などです	-6960
なのよね	-6961
にご興味	-6962
にしたら	-6963
にもっと	-6964
に住んで	-6965
に入れる	-6966
に大きな	-6967
に送って	-6968
に電話を	-6969
のかしら	-6970
のが一番	-6971
のが良い	-6972
のほうが	-6973
のほうは	-6974
の場合は	-6975
はあまり	-6976
はいつ頃	-6977
はっきり	-6978
はどちら	-6979
はどんな	-6980
はないよ	-6981
は難しい	-6982
びっくり	-6983
ぴったり	-6984
ますので	-6985
まだです	-6986
みようか	-6987
もあった	-6988
もとても	-6989
やります	-6990
ようだね	-6991
らしくて	-6992
ると良い	-6993
るのかな	-6994
れていた	-6995
わざわざ	-6996
をお伺い	-6997
をお待ち	-6998
をご希望	-6999
をご紹介	-7000
をさせて	-7001
を与えて	-7002
を変える	-7003
を決めて	-7004
を知って	-7005
を調べて	-7006
を連れて	-7007
を雇って	-7008
んでもら	-7009
アンジェ	-7010
イギリス	-7011
ウィリス	-7012
エイミー	-7013
エクセル	-7014
オリエン	-7015
カメラを	-7016
クラウド	-7017
ケットを	-7018
コンビニ	-7019
コーナー	-7020
シェリル	-7021
シングル	-7022
スイッチ	-7023
スキルを	-7024
スポット	-7025
チームが	-7026
ツアーの	-7027
デジタル	-7028
ドリンク	-7029
ネットで	-7030
ピボット	-7031
フィール	-7032
フランス	-7033
ブロック	-7034
プロセス	-7035
プロフェ	-7036
ベンです	-7037
ボストン	-7038
ポスター	-7039
モニター	-7040
ュッフェ	-7041
リスクを	-7042
レッスン	-7043
レビュー	-7044
レヴィー	-7045
下さいね	-7046
予定通り	-7047
人事部に	-7048
今週中に	-7049
仕事ぶり	-7050
仕方ない	-7051
佐藤です	-7052
何が起こ	-7053
作業効率	-7054
個くらい	-7055
僕たちの	-7056
入社員の	-7057
全額返金	-7058
出かける	-7059
分かれて	-7060
分割検収	-7061
切り替え	-7062
初めての	-7063
助かった	-7064
勤務時間	-7065
参ります	-7066
吉田さん	-7067
営業部門	-7068
回くらい	-7069
固体電池	-7070
多かった	-7071
天気予報	-7072
完璧です	-7073
幸いです	-7074
従業員に	-7075
従業員の	-7076
得られる	-7077
必要です	-7078
悪くない	-7079
技術的な	-7080
排出許可	-7081
提出した	-7082
方が良い	-7083
日本の商	-7084
早かった	-7085
明日から	-7086
明日の朝	-7087
残ってる	-7088
比べると	-7089
火曜日に	-7090
田さんに	-7091
皆さんが	-7092
確かです	-7093
空港まで	-7094
経理部の	-7095
考えます	-7096
自動翻訳	-7097
落として	-7098
融通が利	-7099
行かない	-7100
見えない	-7101
見つける	-7102
見込み客	-7103
言いたい	-7104
話したい	-7105
説明する	-7106
買い上げ	-7107
電話して	-7108
電話対応	-7109
頂きたい	-7110
頂きます	-7111
頼まれて	-7112
顧客との	-7113
飛び込み	-7114
▁あそこは	-7115
▁あなたに	-7116
▁いつもの	-7117
▁ええっと	-7118
▁おはよう	-7119
▁ここから	-7120
▁それじゃ	-7121
▁それって	-7122
▁それとも	-7123
▁ですよね	-7124
▁どうした	-7125
▁ガソリン	-7126
▁システム	-7127
▁ジュリア	-7128
▁ホテルは	-7129
▁今週中に	-7130
▁僕もそう	-7131
▁基本的に	-7132
▁売り上げ	-7133
▁山本さん	-7134
▁我が社が	-7135
▁新入社員	-7136
▁株式会社	-7137
▁私たちが	-7138
▁私もです	-7139
あなたのお	-7140
いいと思う	-7141
いましたか	-7142
いませんが	-7143
かどうかは	-7144
があってお	-7145
がいくつか	-7146
がないから	-7147
がなかった	-7148
が多いので	-7149
きますので	-7150
くらいかな	-7151
こちらこそ	-7152
ことを検討	-7153
されるのは	-7154
したように	-7155
したんです	-7156
してみよう	-7157
してみるわ	-7158
しましては	-7159
しませんか	-7160
しようかな	-7161
じゃないし	-7162
することに	-7163
することを	-7164
そうだなあ	-7165
それはいい	-7166
だったけど	-7167
ちょっとお	-7168
っているか	-7169
ってきたら	-7170
ってもいい	-7171
ってるから	-7172
つもりです	-7173
という事を	-7174
といっても	-7175
として使用	-7176
と思ってた	-7177
どうしたら	-7178
どうなさい	-7179
ないんだよ	-7180
なんとなく	-7181
になってる	-7182
になりそう	-7183
にアクセス	-7184
に基づいて	-7185
に行きたい	-7186
に電話して	-7187
のおかげで	-7188
のは難しい	-7189
のバランス	-7190
はずだから	-7191
ばかりです	-7192
へようこそ	-7193
ますからね	-7194
まれている	-7195
ものですか	-7196
よかったよ	-7197
らしいから	-7198
れませんか	-7199
をいくつか	-7200
をしていた	-7201
を確認して	-7202
を行います	-7203
を購入した	-7204
を送らせて	-7205
んだけれど	-7206
アルバイト	-7207
オフィスを	-7208
キャピタル	-7209
クリーナー	-7210
システムは	-7211
シーフード	-7212
タブレット	-7213
チームから	-7214
ッショナル	-7215
ハロウィン	-7216
プレゼンを	-7217
プレゼント	-7218
マイクさん	-7219
レベーター	-7220
レヴィーノ	-7221
ワイファイ	-7222
ースクール	-7223
事があれば	-7224
事について	-7225
仕事に集中	-7226
何かご質問	-7227
偽物を販売	-7228
困っている	-7229
大丈夫なの	-7230
大変だった	-7231
忙しかった	-7232
悩んでいる	-7233
持ってくる	-7234
掛かります	-7235
探している	-7236
教えてもら	-7237
時間の無駄	-7238
末までには	-7239
株式会社の	-7240
検討します	-7241
業界に特化	-7242
気になって	-7243
気に入って	-7244
発注書番号	-7245
社内掲示板	-7246
空いている	-7247
終わります	-7248
聞いてみて	-7249
聞いてみる	-7250
行きました	-7251
訳ではない	-7252
質問ですね	-7253
運送業者に	-7254
▁すいません	-7255
▁そうなのよ	-7256
▁そうなると	-7257
▁どういった	-7258
▁なるほどね	-7259
▁エンジニア	-7260
▁終わったら	-7261
いましたよね	-7262
いるのですが	-7263
うちの会社の	-7264
お送りします	-7265
があったので	-7266
があるんです	-7267
がかかります	-7268
ことになった	-7269
したいという	-7270
したんだけど	-7271
した方が良い	-7272
していきたい	-7273
していきます	-7274
していません	-7275
してくれない	-7276
してくれます	-7277
してくれると	-7278
じゃないから	-7279
することです	-7280
そういうこと	-7281
そうでしたね	-7282
だけですから	-7283
っていたので	-7284
っていますね	-7285
できなかった	-7286
できますので	-7287
でしょうから	-7288
となっている	-7289
となりました	-7290
ないんだよね	-7291
ないんですよ	-7292
なかったです	-7293
なくなります	-7294
なんじゃない	-7295
なんだけどね	-7296
のようですね	-7297
の上に置いて	-7298
はいけません	-7299
はいつですか	-7300
みたいなんだ	-7301
もらっていい	-7302
ようでしたら	-7303
ようになって	-7304
らないように	-7305
られるように	-7306
れないように	-7307
をしてくれる	-7308
を使っている	-7309
を持ってきて	-7310
インストール	-7311
インターフェ	-7312
エージェント	-7313
セットアップ	-7314
トラック輸送	-7315
ピーターさん	-7316
ブラウンさん	-7317
プレゼン資料	-7318
マネジメント	-7319
ーターマーク	-7320
今回が初めて	-7321
分かりやすい	-7322
始めたばかり	-7323
差し上げます	-7324
時間あるかな	-7325
気づきました	-7326
考えています	-7327
考えられます	-7328
辞めてしまう	-7329
迷惑をお掛け	-7330
▁うちの会社は	-7331
▁お手数おかけ	-7332
▁そうでしたか	-7333
▁そうでしたね	-7334
▁もしかしたら	-7335
▁やってみます	-7336
▁オリンピック	-7337
▁失礼致します	-7338
▁良かったです	-7339
あっという間に	-7340
いいと思います	-7341
いらっしゃった	-7342
お知らせします	-7343
かと思いまして	-7344
かもしれないよ	-7345
があるんですか	-7346
があるんですよ	-7347
ご迷惑をおかけ	-7348
させて頂きたい	-7349
されていません	-7350
さんのほうから	-7351
したいんですが	-7352
していますので	-7353
しておきますよ	-7354
してみようかな	-7355
してもらっても	-7356
する予定ですか	-7357
そうしましょう	-7358
だったんだけど	-7359
ってくださいね	-7360
と思うんですが	-7361
どう思いますか	-7362
ないでください	-7363
ないと思います	-7364
はお持ちですか	-7365
らしいんですよ	-7366
ることになった	-7367
をお考えですか	-7368
を持っています	-7369
を考えています	-7370
カンファレンス	-7371
システムを導入	-7372
スケジュールの	-7373
チームメンバー	-7374
パーセントです	-7375
フォローアップ	-7376
プロジェクトを	-7377
メールでお送り	-7378
メールをお送り	-7379
会議を始めます	-7380
伝えておきます	-7381
健康診断の結果	-7382
方がいいですか	-7383
満足しています	-7384
知ってますよね	-7385
聞いてみますね	-7386
間に合いますか	-7387
▁それはよかった	-7388
いただきたいです	-7389
かも知れませんね	-7390
があったのですが	-7391
が必要になります	-7392
ことができました	-7393
されていなかった	-7394
しているんですか	-7395
しておりますので	-7396
っているのですが	-7397
ということですか	-7398
と呼んでください	-7399
と思ったのですが	-7400
なければいけない	-7401
なければならない	-7402
の田中と申します	-7403
インターネットで	-7404
パートナーシップ	-7405
少々お待ち下さい	-7406
本当に助かります	-7407
防犯カメラの設置	-7408
▁どうもありがとう	-7409
したかったのですが	-7410
していると思います	-7411
しないといけません	-7412
することができます	-7413
ということですよね	-7414
ないといけませんね	-7415
なければなりません	-7416
を選択してください	-7417
プロフェッショナル	-7418
申し訳ないのですが	-7419
頂けますでしょうか	-7420
▁そうだったんですね	-7421
してもらってください	-7422
ベンチャーキャピタル	-7423
送っていただけますか	-7424
▁ご用件は何でしょうか	-7425
してよろしいでしょうか	-7426
のを楽しみにしています	-7427
してもよろしいでしょうか	-7428
ってもよろしいでしょうか	-7429
頂きありがとうございます	-7430
ましてありがとうございます	-7431
田さんはいらっしゃいますか	-7432
お時間ありがとうございました	-7433
いただいてもよろしいでしょうか	-7434
くださってありがとうございました	-7435
1(	-7436
21	-7437
31	-7438
65	-7439
79	-7440
AI	-7441
AL	-7442
HS	-7443
PR	-7444
UB	-7445
er	-7446
▁D	-7447
▁J	-7448
▁W	-7449
▁が	-7450
▁ゴ	-7451
▁モ	-7452
▁余	-7453
▁北	-7454
▁受	-7455
▁売	-7456
▁明	-7457
▁武	-7458
▁物	-7459
▁生	-7460
▁真	-7461
▁石	-7462
▁第	-7463
▁紙	-7464
▁船	-7465
▁荷	-7466
▁藤	-7467
▁親	-7468
▁角	-7469
▁週	-7470
▁遅	-7471
▁部	-7472
▁野	-7473
。」	-7474
うに	-7475
うれ	-7476
およ	-7477
お前	-7478
かあ	-7479
かう	-7480
がや	-7481
が低	-7482
が少	-7483
が減	-7484
が溜	-7485
が詰	-7486
きに	-7487
きは	-7488
きれ	-7489
くす	-7490
くと	-7491
ぐる	-7492
さは	-7493
ざる	-7494
し場	-7495
すら	-7496
せば	-7497
でご	-7498
でよ	-7499
で作	-7500
で買	-7501
にと	-7502
に一	-7503
に不	-7504
に増	-7505
に添	-7506
に追	-7507
に達	-7508
ねぇ	-7509
のね	-7510
のカ	-7511
のコ	-7512
のト	-7513
のホ	-7514
の品	-7515
の表	-7516
の間	-7517
はご	-7518
は三	-7519
は無	-7520
は見	-7521
ばあ	-7522
びり	-7523
へお	-7524
へん	-7525
めば	-7526
もと	-7527
らか	-7528
らし	-7529
らは	-7530
らを	-7531
る事	-7532
を下	-7533
を向	-7534
を売	-7535
を深	-7536
を示	-7537
を追	-7538
んの	-7539
アニ	-7540
エキ	-7541
キラ	-7542
ケチ	-7543
ケン	-7544
コス	-7545
コネ	-7546
ゴミ	-7547
サス	-7548
スイ	-7549
セッ	-7550
ゼル	-7551
ソロ	-7552
ダム	-7553
ダル	-7554
テイ	-7555
デオ	-7556
トー	-7557
ドネ	-7558
ハン	-7559
バグ	-7560
バラ	-7561
ビン	-7562
フラ	-7563
ブー	-7564
ヘン	-7565
ボケ	-7566
ミテ	-7567
ミュ	-7568
ルを	-7569
ワシ	-7570
ンガ	-7571
ヴォ	-7572
ーむ	-7573
一切	-7574
一応	-7575
一杯	-7576
一部	-7577
丁寧	-7578
万の	-7579
上に	-7580
上野	-7581
上長	-7582
下に	-7583
不備	-7584
不在	-7585
中君	-7586
中心	-7587
中身	-7588
主任	-7589
主要	-7590
予備	-7591
二日	-7592
人物	-7593
代の	-7594
仲介	-7595
件費	-7596
会館	-7597
伝わ	-7598
伸ば	-7599
住居	-7600
体系	-7601
体験	-7602
何の	-7603
何ら	-7604
作動	-7605
使え	-7606
例の	-7607
例年	-7608
信用	-7609
信託	-7610
俺が	-7611
個の	-7612
個数	-7613
備品	-7614
僕に	-7615
先を	-7616
入口	-7617
兼ね	-7618
内部	-7619
凄く	-7620
分け	-7621
分発	-7622
前も	-7623
前職	-7624
創業	-7625
加入	-7626
助成	-7627
医療	-7628
匿名	-7629
原本	-7630
参照	-7631
及川	-7632
受講	-7633
召し	-7634
各自	-7635
合意	-7636
同席	-7637
同行	-7638
名と	-7639
名度	-7640
向江	-7641
含め	-7642
呼ば	-7643
命の	-7644
品が	-7645
品物	-7646
喜び	-7647
回も	-7648
回る	-7649
固定	-7650
国産	-7651
圧倒	-7652
地区	-7653
地図	-7654
地局	-7655
基に	-7656
外で	-7657
外注	-7658
夜の	-7659
大衆	-7660
太一	-7661
妊娠	-7662
学ば	-7663
安く	-7664
宛て	-7665
宛に	-7666
実験	-7667
室長	-7668
宿題	-7669
寄せ	-7670
寄り	-7671
寝て	-7672
対処	-7673
居酒	-7674
屋の	-7675
席を	-7676
帰宅	-7677
年も	-7678
年代	-7679
年次	-7680
店が	-7681
度か	-7682
延期	-7683
引っ	-7684
張り	-7685
往復	-7686
後悔	-7687
後日	-7688
心的	-7689
心者	-7690
怖い	-7691
恵子	-7692
悔や	-7693
意欲	-7694
感想	-7695
感覚	-7696
懇意	-7697
戻り	-7698
手の	-7699
打開	-7700
抜き	-7701
押し	-7702
指名	-7703
採鉱	-7704
探す	-7705
接客	-7706
接続	-7707
推薦	-7708
支給	-7709
救助	-7710
教室	-7711
数も	-7712
数日	-7713
敷地	-7714
断然	-7715
方票	-7716
方面	-7717
日も	-7718
日付	-7719
昼に	-7720
時給	-7721
時計	-7722
書の	-7723
月か	-7724
月で	-7725
月は	-7726
月中	-7727
朝一	-7728
朝会	-7729
木下	-7730
未だ	-7731
末に	-7732
本で	-7733
本題	-7734
植物	-7735
権利	-7736
欄に	-7737
止ま	-7738
残り	-7739
毎月	-7740
氏家	-7741
泥棒	-7742
津村	-7743
清算	-7744
災害	-7745
無断	-7746
無難	-7747
焼肉	-7748
物質	-7749
犬が	-7750
理に	-7751
理想	-7752
生の	-7753
用地	-7754
用語	-7755
疑問	-7756
登記	-7757
盗難	-7758
目が	-7759
目指	-7760
目玉	-7761
直す	-7762
知財	-7763
短で	-7764
社外	-7765
私を	-7766
私達	-7767
種の	-7768
積荷	-7769
立食	-7770
米国	-7771
紅葉	-7772
素敵	-7773
紺色	-7774
統制	-7775
統合	-7776
続く	-7777
緊張	-7778
胡蝶	-7779
自社	-7780
良品	-7781
色の	-7782
若手	-7783
行け	-7784
補足	-7785
要素	-7786
見え	-7787
視鏡	-7788
親切	-7789
親友	-7790
親睦	-7791
記憶	-7792
訴訟	-7793
証拠	-7794
試し	-7795
話題	-7796
誇り	-7797
誠意	-7798
課は	-7799
調理	-7800
講習	-7801
議長	-7802
谷口	-7803
財産	-7804
買う	-7805
費は	-7806
費を	-7807
賢い	-7808
贈答	-7809
趣味	-7810
車の	-7811
転換	-7812
返済	-7813
退勤	-7814
送料	-7815
過程	-7816
選考	-7817
遺跡	-7818
郵送	-7819
都内	-7820
重ね	-7821
重視	-7822
金曜	-7823
長年	-7824
防止	-7825
限定	-7826
集荷	-7827
集計	-7828
雑談	-7829
電卓	-7830
非常	-7831
頂く	-7832
頃は	-7833
頭に	-7834
顔を	-7835
願書	-7836
飛ぶ	-7837
食料	-7838
飲む	-7839
飲料	-7840
馬鹿	-7841
高価	-7842
高級	-7843
CRM	-7844
Com	-7845
TAL	-7846
▁al	-7847
▁いま	-7848
▁お父	-7849
▁お話	-7850
▁ごめ	-7851
▁さあ	-7852
▁そも	-7853
▁つき	-7854
▁ウチ	-7855
▁カリ	-7856
▁キャ	-7857
▁ケー	-7858
▁ジャ	-7859
▁タイ	-7860
▁ディ	-7861
▁ハラ	-7862
▁ロイ	-7863
▁ワイ	-7864
▁一体	-7865
▁一旦	-7866
▁一般	-7867
▁予定	-7868
▁以上	-7869
▁仰る	-7870
▁何人	-7871
▁何時	-7872
▁信じ	-7873
▁俺は	-7874
▁出張	-7875
▁到着	-7876
▁受信	-7877
▁只今	-7878
▁台湾	-7879
▁合併	-7880
▁同感	-7881
▁大抵	-7882
▁山本	-7883
▁建物	-7884
▁必ず	-7885
▁思い	-7886
▁急ぎ	-7887
▁数日	-7888
▁料理	-7889
▁新人	-7890
▁既存	-7891
▁早い	-7892
▁昼食	-7893
▁更新	-7894
▁月曜	-7895
▁木材	-7896
▁歴史	-7897
▁毎月	-7898
▁気分	-7899
▁河本	-7900
▁法人	-7901
▁注意	-7902
▁注文	-7903
▁監査	-7904
▁空港	-7905
▁突然	-7906
▁結果	-7907
▁給与	-7908
▁若松	-7909
▁話を	-7910
▁誰が	-7911
▁誰に	-7912
▁課長	-7913
▁輸入	-7914
▁輸出	-7915
▁運送	-7916
▁違う	-7917
▁銀行	-7918
▁面倒	-7919
▁面接	-7920
▁飲み	-7921
、18	-7922
、30	-7923
あそこ	-7924
あるの	-7925
あるよ	-7926
あんな	-7927
いけば	-7928
いつか	-7929
いてい	-7930
いませ	-7931
えてる	-7932
おけば	-7933
および	-7934
お届け	-7935
お持ち	-7936
お料理	-7937
お昼は	-7938
お菓子	-7939
お言葉	-7940
お詫び	-7941
お話を	-7942
かかり	-7943
かせて	-7944
かもな	-7945
かれた	-7946
が使わ	-7947
が可能	-7948
が合わ	-7949
が大変	-7950
が始ま	-7951
が小さ	-7952
が少し	-7953
が早く	-7954
が来る	-7955
きつい	-7956
この度	-7957
ごめん	-7958
ご自身	-7959
ご足労	-7960
さんで	-7961
しかけ	-7962
したか	-7963
しゃぶ	-7964
すぎた	-7965
するな	-7966
せます	-7967
そりゃ	-7968
たまた	-7969
だねえ	-7970
ったか	-7971
った後	-7972
ってて	-7973
っぽい	-7974
てない	-7975
であり	-7976
でして	-7977
でその	-7978
で仕事	-7979
で製造	-7980
で見た	-7981
で見て	-7982
とは言	-7983
と判断	-7984
と良い	-7985
なども	-7986
なのね	-7987
にもな	-7988
により	-7989
に使う	-7990
に使わ	-7991
に使用	-7992
に入社	-7993
に変わ	-7994
に変換	-7995
に応募	-7996
に着く	-7997
に聞こ	-7998
に違反	-7999
のお話	-8000
のせい	-8001
の人も	-8002
の使用	-8003
の価格	-8004
の処理	-8005
の名前	-8006
の挿入	-8007
の数も	-8008
の整理	-8009
の方の	-8010
の方向	-8011
の方法	-8012
の検収	-8013
の様子	-8014
の機会	-8015
の種類	-8016
の評価	-8017
の都合	-8018
の量を	-8019
の際は	-8020
の電話	-8021
の電車	-8022
の首輪	-8023
はじめ	-8024
はずだ	-8025
はそう	-8026
はよく	-8027
は理解	-8028
は私が	-8029
ばれて	-8030
ほかに	-8031
まさに	-8032
ますが	-8033
まずい	-8034
まとめ	-8035
もう一	-8036
もこの	-8037
もしろ	-8038
も休み	-8039
も大き	-8040
も準備	-8041
やすく	-8042
らしく	-8043
ろうと	-8044
ろし場	-8045
わかん	-8046
わせて	-8047
をかけ	-8048
をよく	-8049
を依頼	-8050
を修正	-8051
を全て	-8052
を削減	-8053
を含む	-8054
を感じ	-8055
を教え	-8056
を満た	-8057
を維持	-8058
を考え	-8059
を見せ	-8060
を記載	-8061
を買う	-8062
を雇う	-8063
んなら	-8064
んびり	-8065
アナウ	-8066
アパレ	-8067
アワー	-8068
アンド	-8069
イヤモ	-8070
ウェビ	-8071
ウォー	-8072
ガッツ	-8073
キシコ	-8074
ケーキ	-8075
サイド	-8076
サラダ	-8077
サンフ	-8078
シスコ	-8079
スさん	-8080
スクリ	-8081
ステル	-8082
スープ	-8083
ソース	-8084
タウン	-8085
タグを	-8086
タント	-8087
ターミ	-8088
ダウン	-8089
ダスト	-8090
チウム	-8091
チェル	-8092
ッシュ	-8093
テリー	-8094
テンツ	-8095
ディス	-8096
デイブ	-8097
トイレ	-8098
トレイ	-8099
ドアを	-8100
ドライ	-8101
ドルの	-8102
ナック	-8103
ナーが	-8104
ハウス	-8105
ハラル	-8106
バスの	-8107
パンの	-8108
ビット	-8109
ビデオ	-8110
フット	-8111
ブです	-8112
ヘルプ	-8113
ベッド	-8114
ベート	-8115
ペナル	-8116
ペース	-8117
マスク	-8118
マリア	-8119
マージ	-8120
メロン	-8121
ラム教	-8122
リコン	-8123
リミテ	-8124
ルーム	-8125
レース	-8126
ロンド	-8127
ンサー	-8128
ヶ月間	-8129
一度も	-8130
一時間	-8131
万が一	-8132
不明点	-8133
予想値	-8134
予算が	-8135
予約を	-8136
事業の	-8137
事業案	-8138
事項を	-8139
井部長	-8140
人々と	-8141
人だよ	-8142
人です	-8143
人には	-8144
今年度	-8145
今度は	-8146
今月の	-8147
今期の	-8148
今終わ	-8149
他の人	-8150
付いて	-8151
代独身	-8152
以外に	-8153
以外は	-8154
企業に	-8155
休んで	-8156
会社も	-8157
伝えた	-8158
伸びる	-8159
佐々木	-8160
体調を	-8161
依頼を	-8162
価格が	-8163
値上げ	-8164
値下げ	-8165
働ける	-8166
僕らの	-8167
先ほど	-8168
先方が	-8169
入れた	-8170
再検査	-8171
分です	-8172
分前に	-8173
切りに	-8174
効率的	-8175
動いて	-8176
化粧品	-8177
午後に	-8178
各部門	-8179
向かい	-8180
問題が	-8181
基地局	-8182
増えて	-8183
壁掛け	-8184
夏休み	-8185
多国籍	-8186
大した	-8187
始めに	-8188
存在感	-8189
学んだ	-8190
定時で	-8191
対象に	-8192
小企業	-8193
小麦粉	-8194
居酒屋	-8195
川です	-8196
工場の	-8197
市場は	-8198
帰りに	-8199
幅広い	-8200
年以上	-8201
年度末	-8202
年間の	-8203
年間も	-8204
建物の	-8205
当たら	-8206
役員の	-8207
彼女の	-8208
後には	-8209
後半に	-8210
忘れ物	-8211
情報と	-8212
意見が	-8213
意見も	-8214
感じで	-8215
慣れて	-8216
成長を	-8217
授賞式	-8218
揚げ物	-8219
数字は	-8220
数年の	-8221
文書を	-8222
料金を	-8223
新たに	-8224
新人が	-8225
新人の	-8226
新製品	-8227
方修正	-8228
方法は	-8229
方法を	-8230
既存の	-8231
日本へ	-8232
早めて	-8233
時半に	-8234
時期は	-8235
書くの	-8236
書類が	-8237
最後に	-8238
最新の	-8239
月から	-8240
月曜に	-8241
有望な	-8242
朝から	-8243
期限が	-8244
本当だ	-8245
本立て	-8246
条件を	-8247
来たら	-8248
案件は	-8249
業務は	-8250
業者で	-8251
次回の	-8252
正式に	-8253
消火剤	-8254
済ませ	-8255
準備は	-8256
無駄に	-8257
焦点を	-8258
特定の	-8259
珍しい	-8260
現在は	-8261
現行の	-8262
環境に	-8263
産休と	-8264
画面の	-8265
疲れて	-8266
目から	-8267
目です	-8268
知名度	-8269
知識は	-8270
研究者	-8271
社での	-8272
社長は	-8273
立ち寄	-8274
競争力	-8275
管理部	-8276
約束は	-8277
経営者	-8278
結構な	-8279
置き場	-8280
聞き役	-8281
胡蝶蘭	-8282
自分が	-8283
航空の	-8284
良い事	-8285
色々な	-8286
英語で	-8287
落とし	-8288
行ける	-8289
製品に	-8290
製造元	-8291
複数の	-8292
西海岸	-8293
見かけ	-8294
規模な	-8295
解決策	-8296
設した	-8297
設備の	-8298
話した	-8299
誰かと	-8300
誰かを	-8301
誰でも	-8302
講師の	-8303
谷さん	-8304
貸方票	-8305
起きて	-8306
車で行	-8307
迎える	-8308
返事は	-8309
通勤路	-8310
週末は	-8311
過ごす	-8312
適切な	-8313
部内の	-8314
部屋に	-8315
部屋は	-8316
郵便局	-8317
金額を	-8318
頂ける	-8319
頃から	-8320
預けて	-8321
馴染み	-8322
魅力的	-8323
....	-8324
1500	-8325
401(	-8326
UBTO	-8327
▁200	-8328
▁あった	-8329
▁あっと	-8330
▁お二人	-8331
▁お手元	-8332
▁お調べ	-8333
▁この間	-8334
▁ご協力	-8335
▁ご家族	-8336
▁すべて	-8337
▁ずっと	-8338
▁その他	-8339
▁その分	-8340
▁その間	-8341
▁だって	-8342
▁と言う	-8343
▁どこで	-8344
▁ははは	-8345
▁まさか	-8346
▁カナダ	-8347
▁シャー	-8348
▁テスト	-8349
▁ロット	-8350
▁一つの	-8351
▁中国の	-8352
▁事前に	-8353
▁人事部	-8354
▁今の所	-8355
▁以前の	-8356
▁会社に	-8357
▁会議の	-8358
▁何でも	-8359
▁先週の	-8360
▁先週は	-8361
▁助かる	-8362
▁各部署	-8363
▁外国人	-8364
▁小さい	-8365
▁小麦粉	-8366
▁時間は	-8367
▁東京支	-8368
▁社員の	-8369
▁私の友	-8370
▁経営陣	-8371
▁色々と	-8372
▁製品の	-8373
▁製品は	-8374
▁遅れて	-8375
▁配達員	-8376
、100	-8377
あげます	-8378
あそこは	-8379
あなた方	-8380
ある程度	-8381
いいけど	-8382
いかない	-8383
いたから	-8384
いたんだ	-8385
いちゃう	-8386
いろんな	-8387
うまくい	-8388
うんざり	-8389
えました	-8390
えられる	-8391
える影響	-8392
えーっと	-8393
おかげで	-8394
お客様も	-8395
お集まり	-8396
からって	-8397
からのお	-8398
から徒歩	-8399
から直接	-8400
があるし	-8401
が多くて	-8402
が本当に	-8403
が正しい	-8404
が遅れて	-8405
きません	-8406
ぎりぎり	-8407
くれたら	-8408
くれるか	-8409
こっちの	-8410
ことって	-8411
ことを祈	-8412
このまま	-8413
この会社	-8414
この分野	-8415
この提案	-8416
この様な	-8417
ご不明な	-8418
さっそく	-8419
さんって	-8420
さんと高	-8421
さんに話	-8422
ざるを得	-8423
したのよ	-8424
した場合	-8425
しておか	-8426
しておき	-8427
しまうよ	-8428
しようと	-8429
すことが	-8430
すごいね	-8431
すっごく	-8432
すべきか	-8433
するって	-8434
するなら	-8435
するもの	-8436
する事で	-8437
する為に	-8438
ずいぶん	-8439
そうだな	-8440
そうなる	-8441
そしたら	-8442
そのうち	-8443
そのまま	-8444
その前に	-8445
その後に	-8446
それじゃ	-8447
それだと	-8448
それには	-8449
たまたま	-8450
ためです	-8451
だけだよ	-8452
だったか	-8453
だったり	-8454
ったかな	-8455
ってある	-8456
っていて	-8457
ってくる	-8458
ってくれ	-8459
って言わ	-8460
できるし	-8461
で調べて	-8462
といいね	-8463
というの	-8464
という点	-8465
ところを	-8466
とっては	-8467
とにかく	-8468
とは思う	-8469
ともっと	-8470
と伝えて	-8471
と思うと	-8472
どうかな	-8473
どうした	-8474
どうする	-8475
どんどん	-8476
ないとね	-8477
ないよね	-8478
なんかに	-8479
にあたり	-8480
にお客様	-8481
にお越し	-8482
にお連れ	-8483
につなが	-8484
になるか	-8485
にはこの	-8486
には興味	-8487
に変えた	-8488
のが大変	-8489
のが好き	-8490
のコピー	-8491
の一つは	-8492
の支払い	-8493
の方から	-8494
の皆さん	-8495
の際には	-8496
はしない	-8497
はずっと	-8498
はもっと	-8499
ひとり様	-8500
ひょっと	-8501
まだまだ	-8502
まったら	-8503
までなら	-8504
まで来て	-8505
みんなの	-8506
もっとも	-8507
も含めて	-8508
やりたい	-8509
やること	-8510
よくある	-8511
ることは	-8512
るといい	-8513
れますね	-8514
わたって	-8515
をお探し	-8516
をお教え	-8517
をお渡し	-8518
をお選び	-8519
をご存知	-8520
をご用意	-8521
をしよう	-8522
をもたら	-8523
を入れた	-8524
を持った	-8525
を超える	-8526
を進める	-8527
アイビー	-8528
アパレル	-8529
アンティ	-8530
イライラ	-8531
インドネ	-8532
エキスポ	-8533
オリビア	-8534
カードは	-8535
ガッツリ	-8536
クション	-8537
クリエイ	-8538
コンディ	-8539
サイトに	-8540
ショック	-8541
ショナー	-8542
シリーズ	-8543
ジェニー	-8544
ジュリー	-8545
スキャン	-8546
スキルが	-8547
ストック	-8548
スピーチ	-8549
スペック	-8550
セクハラ	-8551
セットを	-8552
セミコン	-8553
センサー	-8554
チームの	-8555
チームは	-8556
テキサス	-8557
テナント	-8558
デバイス	-8559
トラブル	-8560
トラベル	-8561
ドルです	-8562
バタバタ	-8563
プランを	-8564
プリント	-8565
プログラ	-8566
ベンさん	-8567
ペンギン	-8568
ボタンを	-8569
マイアミ	-8570
メキシコ	-8571
メディア	-8572
メモをと	-8573
メンター	-8574
モンさん	-8575
ラクター	-8576
リストに	-8577
リモコン	-8578
リーです	-8579
レンタル	-8580
レーター	-8581
ロンドン	-8582
ワクワク	-8583
一番いい	-8584
一般的な	-8585
万ドルの	-8586
上司から	-8587
乗り継ぎ	-8588
事になる	-8589
事務所の	-8590
事業運営	-8591
人たちが	-8592
人当たり	-8593
人材育成	-8594
以内には	-8595
企画部の	-8596
休憩中に	-8597
休憩室の	-8598
会社との	-8599
会社にも	-8600
会議には	-8601
何らかの	-8602
何をする	-8603
使わない	-8604
価格設定	-8605
入ってる	-8606
入れ替え	-8607
全て順調	-8608
出ている	-8609
出来るよ	-8610
参加する	-8611
取れない	-8612
受け入れ	-8613
受け取り	-8614
召し上が	-8615
各部署に	-8616
合わせた	-8617
商品です	-8618
商品取引	-8619
問題なさ	-8620
営業担当	-8621
営業部の	-8622
困った事	-8623
困ります	-8624
基本的な	-8625
外国人が	-8626
多いです	-8627
大野さん	-8628
契約を結	-8629
奥さんが	-8630
奥さんは	-8631
女性社員	-8632
始めよう	-8633
存じます	-8634
定期的に	-8635
工場では	-8636
市場価格	-8637
彼女には	-8638
忘年会の	-8639
思い出せ	-8640
慰労会の	-8641
我が社は	-8642
払い戻し	-8643
教えます	-8644
新商品の	-8645
日本では	-8646
日本市場	-8647
明日中に	-8648
時差ボケ	-8649
書類作成	-8650
木曜日の	-8651
本日中に	-8652
村さんが	-8653
来た時に	-8654
株主名簿	-8655
案ですね	-8656
次第です	-8657
水曜日は	-8658
洗濯物を	-8659
消費者の	-8660
犬の首輪	-8661
理にかな	-8662
申し込み	-8663
真理さん	-8664
知ってた	-8665
社の方が	-8666
社向けの	-8667
私たちに	-8668
私どもの	-8669
羨ましい	-8670
考えだね	-8671
聞き取り	-8672
聞こえた	-8673
能勢さん	-8674
自動的に	-8675
船員会館	-8676
製品には	-8677
見やすい	-8678
視鏡検査	-8679
覚えてる	-8680
解決する	-8681
言うなら	-8682
言わせて	-8683
請求書は	-8684
貨物輸送	-8685
責任者の	-8686
資金提供	-8687
質問に答	-8688
購入した	-8689
赤ワイン	-8690
連絡する	-8691
週間後の	-8692
遅くまで	-8693
違います	-8694
長くなる	-8695
集まった	-8696
電話を切	-8697
頂けると	-8698
▁あそこの	-8699
▁あの時は	-8700
▁いやいや	-8701
▁いろいろ	-8702
▁きちんと	-8703
▁ここでは	-8704
▁こちらで	-8705
▁こちらも	-8706
▁これより	-8707
▁ご用件は	-8708
▁そうだと	-8709
▁そちらは	-8710
▁そちらも	-8711
▁その時は	-8712
▁そもそも	-8713
▁それぞれ	-8714
▁それでも	-8715
▁たくさん	-8716
▁なるべく	-8717
▁なんとか	-8718
▁はっきり	-8719
▁まあまあ	-8720
▁みなさん	-8721
▁みんなが	-8722
▁もう一度	-8723
▁もし何か	-8724
▁オーダー	-8725
▁セールス	-8726
▁ナンシー	-8727
▁ハラール	-8728
▁ビジネス	-8729
▁ホテルの	-8730
▁メニュー	-8731
▁レポート	-8732
▁ロベルト	-8733
▁中島です	-8734
▁中川さん	-8735
▁今までの	-8736
▁佐々さん	-8737
▁何か他に	-8738
▁先ほどの	-8739
▁助かるよ	-8740
▁我が社は	-8741
▁海棠部長	-8742
▁美里さん	-8743
▁金曜日の	-8744
▁頑張って	-8745
いたくない	-8746
いましたが	-8747
いましたね	-8748
いましたよ	-8749
お電話番号	-8750
かっていう	-8751
かというと	-8752
かなくちゃ	-8753
があってね	-8754
があるなら	-8755
がいいかな	-8756
が多いから	-8757
が見つかる	-8758
が送られて	-8759
きましたね	-8760
きましたよ	-8761
くないので	-8762
けています	-8763
ことないな	-8764
このように	-8765
これからも	-8766
させてもら	-8767
させられる	-8768
されたので	-8769
されていた	-8770
されてます	-8771
されますか	-8772
されません	-8773
されるまで	-8774
しか聞いて	-8775
したところ	-8776
しているか	-8777
しておくよ	-8778
しておけば	-8779
してるから	-8780
しなくては	-8781
そういった	-8782
そうなのか	-8783
そうなると	-8784
そうなんだ	-8785
そうやって	-8786
そのような	-8787
その方向で	-8788
それがいい	-8789
だけだから	-8790
だったのに	-8791
だと思うわ	-8792
ちゃくちゃ	-8793
っそのこと	-8794
ったところ	-8795
っちの方が	-8796
っておいた	-8797
ってきてる	-8798
ってことで	-8799
ってしまい	-8800
ってました	-8801
って言った	-8802
できそうな	-8803
できなくて	-8804
できるから	-8805
というのが	-8806
との事です	-8807
と思ったら	-8808
どこにある	-8809
ないですか	-8810
ないですし	-8811
ないんです	-8812
なっている	-8813
なんて想像	-8814
にしないと	-8815
にちょっと	-8816
になりたい	-8817
には行った	-8818
に入れたい	-8819
に対しての	-8820
に戻ります	-8821
に行きます	-8822
のお手伝い	-8823
のものです	-8824
のスタッフ	-8825
の人たちは	-8826
の締め切り	-8827
はどういう	-8828
はもう少し	-8829
ほとんどは	-8830
まっている	-8831
みたいだし	-8832
もあるから	-8833
ようとして	-8834
りましたか	-8835
るのが好き	-8836
れていると	-8837
をするのは	-8838
んですかね	-8839
アウトタグ	-8840
アジア地域	-8841
アナウンス	-8842
アメリカの	-8843
イスラム教	-8844
イヤモンド	-8845
ウェビナー	-8846
オリジナル	-8847
クリスさん	-8848
コスト削減	-8849
コンテンツ	-8850
コーヒーの	-8851
サンフラン	-8852
ジェイソン	-8853
スクリーン	-8854
スムーズに	-8855
ターミナル	-8856
ティムさん	-8857
ディングの	-8858
トン当たり	-8859
ドルくらい	-8860
バイキング	-8861
ファイルの	-8862
ファイルは	-8863
フィールド	-8864
フォルダー	-8865
ブライアン	-8866
ブライダル	-8867
プレゼンで	-8868
ベンション	-8869
ベーション	-8870
ペナルティ	-8871
ポイントは	-8872
マネジャー	-8873
マーケター	-8874
ラーニング	-8875
リミテッド	-8876
リーダーで	-8877
レイアウト	-8878
レイチェル	-8879
ワシントン	-8880
万円くらい	-8881
予定ですか	-8882
予測に反映	-8883
人数が多い	-8884
仕事の後に	-8885
仕事をこな	-8886
仕方がない	-8887
代わります	-8888
代独身男性	-8889
何よりです	-8890
使っていた	-8891
冷蔵庫から	-8892
出来ますか	-8893
分かったら	-8894
利永さんが	-8895
及び売上計	-8896
山本さんが	-8897
念のために	-8898
思いますか	-8899
恐縮ですが	-8900
情報を入力	-8901
意味ですか	-8902
感じですか	-8903
感じですね	-8904
慣れている	-8905
持っていく	-8906
掛け合って	-8907
新入社員の	-8908
時間くらい	-8909
楽しみです	-8910
焦点を当て	-8911
知ってもら	-8912
確認したい	-8913
空いてます	-8914
経験のある	-8915
考えられる	-8916
船荷証券の	-8917
落ち着いた	-8918
見てみるよ	-8919
角田さんが	-8920
話し合って	-8921
送りますね	-8922
都合の良い	-8923
開発部では	-8924
間違いない	-8925
間違いなく	-8926
難しい選択	-8927
頂きました	-8928
頑張ってね	-8929
食べられる	-8930
▁ありますよ	-8931
▁そうしたら	-8932
▁そのような	-8933
▁それは大変	-8934
▁それは良い	-8935
▁だからこそ	-8936
▁まず最初に	-8937
▁わからない	-8938
▁インターン	-8939
▁キャンセル	-8940
▁パッケージ	-8941
▁ベンさんは	-8942
▁今日この後	-8943
▁他には何か	-8944
▁元気ですよ	-8945
▁前回の注文	-8946
▁基本的には	-8947
▁失礼ですが	-8948
▁打ち合わせ	-8949
▁最終的には	-8950
▁残念ですが	-8951
▁良い一日を	-8952
ありましたら	-8953
ありますので	-8954
いいですよね	-8955
いいと思うよ	-8956
いいんですか	-8957
いけなかった	-8958
いたんですが	-8959
うちの会社が	-8960
うちの会社は	-8961
お願いしたい	-8962
かっています	-8963
かりませんが	-8964
が終わったら	-8965
くなっちゃう	-8966
くなっている	-8967
くらいがいい	-8968
くれて有難う	-8969
ごめんなさい	-8970
されなかった	-8971
しかったです	-8972
したいんです	-8973
していますね	-8974
しているのを	-8975
しておきたい	-8976
してみようか	-8977
してもらった	-8978
してるんです	-8979
しまいますよ	-8980
することにな	-8981
それだけです	-8982
それはとても	-8983
だったんだよ	-8984
ちょっといい	-8985
っていうのは	-8986
ってもらえる	-8987
できませんが	-8988
できるんです	-8989
でもいいから	-8990
といいですね	-8991
ということに	-8992
ところでした	-8993
とは何ですか	-8994
とは思えない	-8995
と思ってます	-8996
どうしました	-8997
どうだろうか	-8998
どれくらいの	-8999
ないんですが	-9000
なくなったら	-9001
になってから	-9002
に与える影響	-9003
に連れて行く	-9004
のことばかり	-9005
のないように	-9006
はどれくらい	-9007
はないですね	-9008
はないですよ	-9009
みたいだから	-9010
もありますね	-9011
やってくれる	-9012
やってみたい	-9013
ようであれば	-9014
ようなんです	-9015
ようにお願い	-9016
よろしかった	-9017
られています	-9018
りましたので	-9019
るんですけど	-9020
わからなくて	-9021
わかりますよ	-9022
をしてくれた	-9023
をしてほしい	-9024
をしましょう	-9025
を送りますね	-9026
アンティグア	-9027
インドネシア	-9028
ウィジェット	-9029
オフィスを出	-9030
キャンディス	-9031
ショッピング	-9032
ジョアンさん	-9033
チームとして	-9034
チームワーク	-9035
ドレッシング	-9036
ナッツフリー	-9037
ピックアップ	-9038
プライベート	-9039
メールが来て	-9040
メールします	-9041
事も可能です	-9042
仕事ができる	-9043
伝えて下さい	-9044
何か問題でも	-9045
使えるように	-9046
信じられない	-9047
内と申します	-9048
円になります	-9049
分からなくて	-9050
厳しいですね	-9051
問題ないです	-9052
大変だったよ	-9053
失礼しました	-9054
小売アパレル	-9055
当番の引継ぎ	-9056
影響を受ける	-9057
心配しなくて	-9058
忘れないでね	-9059
掛けください	-9060
構いませんよ	-9061
決まりました	-9062
理解できます	-9063
知っているよ	-9064
知りたかった	-9065
私のほうから	-9066
私の名刺です	-9067
空いています	-9068
聞いてみたら	-9069
聞いてみるよ	-9070
聞きましたよ	-9071
間に合わない	-9072
願っています	-9073
飛び込み営業	-9074
Company	-9075
UBTOTAL	-9076
▁これについて	-9077
▁しかしながら	-9078
▁それは助かる	-9079
▁つきましては	-9080
▁よろしければ	-9081
▁サプライヤー	-9082
▁トレヴィーノ	-9083
▁今週末までに	-9084
いたいのですが	-9085
お願いしていた	-9086
かもしれないし	-9087
か分かりますか	-9088
があってお電話	-9089
がありましたら	-9090
がありますよね	-9091
が入っています	-9092
ことありますか	-9093
ことにしました	-9094
こともあります	-9095
このポジション	-9096
この件について	-9097
ご了承ください	-9098
ご存知ですよね	-9099
されていますか	-9100
されております	-9101
されるのですか	-9102
したいんだけど	-9103
していることが	-9104
しておりますが	-9105
してくれるかな	-9106
してたんですが	-9107
してるんですか	-9108
それはちょっと	-9109
だけじゃなくて	-9110
だったんですか	-9111
っておりまして	-9112
ってことですか	-9113
でございますか	-9114
ではないですが	-9115
ではないですね	-9116
ではないですよ	-9117
とは思いますが	-9118
と聞いています	-9119
どうなりますか	-9120
なかったですか	-9121
についてお電話	-9122
になってるんだ	-9123
になりますよね	-9124
に行ってきます	-9125
のサンドイッチ	-9126
はございますか	-9127
はないのですが	-9128
ようになります	-9129
アイビーリーグ	-9130
クリエイティブ	-9131
コンサルタント	-9132
サービスを提供	-9133
タブをクリック	-9134
チームリーダー	-9135
プレスリリース	-9136
プロジェクトが	-9137
マネージメント	-9138
マネージャーの	-9139
マネージャーを	-9140
伺っております	-9141
商品についての	-9142
小企業グループ	-9143
待ってください	-9144
折り返しお電話	-9145
書いてあります	-9146
東京オフィスに	-9147
真面目に働いて	-9148
経験があります	-9149
聞いたのですが	-9150
良さそうですね	-9151
▁お忙しいところ	-9152
▁このポジション	-9153
▁ご迷惑をおかけ	-9154
▁ご迷惑をお掛け	-9155
▁そうしましょう	-9156
▁どうしましたか	-9157
▁なるほどですね	-9158
▁カリフォルニア	-9159
▁コンピューター	-9160
▁シャーマンです	-9161
▁ジョンソンさん	-9162
▁メールアドレス	-9163
▁リーと申します	-9164
いたしましょうか	-9165
いただいています	-9166
お願いいたします	-9167
お願いできるかな	-9168
かも知れないけど	-9169
ことはできません	-9170
されてるんですか	-9171
さんお願いします	-9172
しているんですが	-9173
しているんですよ	-9174
してしまいました	-9175
してみたいですね	-9176
してもらわないと	-9177
じゃないんですよ	-9178
すみませんでした	-9179
すればよいですか	-9180
っても構いません	-9181
できませんでした	-9182
できるようになる	-9183
ではありませんが	-9184
と思ったんですが	-9185
どうしたんですか	-9186
に送ってください	-9187
のは知っています	-9188
の高田と申します	-9189
アウトタグアウト	-9190
インターフェース	-9191
コンディショナー	-9192
サンフランシスコ	-9193
スタートアップの	-9194
ピボットテーブル	-9195
メールアドレスは	-9196
全力を尽くします	-9197
大丈夫だと思うよ	-9198
必要はありません	-9199
方がいいですよね	-9200
聞いてくださいね	-9201
頑張ってください	-9202
▁いらっしゃいませ	-9203
▁そうなんですよね	-9204
▁どうしたんですか	-9205
▁有難うございます	-9206
▁素晴らしいですね	-9207
いらっしゃいました	-9208
うちのホームページ	-9209
お電話代わりました	-9210
かも知れないですね	-9211
ことになっています	-9212
してもらいましょう	-9213
じゃないでしょうか	-9214
するかもしれません	-9215
たくさんありますよ	-9216
できると思いますか	-9217
できると思いますよ	-9218
どうなさいましたか	-9219
になるかもしれない	-9220
はあると思いますか	-9221
はどのくらいですか	-9222
ることになりました	-9223
を教えて頂けますか	-9224
オリエンテーション	-9225
サーバーオプション	-9226
マーケティング戦略	-9227
ロジスティクス研究	-9228
今お時間ありますか	-9229
大きなプロジェクト	-9230
小売アパレルストア	-9231
教えてもらえますか	-9232
▁それはすごいですね	-9233
▁ソーシャルメディア	-9234
いたことはありますか	-9235
おっしゃっていました	-9236
お時間よろしいですか	-9237
について話し合いたい	-9238
になってしまいました	-9239
るのはどうでしょうか	-9240
をさせていただきます	-9241
教えていただけますか	-9242
聞いたことがあります	-9243
頂き有難うございます	-9244
いただけると助かります	-9245
しないといけないんです	-9246
にありがとうございます	-9247
について教えてください	-9248
▁そう言っていただけると	-9249
▁それは素晴らしいですね	-9250
▁少々お待ちくださいませ	-9251
オンラインマーケティング	-9252
どのようなご用件でしょうか	-9253
についてお話したいのですが	-9254
リミテッドパートナーシップ	-9255
本当にありがとうございます	-9256
頂いてありがとうございます	-9257
▁どのようなご用件でしょうか	-9258
いただいてありがとうございます	-9259
くださってありがとうございます	-9260
-9	-9261
22	-9262
27	-9263
39	-9264
58	-9265
87	-9266
AC	-9267
CD	-9268
CF	-9269
CZ	-9270
KB	-9271
OS	-9272
PC	-9273
TM	-9274
en	-9275
et	-9276
▁I	-9277
▁サ	-9278
▁タ	-9279
▁ナ	-9280
▁ニ	-9281
▁ヒ	-9282
▁下	-9283
▁休	-9284
▁出	-9285
▁右	-9286
▁和	-9287
▁噂	-9288
▁安	-9289
▁川	-9290
▁強	-9291
▁悪	-9292
▁杉	-9293
▁村	-9294
▁来	-9295
▁柏	-9296
▁歩	-9297
▁気	-9298
▁浅	-9299
▁温	-9300
▁火	-9301
▁白	-9302
▁直	-9303
▁表	-9304
▁裏	-9305
▁言	-9306
▁速	-9307
▁運	-9308
▁遠	-9309
▁食	-9310
あい	-9311
あん	-9312
いだ	-9313
いに	-9314
いも	-9315
いよ	-9316
おか	-9317
お揃	-9318
お茶	-9319
かで	-9320
か伺	-9321
がこ	-9322
がた	-9323
が初	-9324
が持	-9325
が机	-9326
が行	-9327
が進	-9328
が適	-9329
くせ	-9330
くつ	-9331
くわ	-9332
けが	-9333
しき	-9334
しも	-9335
じた	-9336
すま	-9337
すん	-9338
ずね	-9339
ずは	-9340
せい	-9341
せた	-9342
だぞ	-9343
だの	-9344
っぺ	-9345
っ張	-9346
つい	-9347
つく	-9348
で一	-9349
で全	-9350
で切	-9351
で動	-9352
で私	-9353
で育	-9354
で話	-9355
とく	-9356
とみ	-9357
とト	-9358
と青	-9359
に伴	-9360
に甘	-9361
に訳	-9362
に足	-9363
に近	-9364
に遭	-9365
に配	-9366
のこ	-9367
の便	-9368
の回	-9369
の旅	-9370
の者	-9371
はと	-9372
は今	-9373
は各	-9374
は如	-9375
ふん	-9376
みの	-9377
も出	-9378
も味	-9379
も有	-9380
も無	-9381
やっ	-9382
よー	-9383
らが	-9384
らに	-9385
らん	-9386
るな	-9387
れも	-9388
れ家	-9389
をい	-9390
を好	-9391
を抑	-9392
を抱	-9393
を救	-9394
を残	-9395
を渡	-9396
を終	-9397
を結	-9398
を試	-9399
を贈	-9400
を足	-9401
を連	-9402
を配	-9403
を集	-9404
を頼	-9405
んて	-9406
エス	-9407
エド	-9408
オニ	-9409
オム	-9410
カヤ	-9411
カ月	-9412
クー	-9413
コツ	-9414
ゴン	-9415
サブ	-9416
スマ	-9417
ズの	-9418
ッと	-9419
ッキ	-9420
テム	-9421
デイ	-9422
トナ	-9423
ニエ	-9424
パイ	-9425
パラ	-9426
ビザ	-9427
ブリ	-9428
ブレ	-9429
ブロ	-9430
ヘア	-9431
ホリ	-9432
ポリ	-9433
ポン	-9434
マシ	-9435
マリ	-9436
モチ	-9437
モー	-9438
ラシ	-9439
ラブ	-9440
リダ	-9441
ロバ	-9442
ンビ	-9443
ーす	-9444
一括	-9445
万ト	-9446
上は	-9447
上位	-9448
不可	-9449
不要	-9450
両親	-9451
中川	-9452
中村	-9453
中退	-9454
中途	-9455
主が	-9456
主催	-9457
主導	-9458
乾燥	-9459
事や	-9460
交代	-9461
人手	-9462
人達	-9463
人間	-9464
付加	-9465
付近	-9466
代も	-9467
代を	-9468
仮に	-9469
件か	-9470
任意	-9471
会が	-9472
位の	-9473
住民	-9474
何て	-9475
何名	-9476
何故	-9477
余計	-9478
作る	-9479
例外	-9480
侵入	-9481
促す	-9482
促進	-9483
保留	-9484
保管	-9485
俺の	-9486
俺は	-9487
側に	-9488
備え	-9489
備員	-9490
億円	-9491
儲け	-9492
元々	-9493
元は	-9494
充実	-9495
充電	-9496
先程	-9497
入札	-9498
全般	-9499
共同	-9500
内線	-9501
再送	-9502
再開	-9503
出さ	-9504
出向	-9505
出身	-9506
分が	-9507
分を	-9508
分前	-9509
分譲	-9510
分間	-9511
初耳	-9512
利厚	-9513
制作	-9514
削除	-9515
前で	-9516
前は	-9517
前年	-9518
前日	-9519
力の	-9520
功績	-9521
勝手	-9522
勤勉	-9523
医師	-9524
協議	-9525
単に	-9526
単価	-9527
占有	-9528
印を	-9529
卸売	-9530
収容	-9531
取る	-9532
口で	-9533
口様	-9534
右側	-9535
同一	-9536
同情	-9537
同様	-9538
名古	-9539
向か	-9540
君も	-9541
周年	-9542
周波	-9543
員で	-9544
員の	-9545
善を	-9546
喫茶	-9547
器具	-9548
回し	-9549
国内	-9550
土日	-9551
基幹	-9552
声が	-9553
売買	-9554
変換	-9555
夏の	-9556
夕飯	-9557
外へ	-9558
外食	-9559
多少	-9560
大会	-9561
大分	-9562
大野	-9563
大金	-9564
天然	-9565
奈緒	-9566
妥当	-9567
始発	-9568
季節	-9569
学の	-9570
学べ	-9571
学習	-9572
学者	-9573
宅配	-9574
定例	-9575
家の	-9576
対面	-9577
封筒	-9578
少な	-9579
就任	-9580
屋に	-9581
屋根	-9582
層は	-9583
層部	-9584
山下	-9585
工件	-9586
帽子	-9587
幅な	-9588
干渉	-9589
平気	-9590
年を	-9591
年半	-9592
年棒	-9593
幸せ	-9594
幾つ	-9595
広州	-9596
店で	-9597
店を	-9598
座り	-9599
延長	-9600
引く	-9601
当局	-9602
当番	-9603
待機	-9604
待遇	-9605
後任	-9606
志願	-9607
応対	-9608
応接	-9609
性を	-9610
意思	-9611
意義	-9612
意識	-9613
愚痴	-9614
感心	-9615
態度	-9616
我社	-9617
所で	-9618
手軽	-9619
扱う	-9620
折角	-9621
抵抗	-9622
持参	-9623
指揮	-9624
挙手	-9625
措置	-9626
搭乗	-9627
携わ	-9628
支配	-9629
改装	-9630
数人	-9631
数分	-9632
数社	-9633
斬新	-9634
新任	-9635
新年	-9636
新鮮	-9637
既成	-9638
早め	-9639
早期	-9640
春に	-9641
時を	-9642
時代	-9643
暖か	-9644
曜と	-9645
更に	-9646
更衣	-9647
替わ	-9648
有利	-9649
服装	-9650
望ま	-9651
本件	-9652
本様	-9653
本番	-9654
杉は	-9655
柔軟	-9656
栄養	-9657
案は	-9658
検疫	-9659
概況	-9660
構わ	-9661
構造	-9662
標準	-9663
権限	-9664
横浜	-9665
機に	-9666
正面	-9667
歯科	-9668
殆ど	-9669
残る	-9670
毎週	-9671
気も	-9672
気味	-9673
気持	-9674
水を	-9675
水口	-9676
水木	-9677
汚染	-9678
決心	-9679
決裁	-9680
沖縄	-9681
沢湖	-9682
治療	-9683
法的	-9684
洋服	-9685
洞察	-9686
浮か	-9687
海鮮	-9688
浸し	-9689
混む	-9690
混乱	-9691
混雑	-9692
渡辺	-9693
温泉	-9694
無く	-9695
照明	-9696
特定	-9697
犠牲	-9698
狭い	-9699
珠璃	-9700
用化	-9701
田が	-9702
田沼	-9703
甲斐	-9704
疑い	-9705
発で	-9706
発信	-9707
発展	-9708
発火	-9709
発給	-9710
発見	-9711
発電	-9712
皆の	-9713
目撃	-9714
目線	-9715
直に	-9716
相互	-9717
真ん	-9718
眼鏡	-9719
着用	-9720
知的	-9721
短期	-9722
石油	-9723
砂糖	-9724
礼儀	-9725
社か	-9726
社や	-9727
私と	-9728
移転	-9729
税金	-9730
突っ	-9731
立た	-9732
竹林	-9733
等の	-9734
箇所	-9735
簡潔	-9736
精進	-9737
純粋	-9738
素材	-9739
累計	-9740
経つ	-9741
絡む	-9742
継ぐ	-9743
繋ぎ	-9744
纏め	-9745
罰則	-9746
義理	-9747
習慣	-9748
職の	-9749
職率	-9750
自炊	-9751
葬儀	-9752
藤野	-9753
行う	-9754
行と	-9755
表で	-9756
表は	-9757
補強	-9758
複合	-9759
複数	-9760
複雑	-9761
褒め	-9762
西山	-9763
要件	-9764
要因	-9765
要約	-9766
要項	-9767
見る	-9768
見当	-9769
親戚	-9770
言及	-9771
設け	-9772
設立	-9773
詐欺	-9774
試合	-9775
語を	-9776
誠実	-9777
誰の	-9778
課で	-9779
豚肉	-9780
豪華	-9781
販促	-9782
貸し	-9783
賃金	-9784
赤い	-9785
起き	-9786
足が	-9787
踏ま	-9788
身分	-9789
辛抱	-9790
辞め	-9791
農家	-9792
込め	-9793
近々	-9794
近藤	-9795
返し	-9796
返答	-9797
返送	-9798
送信	-9799
逃げ	-9800
透明	-9801
途上	-9802
途中	-9803
通し	-9804
速く	-9805
速度	-9806
週に	-9807
運用	-9808
道は	-9809
道路	-9810
適役	-9811
遭遇	-9812
郊外	-9813
部で	-9814
部と	-9815
配偶	-9816
金が	-9817
金は	-9818
長所	-9819
開拓	-9820
間島	-9821
閲覧	-9822
防げ	-9823
防水	-9824
防災	-9825
降り	-9826
隔月	-9827
際は	-9828
障害	-9829
集ま	-9830
雇用	-9831
離れ	-9832
電解	-9833
青木	-9834
面談	-9835
顔見	-9836
香港	-9837
馬場	-9838
高橋	-9839
魚は	-9840
10%	-9841
120	-9842
250	-9843
700	-9844
800	-9845
ACL	-9846
CFO	-9847
VAT	-9848
ord	-9849
▁13	-9850
▁25	-9851
▁xx	-9852
▁あく	-9853
▁お力	-9854
▁お店	-9855
▁たと	-9856
▁ふふ	-9857
▁ふん	-9858
▁やぁ	-9859
▁わあ	-9860
▁アイ	-9861
▁カー	-9862
▁ケン	-9863
▁シェ	-9864
▁スポ	-9865
▁ボブ	-9866
▁ラム	-9867
▁不安	-9868
▁事務	-9869
▁交通	-9870
▁今迄	-9871
▁会計	-9872
▁住宅	-9873
▁佐伯	-9874
▁使い	-9875
▁倉庫	-9876
▁先に	-9877
▁具体	-9878
▁労働	-9879
▁動画	-9880
▁募集	-9881
▁化粧	-9882
▁取り	-9883
▁取材	-9884
▁合計	-9885
▁名刺	-9886
▁名前	-9887
▁回答	-9888
▁地域	-9889
▁外国	-9890
▁大体	-9891
▁大概	-9892
▁始め	-9893
▁客先	-9894
▁小計	-9895
▁山下	-9896
▁山元	-9897
▁平均	-9898
▁年齢	-9899
▁幸い	-9900
▁広州	-9901
▁弊社	-9902
▁当社	-9903
▁後任	-9904
▁息子	-9905
▁恵子	-9906
▁悪い	-9907
▁持ち	-9908
▁支払	-9909
▁文字	-9910
▁文章	-9911
▁日頃	-9912
▁昨年	-9913
▁時差	-9914
▁普段	-9915
▁最大	-9916
▁期待	-9917
▁業務	-9918
▁楽し	-9919
▁歓迎	-9920
▁正確	-9921
▁無理	-9922
▁状況	-9923
▁直接	-9924
▁相手	-9925
▁相談	-9926
▁社食	-9927
▁私と	-9928
▁私共	-9929
▁秘書	-9930
▁積み	-9931
▁管理	-9932
▁経営	-9933
▁経理	-9934
▁聞く	-9935
▁自信	-9936
▁自動	-9937
▁自宅	-9938
▁言語	-9939
▁詳細	-9940
▁説明	-9941
▁誰も	-9942
▁警察	-9943
▁議題	-9944
▁資金	-9945
▁返品	-9946
▁退職	-9947
▁通訳	-9948
▁連休	-9949
▁配布	-9950
▁面白	-9951
▁風邪	-9952
▁高橋	-9953
、50	-9954
」、「	-9955
あるわ	-9956
いうと	-9957
いくつ	-9958
いくと	-9959
いずれ	-9960
いでに	-9961
いるし	-9962
うのは	-9963
う事は	-9964
えーと	-9965
おあり	-9966
おうか	-9967
おかげ	-9968
おくよ	-9969
おこう	-9970
お値段	-9971
お土産	-9972
お天気	-9973
お店は	-9974
お招き	-9975
お答え	-9976
お迎え	-9977
お金も	-9978
かかわ	-9979
かしな	-9980
から仕	-9981
か想像	-9982
か月に	-9983
がつく	-9984
がでて	-9985
がやり	-9986
が伸び	-9987
が使え	-9988
が入る	-9989
が入力	-9990
が多数	-9991
が大き	-9992
が得意	-9993
が早い	-9994
が期待	-9995
が混入	-9996
が無い	-9997
が確定	-9998
が苦手	-9999
きたら	-10000
ぎりぎ	-10001
くから	-10002
くさい	-10003
くせに	-10004
くなり	-10005
くるの	-10006
けちゃ	-10007
ここが	-10008
ここは	-10009
この人	-10010
この前	-10011
ころは	-10012
ごとの	-10013
ご存じ	-10014
ご心配	-10015
ご挨拶	-10016
ご苦労	-10017
ご返事	-10018
さすが	-10019
さには	-10020
さほど	-10021
しいね	-10022
しかね	-10023
したと	-10024
した事	-10025
した時	-10026
してこ	-10027
すのは	-10028
する時	-10029
すんな	-10030
せるよ	-10031
そうに	-10032
そこが	-10033
その人	-10034
その他	-10035
その時	-10036
その話	-10037
その辺	-10038
その頃	-10039
たから	-10040
たずね	-10041
たちも	-10042
だいぶ	-10043
だと思	-10044
だんだ	-10045
ちこち	-10046
ちょこ	-10047
ったな	-10048
ったん	-10049
ってい	-10050
っての	-10051
つでも	-10052
つなが	-10053
でいる	-10054
でなく	-10055
で日本	-10056
で検索	-10057
で終わ	-10058
で表示	-10059
で通勤	-10060
とかは	-10061
とこの	-10062
とこれ	-10063
となり	-10064
と共に	-10065
と共有	-10066
と取引	-10067
と直接	-10068
と違う	-10069
と部長	-10070
と配送	-10071
と関東	-10072
と電話	-10073
と飲み	-10074
どうせ	-10075
どうだ	-10076
どおり	-10077
などで	-10078
ならご	-10079
なるし	-10080
なるよ	-10081
なれば	-10082
になさ	-10083
になら	-10084
には出	-10085
に価値	-10086
に値段	-10087
に出勤	-10088
に加工	-10089
に感謝	-10090
に戻り	-10091
に書き	-10092
に比べ	-10093
に気づ	-10094
に注文	-10095
に確認	-10096
に置く	-10097
に署名	-10098
に苦情	-10099
に設定	-10100
に貢献	-10101
に進む	-10102
のいい	-10103
のかけ	-10104
の一員	-10105
の上に	-10106
の予算	-10107
の交渉	-10108
の人々	-10109
の倉庫	-10110
の原因	-10111
の取得	-10112
の対応	-10113
の小売	-10114
の料金	-10115
の時間	-10116
の機能	-10117
の注文	-10118
の流れ	-10119
の火災	-10120
の現状	-10121
の理由	-10122
の発掘	-10123
の窓口	-10124
の計画	-10125
の負担	-10126
の進捗	-10127
の関係	-10128
の高い	-10129
の高校	-10130
は予約	-10131
は何か	-10132
は何時	-10133
は当日	-10134
は無い	-10135
ぶりの	-10136
ほどで	-10137
まさか	-10138
みるの	-10139
みるわ	-10140
みれば	-10141
むしろ	-10142
める事	-10143
もあり	-10144
もしか	-10145
もそれ	-10146
もった	-10147
もとも	-10148
ものの	-10149
もんな	-10150
も上が	-10151
も何も	-10152
も参加	-10153
も可能	-10154
も確認	-10155
も考慮	-10156
も販売	-10157
やると	-10158
ようだ	-10159
らかに	-10160
るかな	-10161
るのか	-10162
る事は	-10163
をあげ	-10164
をお持	-10165
をたて	-10166
を一つ	-10167
を作り	-10168
を使い	-10169
を使わ	-10170
を保存	-10171
を全部	-10172
を出荷	-10173
を務め	-10174
を変え	-10175
を実施	-10176
を専攻	-10177
を引く	-10178
を得る	-10179
を挿入	-10180
を探す	-10181
を改善	-10182
を書く	-10183
を求め	-10184
を確保	-10185
を表す	-10186
を記入	-10187
を設定	-10188
を許可	-10189
を販売	-10190
を追加	-10191
を選ば	-10192
を選べ	-10193
を頼む	-10194
アシュ	-10195
アット	-10196
アロン	-10197
アンナ	-10198
イマイ	-10199
イヤー	-10200
ウェー	-10201
エンザ	-10202
オーガ	-10203
カイル	-10204
カフェ	-10205
カヤマ	-10206
カルビ	-10207
グラス	-10208
サムは	-10209
シフト	-10210
シャン	-10211
スクト	-10212
ストロ	-10213
ストン	-10214
セラー	-10215
ゼルス	-10216
タリア	-10217
ターで	-10218
ダムス	-10219
ッパ車	-10220
ティア	-10221
トナム	-10222
トリー	-10223
トルコ	-10224
ネーム	-10225
ノート	-10226
バッグ	-10227
パック	-10228
パット	-10229
パンク	-10230
パーク	-10231
パーソ	-10232
パーツ	-10233
ヒント	-10234
ビック	-10235
ビッド	-10236
ビング	-10237
ピンク	-10238
フォン	-10239
ブログ	-10240
ブーダ	-10241
プレー	-10242
ペーン	-10243
ホット	-10244
ボトル	-10245
ポンス	-10246
マイカ	-10247
マッサ	-10248
マナー	-10249
マンド	-10250
ミスで	-10251
ムです	-10252
ュータ	-10253
ラソン	-10254
ラード	-10255
リュー	-10256
リート	-10257
リード	-10258
レンジ	-10259
レンタ	-10260
ロサン	-10261
ロリダ	-10262
ヶ国語	-10263
ヶ月前	-10264
一ヶ月	-10265
一人の	-10266
万トン	-10267
上司と	-10268
上司も	-10269
下さり	-10270
中国語	-10271
予定が	-10272
予算を	-10273
事業所	-10274
二か月	-10275
二人が	-10276
二人で	-10277
井課長	-10278
交流を	-10279
人々が	-10280
人とも	-10281
人はい	-10282
人まで	-10283
人事に	-10284
人事の	-10285
人件費	-10286
人数は	-10287
人達が	-10288
今でも	-10289
今週は	-10290
仕事と	-10291
他部署	-10292
代替品	-10293
以上は	-10294
企業で	-10295
企業名	-10296
休みが	-10297
会えて	-10298
会える	-10299
会を開	-10300
会場の	-10301
会社へ	-10302
会話が	-10303
会議が	-10304
会議も	-10305
体調崩	-10306
何かを	-10307
何とも	-10308
何の話	-10309
何件か	-10310
何度か	-10311
何時に	-10312
作るの	-10313
価値を	-10314
価格で	-10315
価格の	-10316
保険で	-10317
修士号	-10318
個別に	-10319
優秀な	-10320
先日の	-10321
全体が	-10322
全員で	-10323
全社で	-10324
公立校	-10325
再起動	-10326
出張を	-10327
出張中	-10328
出荷量	-10329
分しか	-10330
分まで	-10331
分休憩	-10332
初めは	-10333
初心者	-10334
別々に	-10335
利厚生	-10336
制度の	-10337
前倒し	-10338
加えて	-10339
募金を	-10340
勤めて	-10341
午後は	-10342
占有率	-10343
印刷は	-10344
卵料理	-10345
原材料	-10346
厳しく	-10347
参加者	-10348
参考に	-10349
取れた	-10350
受ける	-10351
合える	-10352
同僚が	-10353
同士で	-10354
名です	-10355
名前で	-10356
命の恩	-10357
品物の	-10358
問題は	-10359
回数券	-10360
国内で	-10361
地元の	-10362
地域で	-10363
坂さん	-10364
増えた	-10365
増える	-10366
声かけ	-10367
売上は	-10368
売上を	-10369
売上高	-10370
変えた	-10371
変える	-10372
変更の	-10373
外から	-10374
外回り	-10375
外部の	-10376
多くは	-10377
大人気	-10378
女性の	-10379
好きで	-10380
始まり	-10381
嫌だな	-10382
子供が	-10383
学校に	-10384
実験室	-10385
寂しい	-10386
山中君	-10387
岡さん	-10388
工場長	-10389
工学を	-10390
工業系	-10391
年間約	-10392
建設の	-10393
弁当箱	-10394
弊社で	-10395
当初の	-10396
当社が	-10397
当社に	-10398
当社は	-10399
役割を	-10400
彼には	-10401
御自身	-10402
心配し	-10403
必死に	-10404
忘れる	-10405
応募者	-10406
応接室	-10407
思って	-10408
恐らく	-10409
恐れ入	-10410
悪いね	-10411
悪くて	-10412
情報も	-10413
意義な	-10414
慎重に	-10415
戻った	-10416
手に入	-10417
手伝う	-10418
手間も	-10419
打開策	-10420
技術は	-10421
担当と	-10422
招待状	-10423
採鉱場	-10424
提供し	-10425
支える	-10426
支店に	-10427
支払う	-10428
教育係	-10429
数字と	-10430
文句を	-10431
新人に	-10432
新幹線	-10433
方から	-10434
方とか	-10435
方はご	-10436
施設を	-10437
日中に	-10438
日以内	-10439
日本で	-10440
日本産	-10441
日本酒	-10442
明るい	-10443
明後日	-10444
時点で	-10445
普段の	-10446
暮らし	-10447
更衣室	-10448
書類は	-10449
最優先	-10450
最適な	-10451
月まで	-10452
有難い	-10453
朝早く	-10454
木曜に	-10455
本日の	-10456
材木は	-10457
村です	-10458
来年の	-10459
林業と	-10460
案件を	-10461
業界は	-10462
業界を	-10463
機械の	-10464
機械を	-10465
正しく	-10466
正直に	-10467
正確に	-10468
歯医者	-10469
毎年恒	-10470
気に召	-10471
気付く	-10472
決算の	-10473
注文を	-10474
消火器	-10475
消費税	-10476
済みの	-10477
減らす	-10478
無駄な	-10479
父親も	-10480
特別に	-10481
状況が	-10482
珠璃愛	-10483
現実的	-10484
生徒の	-10485
田先生	-10486
田部長	-10487
申請し	-10488
申請書	-10489
発行部	-10490
皆さま	-10491
監査役	-10492
監査法	-10493
目で見	-10494
目的は	-10495
着いて	-10496
着工件	-10497
知識と	-10498
研修生	-10499
社とは	-10500
社の吉	-10501
社の松	-10502
社員と	-10503
私がお	-10504
私達の	-10505
種類の	-10506
稼いで	-10507
稼げる	-10508
積んで	-10509
立場に	-10510
管理の	-10511
箱分の	-10512
素敵な	-10513
組んで	-10514
経理の	-10515
給料を	-10516
続いて	-10517
綺麗な	-10518
置いた	-10519
考え方	-10520
者です	-10521
聞かせ	-10522
聞けて	-10523
職務を	-10524
職探し	-10525
腕時計	-10526
良いよ	-10527
良くな	-10528
良心的	-10529
色んな	-10530
若い子	-10531
行けば	-10532
行動を	-10533
褒めて	-10534
見学を	-10535
見積り	-10536
規模の	-10537
視察団	-10538
観光客	-10539
設定の	-10540
試運転	-10541
話しか	-10542
詳細に	-10543
詳細の	-10544
語学力	-10545
説明会	-10546
警備員	-10547
買った	-10548
買って	-10549
資料室	-10550
質問は	-10551
質問や	-10552
贈り物	-10553
贈答品	-10554
起こり	-10555
起こる	-10556
超える	-10557
載せて	-10558
輸出入	-10559
込みで	-10560
込んだ	-10561
追いつ	-10562
追加の	-10563
通りの	-10564
通知を	-10565
連絡は	-10566
週間後	-10567
遂げた	-10568
過去の	-10569
避けて	-10570
避ける	-10571
部内で	-10572
部分に	-10573
部署も	-10574
部門の	-10575
都内の	-10576
都合は	-10577
量制限	-10578
金曜の	-10579
金額は	-10580
開ける	-10581
間での	-10582
関わり	-10583
関係は	-10584
関税率	-10585
限りの	-10586
限りは	-10587
陸する	-10588
隠れ家	-10589
離職率	-10590
電池は	-10591
需要は	-10592
面では	-10593
面取り	-10594
面接は	-10595
順番に	-10596
頑張れ	-10597
頼りに	-10598
顧客を	-10599
食料品	-10600
飲み会	-10601
飲んだ	-10602
▁100	-10603
▁911	-10604
▁all	-10605
▁ああー	-10606
▁あーあ	-10607
▁いいの	-10608
▁おばあ	-10609
▁お疲れ	-10610
▁お越し	-10611
▁お送り	-10612
▁けれど	-10613
▁ここは	-10614
▁ここ数	-10615
▁こっち	-10616
▁この後	-10617
▁この頃	-10618
▁これで	-10619
▁これに	-10620
▁ご希望	-10621
▁ご連絡	-10622
▁さよう	-10623
▁そうは	-10624
▁その件	-10625
▁その時	-10626
▁ただの	-10627
▁どうか	-10628
▁どこの	-10629
▁なんて	-10630
▁ふーむ	-10631
▁ほとん	-10632
▁まさに	-10633
▁または	-10634
▁やっと	-10635
▁ウチの	-10636
▁カイル	-10637
▁カード	-10638
▁キッチ	-10639
▁ケイト	-10640
▁コピー	-10641
▁ゴード	-10642
▁スキー	-10643
▁ティム	-10644
▁デニス	-10645
▁トニー	-10646
▁ネイル	-10647
▁フード	-10648
▁ボラン	-10649
▁ロペス	-10650
▁一日中	-10651
▁一週間	-10652
▁上手く	-10653
▁二つの	-10654
▁今度は	-10655
▁今日も	-10656
▁今週は	-10657
▁以前は	-10658
▁伊藤様	-10659
▁会議で	-10660
▁何度か	-10661
▁僕らは	-10662
▁先方は	-10663
▁先月の	-10664
▁冷蔵庫	-10665
▁出張の	-10666
▁化粧室	-10667
▁商品の	-10668
▁営業部	-10669
▁学校は	-10670
▁完全に	-10671
▁実際は	-10672
▁射撃犯	-10673
▁履歴書	-10674
▁工場の	-10675
▁弊社が	-10676
▁当社は	-10677
▁後ほど	-10678
▁忙しい	-10679
▁怒って	-10680
▁思った	-10681
▁我々は	-10682
▁改めて	-10683
▁日本の	-10684
▁日本人	-10685
▁昨日は	-10686
▁最短で	-10687
▁最近の	-10688
▁木曜日	-10689
▁業界の	-10690
▁次回の	-10691
▁残業は	-10692
▁水曜日	-10693
▁田沢湖	-10694
▁相変わ	-10695
▁社用車	-10696
▁私から	-10697
▁私は今	-10698
▁簡単な	-10699
▁聞いて	-10700
▁航空券	-10701
▁良いお	-10702
▁色んな	-10703
▁覚えて	-10704
▁言って	-10705
▁議題は	-10706
▁追って	-10707
▁通常は	-10708
▁過去に	-10709
▁部門間	-10710
▁顧客は	-10711
▁高さん	-10712
あそこの	-10713
あたりの	-10714
あなたと	-10715
あなたを	-10716
あるので	-10717
あるんだ	-10718
いいのか	-10719
いいわよ	-10720
いうちに	-10721
いきなり	-10722
いですし	-10723
いないか	-10724
いまいち	-10725
いますと	-10726
いるのは	-10727
うことが	-10728
うまくや	-10729
うれしい	-10730
お互いの	-10731
お客様は	-10732
お手元の	-10733
お見積り	-10734
お金を稼	-10735
かったら	-10736
から輸出	-10737
がかかり	-10738
がかなり	-10739
がっかり	-10740
がやっと	-10741
が厳しい	-10742
が可能な	-10743
が増えた	-10744
が変わる	-10745
が大好き	-10746
が幾つか	-10747
が悪くて	-10748
が来期に	-10749
が決まる	-10750
が見つか	-10751
が見込み	-10752
が言って	-10753
が難しい	-10754
きますが	-10755
くださる	-10756
くなると	-10757
くれたよ	-10758
くれれば	-10759
ぐらいに	-10760
けている	-10761
ける事が	-10762
ここでの	-10763
ここでは	-10764
こととか	-10765
この業界	-10766
この電話	-10767
これまで	-10768
これらの	-10769
ご意見を	-10770
ご無沙汰	-10771
ご苦労様	-10772
さなきゃ	-10773
さんと話	-10774
しそうな	-10775
したいな	-10776
したので	-10777
したよう	-10778
した時は	-10779
した製品	-10780
した資料	-10781
しちゃう	-10782
しており	-10783
してくれ	-10784
してたの	-10785
して頂き	-10786
しといて	-10787
しまうと	-10788
しやすい	-10789
じゃなく	-10790
すっきり	-10791
するため	-10792
するよね	-10793
する事も	-10794
する人も	-10795
する場合	-10796
する際に	-10797
すんなり	-10798
せられる	-10799
その後で	-10800
その後は	-10801
その時は	-10802
その時も	-10803
その時間	-10804
その都度	-10805
それって	-10806
それです	-10807
それでも	-10808
それ以外	-10809
たところ	-10810
だけの話	-10811
だったし	-10812
だったな	-10813
だめだよ	-10814
だもんね	-10815
だんだん	-10816
ちゃんの	-10817
ってたわ	-10818
ってやつ	-10819
って頼む	-10820
っぱなし	-10821
つかない	-10822
つの部分	-10823
であった	-10824
でお会い	-10825
できてる	-10826
できるの	-10827
できるよ	-10828
ですしね	-10829
ではまた	-10830
でもこの	-10831
で考えて	-10832
で進めて	-10833
というと	-10834
とお伝え	-10835
ときには	-10836
としたら	-10837
となって	-10838
となれば	-10839
との取引	-10840
と言った	-10841
と違って	-10842
どう違う	-10843
どこでも	-10844
どこにも	-10845
どなたか	-10846
どの程度	-10847
ないかな	-10848
ないんだ	-10849
なら時間	-10850
なんだね	-10851
な雰囲気	-10852
にあった	-10853
にお返事	-10854
にお金を	-10855
にかかる	-10856
にかける	-10857
にご参加	-10858
になにか	-10859
にはない	-10860
には何か	-10861
にもいい	-10862
にアップ	-10863
にコピー	-10864
にデータ	-10865
に向かう	-10866
に教えて	-10867
に新しい	-10868
に甘えて	-10869
に行くの	-10870
に行ける	-10871
のお値段	-10872
のがいい	-10873
のことも	-10874
のせいで	-10875
のは大変	-10876
のんびり	-10877
のソフト	-10878
の一部を	-10879
の仕事の	-10880
の仕事は	-10881
の使い方	-10882
の匂いが	-10883
の手伝い	-10884
の確認が	-10885
の簡単な	-10886
の見直し	-10887
の項目を	-10888
の飛行機	-10889
はあるの	-10890
はかなり	-10891
はすでに	-10892
はどこで	-10893
はどこに	-10894
は上手く	-10895
は御社の	-10896
ひとつは	-10897
へどうぞ	-10898
へ行った	-10899
ほんとに	-10900
まあまあ	-10901
ましてお	-10902
ませんね	-10903
ませんよ	-10904
まだ時間	-10905
まったく	-10906
みたいよ	-10907
もいます	-10908
もうまく	-10909
もんだよ	-10910
も一緒に	-10911
も入れて	-10912
やっかい	-10913
ように思	-10914
らしいね	-10915
られたり	-10916
りします	-10917
るとおり	-10918
れそうな	-10919
れないよ	-10920
ろうかな	-10921
をお使い	-10922
をお聞き	-10923
をお迎え	-10924
をご購入	-10925
をしたり	-10926
をすれば	-10927
をとって	-10928
をもっと	-10929
をカバー	-10930
を伝えて	-10931
を引っ張	-10932
を手伝う	-10933
を拠点に	-10934
を探して	-10935
を書いて	-10936
を決めた	-10937
を満たす	-10938
を立てて	-10939
を見たり	-10940
を送るよ	-10941
を選んで	-10942
を開いた	-10943
を食べて	-10944
んだった	-10945
アイテム	-10946
アンです	-10947
イティブ	-10948
イマイチ	-10949
インフル	-10950
エミリー	-10951
エリック	-10952
エン専務	-10953
ギリギリ	-10954
コピーを	-10955
サイトで	-10956
サーカス	-10957
シッター	-10958
シニア層	-10959
シャワー	-10960
シーズン	-10961
ジムです	-10962
ジャック	-10963
ジョージ	-10964
スタディ	-10965
スタリカ	-10966
スタンプ	-10967
スナック	-10968
スペイン	-10969
スマート	-10970
チームを	-10971
テレビの	-10972
デスクに	-10973
デスクの	-10974
デパート	-10975
デフォル	-10976
データが	-10977
データの	-10978
トレンド	-10979
ドル以上	-10980
ニーさん	-10981
ノブです	-10982
ハイテク	-10983
バイザー	-10984
パターン	-10985
ビジョン	-10986
フィード	-10987
フロント	-10988
ブラウザ	-10989
ブラック	-10990
ブロガー	-10991
ブースに	-10992
プレッド	-10993
ヘアケア	-10994
ベトナム	-10995
ベンダー	-10996
ページの	-10997
ホテルに	-10998
ホリデー	-10999
ポリシー	-11000
マジック	-11001
メールは	-11002
メールも	-11003
ャーニー	-11004
ライバル	-11005
ラッシュ	-11006
リサです	-11007
リストの	-11008
リストラ	-11009
リソース	-11010
リチウム	-11011
リティー	-11012
ロビーで	-11013
ロベルト	-11014
ローンを	-11015
ワックス	-11016
ンク教授	-11017
一度確認	-11018
一生懸命	-11019
上場した	-11020
世界中に	-11021
中ですが	-11022
事をする	-11023
事務所に	-11024
事業展開	-11025
事業計画	-11026
事業開発	-11027
人事から	-11028
人事部の	-11029
人手不足	-11030
今までの	-11031
今日から	-11032
仕事です	-11033
仕様変更	-11034
他に何か	-11035
以外にも	-11036
企画課は	-11037
休みを取	-11038
休んじゃ	-11039
会う予定	-11040
会社持ち	-11041
会議が入	-11042
会議室に	-11043
会議室の	-11044
伺います	-11045
但馬さん	-11046
位置付け	-11047
何か質問	-11048
何人かの	-11049
使えない	-11050
使えます	-11051
価格交渉	-11052
個人向け	-11053
候補日を	-11054
働きたい	-11055
働き過ぎ	-11056
僕たちが	-11057
先ほどの	-11058
先方より	-11059
入れてる	-11060
入社した	-11061
全体的な	-11062
全体的に	-11063
共通言語	-11064
再来週の	-11065
写真を撮	-11066
写真を送	-11067
出てくる	-11068
出張に行	-11069
分ぐらい	-11070
到着予定	-11071
前に見た	-11072
割り当て	-11073
加藤さん	-11074
効率よく	-11075
動かない	-11076
動作が遅	-11077
取り組み	-11078
可能性も	-11079
同僚たち	-11080
善を尽く	-11081
営業マン	-11082
四半期に	-11083
土曜日に	-11084
土曜日の	-11085
基地局の	-11086
堂本さん	-11087
報告事項	-11088
売上計上	-11089
変わって	-11090
夕方から	-11091
外回りに	-11092
外部から	-11093
大きな額	-11094
大丈夫か	-11095
大丈夫な	-11096
大切です	-11097
大野です	-11098
学びたい	-11099
安くない	-11100
安心です	-11101
定時で帰	-11102
実行委員	-11103
対応する	-11104
導入した	-11105
導入実績	-11106
少しでも	-11107
引き継ぐ	-11108
当日の朝	-11109
得意な人	-11110
心配する	-11111
思います	-11112
思い浮か	-11113
思うけど	-11114
性のある	-11115
恵まれて	-11116
情報が入	-11117
情報交換	-11118
情報共有	-11119
意見交換	-11120
我が社が	-11121
投資機会	-11122
担当者が	-11123
持って帰	-11124
指紋認証	-11125
授賞式の	-11126
探してる	-11127
提示価格	-11128
支配人が	-11129
教えてね	-11130
教わった	-11131
新規受注	-11132
旅行社の	-11133
日ですね	-11134
日前から	-11135
日本への	-11136
明後日の	-11137
明後日は	-11138
時間がと	-11139
書を提出	-11140
最新情報	-11141
最終確認	-11142
月曜日に	-11143
月曜日の	-11144
期待して	-11145
期限が迫	-11146
村さんは	-11147
来ました	-11148
来られる	-11149
来るから	-11150
来週中に	-11151
植物検疫	-11152
業務内容	-11153
業者さん	-11154
楽しそう	-11155
様ですね	-11156
機密保持	-11157
機関決裁	-11158
比較して	-11159
氏家さん	-11160
気にして	-11161
気に入り	-11162
気持ちは	-11163
水口くん	-11164
求人募集	-11165
活かせる	-11166
海外出張	-11167
添付して	-11168
測定機器	-11169
満足して	-11170
火曜日は	-11171
特集記事	-11172
理解を深	-11173
環境改善	-11174
用の資料	-11175
用意する	-11176
皆さんは	-11177
皆さんも	-11178
盗難に遭	-11179
目玉焼き	-11180
知られて	-11181
知的財産	-11182
短すぎる	-11183
研修では	-11184
研修申請	-11185
研究室の	-11186
研究所の	-11187
確認する	-11188
社に委託	-11189
社に連絡	-11190
社の小川	-11191
社の高市	-11192
福利厚生	-11193
私たちも	-11194
私のです	-11195
私のほう	-11196
私の予定	-11197
私の方で	-11198
秘密保持	-11199
程度です	-11200
積極的な	-11201
管理する	-11202
簡単です	-11203
精神的に	-11204
終わりに	-11205
組み立て	-11206
経営陣は	-11207
経済的に	-11208
経験豊富	-11209
結婚して	-11210
結論が出	-11211
総務部に	-11212
繰り返し	-11213
署名して	-11214
者として	-11215
耐震工事	-11216
聞いたの	-11217
臨時総会	-11218
自分で作	-11219
自家用車	-11220
自己監査	-11221
良い考え	-11222
良くなく	-11223
良ければ	-11224
良さそう	-11225
要するに	-11226
見つけて	-11227
見てきて	-11228
見られて	-11229
見られる	-11230
言われた	-11231
計算する	-11232
設定して	-11233
話してた	-11234
話します	-11235
調べたら	-11236
請求書が	-11237
貴社から	-11238
買い出し	-11239
買い替え	-11240
資料作成	-11241
購入する	-11242
購買組織	-11243
起こった	-11244
近いので	-11245
近くまで	-11246
送りたい	-11247
通勤途上	-11248
遅くとも	-11249
運ばれて	-11250
違う商品	-11251
避けたい	-11252
避難経路	-11253
避難訓練	-11254
部署単位	-11255
部長から	-11256
郵便受け	-11257
配属予定	-11258
重要です	-11259
重配荷率	-11260
間に合わ	-11261
関係ない	-11262
降ろし場	-11263
限られて	-11264
電気料金	-11265
頂けない	-11266
顔見知り	-11267
食べるの	-11268
食べ物を	-11269
飾り付け	-11270
首になる	-11271
高田です	-11272
1,000	-11273
25000	-11274
▁xxxx	-11275
▁いつから	-11276
▁うちの父	-11277
▁うっかり	-11278
▁おいおい	-11279
▁おかしい	-11280
▁おたくの	-11281
▁お支払い	-11282
▁こっちは	-11283
▁このまま	-11284
▁この製品	-11285
▁これです	-11286
▁これまで	-11287
▁これらを	-11288
▁これ以上	-11289
▁こんなに	-11290
▁しっかり	-11291
▁せっかく	-11292
▁そのうち	-11293
▁そのため	-11294
▁その前に	-11295
▁その後は	-11296
▁その様な	-11297
▁その次の	-11298
▁それらの	-11299
▁それ以上	-11300
▁ただいま	-11301
▁でもこの	-11302
▁でもまだ	-11303
▁でももし	-11304
▁ふんふん	-11305
▁また明日	-11306
▁まだまだ	-11307
▁みんなで	-11308
▁もう一回	-11309
▁カタログ	-11310
▁クラウド	-11311
▁クラフト	-11312
▁コンテナ	-11313
▁サプライ	-11314
▁サービス	-11315
▁スタッフ	-11316
▁ステーキ	-11317
▁デザイン	-11318
▁データを	-11319
▁トラック	-11320
▁フロント	-11321
▁リーさん	-11322
▁レシート	-11323
▁ロボット	-11324
▁一生懸命	-11325
▁二人とも	-11326
▁井上さん	-11327
▁人事部の	-11328
▁何か問題	-11329
▁僕たちは	-11330
▁先方には	-11331
▁具体的な	-11332
▁再来週の	-11333
▁営業部の	-11334
▁営業部長	-11335
▁天気予報	-11336
▁実はこの	-11337
▁実はまだ	-11338
▁実は先日	-11339
▁弊社では	-11340
▁引き出し	-11341
▁引き継ぎ	-11342
▁彼女には	-11343
▁手伝って	-11344
▁日本杉は	-11345
▁明日には	-11346
▁書類選考	-11347
▁木曜日の	-11348
▁本年度の	-11349
▁松本さん	-11350
▁株主総会	-11351
▁株式公開	-11352
▁業績予想	-11353
▁歓迎会は	-11354
▁正確には	-11355
▁消費者が	-11356
▁皆さんの	-11357
▁知ってる	-11358
▁確かにね	-11359
▁確認して	-11360
▁私どもの	-11361
▁私どもは	-11362
▁私の方で	-11363
▁私は彼の	-11364
▁若松さん	-11365
▁賛成です	-11366
▁鈴木さん	-11367
あなたには	-11368
あなたは今	-11369
あまり自信	-11370
ある程度の	-11371
いいところ	-11372
いけなくて	-11373
いただけて	-11374
いています	-11375
うまくいく	-11376
えますから	-11377
えませんか	-11378
おきました	-11379
おひとり様	-11380
おりません	-11381
お子さんは	-11382
お客様には	-11383
お忙しい中	-11384
お話できる	-11385
かからない	-11386
かっている	-11387
かなければ	-11388
かなりの額	-11389
かなり長い	-11390
からですね	-11391
から始める	-11392
か知ってる	-11393
があなたの	-11394
があるけど	-11395
があるって	-11396
があると見	-11397
があるわよ	-11398
がある場合	-11399
がいるので	-11400
がいるんだ	-11401
がちゃんと	-11402
がほとんど	-11403
がりました	-11404
が出てくる	-11405
が含まれて	-11406
が多いです	-11407
が多かった	-11408
が少なくて	-11409
が良いです	-11410
きたいです	-11411
きますから	-11412
ぎりぎりに	-11413
くらいなら	-11414
くれますよ	-11415
ここで働く	-11416
ここにいる	-11417
こちらです	-11418
こともあり	-11419
ことを伝え	-11420
このグラフ	-11421
この展示会	-11422
ご用件を承	-11423
させてあげ	-11424
さほど心配	-11425
さまでした	-11426
さんのこと	-11427
さんの上長	-11428
しいですね	-11429
したいけど	-11430
したいんだ	-11431
したことが	-11432
したときに	-11433
したものを	-11434
しっかりと	-11435
しているの	-11436
してくれた	-11437
してますが	-11438
してみたい	-11439
してもらい	-11440
してるのよ	-11441
してるんだ	-11442
しなくちゃ	-11443
しますから	-11444
すぎますよ	-11445
するような	-11446
するんだよ	-11447
する可能性	-11448
すれば良い	-11449
そうしたら	-11450
そうすると	-11451
そう思った	-11452
そう言って	-11453
それぐらい	-11454
それぞれの	-11455
そんな時期	-11456
だけだった	-11457
だけですか	-11458
だけですよ	-11459
だったかな	-11460
だったのよ	-11461
だと聞いて	-11462
だろうから	-11463
でいいです	-11464
できたので	-11465
できないの	-11466
できるよう	-11467
できる様に	-11468
でしたけど	-11469
でしたので	-11470
でも大丈夫	-11471
でビジネス	-11472
という事で	-11473
という事は	-11474
という情報	-11475
という意味	-11476
とか言って	-11477
ところだよ	-11478
とのランチ	-11479
とはとても	-11480
と思うから	-11481
と思ってて	-11482
と思わない	-11483
と思われた	-11484
どうしよう	-11485
どちらかと	-11486
ないときは	-11487
なくていい	-11488
なさそうだ	-11489
なりますね	-11490
なるほどね	-11491
にあたって	-11492
においては	-11493
にするべき	-11494
にとっても	-11495
になるかな	-11496
になるから	-11497
にもう少し	-11498
にも行って	-11499
に使われる	-11500
に対しては	-11501
に対応する	-11502
に興味をも	-11503
に行ったら	-11504
に連絡して	-11505
のお支払い	-11506
のお知らせ	-11507
のであれば	-11508
のところに	-11509
のを覚えて	-11510
のコンテナ	-11511
のサンプル	-11512
のデータを	-11513
のホステル	-11514
の売り上げ	-11515
の質問に答	-11516
の間に何か	-11517
はあるけど	-11518
はいいこと	-11519
はその後に	-11520
はそんなに	-11521
はちゃんと	-11522
はどうかな	-11523
は売り上げ	-11524
みなさんに	-11525
みようかな	-11526
もあるけど	-11527
ものすごく	-11528
ものは全て	-11529
も忘れずに	-11530
やってみて	-11531
やサービス	-11532
ような感じ	-11533
よかったら	-11534
よろしくね	-11535
らいつでも	-11536
られること	-11537
りましたが	-11538
りますから	-11539
りますよね	-11540
るのはどう	-11541
るんだろう	-11542
る予定です	-11543
れましたか	-11544
れますので	-11545
れるように	-11546
われている	-11547
をお持ちの	-11548
をきちんと	-11549
をしっかり	-11550
をしてきた	-11551
をしました	-11552
をすること	-11553
をたくさん	-11554
をまとめる	-11555
をもう少し	-11556
を作ります	-11557
を取り戻す	-11558
を受け入れ	-11559
を押さえて	-11560
を持ってお	-11561
を送ります	-11562
を送るよう	-11563
を開きます	-11564
んですから	-11565
アイデアは	-11566
アメリカに	-11567
アメリカ人	-11568
アメリカ支	-11569
アンジェラ	-11570
イタリアン	-11571
オーナーが	-11572
キャメロン	-11573
キャンペー	-11574
クリニック	-11575
クルーズ船	-11576
グレードを	-11577
コストを抑	-11578
サービスが	-11579
サービスに	-11580
システムに	-11581
システム上	-11582
ジェイです	-11583
ジェイピー	-11584
ジョンさん	-11585
スクトップ	-11586
スクリプト	-11587
ストフード	-11588
スライドは	-11589
セクション	-11590
タリア料理	-11591
バーブーダ	-11592
ビジュアル	-11593
ファミレス	-11594
ファンドが	-11595
フルタイム	-11596
ブランドは	-11597
プレーヤー	-11598
ベンだけど	-11599
ボタンを押	-11600
ボール選手	-11601
マッサージ	-11602
メンバーで	-11603
メールが届	-11604
メールにて	-11605
メールには	-11606
メール確認	-11607
ラッピング	-11608
リストです	-11609
レスポンス	-11610
ンビンさん	-11611
ヶ月くらい	-11612
万円ぐらい	-11613
与えられた	-11614
中国からの	-11615
事務所では	-11616
事業企画部	-11617
人がいたら	-11618
人だからね	-11619
今のままで	-11620
今回の新規	-11621
今日はこの	-11622
今時間ある	-11623
会社からの	-11624
会社として	-11625
使えますか	-11626
信託銀行の	-11627
個人的には	-11628
個数ベース	-11629
値段が安い	-11630
働いていた	-11631
内容ですか	-11632
出張に行く	-11633
出来ている	-11634
出来るから	-11635
出来る様に	-11636
利永さんに	-11637
労力を費や	-11638
効果がある	-11639
効率がいい	-11640
去年と同じ	-11641
取れました	-11642
取れません	-11643
可能ですか	-11644
可能な限り	-11645
同じように	-11646
商品を開発	-11647
問題がある	-11648
困りますね	-11649
圧倒される	-11650
場合はどう	-11651
売り上げの	-11652
大丈夫かな	-11653
宜しければ	-11654
対応します	-11655
対応をして	-11656
少ないので	-11657
就職説明会	-11658
届きました	-11659
工業系企業	-11660
市場に参入	-11661
引き継いで	-11662
引き落とし	-11663
必要な情報	-11664
必要になる	-11665
忘れないで	-11666
忙しい時期	-11667
思い当たる	-11668
息子を迎え	-11669
手元にある	-11670
承りました	-11671
持ち帰って	-11672
持っている	-11673
持ってきた	-11674
揃っている	-11675
教えてくれ	-11676
文字サイズ	-11677
料理のお店	-11678
新しい商品	-11679
新しい工場	-11680
方がいいね	-11681
時にお伺い	-11682
時までには	-11683
時間をかけ	-11684
時間以内に	-11685
時間程度で	-11686
書類に記入	-11687
望んでいる	-11688
本当ですか	-11689
残念ながら	-11690
気にしない	-11691
決められた	-11692
特定の商品	-11693
理由がある	-11694
田中さんが	-11695
申し込んで	-11696
皆さんには	-11697
真理さんが	-11698
知ってます	-11699
社ですよね	-11700
社について	-11701
社のマイク	-11702
社の社長が	-11703
社内の女子	-11704
社員からは	-11705
社員向けに	-11706
私に聞いて	-11707
私のために	-11708
紅葉ツアー	-11709
紙の請求書	-11710
経験が豊富	-11711
絞り込んで	-11712
締め切りに	-11713
繋がらない	-11714
置いてある	-11715
考えている	-11716
聞こえにく	-11717
臨時取締役	-11718
自分たちで	-11719
自動車部品	-11720
致しますね	-11721
良いと思う	-11722
良さそうな	-11723
行きますか	-11724
行ってあげ	-11725
製フェンス	-11726
見たことが	-11727
見てくれる	-11728
見てみます	-11729
見てみよう	-11730
見積もりを	-11731
解雇される	-11732
言っている	-11733
言ってくる	-11734
請求書発行	-11735
責任を負う	-11736
資料の作成	-11737
輸入データ	-11738
迎えに行く	-11739
退職すると	-11740
通り進めて	-11741
連絡するよ	-11742
週間くらい	-11743
進めている	-11744
野菜サラダ	-11745
間に合わせ	-11746
間違ってる	-11747
関西と関東	-11748
頑張ってる	-11749
顧問弁護士	-11750
飲み放題に	-11751
驚きました	-11752
▁ありました	-11753
▁いいですか	-11754
▁いつも通り	-11755
▁お二人とも	-11756
▁お客様のお	-11757
▁こちらから	-11758
▁このリスト	-11759
▁この会社で	-11760
▁この製品の	-11761
▁これまでは	-11762
▁そう言えば	-11763
▁それくらい	-11764
▁それぞれの	-11765
▁それはもう	-11766
▁たくさんの	-11767
▁というわけ	-11768
▁どんな感じ	-11769
▁なんだって	-11770
▁はいどうぞ	-11771
▁ほんとだね	-11772
▁よい一日を	-11773
▁アレックス	-11774
▁オプション	-11775
▁クリスマス	-11776
▁サプライズ	-11777
▁ジョンさん	-11778
▁ティムさん	-11779
▁バーコード	-11780
▁パートナー	-11781
▁ビジュアル	-11782
▁ビュッフェ	-11783
▁プログラム	-11784
▁井上さんは	-11785
▁何かあった	-11786
▁何でしょう	-11787
▁内視鏡検査	-11788
▁彼はいつも	-11789
▁我が社には	-11790
▁正直言うと	-11791
▁田中さんの	-11792
▁田中さんは	-11793
▁相変わらず	-11794
▁自分たちで	-11795
▁落ち着いて	-11796
▁違いますよ	-11797
ありましたね	-11798
ありますけど	-11799
ありますよね	-11800
あるんですが	-11801
いいんですが	-11802
いくつですか	-11803
いくらくらい	-11804
いたしますね	-11805
いただけたら	-11806
いただけるか	-11807
いているので	-11808
うちの商品に	-11809
うちの部署で	-11810
お疲れ様です	-11811
かかりました	-11812
かどうか確認	-11813
かなくなった	-11814
かなと思って	-11815
かなり上手く	-11816
からのメール	-11817
かわからない	-11818
があったから	-11819
があるみたい	-11820
がある場合は	-11821
がないか確認	-11822
が見つかって	-11823
が高いですね	-11824
くないですか	-11825
くなってきた	-11826
くらいですね	-11827
くれましたね	-11828
くれませんか	-11829
ことがあって	-11830
ことでしょう	-11831
ことによって	-11832
ことのできる	-11833
ご不明な点は	-11834
ご希望ですか	-11835
させて下さい	-11836
されていると	-11837
さんのところ	-11838
しそうですね	-11839
したいことが	-11840
したのはいつ	-11841
したものです	-11842
しているんだ	-11843
している会社	-11844
してなかった	-11845
して下さいね	-11846
して頂ければ	-11847
しまうんです	-11848
しやすくなる	-11849
すっきりして	-11850
すべきですね	-11851
するかどうか	-11852
するのがいい	-11853
そういうのも	-11854
そうじゃない	-11855
そうですねえ	-11856
たいんですが	-11857
たくなかった	-11858
だということ	-11859
だと思うけど	-11860
ちょっと不安	-11861
っていたんだ	-11862
ってきたので	-11863
って言われて	-11864
できています	-11865
できるような	-11866
ではないので	-11867
ところがいい	-11868
ところなので	-11869
として使って	-11870
とはどういう	-11871
と思うけどね	-11872
と思うんです	-11873
と感じました	-11874
と打ち合わせ	-11875
と申しまして	-11876
と言っている	-11877
どういう風に	-11878
どんなことを	-11879
なかなかいい	-11880
なくてもいい	-11881
なさいますか	-11882
などがあれば	-11883
なんですから	-11884
にしましょう	-11885
にしようかな	-11886
になっちゃう	-11887
になってます	-11888
になりますし	-11889
になりますよ	-11890
になるのかな	-11891
になるんです	-11892
にもちゃんと	-11893
にもよります	-11894
に行きました	-11895
に行ってきた	-11896
に関する質問	-11897
に電話をして	-11898
のためだけに	-11899
のはどうかな	-11900
のは知ってる	-11901
のほとんどは	-11902
のチケットを	-11903
のレイアウト	-11904
はありました	-11905
ばかりだから	-11906
みたいだけど	-11907
めております	-11908
もあるからね	-11909
もう少し早く	-11910
ものですよね	-11911
やめましょう	-11912
ようなのです	-11913
よりもずっと	-11914
らしいですよ	-11915
らしいんです	-11916
られますので	-11917
られる時間が	-11918
るのであれば	-11919
る必要がある	-11920
れないんです	-11921
わかっている	-11922
を作成します	-11923
を探している	-11924
を求めている	-11925
を確認します	-11926
を立ち上げた	-11927
を行いました	-11928
を行っている	-11929
アカウントに	-11930
アンケートで	-11931
アンドリュー	-11932
ウォーキング	-11933
エレベーター	-11934
オフィスから	-11935
オペレーター	-11936
オーガニック	-11937
カスタマージ	-11938
カバーされる	-11939
キャンディー	-11940
キャンペーン	-11941
クラスの火災	-11942
コネクション	-11943
コンピュータ	-11944
コーエン専務	-11945
コーポレート	-11946
システム導入	-11947
ソロモンさん	-11948
タクシーで行	-11949
チェックする	-11950
チョコレート	-11951
チーム全体で	-11952
テーマパーク	-11953
データシート	-11954
ハードウェア	-11955
バージョンの	-11956
パンフレット	-11957
パーセントは	-11958
パーセントを	-11959
プレッシャー	-11960
ペットボトル	-11961
メールするね	-11962
メールを送信	-11963
ラスベガスに	-11964
ロサンゼルス	-11965
ロースクール	-11966
一緒にランチ	-11967
不足している	-11968
久しぶりです	-11969
事があるんだ	-11970
今年に入って	-11971
今日はこれで	-11972
任せください	-11973
会いましょう	-11974
会議があって	-11975
会議の議事録	-11976
使用している	-11977
入りください	-11978
出来なかった	-11979
勤務している	-11980
原産地証明書	-11981
受け付けます	-11982
可能性がある	-11983
命の恩人だよ	-11984
品もあります	-11985
営業グループ	-11986
営業担当です	-11987
売上レポート	-11988
多かったです	-11989
多国籍チーム	-11990
失礼致します	-11991
彼らにとって	-11992
情報を集めて	-11993
感じがします	-11994
戻ってきます	-11995
手伝いできる	-11996
打ち合わせで	-11997
折り返し連絡	-11998
担当している	-11999
持って帰って	-12000
教えてくれる	-12001
方からお電話	-12002
時間がかかり	-12003
時間が欲しい	-12004
時間をかけて	-12005
時間を作って	-12006
株式会社です	-12007
機能するのか	-12008
正規メーカー	-12009
決めましょう	-12010
申し伝えます	-12011
知っていたら	-12012
知らなかった	-12013
社って聞いた	-12014
社のブルース	-12015
私もちょっと	-12016
管理システム	-12017
結局のところ	-12018
聞いてみよう	-12019
興味を持って	-12020
良さそうだね	-12021
行ってみたい	-12022
複合プリンタ	-12023
見つからない	-12024
言っておいて	-12025
話したかった	-12026
話してくれる	-12027
詳しいことは	-12028
読みましたよ	-12029
調べてきます	-12030
送ってくれた	-12031
送ってくれる	-12032
野と申します	-12033
鉄道車両整備	-12034
電話をかける	-12035
頼んでみます	-12036
company	-12037
▁いいんですか	-12038
▁うちの商品は	-12039
▁おばあちゃん	-12040
▁すごいですね	-12041
▁そうですねえ	-12042
▁それについて	-12043
▁それはそれは	-12044
▁それはとても	-12045
▁というわけで	-12046
▁と言うことは	-12047
▁どうでしたか	-12048
▁アドバイスを	-12049
▁ゴードンさん	-12050
▁チェックイン	-12051
▁ナンシーさん	-12052
▁ブラウンさん	-12053
▁プロジェクト	-12054
▁ベジタリアン	-12055
▁ボランティア	-12056
▁ラップトップ	-12057
▁今使っている	-12058
▁今月末までに	-12059
▁心配しないで	-12060
▁心配しなくて	-12061
▁必要があれば	-12062
▁来週の火曜日	-12063
▁楽しそうだね	-12064
▁私もそう思う	-12065
あげてください	-12066
あると思います	-12067
いいでしょうか	-12068
いただいている	-12069
いてすみません	-12070
いないんですよ	-12071
いませんでした	-12072
いらっしゃると	-12073
お疲れ様でした	-12074
お言葉に甘えて	-12075
お電話ください	-12076
お電話しました	-12077
かご存知ですか	-12078
がありそうです	-12079
があるのですか	-12080
があるんですね	-12081
がいるんですよ	-12082
が含まれている	-12083
くらいですよね	-12084
ことがあるんだ	-12085
ことでしょうか	-12086
ございますので	-12087
ございませんか	-12088
ご連絡しますね	-12089
ご連絡差し上げ	-12090
されたんですか	-12091
されていますよ	-12092
されましたよね	-12093
しかないですね	-12094
していないので	-12095
しておかないと	-12096
しておりまして	-12097
してくれる人が	-12098
してもらえると	-12099
しまったんです	-12100
すると思います	-12101
だったんですが	-12102
だったんですよ	-12103
だと思いました	-12104
だと思いますよ	-12105
ちょっと忙しい	-12106
ったほうがいい	-12107
ってますからね	-12108
って言ってたよ	-12109
できそうですか	-12110
ではないですか	-12111
ではないんです	-12112
ではよい一日を	-12113
でも構いません	-12114
といいんだけど	-12115
という事ですね	-12116
ところなんです	-12117
となりますので	-12118
とはどのような	-12119
と思ってました	-12120
ならないように	-12121
なんですけどね	-12122
にお送りします	-12123
にお願いします	-12124
についてご相談	-12125
についてですか	-12126
についての情報	-12127
になりましたか	-12128
になるのですが	-12129
になるんですよ	-12130
に入っています	-12131
に関しましては	-12132
のトレーニング	-12133
はいるんですが	-12134
は大丈夫ですか	-12135
ほしいのですが	-12136
また連絡します	-12137
みたんですけど	-12138
もお願いします	-12139
ものでしょうか	-12140
ものなんですか	-12141
もらったんです	-12142
りたいのですが	-12143
るといいですね	-12144
わかりませんが	-12145
をお勧めします	-12146
をしていました	-12147
を持ち合わせて	-12148
を申し上げます	-12149
んじゃないかと	-12150
アンケート結果	-12151
インフルエンザ	-12152
ウィリアムさん	-12153
ウェブサイトで	-12154
ウェブサイトの	-12155
オーダーしたい	-12156
キャリアアップ	-12157
クライアントは	-12158
ケーススタディ	-12159
サーカスショー	-12160
システムの導入	-12161
スタンドアロン	-12162
チェックアウト	-12163
トラベルサイト	-12164
バイリンガルの	-12165
フィードバック	-12166
フォーマットを	-12167
プロジェクトは	-12168
ベビーシッター	-12169
ペーパーレス化	-12170
ミュレーション	-12171
メールが来てた	-12172
モチベーション	-12173
ラッシュアワー	-12174
ラップトップを	-12175
中でございます	-12176
任せてください	-12177
個人的に受け取	-12178
働いております	-12179
問題ありません	-12180
善を尽くします	-12181
大型案件の検収	-12182
大変そうですね	-12183
御用でしょうか	-12184
投資をしている	-12185
教えてもらって	-12186
方がいいですね	-12187
方がいいと思う	-12188
方もいらっしゃ	-12189
来期にずれ込む	-12190
株式会社の佐藤	-12191
植物検疫証明書	-12192
検収及び売上計	-12193
検討しましょう	-12194
楽しかったです	-12195
楽しみにしてる	-12196
気づかなかった	-12197
決まりましたか	-12198
無いでしょうか	-12199
登録されている	-12200
研究開発部では	-12201
確信しています	-12202
社に委託します	-12203
続けてください	-12204
聞いたんだけど	-12205
致しましょうか	-12206
興味があります	-12207
良いと思います	-12208
行ってきました	-12209
見えるのですが	-12210
言っておきます	-12211
言ってください	-12212
言われています	-12213
話しておきます	-12214
貨物輸送業者で	-12215
質問があったら	-12216
輸出しています	-12217
輸送されるから	-12218
返金リクエスト	-12219
連絡してみます	-12220
間違いがないか	-12221
▁いい考えですね	-12222
▁このオフィスに	-12223
▁この件について	-12224
▁ご質問があれば	-12225
▁そうでなければ	-12226
▁そうは言っても	-12227
▁それでいいです	-12228
▁それについては	-12229
▁それは光栄です	-12230
▁ちょっと待って	-12231
▁では失礼します	-12232
▁よろしく頼むよ	-12233
▁インターネット	-12234
▁ウィリアムさん	-12235
▁ハラールフード	-12236
▁フォローアップ	-12237
▁プロジェクトの	-12238
▁確かにそうだな	-12239
▁良い考えですね	-12240
あなたの仕事ぶり	-12241
いたいと思います	-12242
いらっしゃるので	-12243
おいたほうがいい	-12244
お世話になります	-12245
お知らせしますね	-12246
かもしれないので	-12247
かもしれませんよ	-12248
かも知れませんが	-12249
か知っていますか	-12250
があまり良くなく	-12251
ことだと思います	-12252
ことはありません	-12253
させて頂きました	-12254
しかないんだよね	-12255
したかったんです	-12256
していただきます	-12257
してみましょうか	-12258
じゃないですから	-12259
じゃなかったっけ	-12260
するんでしょうか	-12261
すればいいですか	-12262
だったんだけどね	-12263
だとは思いますが	-12264
だと思っています	-12265
っていうのはどう	-12266
っていらっしゃる	-12267
っているんですが	-12268
ってきましょうか	-12269
ってもらうように	-12270
って言ってました	-12271
できて嬉しいです	-12272
できるだけすぐに	-12273
としているんです	-12274
とマーケティング	-12275
と思ったんだけど	-12276
と思っているんだ	-12277
と思っております	-12278
と表示されている	-12279
どうすればいいの	-12280
どれくらいですか	-12281
ないでくださいよ	-12282
なかったのですが	-12283
なら大丈夫ですよ	-12284
についてちょっと	-12285
について話し合う	-12286
になっちゃいます	-12287
にならないように	-12288
に取り掛かります	-12289
べきだと思います	-12290
ましたでしょうか	-12291
ませんでしょうか	-12292
またご連絡します	-12293
ものはありますか	-12294
ようにしています	-12295
ることになります	-12296
わないでください	-12297
をお送りしますよ	-12298
をご提供できます	-12299
を手伝ってくれる	-12300
んじゃないかしら	-12301
んでいるようです	-12302
アイディアですね	-12303
オープンな雰囲気	-12304
コーポレーション	-12305
システムについて	-12306
スーパーバイザー	-12307
パワーポイントの	-12308
フィートコンテナ	-12309
フットボール選手	-12310
ホテルのロビーで	-12311
メールをチェック	-12312
中小企業グループ	-12313
伺いたいのですが	-12314
使えると思います	-12315
参加人数を増やす	-12316
可能性はあります	-12317
問題がありまして	-12318
必要がありますね	-12319
楽しかったですよ	-12320
申し訳ないですが	-12321
知らせてください	-12322
知りませんでした	-12323
社内で話し合って	-12324
空いていますので	-12325
素晴らしいですね	-12326
素晴らしい仕事を	-12327
聞かせてください	-12328
良いと思いますか	-12329
言ってくださいね	-12330
記載されています	-12331
調子はどうですか	-12332
近くのレストラン	-12333
▁お待たせしました	-12334
▁そうしてください	-12335
▁では始めましょう	-12336
▁どのようなご用件	-12337
▁もしよろしければ	-12338
▁ウォーターマーク	-12339
▁トレヴィーノさん	-12340
▁見てみましょうか	-12341
ありがたいのですが	-12342
ありますでしょうか	-12343
いきたいと思います	-12344
いただいたんですが	-12345
このミーティングを	-12346
しなければいけない	-12347
できてよかったです	-12348
できて良かったです	-12349
という事でしょうか	-12350
ないといいんですが	-12351
のか教えてください	-12352
はお持ちでしょうか	-12353
までのスケジュール	-12354
らせていただきます	-12355
をお待ちしています	-12356
をお願いいたします	-12357
アイコンをクリック	-12358
オフィスのジムです	-12359
フィートのコンテナ	-12360
ミーティングがある	-12361
メールを送りました	-12362
メールを送りますね	-12363
ワクワクしています	-12364
予定になっています	-12365
可能性はありますか	-12366
始めたいと思います	-12367
美味しかったですよ	-12368
見ていただけますか	-12369
▁お待ちしております	-12370
▁それは楽しみですね	-12371
▁やっぱりそうですか	-12372
▁スケジュールを確認	-12373
おめでとうございます	-12374
お願いしていいですか	-12375
させていただきますね	-12376
したいと考えています	-12377
したほうがいいですね	-12378
してくれてありがとう	-12379
してすみませんでした	-12380
してもよろしいですか	-12381
してもらえるかどうか	-12382
しなければなりません	-12383
しようと思っています	-12384
することになりました	-12385
っていると聞きました	-12386
でいらっしゃいますか	-12387
できないんでしょうか	-12388
できるかもしれません	-12389
と思っていたんだけど	-12390
どうしたらいいですか	-12391
についてお話しします	-12392
についてはどのくらい	-12393
はいくらになりますか	-12394
らないといけないんだ	-12395
を教えてもらえますか	-12396
インターネットで調べ	-12397
カスタマーサービスで	-12398
カスタマージャーニー	-12399
コミュニケーションが	-12400
ビジネスチャンスを探	-12401
問題はないと思います	-12402
困った事になりました	-12403
少々お待ち下さいませ	-12404
心配しないでください	-12405
方いらっしゃいますか	-12406
▁おめでとうございます	-12407
▁さようでございますか	-12408
▁それはありがたいです	-12409
▁それは良かったですね	-12410
▁とても興味深いですね	-12411
▁とんでもございません	-12412
▁本当に感謝しています	-12413
▁申し訳ございませんが	-12414
したいことがありまして	-12415
しておかないといけない	-12416
して申し訳ございません	-12417
っても宜しいでしょうか	-12418
のではないかと思います	-12419
よろしかったでしょうか	-12420
ロックアウトタグアウト	-12421
助けてくれてありがとう	-12422
少々お待ちくださいませ	-12423
▁大変申し訳ございません	-12424
してもらっても良いですか	-12425
参加ありがとうございます	-12426
誠にありがとうございます	-12427
防犯カメラの設置について	-12428
▁ではよろしくお願いします	-12429
お電話ありがとうございます	-12430
させていただきたいのですが	-12431
していただくことができます	-12432
していただく必要があります	-12433
ほうがいいんじゃないですか	-12434
ましておめでとうございます	-12435
予測に反映されていなかった	-12436
株式会社の佐藤と申しますが	-12437
▁本当にありがとうございます	-12438
お電話ありがとうございました	-12439
どうもありがとうございました	-12440
のある方はいらっしゃいますか	-12441
田中さんはいらっしゃいますか	-12442
▁お時間ありがとうございました	-12443
▁今日はありがとうございました	-12444
▁佐藤部長はいらっしゃいますか	-12445
頂きましてありがとうございます	-12446
▁そう言っていただけると光栄です	-12447
いただいてありがとうございました	-12448
していただきありがとうございます	-12449
!!	-12450
-2	-12451
.0	-12452
29	-12453
35	-12454
46	-12455
64	-12456
70	-12457
88	-12458
8@	-12459
AN	-12460
BL	-12461
DB	-12462
DV	-12463
EI	-12464
IP	-12465
JL	-12466
MO	-12467
OW	-12468
am	-12469
do	-12470
in	-12471
ot	-12472
ws	-12473
▁P	-12474
▁n	-12475
▁p	-12476
▁ぼ	-12477
▁み	-12478
▁め	-12479
▁キ	-12480
▁グ	-12481
▁ツ	-12482
▁バ	-12483
▁ピ	-12484
▁ポ	-12485
▁ル	-12486
▁両	-12487
▁井	-12488
▁会	-12489
▁低	-12490
▁体	-12491
▁個	-12492
▁借	-12493
▁切	-12494
▁卵	-12495
▁友	-12496
▁古	-12497
▁台	-12498
▁吉	-12499
▁j	-12500
▁告	-12501
▁回	-12502
▁坂	-12503
▁妻	-12504
▁娘	-12505
▁子	-12506
▁定	-12507
▁対	-12508
▁少	-12509
▁屋	-12510
▁工	-12511
▁巧	-12512
▁市	-12513
▁席	-12514
▁復	-12515
▁念	-12516
▁思	-12517
▁手	-12518
▁押	-12519
▁改	-12520
▁断	-12521
▁旅	-12522
▁昇	-12523
▁未	-12524
▁株	-12525
▁森	-12526
▁横	-12527
▁残	-12528
▁母	-12529
▁永	-12530
▁沢	-12531
▁浦	-12532
▁消	-12533
▁澤	-12534
▁無	-12535
▁煮	-12536
▁熱	-12537
▁父	-12538
▁犀	-12539
▁知	-12540
▁秋	-12541
▁稲	-12542
▁膝	-12543
▁花	-12544
▁菅	-12545
▁血	-12546
▁視	-12547
▁谷	-12548
▁貴	-12549
▁通	-12550
▁適	-12551
▁酒	-12552
▁長	-12553
▁雑	-12554
▁雪	-12555
▁音	-12556
▁黒	-12557
▁黙	-12558
々と	-12559
々の	-12560
々巡	-12561
ああ	-12562
あう	-12563
あき	-12564
あっ	-12565
あー	-12566
いを	-12567
い靴	-12568
おご	-12569
おじ	-12570
お安	-12571
お水	-12572
お父	-12573
お目	-12574
お肉	-12575
お魚	-12576
かぶ	-12577
かれ	-12578
か迷	-12579
がコ	-12580
がベ	-12581
が上	-12582
が優	-12583
が加	-12584
が半	-12585
が埋	-12586
が実	-12587
が広	-12588
が払	-12589
が流	-12590
が現	-12591
が甘	-12592
が目	-12593
が近	-12594
が返	-12595
が重	-12596
が鳴	-12597
が黒	-12598
きっ	-12599
き目	-12600
くに	-12601
げ口	-12602
こい	-12603
ごは	-12604
ご本	-12605
ご都	-12606
さお	-12607
さし	-12608
さず	-12609
さて	-12610
ざま	-12611
じる	-12612
すと	-12613
すば	-12614
せよ	-12615
そわ	-12616
たな	-12617
だら	-12618
だり	-12619
ちま	-12620
っさ	-12621
っは	-12622
っ子	-12623
っ黒	-12624
つに	-12625
つは	-12626
つ目	-12627
づく	-12628
ての	-12629
でと	-12630
でに	-12631
で分	-12632
で回	-12633
で寝	-12634
で小	-12635
で待	-12636
で来	-12637
とっ	-12638
とめ	-12639
とネ	-12640
とマ	-12641
とモ	-12642
と私	-12643
と聞	-12644
と誘	-12645
と謳	-12646
と頼	-12647
どき	-12648
なじ	-12649
なに	-12650
な事	-12651
な数	-12652
にし	-12653
にば	-12654
に任	-12655
に勝	-12656
に参	-12657
に口	-12658
に含	-12659
に命	-12660
に定	-12661
に導	-12662
に小	-12663
に座	-12664
に悩	-12665
に拍	-12666
に接	-12667
に注	-12668
に留	-12669
に絞	-12670
に触	-12671
に貼	-12672
に選	-12673
に限	-12674
ねー	-12675
のハ	-12676
の三	-12677
の乗	-12678
の内	-12679
の出	-12680
の場	-12681
の太	-12682
の差	-12683
の席	-12684
の木	-12685
の本	-12686
の概	-12687
の水	-12688
の減	-12689
の点	-12690
の物	-12691
の統	-12692
の色	-12693
の花	-12694
の衛	-12695
の親	-12696
の質	-12697
の車	-12698
の過	-12699
はた	-12700
はは	-12701
は含	-12702
は売	-12703
は大	-12704
は女	-12705
は少	-12706
は決	-12707
は缶	-12708
は買	-12709
は赤	-12710
は車	-12711
は通	-12712
へ進	-12713
ぼけ	-12714
まし	-12715
まっ	-12716
むず	-12717
もご	-12718
もオ	-12719
も中	-12720
も倍	-12721
も入	-12722
も皆	-12723
も行	-12724
も高	-12725
やあ	-12726
やこ	-12727
やだ	-12728
やビ	-12729
ゅう	-12730
ゆる	-12731
らや	-12732
り越	-12733
るし	-12734
るぞ	-12735
るで	-12736
る前	-12737
る話	-12738
れず	-12739
をみ	-12740
を一	-12741
を上	-12742
を丸	-12743
を任	-12744
を公	-12745
を占	-12746
を守	-12747
を払	-12748
を掲	-12749
を数	-12750
を流	-12751
を無	-12752
を絞	-12753
を解	-12754
を訪	-12755
を課	-12756
を講	-12757
を貯	-12758
を適	-12759
を除	-12760
を鳴	-12761
アは	-12762
アを	-12763
アッ	-12764
アフ	-12765
アポ	-12766
イエ	-12767
イド	-12768
イフ	-12769
イー	-12770
エコ	-12771
エー	-12772
オル	-12773
オレ	-12774
カゴ	-12775
カロ	-12776
ガジ	-12777
ガラ	-12778
キツ	-12779
ギル	-12780
クで	-12781
クタ	-12782
クラ	-12783
クル	-12784
クレ	-12785
グロ	-12786
コア	-12787
コナ	-12788
コラ	-12789
ゴを	-12790
サマ	-12791
ザン	-12792
スが	-12793
ズに	-12794
ズボ	-12795
ソム	-12796
タテ	-12797
ダブ	-12798
ダラ	-12799
チュ	-12800
チン	-12801
ッカ	-12802
ッジ	-12803
ツで	-12804
テコ	-12805
デモ	-12806
デン	-12807
トリ	-12808
ドキ	-12809
ドミ	-12810
ネン	-12811
ノウ	-12812
ノス	-12813
ノッ	-12814
ノル	-12815
ノー	-12816
ハッ	-12817
パパ	-12818
パム	-12819
パリ	-12820
ヒア	-12821
ピカ	-12822
ブの	-12823
ブス	-12824
ブド	-12825
ブ海	-12826
ベイ	-12827
ベテ	-12828
ペラ	-12829
ホン	-12830
マト	-12831
ミア	-12832
メソ	-12833
ユニ	-12834
ラキ	-12835
リと	-12836
リネ	-12837
ルコ	-12838
レツ	-12839
ロイ	-12840
ワゴ	-12841
ンフ	-12842
ンル	-12843
ヴァ	-12844
ヵ月	-12845
一の	-12846
一体	-12847
一方	-12848
一本	-12849
一覧	-12850
万は	-12851
万端	-12852
上昇	-12853
下す	-12854
下ろ	-12855
下型	-12856
下鉄	-12857
下降	-12858
不利	-12859
並み	-12860
主と	-12861
主人	-12862
久性	-12863
久間	-12864
乗員	-12865
乾杯	-12866
予期	-12867
事と	-12868
二回	-12869
些細	-12870
交術	-12871
人探	-12872
人選	-12873
仁科	-12874
今朝	-12875
付属	-12876
仮定	-12877
任状	-12878
休む	-12879
休め	-12880
会合	-12881
伝統	-12882
伺う	-12883
佐野	-12884
体を	-12885
体制	-12886
何々	-12887
何個	-12888
何日	-12889
作品	-12890
作権	-12891
係わ	-12892
信五	-12893
信号	-12894
信深	-12895
停止	-12896
健闘	-12897
側が	-12898
偶然	-12899
催促	-12900
傷み	-12901
優位	-12902
優勝	-12903
優良	-12904
元で	-12905
先が	-12906
先ず	-12907
先で	-12908
光景	-12909
免許	-12910
入る	-12911
入場	-12912
入荷	-12913
全国	-12914
全面	-12915
八十	-12916
公表	-12917
共感	-12918
兼任	-12919
内緒	-12920
内覧	-12921
円の	-12922
再び	-12923
出た	-12924
出る	-12925
出世	-12926
出口	-12927
出版	-12928
刀直	-12929
分と	-12930
分も	-12931
分含	-12932
分後	-12933
分担	-12934
分遅	-12935
分類	-12936
切れ	-12937
切日	-12938
初旬	-12939
判明	-12940
別れ	-12941
制約	-12942
刷新	-12943
刺激	-12944
前列	-12945
前向	-12946
前回	-12947
前産	-12948
割に	-12949
割も	-12950
割合	-12951
割烹	-12952
割高	-12953
力に	-12954
労災	-12955
動脈	-12956
勘弁	-12957
募金	-12958
勤め	-12959
勤続	-12960
包装	-12961
化し	-12962
北海	-12963
半の	-12964
半日	-12965
卓上	-12966
即戦	-12967
厄介	-12968
反射	-12969
反映	-12970
反響	-12971
収入	-12972
収穫	-12973
収集	-12974
取れ	-12975
受賞	-12976
口に	-12977
口の	-12978
可動	-12979
可燃	-12980
号棟	-12981
司会	-12982
各所	-12983
各社	-12984
各種	-12985
名札	-12986
名様	-12987
君と	-12988
否定	-12989
周り	-12990
味が	-12991
呼ぶ	-12992
和感	-12993
品番	-12994
品目	-12995
唐突	-12996
商談	-12997
問答	-12998
喜ぶ	-12999
回す	-13000
回せ	-13001
回り	-13002
回復	-13003
回目	-13004
国で	-13005
国は	-13006
国へ	-13007
国名	-13008
土木	-13009
在住	-13010
在学	-13011
地点	-13012
地理	-13013
型の	-13014
型番	-13015
執行	-13016
増収	-13017
売る	-13018
夏に	-13019
外観	-13020
多に	-13021
夜に	-13022
大ま	-13023
大役	-13024
大豆	-13025
天ぷ	-13026
天候	-13027
天皇	-13028
太郎	-13029
奥田	-13030
好調	-13031
妨げ	-13032
姿勢	-13033
学務	-13034
学期	-13035
守る	-13036
定的	-13037
宛先	-13038
実感	-13039
客に	-13040
客室	-13041
宮本	-13042
宮迫	-13043
家は	-13044
家賃	-13045
家電	-13046
寄付	-13047
寝坊	-13048
寸法	-13049
対立	-13050
小林	-13051
小限	-13052
少の	-13053
尚更	-13054
就労	-13055
居た	-13056
居住	-13057
層が	-13058
山口	-13059
山田	-13060
工夫	-13061
工学	-13062
工数	-13063
工程	-13064
左側	-13065
巻き	-13066
帰社	-13067
帳票	-13068
平価	-13069
平良	-13070
年で	-13071
年始	-13072
年月	-13073
幼稚	-13074
府県	-13075
座に	-13076
弁理	-13077
式典	-13078
引受	-13079
弱い	-13080
待つ	-13081
後ろ	-13082
後を	-13083
得る	-13084
得手	-13085
復帰	-13086
微妙	-13087
心構	-13088
志向	-13089
忙し	-13090
忠実	-13091
怒り	-13092
怒る	-13093
怠け	-13094
急激	-13095
急速	-13096
急遽	-13097
性と	-13098
恋那	-13099
悪化	-13100
情熱	-13101
惣菜	-13102
感で	-13103
憂鬱	-13104
憧れ	-13105
成り	-13106
成約	-13107
我慢	-13108
戸締	-13109
所が	-13110
所を	-13111
所持	-13112
手に	-13113
手際	-13114
才能	-13115
打つ	-13116
批判	-13117
投げ	-13118
投入	-13119
投稿	-13120
投薬	-13121
抗議	-13122
抜く	-13123
招集	-13124
持た	-13125
持て	-13126
挑戦	-13127
捺印	-13128
排水	-13129
掘り	-13130
控え	-13131
推奨	-13132
推移	-13133
揃え	-13134
提携	-13135
換え	-13136
握り	-13137
損失	-13138
放置	-13139
故意	-13140
敏感	-13141
教師	-13142
教材	-13143
教科	-13144
数値	-13145
数名	-13146
敷居	-13147
文法	-13148
斎藤	-13149
断る	-13150
新卒	-13151
新婚	-13152
新興	-13153
新調	-13154
方や	-13155
方を	-13156
旗艦	-13157
旧正	-13158
映え	-13159
春節	-13160
昨夜	-13161
昼は	-13162
時と	-13163
晩中	-13164
暖房	-13165
曖昧	-13166
更改	-13167
書と	-13168
最善	-13169
最寄	-13170
最良	-13171
月次	-13172
月額	-13173
有り	-13174
有料	-13175
有毒	-13176
有能	-13177
朝の	-13178
期日	-13179
木が	-13180
木工	-13181
未満	-13182
未知	-13183
末で	-13184
本が	-13185
本分	-13186
本物	-13187
机に	-13188
材を	-13189
条項	-13190
来期	-13191
松戸	-13192
栄え	-13193
梅田	-13194
棚に	-13195
検診	-13196
検証	-13197
業は	-13198
極め	-13199
極秘	-13200
楽な	-13201
概略	-13202
権藤	-13203
機構	-13204
欠勤	-13205
欠席	-13206
欠陥	-13207
欧州	-13208
止め	-13209
正午	-13210
武田	-13211
歩き	-13212
死亡	-13213
毎晩	-13214
毎朝	-13215
比率	-13216
民泊	-13217
気で	-13218
水曜	-13219
決意	-13220
決済	-13221
決議	-13222
沙織	-13223
没頭	-13224
河合	-13225
泊で	-13226
泊り	-13227
法律	-13228
活か	-13229
浴び	-13230
浸水	-13231
消去	-13232
深刻	-13233
深夜	-13234
混ぜ	-13235
混入	-13236
清掃	-13237
済む	-13238
渡せ	-13239
渡米	-13240
港湾	-13241
漏ら	-13242
漏洩	-13243
漬け	-13244
濃い	-13245
灰分	-13246
灰色	-13247
点検	-13248
為の	-13249
煙の	-13250
熟練	-13251
熟読	-13252
片道	-13253
物が	-13254
物に	-13255
特権	-13256
特訓	-13257
犬猫	-13258
犯罪	-13259
独特	-13260
獲得	-13261
玄関	-13262
珈琲	-13263
現金	-13264
理事	-13265
理屈	-13266
理性	-13267
生み	-13268
用事	-13269
用具	-13270
田舎	-13271
田辺	-13272
男子	-13273
町で	-13274
異な	-13275
疑惑	-13276
疲労	-13277
痛い	-13278
発揮	-13279
発着	-13280
白石	-13281
白米	-13282
白身	-13283
白雲	-13284
百貨	-13285
皆も	-13286
皆無	-13287
目処	-13288
目瞭	-13289
直帰	-13290
直通	-13291
直面	-13292
相応	-13293
県別	-13294
真似	-13295
着け	-13296
着色	-13297
睡眠	-13298
短所	-13299
研磨	-13300
示す	-13301
示談	-13302
社も	-13303
神戸	-13304
神田	-13305
神経	-13306
私宛	-13307
秋に	-13308
程の	-13309
税関	-13310
稟議	-13311
種別	-13312
稼ぎ	-13313
積む	-13314
積雪	-13315
空を	-13316
空手	-13317
窓を	-13318
立場	-13319
筆記	-13320
等は	-13321
箇条	-13322
管轄	-13323
箱に	-13324
簡易	-13325
粗相	-13326
糖値	-13327
紙詰	-13328
級の	-13329
終業	-13330
組合	-13331
経歴	-13332
経由	-13333
経緯	-13334
経過	-13335
給湯	-13336
総括	-13337
線の	-13338
罫線	-13339
置く	-13340
美里	-13341
翌月	-13342
翌朝	-13343
習校	-13344
耐え	-13345
聴衆	-13346
肉は	-13347
肩こ	-13348
育て	-13349
育園	-13350
能率	-13351
腹空	-13352
臭い	-13353
船で	-13354
色い	-13355
色を	-13356
花が	-13357
花屋	-13358
花柄	-13359
苦戦	-13360
茶か	-13361
茶色	-13362
菊池	-13363
蓋ホ	-13364
蕎麦	-13365
血圧	-13366
表の	-13367
表面	-13368
袋を	-13369
裏切	-13370
補償	-13371
製作	-13372
要員	-13373
見学	-13374
見落	-13375
見返	-13376
視聴	-13377
視野	-13378
覚め	-13379
覧板	-13380
解説	-13381
記念	-13382
試聴	-13383
認定	-13384
誘い	-13385
語も	-13386
読め	-13387
警告	-13388
警報	-13389
警戒	-13390
谷本	-13391
豆腐	-13392
財務	-13393
財布	-13394
費も	-13395
賛同	-13396
賞品	-13397
質が	-13398
質は	-13399
赴任	-13400
足し	-13401
踏み	-13402
転嫁	-13403
転属	-13404
軽い	-13405
辛い	-13406
農産	-13407
辺り	-13408
迅速	-13409
近年	-13410
近所	-13411
近況	-13412
返上	-13413
退屈	-13414
退社	-13415
送る	-13416
送別	-13417
速で	-13418
速や	-13419
連休	-13420
連続	-13421
連邦	-13422
進歩	-13423
遅め	-13424
遊び	-13425
違法	-13426
適切	-13427
邁進	-13428
還暦	-13429
部が	-13430
部内	-13431
都道	-13432
配り	-13433
配る	-13434
配合	-13435
配給	-13436
里奈	-13437
重に	-13438
重役	-13439
野心	-13440
野球	-13441
量の	-13442
開き	-13443
開け	-13444
開店	-13445
開業	-13446
間接	-13447
間隔	-13448
関与	-13449
関数	-13450
阪急	-13451
阻止	-13452
降る	-13453
限界	-13454
集約	-13455
集金	-13456
雇う	-13457
難い	-13458
面の	-13459
革新	-13460
音は	-13461
音楽	-13462
順位	-13463
頭痛	-13464
頻繁	-13465
頼ま	-13466
頼り	-13467
風の	-13468
風呂	-13469
飛ば	-13470
首都	-13471
香水	-13472
駄目	-13473
騒が	-13474
高梨	-13475
高田	-13476
高野	-13477
高額	-13478
齢者	-13479
0.0	-13480
0.5	-13481
150	-13482
1、2	-13483
20%	-13484
35%	-13485
550	-13486
567	-13487
7.5	-13488
765	-13489
911	-13490
DVD	-13491
EIC	-13492
IRS	-13493
SOW	-13494
TML	-13495
Win	-13496
ann	-13497
ing	-13498
▁17	-13499
▁28	-13500
▁40	-13501
▁45	-13502
▁70	-13503
▁BL	-13504
▁CX	-13505
▁HS	-13506
▁あり	-13507
▁お前	-13508
▁お嬢	-13509
▁お手	-13510
▁お陰	-13511
▁かわ	-13512
▁そら	-13513
▁たま	-13514
▁だめ	-13515
▁だろ	-13516
▁とん	-13517
▁なお	-13518
▁はー	-13519
▁ほか	-13520
▁ほぼ	-13521
▁ます	-13522
▁ウェ	-13523
▁エク	-13524
▁オリ	-13525
▁カン	-13526
▁コナ	-13527
▁コン	-13528
▁シア	-13529
▁セル	-13530
▁チャ	-13531
▁ナビ	-13532
▁ニュ	-13533
▁バイ	-13534
▁バス	-13535
▁バー	-13536
▁パス	-13537
▁パリ	-13538
▁パロ	-13539
▁ファ	-13540
▁フル	-13541
▁ミス	-13542
▁リサ	-13543
▁レッ	-13544
▁ロジ	-13545
▁ヴォ	-13546
▁一覧	-13547
▁三年	-13548
▁上長	-13549
▁下の	-13550
▁中間	-13551
▁主な	-13552
▁主任	-13553
▁予測	-13554
▁事情	-13555
▁事業	-13556
▁人気	-13557
▁今も	-13558
▁仮に	-13559
▁仮装	-13560
▁企画	-13561
▁伝言	-13562
▁伸び	-13563
▁住所	-13564
▁何と	-13565
▁何処	-13566
▁何百	-13567
▁作業	-13568
▁例年	-13569
▁保証	-13570
▁修正	-13571
▁修理	-13572
▁充電	-13573
▁全社	-13574
▁公園	-13575
▁内勤	-13576
▁再度	-13577
▁出席	-13578
▁別の	-13579
▁前に	-13580
▁前の	-13581
▁前職	-13582
▁加藤	-13583
▁勤務	-13584
▁午前	-13585
▁卒業	-13586
▁単に	-13587
▁受付	-13588
▁受注	-13589
▁古賀	-13590
▁各階	-13591
▁和夫	-13592
▁和食	-13593
▁商業	-13594
▁国内	-13595
▁国産	-13596
▁国際	-13597
▁地図	-13598
▁基礎	-13599
▁場合	-13600
▁場所	-13601
▁夜の	-13602
▁大ま	-13603
▁大事	-13604
▁大手	-13605
▁大石	-13606
▁大豆	-13607
▁太一	-13608
▁学生	-13609
▁完璧	-13610
▁実施	-13611
▁宣伝	-13612
▁将来	-13613
▁少々	-13614
▁岡田	-13615
▁希望	-13616
▁平良	-13617
▁年度	-13618
▁幹事	-13619
▁広瀬	-13620
▁店の	-13621
▁店舗	-13622
▁店長	-13623
▁建設	-13624
▁彼に	-13625
▁後ろ	-13626
▁御社	-13627
▁応募	-13628
▁応援	-13629
▁急に	-13630
▁意図	-13631
▁成績	-13632
▁手元	-13633
▁承認	-13634
▁投票	-13635
▁折角	-13636
▁接待	-13637
▁提案	-13638
▁散ら	-13639
▁新聞	-13640
▁施設	-13641
▁旅行	-13642
▁既に	-13643
▁日程	-13644
▁映画	-13645
▁昨夜	-13646
▁時期	-13647
▁景気	-13648
▁最後	-13649
▁最新	-13650
▁最高	-13651
▁月に	-13652
▁月末	-13653
▁有料	-13654
▁期末	-13655
▁本件	-13656
▁杉山	-13657
▁松下	-13658
▁林業	-13659
▁検査	-13660
▁業界	-13661
▁業種	-13662
▁様子	-13663
▁次回	-13664
▁正規	-13665
▁毎回	-13666
▁毎朝	-13667
▁水泳	-13668
▁沢山	-13669
▁法務	-13670
▁洗車	-13671
▁温厚	-13672
▁無い	-13673
▁焼肉	-13674
▁父は	-13675
▁父親	-13676
▁物流	-13677
▁特許	-13678
▁現場	-13679
▁現状	-13680
▁理解	-13681
▁環境	-13682
▁生徒	-13683
▁田端	-13684
▁異動	-13685
▁病院	-13686
▁発売	-13687
▁発注	-13688
▁皆が	-13689
▁監視	-13690
▁相葉	-13691
▁眼鏡	-13692
▁瞑想	-13693
▁礼儀	-13694
▁社内	-13695
▁私で	-13696
▁私や	-13697
▁私達	-13698
▁約束	-13699
▁絶対	-13700
▁緊急	-13701
▁総会	-13702
▁署名	-13703
▁美咲	-13704
▁義理	-13705
▁考え	-13706
▁耐震	-13707
▁職務	-13708
▁職場	-13709
▁至急	-13710
▁航空	-13711
▁若い	-13712
▁英国	-13713
▁菅原	-13714
▁行き	-13715
▁行く	-13716
▁西洋	-13717
▁規制	-13718
▁規模	-13719
▁視覚	-13720
▁観光	-13721
▁言葉	-13722
▁訂正	-13723
▁訓練	-13724
▁設定	-13725
▁話は	-13726
▁調査	-13727
▁費用	-13728
▁貿易	-13729
▁購入	-13730
▁車で	-13731
▁輸送	-13732
▁近い	-13733
▁近藤	-13734
▁返金	-13735
▁送料	-13736
▁速達	-13737
▁連邦	-13738
▁進捗	-13739
▁違法	-13740
▁部下	-13741
▁郵送	-13742
▁都市	-13743
▁長い	-13744
▁音量	-13745
▁駅の	-13746
▁高級	-13747
、16	-13748
、80	-13749
、90	-13750
あきら	-13751
あちこ	-13752
あとに	-13753
あのー	-13754
あの人	-13755
あんま	-13756
いいか	-13757
いい人	-13758
いくか	-13759
いため	-13760
いっぱ	-13761
いつの	-13762
いつ頃	-13763
いてね	-13764
いなし	-13765
うけど	-13766
うるさ	-13767
うーん	-13768
えた分	-13769
おうと	-13770
お一人	-13771
お使い	-13772
お元気	-13773
お呼び	-13774
お客は	-13775
お寿司	-13776
お店で	-13777
お店の	-13778
お急ぎ	-13779
お掃除	-13780
お渡し	-13781
お申し	-13782
お考え	-13783
お聞き	-13784
お見せ	-13785
お試し	-13786
かとか	-13787
かとも	-13788
かによ	-13789
からず	-13790
からと	-13791
から新	-13792
から見	-13793
から逃	-13794
から離	-13795
かろう	-13796
かを知	-13797
かんじ	-13798
か何か	-13799
か月半	-13800
か来週	-13801
か確か	-13802
か説明	-13803
がいつ	-13804
がい薬	-13805
がきた	-13806
がこぼ	-13807
がこれ	-13808
がござ	-13809
がすぐ	-13810
がだめ	-13811
がって	-13812
がまた	-13813
がやば	-13814
がよい	-13815
がよく	-13816
がダメ	-13817
が一部	-13818
が下が	-13819
が不要	-13820
が交渉	-13821
が入社	-13822
が全て	-13823
が全部	-13824
が到着	-13825
が増え	-13826
が多発	-13827
が大事	-13828
が大体	-13829
が完了	-13830
が希望	-13831
が強い	-13832
が彼の	-13833
が怒鳴	-13834
が損傷	-13835
が故障	-13836
が機能	-13837
が止ま	-13838
が流暢	-13839
が甘い	-13840
が用意	-13841
が社に	-13842
が簡単	-13843
が絡む	-13844
が絶対	-13845
が見込	-13846
が豪華	-13847
が足り	-13848
が遅い	-13849
が選べ	-13850
が重要	-13851
が関係	-13852
が高め	-13853
が高齢	-13854
きたり	-13855
きっち	-13856
きても	-13857
くして	-13858
くしゃ	-13859
くだと	-13860
くてね	-13861
くのを	-13862
くると	-13863
くるね	-13864
くるよ	-13865
くれぐ	-13866
くわく	-13867
くんと	-13868
ぐしゃ	-13869
けたら	-13870
こそは	-13871
ことだ	-13872
このま	-13873
この短	-13874
これに	-13875
ごはん	-13876
ごらん	-13877
ご一緒	-13878
ご予約	-13879
ご依頼	-13880
ご共有	-13881
ご利用	-13882
ご参加	-13883
ご契約	-13884
ご安心	-13885
ご意向	-13886
ご担当	-13887
ご活躍	-13888
ご準備	-13889
ご理解	-13890
ご自宅	-13891
ご購入	-13892
ご迷惑	-13893
させた	-13894
さらい	-13895
さんか	-13896
ざまな	-13897
しいよ	-13898
しくな	-13899
しく思	-13900
したわ	-13901
して北	-13902
して参	-13903
しなあ	-13904
しなよ	-13905
しゃれ	-13906
じゃぁ	-13907
じゃ見	-13908
すのを	-13909
すませ	-13910
する件	-13911
する訳	-13912
す事が	-13913
ずらす	-13914
せめて	-13915
せるし	-13916
そこへ	-13917
そこを	-13918
そっか	-13919
そのお	-13920
その中	-13921
その子	-13922
その点	-13923
そばの	-13924
それと	-13925
ただし	-13926
たのは	-13927
ためら	-13928
たり前	-13929
だけだ	-13930
だけは	-13931
だらけ	-13932
だわね	-13933
ちまう	-13934
ったい	-13935
ったく	-13936
ってな	-13937
って話	-13938
って誰	-13939
っとく	-13940
っぽく	-13941
っぽど	-13942
ついた	-13943
つの州	-13944
つ選択	-13945
づくり	-13946
づらく	-13947
でしか	-13948
でもら	-13949
でも買	-13950
でやる	-13951
で会議	-13952
で何が	-13953
で何人	-13954
で入力	-13955
で出勤	-13956
で印刷	-13957
で問題	-13958
で大変	-13959
で心配	-13960
で悪い	-13961
で東京	-13962
で検収	-13963
で構成	-13964
で特に	-13965
で研修	-13966
で確認	-13967
で社内	-13968
で稼働	-13969
で簡潔	-13970
で終了	-13971
で自信	-13972
で行う	-13973
で計算	-13974
で話す	-13975
で避難	-13976
で電話	-13977
とかな	-13978
とか工	-13979
とする	-13980
とはい	-13981
とほぼ	-13982
ともい	-13983
とも言	-13984
とよく	-13985
とわか	-13986
と交換	-13987
と使い	-13988
と健康	-13989
と入力	-13990
と全く	-13991
と同期	-13992
と呼ば	-13993
と呼び	-13994
と場所	-13995
と実績	-13996
と思い	-13997
と承認	-13998
と提案	-13999
と来週	-14000
と私は	-14001
と英語	-14002
と製造	-14003
と販売	-14004
と避難	-14005
と開発	-14006
と関わ	-14007
どこが	-14008
どの辺	-14009
どれも	-14010
ど真ん	-14011
ないで	-14012
ないな	-14013
ないわ	-14014
なお話	-14015
なさい	-14016
なさる	-14017
なだけ	-14018
なんの	-14019
な内容	-14020
な印象	-14021
な取引	-14022
な投資	-14023
な移行	-14024
にあて	-14025
にいた	-14026
にお力	-14027
にお金	-14028
にされ	-14029
につく	-14030
にのみ	-14031
にはな	-14032
には緑	-14033
にもし	-14034
にもの	-14035
に会い	-14036
に伴い	-14037
に何か	-14038
に余裕	-14039
に保存	-14040
に入学	-14041
に勝る	-14042
に印刷	-14043
に印鑑	-14044
に向け	-14045
に失敗	-14046
に少し	-14047
に届く	-14048
に差し	-14049
に強く	-14050
に意識	-14051
に感じ	-14052
に打ち	-14053
に抵抗	-14054
に携わ	-14055
に数字	-14056
に新人	-14057
に書類	-14058
に沿う	-14059
に渡す	-14060
に目が	-14061
に相当	-14062
に着け	-14063
に着目	-14064
に移行	-14065
に積載	-14066
に立た	-14067
に納得	-14068
に設置	-14069
に送信	-14070
に連れ	-14071
に進出	-14072
に適宜	-14073
に関係	-14074
に関連	-14075
に障害	-14076
ねだり	-14077
のお姉	-14078
のお子	-14079
のお席	-14080
のかを	-14081
のなら	-14082
のは嫌	-14083
のは誰	-14084
のほど	-14085
のまま	-14086
のみで	-14087
のを見	-14088
のキャ	-14089
のスポ	-14090
のバイ	-14091
の一時	-14092
の一環	-14093
の一番	-14094
の一種	-14095
の一連	-14096
の下に	-14097
の下落	-14098
の中に	-14099
の中旬	-14100
の中身	-14101
の事か	-14102
の事で	-14103
の事態	-14104
の事故	-14105
の人を	-14106
の人数	-14107
の人間	-14108
の他に	-14109
の件は	-14110
の件も	-14111
の低い	-14112
の体調	-14113
の作成	-14114
の供給	-14115
の先生	-14116
の内容	-14117
の出張	-14118
の到着	-14119
の取り	-14120
の受注	-14121
の在庫	-14122
の大手	-14123
の契約	-14124
の希望	-14125
の影響	-14126
の後で	-14127
の後輩	-14128
の心配	-14129
の成績	-14130
の手当	-14131
の指定	-14132
の指示	-14133
の支給	-14134
の方と	-14135
の方も	-14136
の旅費	-14137
の最終	-14138
の期間	-14139
の概算	-14140
の特別	-14141
の確保	-14142
の紹介	-14143
の練習	-14144
の衛生	-14145
の表彰	-14146
の要望	-14147
の解除	-14148
の計算	-14149
の記録	-14150
の設備	-14151
の説明	-14152
の課題	-14153
の輸出	-14154
の過失	-14155
の部門	-14156
の金額	-14157
の間は	-14158
の需要	-14159
の願書	-14160
の食事	-14161
の高坂	-14162
はいっ	-14163
はいろ	-14164
はお金	-14165
はここ	-14166
はつけ	-14167
はなし	-14168
は予想	-14169
は何を	-14170
は何人	-14171
は何名	-14172
は何番	-14173
は先月	-14174
は全く	-14175
は前回	-14176
は去年	-14177
は問題	-14178
は大き	-14179
は大事	-14180
は大変	-14181
は好き	-14182
は好評	-14183
は完成	-14184
は年間	-14185
は得意	-14186
は必ず	-14187
は早い	-14188
は本日	-14189
は横浜	-14190
は毎年	-14191
は沢山	-14192
は現在	-14193
は私の	-14194
は見て	-14195
は資金	-14196
は通常	-14197
は遠い	-14198
は部門	-14199
は銀行	-14200
は随分	-14201
ひいき	-14202
ひどく	-14203
ぴった	-14204
ぶりに	-14205
へのお	-14206
へ移動	-14207
ほっと	-14208
ほどに	-14209
ほどは	-14210
ほんの	-14211
まだと	-14212
までご	-14213
まです	-14214
までも	-14215
まで遡	-14216
まない	-14217
ままに	-14218
まると	-14219
みるね	-14220
めたい	-14221
めるか	-14222
もうち	-14223
もした	-14224
もぜひ	-14225
もって	-14226
ものと	-14227
ものも	-14228
もよさ	-14229
もらい	-14230
もんか	-14231
もタイ	-14232
も予約	-14233
も入れ	-14234
も同行	-14235
も変わ	-14236
も残業	-14237
も豊富	-14238
も長い	-14239
も開催	-14240
やかな	-14241
やたら	-14242
やめる	-14243
やバス	-14244
や数字	-14245
や装置	-14246
や週末	-14247
よいか	-14248
よいよ	-14249
より安	-14250
らかな	-14251
らして	-14252
ら連絡	-14253
りに欠	-14254
りわけ	-14255
り返す	-14256
るのよ	-14257
るより	-14258
る仕事	-14259
る時間	-14260
れる事	-14261
わけか	-14262
わりと	-14263
をこの	-14264
をさせ	-14265
をつか	-14266
をつけ	-14267
をどう	-14268
をオフ	-14269
を交換	-14270
を代表	-14271
を伺う	-14272
を保留	-14273
を再編	-14274
を前に	-14275
を勉強	-14276
を受信	-14277
を含め	-14278
を外注	-14279
を失う	-14280
を学ぶ	-14281
を宣伝	-14282
を少し	-14283
を強化	-14284
を心が	-14285
を想定	-14286
を打ち	-14287
を押さ	-14288
を持た	-14289
を挙げ	-14290
を捨て	-14291
を採用	-14292
を推進	-14293
を掲げ	-14294
を提出	-14295
を準備	-14296
を生産	-14297
を発掘	-14298
を発表	-14299
を着て	-14300
を移動	-14301
を落と	-14302
を表現	-14303
を観光	-14304
を設置	-14305
を読む	-14306
を調べ	-14307
を講じ	-14308
を買い	-14309
を買収	-14310
を追い	-14311
を追求	-14312
を送る	-14313
を送付	-14314
を連想	-14315
を進め	-14316
を選び	-14317
を重視	-14318
を開催	-14319
を開発	-14320
を集中	-14321
を頂き	-14322
を高め	-14323
んだら	-14324
んだり	-14325
アニメ	-14326
アマン	-14327
アルト	-14328
イック	-14329
イナー	-14330
イラー	-14331
インテ	-14332
インボ	-14333
ウィル	-14334
ウチも	-14335
ウチら	-14336
エフェ	-14337
エンス	-14338
オシッ	-14339
カゴ店	-14340
カット	-14341
ガイア	-14342
ガジン	-14343
キャビ	-14344
キャロ	-14345
キレイ	-14346
キーボ	-14347
ギル氏	-14348
クサー	-14349
グルメ	-14350
ケリー	-14351
コスパ	-14352
コミッ	-14353
コント	-14354
コーダ	-14355
コート	-14356
コープ	-14357
サムか	-14358
サリー	-14359
サロン	-14360
ザード	-14361
スキャ	-14362
ステイ	-14363
スペル	-14364
スポー	-14365
スミス	-14366
ス部長	-14367
セルを	-14368
タクト	-14369
ターが	-14370
ダクタ	-14371
ダニエ	-14372
チャキ	-14373
チャン	-14374
チラシ	-14375
ッチな	-14376
ットー	-14377
ット数	-14378
ップス	-14379
ティス	-14380
テージ	-14381
テープ	-14382
デッキ	-14383
デニス	-14384
デモン	-14385
トニー	-14386
トミー	-14387
トラブ	-14388
ドル位	-14389
ナイフ	-14390
ナーは	-14391
ネイト	-14392
ネン類	-14393
ノベル	-14394
ハラス	-14395
ハンド	-14396
バイル	-14397
バリエ	-14398
バレー	-14399
バンド	-14400
バーで	-14401
バーグ	-14402
バート	-14403
パッと	-14404
パニー	-14405
パン屋	-14406
ビンゴ	-14407
フルー	-14408
フロー	-14409
ブック	-14410
ブルー	-14411
ヘッド	-14412
ヘルム	-14413
ヘルメ	-14414
マット	-14415
マレー	-14416
マンス	-14417
ミスを	-14418
ム州の	-14419
メディ	-14420
メモ帳	-14421
モニタ	-14422
モヤモ	-14423
ャージ	-14424
ヤレス	-14425
ューズ	-14426
ユニー	-14427
ユーザ	-14428
ラスク	-14429
ラブル	-14430
ラルド	-14431
リアは	-14432
リスケ	-14433
リンダ	-14434
リーで	-14435
リーの	-14436
リーン	-14437
ルです	-14438
ルアウ	-14439
ルイス	-14440
ルター	-14441
レキシ	-14442
レステ	-14443
ロペス	-14444
ロード	-14445
ーイー	-14446
ータル	-14447
ードを	-14448
ーンと	-14449
一つは	-14450
一年は	-14451
一年前	-14452
一年目	-14453
一緒の	-14454
三人に	-14455
三年は	-14456
三週間	-14457
上さん	-14458
上司の	-14459
上手に	-14460
上海に	-14461
下旬に	-14462
下書き	-14463
不具合	-14464
不思議	-14465
不良品	-14466
世代の	-14467
世界の	-14468
世界的	-14469
中では	-14470
中でも	-14471
中国の	-14472
中国製	-14473
中学校	-14474
中山君	-14475
中途採	-14476
主要な	-14477
乗り切	-14478
乗り気	-14479
予定を	-14480
予定日	-14481
予想外	-14482
予約の	-14483
事って	-14484
事尽く	-14485
事業は	-14486
事業者	-14487
二つが	-14488
二つの	-14489
二人分	-14490
交換品	-14491
人が居	-14492
人しか	-14493
人ずつ	-14494
人って	-14495
人分の	-14496
人前後	-14497
人物を	-14498
今この	-14499
今では	-14500
今のは	-14501
今後も	-14502
今現在	-14503
今週の	-14504
他とは	-14505
他の国	-14506
他社に	-14507
他社の	-14508
付いた	-14509
付きで	-14510
代です	-14511
代理店	-14512
以上で	-14513
以下で	-14514
以内の	-14515
以降に	-14516
以降は	-14517
仰って	-14518
仲介人	-14519
件だけ	-14520
件以上	-14521
企業様	-14522
企画書	-14523
休みは	-14524
休憩中	-14525
休日は	-14526
会場に	-14527
会社や	-14528
伸ばす	-14529
伸びて	-14530
伸び率	-14531
伺った	-14532
住まい	-14533
佐久間	-14534
何かな	-14535
何か案	-14536
何が入	-14537
何なり	-14538
何にも	-14539
何名か	-14540
何年か	-14541
何年も	-14542
何年生	-14543
何年目	-14544
何社か	-14545
作業員	-14546
使いた	-14547
使うと	-14548
価格表	-14549
侵入者	-14550
便利な	-14551
保証が	-14552
信深い	-14553
倉庫に	-14554
個々に	-14555
値段も	-14556
健闘を	-14557
備えて	-14558
僕には	-14559
優しい	-14560
優れた	-14561
優れて	-14562
先方は	-14563
先月の	-14564
入札で	-14565
全てを	-14566
全体を	-14567
全員を	-14568
全社員	-14569
全部の	-14570
全部書	-14571
八十個	-14572
公園の	-14573
兼ねて	-14574
内さん	-14575
内陸の	-14576
円です	-14577
再来週	-14578
冗談を	-14579
写真も	-14580
写真や	-14581
凹んだ	-14582
出かけ	-14583
出そう	-14584
出席者	-14585
出張費	-14586
出荷分	-14587
刀直入	-14588
分程度	-14589
分野の	-14590
別件で	-14591
前だね	-14592
前半は	-14593
前産後	-14594
副周波	-14595
割いて	-14596
力候補	-14597
労働力	-14598
労働観	-14599
効き目	-14600
効率化	-14601
効率性	-14602
勉強会	-14603
勉強家	-14604
動かす	-14605
動かせ	-14606
勘違い	-14607
勤続年	-14608
勧めて	-14609
勧める	-14610
匂いの	-14611
北海道	-14612
半分の	-14613
半年で	-14614
卒業後	-14615
単純な	-14616
単純に	-14617
危ない	-14618
即戦力	-14619
参加の	-14620
友人が	-14621
友達が	-14622
取り次	-14623
取引の	-14624
取扱い	-14625
受付に	-14626
口座に	-14627
可愛い	-14628
合併は	-14629
同じで	-14630
同じ位	-14631
同期比	-14632
同様に	-14633
名ほど	-14634
名古屋	-14635
君次第	-14636
吠える	-14637
周りと	-14638
味付け	-14639
呼んで	-14640
品物を	-14641
商品と	-14642
商品化	-14643
問題を	-14644
喫茶店	-14645
営業や	-14646
営業を	-14647
回って	-14648
回納入	-14649
困って	-14650
困難な	-14651
困難は	-14652
国とも	-14653
国内の	-14654
地下鉄	-14655
地元に	-14656
基本は	-14657
基準は	-14658
堂々巡	-14659
場を設	-14660
増やす	-14661
壊れる	-14662
声掛け	-14663
変だな	-14664
変わら	-14665
変わり	-14666
変化が	-14667
外に出	-14668
外国語	-14669
多数の	-14670
夢見て	-14671
大人数	-14672
大変気	-14673
大学は	-14674
大学を	-14675
大学生	-14676
大阪の	-14677
天皇杯	-14678
契約と	-14679
契約に	-14680
契約の	-14681
女性は	-14682
始まる	-14683
始める	-14684
委任状	-14685
嫌がる	-14686
子会社	-14687
子供は	-14688
学生が	-14689
定型の	-14690
実家が	-14691
客様の	-14692
宣伝課	-14693
室の川	-14694
家では	-14695
家を買	-14696
家族も	-14697
宿泊者	-14698
密度の	-14699
寒いね	-14700
対応が	-14701
対応も	-14702
対象と	-14703
対象者	-14704
専門の	-14705
導入先	-14706
小売客	-14707
小学校	-14708
届いた	-14709
展開が	-14710
崎さん	-14711
州での	-14712
工場と	-14713
工場は	-14714
市場を	-14715
常会話	-14716
干渉し	-14717
年です	-14718
年勤務	-14719
年間で	-14720
年間は	-14721
年齢層	-14722
幹事は	-14723
幼稚園	-14724
広げて	-14725
広告は	-14726
広州の	-14727
店舗に	-14728
座れる	-14729
建築用	-14730
建設は	-14731
弁理士	-14732
引っ越	-14733
張り切	-14734
当初は	-14735
当社と	-14736
役立ち	-14737
役職の	-14738
彼がお	-14739
彼らと	-14740
彼女も	-14741
後でね	-14742
後回し	-14743
御社で	-14744
御社へ	-14745
心強い	-14746
心構え	-14747
心配で	-14748
必要性	-14749
怒らせ	-14750
思いを	-14751
思うわ	-14752
急な用	-14753
急にお	-14754
急成長	-14755
怪我を	-14756
悔やみ	-14757
悪い人	-14758
意向を	-14759
意欲的	-14760
意見と	-14761
意見は	-14762
感じて	-14763
懇意に	-14764
成分を	-14765
我が社	-14766
戸締り	-14767
所です	-14768
所まで	-14769
手が空	-14770
手作り	-14771
手土産	-14772
手数料	-14773
手洗い	-14774
払いの	-14775
抜いて	-14776
押さえ	-14777
担当は	-14778
拍手を	-14779
招待券	-14780
指示板	-14781
挙げた	-14782
挙げて	-14783
挨拶を	-14784
捉えて	-14785
掃除の	-14786
掛かり	-14787
掛けた	-14788
掛けて	-14789
提供は	-14790
提案を	-14791
撮影で	-14792
支社で	-14793
放題の	-14794
政府は	-14795
教授の	-14796
文化財	-14797
文書は	-14798
料理が	-14799
料金と	-14800
料金も	-14801
斬新な	-14802
新商品	-14803
新年の	-14804
新年会	-14805
新技術	-14806
新材料	-14807
新規の	-14808
方でも	-14809
方には	-14810
方向に	-14811
方法が	-14812
方法で	-14813
施設が	-14814
施設に	-14815
旗艦店	-14816
日の朝	-14817
日をお	-14818
日午前	-14819
日後に	-14820
日後の	-14821
日時の	-14822
日曜日	-14823
日程も	-14824
日間で	-14825
日間の	-14826
旧広告	-14827
早々に	-14828
早くに	-14829
早める	-14830
明確に	-14831
昼食を	-14832
時でも	-14833
時なら	-14834
時にお	-14835
時期に	-14836
時給制	-14837
時過ぎ	-14838
時間帯	-14839
晩まで	-14840
普通の	-14841
曜の夜	-14842
書きの	-14843
書き出	-14844
書を読	-14845
書式で	-14846
替えた	-14847
替えて	-14848
最初は	-14849
最前列	-14850
最小限	-14851
最高の	-14852
月です	-14853
月には	-14854
月に某	-14855
月中旬	-14856
月後半	-14857
月末が	-14858
月末に	-14859
有給の	-14860
朝一で	-14861
朝礼を	-14862
期間が	-14863
未開拓	-14864
本人に	-14865
本人の	-14866
本人様	-14867
本体の	-14868
本当は	-14869
本部長	-14870
条件は	-14871
来てる	-14872
来れる	-14873
来月は	-14874
来月末	-14875
東京で	-14876
東京に	-14877
株主役	-14878
案内に	-14879
案内を	-14880
検収は	-14881
検査で	-14882
業界や	-14883
業社の	-14884
業者に	-14885
楽しむ	-14886
様だね	-14887
様子を	-14888
機会に	-14889
機内で	-14890
機材を	-14891
機能も	-14892
止まる	-14893
止める	-14894
正式な	-14895
正直な	-14896
歩くの	-14897
歯科医	-14898
殆どの	-14899
残して	-14900
残業は	-14901
残業を	-14902
母国語	-14903
比較表	-14904
気が出	-14905
気が重	-14906
気にな	-14907
気の毒	-14908
気乗り	-14909
水分含	-14910
水浸し	-14911
求人の	-14912
泊まる	-14913
注文の	-14914
活気が	-14915
浜田が	-14916
消化管	-14917
消費量	-14918
添乗員	-14919
渋滞が	-14920
渡せる	-14921
測定が	-14922
港行き	-14923
滅多に	-14924
火事が	-14925
火事は	-14926
点まで	-14927
無くて	-14928
無理だ	-14929
片づけ	-14930
物質の	-14931
特には	-14932
現地の	-14933
現段階	-14934
理的に	-14935
生徒が	-14936
用品の	-14937
用電話	-14938
田専務	-14939
申し分	-14940
男性が	-14941
留めて	-14942
番号も	-14943
番号を	-14944
番目の	-14945
番目は	-14946
番組で	-14947
疲れる	-14948
病気の	-14949
病院が	-14950
発表会	-14951
百貨店	-14952
盗んで	-14953
監査を	-14954
目に見	-14955
目を向	-14956
目を配	-14957
目標が	-14958
目瞭然	-14959
直して	-14960
直ちに	-14961
直下型	-14962
直接話	-14963
直近で	-14964
真剣な	-14965
真面目	-14966
着ける	-14967
着色料	-14968
知識に	-14969
知識を	-14970
研修が	-14971
研修も	-14972
研磨機	-14973
確かな	-14974
確認と	-14975
確認の	-14976
社に売	-14977
社に戻	-14978
社のト	-14979
社の件	-14980
社の竹	-14981
社の親	-14982
社交術	-14983
社内に	-14984
社員証	-14985
社広報	-14986
社長と	-14987
私です	-14988
私の元	-14989
私共の	-14990
科学者	-14991
秘密は	-14992
稟議書	-14993
積み木	-14994
積み込	-14995
積荷が	-14996
空けて	-14997
空気が	-14998
空港に	-14999
端末に	-15000
競争率	-15001
第一に	-15002
管理者	-15003
管理費	-15004
米国の	-15005
精一杯	-15006
素直に	-15007
累計も	-15008
経営を	-15009
経費で	-15010
経験は	-15011
経験者	-15012
結んだ	-15013
継いで	-15014
続きで	-15015
締切日	-15016
繰り越	-15017
纏めて	-15018
美さん	-15019
翌日に	-15020
考えを	-15021
者向け	-15022
耐久性	-15023
聞こう	-15024
肝に命	-15025
能力を	-15026
腹立た	-15027
自らの	-15028
自体の	-15029
自分に	-15030
自然と	-15031
自然派	-15032
自由に	-15033
興味は	-15034
良いし	-15035
若者は	-15036
英語が	-15037
英語版	-15038
荷物の	-15039
著作権	-15040
行き先	-15041
行くか	-15042
行くの	-15043
行と列	-15044
行事が	-15045
表から	-15046
補助金	-15047
補習校	-15048
製品で	-15049
製造は	-15050
要望を	-15051
見えた	-15052
見せる	-15053
見た目	-15054
見ても	-15055
見ます	-15056
規定の	-15057
規模で	-15058
規範は	-15059
覚える	-15060
親切な	-15061
親友が	-15062
観客の	-15063
言い方	-15064
言うか	-15065
計画は	-15066
計画を	-15067
記事の	-15068
記事を	-15069
設ける	-15070
設計図	-15071
訳した	-15072
評価を	-15073
評判を	-15074
試作品	-15075
詰めて	-15076
詰める	-15077
詰パン	-15078
話し合	-15079
話すか	-15080
話です	-15081
誤配達	-15082
読める	-15083
読もう	-15084
調子で	-15085
調査で	-15086
調理法	-15087
諦めて	-15088
議論を	-15089
責める	-15090
責任は	-15091
貰える	-15092
費用を	-15093
貿易の	-15094
賃料が	-15095
資料は	-15096
賞品を	-15097
質問も	-15098
購入の	-15099
越えて	-15100
軒並み	-15101
転んだ	-15102
軽くて	-15103
辞めた	-15104
辺りの	-15105
込もう	-15106
近いし	-15107
近所に	-15108
近所の	-15109
返金を	-15110
返金額	-15111
追加で	-15112
退勤後	-15113
送り状	-15114
送り返	-15115
送料は	-15116
通って	-15117
通勤に	-15118
通勤の	-15119
通勤は	-15120
通勤中	-15121
通知は	-15122
週一回	-15123
週末の	-15124
週間に	-15125
週間は	-15126
週間前	-15127
進行中	-15128
遅いよ	-15129
運営の	-15130
過ぎる	-15131
過程で	-15132
達する	-15133
達との	-15134
遠いな	-15135
選手が	-15136
選択で	-15137
部から	-15138
部です	-15139
部では	-15140
部の吉	-15141
部署や	-15142
部長は	-15143
部門に	-15144
都合が	-15145
配偶者	-15146
里帰り	-15147
重点を	-15148
長年の	-15149
長引く	-15150
長続き	-15151
閉めて	-15152
開いて	-15153
開発が	-15154
開発中	-15155
関係者	-15156
関数で	-15157
随分と	-15158
集まる	-15159
雇った	-15160
離れて	-15161
電力の	-15162
電子版	-15163
電話は	-15164
電車と	-15165
需要率	-15166
非常食	-15167
面倒く	-15168
韓国語	-15169
音量を	-15170
項目に	-15171
順調に	-15172
頭には	-15173
頼めば	-15174
頼んだ	-15175
顔を出	-15176
願いが	-15177
顧客に	-15178
顧客層	-15179
食べた	-15180
食事が	-15181
食事を	-15182
食事会	-15183
飲んで	-15184
香りが	-15185
駅付近	-15186
高いよ	-15187
高さん	-15188
高めに	-15189
高めの	-15190
高める	-15191
高品質	-15192
高性能	-15193
高額の	-15194
黄色い	-15195
2018	-15196
2020	-15197
3000	-15198
4321	-15199
888@	-15200
Word	-15201
XXXX	-15202
dows	-15203
▁PDF	-15204
▁USB	-15205
▁XXX	-15206
▁あのね	-15207
▁あらら	-15208
▁あーっ	-15209
▁いない	-15210
▁うちら	-15211
▁おっと	-15212
▁お互い	-15213
▁お仕事	-15214
▁お伝え	-15215
▁お使い	-15216
▁お元気	-15217
▁お先に	-15218
▁お名前	-15219
▁お土産	-15220
▁お店の	-15221
▁お弁当	-15222
▁お掃除	-15223
▁お褒め	-15224
▁お話中	-15225
▁お誘い	-15226
▁お邪魔	-15227
▁お金は	-15228
▁お食事	-15229
▁この度	-15230
▁この紙	-15231
▁ご心配	-15232
▁ご検討	-15233
▁ご注文	-15234
▁ご確認	-15235
▁ご説明	-15236
▁ご質問	-15237
▁さてと	-15238
▁さらに	-15239
▁ざっと	-15240
▁そうよ	-15241
▁そこが	-15242
▁その辺	-15243
▁その際	-15244
▁そりゃ	-15245
▁たかが	-15246
▁たぶん	-15247
▁でしょ	-15248
▁でも今	-15249
▁どこに	-15250
▁どこへ	-15251
▁どなた	-15252
▁なのに	-15253
▁ひとり	-15254
▁ひどい	-15255
▁まあね	-15256
▁まるで	-15257
▁みさお	-15258
▁やった	-15259
▁アット	-15260
▁アプリ	-15261
▁インク	-15262
▁エリア	-15263
▁エレン	-15264
▁カフェ	-15265
▁キング	-15266
▁クリス	-15267
▁クロー	-15268
▁ケリー	-15269
▁コスト	-15270
▁コース	-15271
▁サムは	-15272
▁スピー	-15273
▁スーツ	-15274
▁ソフト	-15275
▁ダウン	-15276
▁ツアー	-15277
▁テック	-15278
▁テーマ	-15279
▁デイブ	-15280
▁デロー	-15281
▁トイレ	-15282
▁トルコ	-15283
▁トレー	-15284
▁ドット	-15285
▁バイオ	-15286
▁バイト	-15287
▁パテル	-15288
▁ヒュー	-15289
▁ビール	-15290
▁ページ	-15291
▁ホッパ	-15292
▁ポール	-15293
▁マイク	-15294
▁マージ	-15295
▁メイン	-15296
▁リスト	-15297
▁リック	-15298
▁リード	-15299
▁ルール	-15300
▁ワイン	-15301
▁ヴォー	-15302
▁一時は	-15303
▁一番の	-15304
▁一部の	-15305
▁万が一	-15306
▁上層部	-15307
▁予想値	-15308
▁予算も	-15309
▁予約は	-15310
▁井口様	-15311
▁今じゃ	-15312
▁今後の	-15313
▁今後は	-15314
▁今後も	-15315
▁今月の	-15316
▁今期は	-15317
▁仕事と	-15318
▁仕事に	-15319
▁仕入れ	-15320
▁以前に	-15321
▁企業名	-15322
▁何かが	-15323
▁何にも	-15324
▁何人か	-15325
▁価格も	-15326
▁保証は	-15327
▁保険証	-15328
▁借りが	-15329
▁値引き	-15330
▁元気に	-15331
▁先ずは	-15332
▁先方の	-15333
▁先日は	-15334
▁先月は	-15335
▁先程も	-15336
▁先週末	-15337
▁入って	-15338
▁全ての	-15339
▁初めて	-15340
▁前にも	-15341
▁前日の	-15342
▁午前中	-15343
▁同じく	-15344
▁名前は	-15345
▁君らが	-15346
▁品物の	-15347
▁商品を	-15348
▁場所は	-15349
▁壁掛け	-15350
▁多くの	-15351
▁大きい	-15352
▁大きさ	-15353
▁大きな	-15354
▁大切な	-15355
▁大抵の	-15356
▁太一君	-15357
▁好きな	-15358
▁小さな	-15359
▁少しく	-15360
▁山田様	-15361
▁工場は	-15362
▁帰りの	-15363
▁帰りは	-15364
▁広さは	-15365
▁弊社で	-15366
▁当初は	-15367
▁当社が	-15368
▁彼には	-15369
▁彼は何	-15370
▁彼らを	-15371
▁彼を外	-15372
▁御社が	-15373
▁御社と	-15374
▁忘れ物	-15375
▁忘年会	-15376
▁念の為	-15377
▁思い出	-15378
▁恐らく	-15379
▁情報の	-15380
▁意外と	-15381
▁戻って	-15382
▁手続き	-15383
▁担当の	-15384
▁担当者	-15385
▁提案書	-15386
▁揚げ物	-15387
▁支払い	-15388
▁教えて	-15389
▁数字が	-15390
▁数週間	-15391
▁新しく	-15392
▁新製品	-15393
▁施設の	-15394
▁日にち	-15395
▁日曜日	-15396
▁日本で	-15397
▁日本食	-15398
▁早めの	-15399
▁時間が	-15400
▁普通は	-15401
▁最後の	-15402
▁朝一番	-15403
▁木曜に	-15404
▁本当だ	-15405
▁来年に	-15406
▁来週は	-15407
▁東京の	-15408
▁楽しみ	-15409
▁様々な	-15410
▁次回は	-15411
▁歩いて	-15412
▁残りの	-15413
▁気持ち	-15414
▁水曜の	-15415
▁沢山の	-15416
▁消費者	-15417
▁現在の	-15418
▁現在は	-15419
▁発注書	-15420
▁監査係	-15421
▁目を通	-15422
▁直ぐに	-15423
▁研修で	-15424
▁社長が	-15425
▁私達の	-15426
▁私達は	-15427
▁管理職	-15428
▁経験が	-15429
▁絶対に	-15430
▁総務部	-15431
▁胡蝶蘭	-15432
▁英語は	-15433
▁荷物を	-15434
▁行った	-15435
▁補聴器	-15436
▁製品が	-15437
▁要注意	-15438
▁計画書	-15439
▁詳細は	-15440
▁誰かに	-15441
▁課長が	-15442
▁調べて	-15443
▁費用は	-15444
▁追加の	-15445
▁送った	-15446
▁連絡先	-15447
▁遅くな	-15448
▁運良く	-15449
▁運転手	-15450
▁部署を	-15451
▁部長は	-15452
▁金額が	-15453
▁開発部	-15454
▁間違い	-15455
▁領収書	-15456
▁頼りに	-15457
▁食べ物	-15458
▁高齢者	-15459
、500	-15460
あげてね	-15461
あげよう	-15462
あそこで	-15463
あそこに	-15464
あとすぐ	-15465
あなたも	-15466
あの時は	-15467
あり得る	-15468
あるいは	-15469
あるなら	-15470
あるもの	-15471
あるよね	-15472
あれだけ	-15473
あれ出す	-15474
いいなあ	-15475
いいもの	-15476
いい印象	-15477
いい機会	-15478
いくつも	-15479
いけれど	-15480
いこうか	-15481
いただか	-15482
いっても	-15483
いっぱい	-15484
いつこの	-15485
いつまで	-15486
いつもの	-15487
いていて	-15488
いないよ	-15489
いますし	-15490
いま外出	-15491
うように	-15492
えますよ	-15493
えるかわ	-15494
えるもの	-15495
おいしく	-15496
おかしい	-15497
おかしな	-15498
おくけど	-15499
おくべき	-15500
おすすめ	-15501
おたくの	-15502
おたずね	-15503
お互いに	-15504
お休みを	-15505
お値引き	-15506
お分かり	-15507
お名前を	-15508
お客様を	-15509
お店って	-15510
お店を出	-15511
お忙しい	-15512
お手元に	-15513
お手続き	-15514
お揃いの	-15515
お気に召	-15516
お気軽に	-15517
お話した	-15518
お返事を	-15519
お過ごし	-15520
お電話で	-15521
お飲み物	-15522
かかって	-15523
かったね	-15524
かなり古	-15525
かぶ漬け	-15526
かもって	-15527
かもなぁ	-15528
からなあ	-15529
からよく	-15530
から何か	-15531
から出て	-15532
から呼び	-15533
から解雇	-15534
から説明	-15535
かわかる	-15536
かを決め	-15537
かを選択	-15538
かんない	-15539
か月後に	-15540
か覚えて	-15541
がいいと	-15542
がいいな	-15543
がいずれ	-15544
がいっぱ	-15545
がお受け	-15546
がどうな	-15547
がどんな	-15548
がなくて	-15549
がやって	-15550
がアップ	-15551
がメイン	-15552
が一気に	-15553
が不得手	-15554
が作った	-15555
が使える	-15556
が出来た	-15557
が増える	-15558
が大きい	-15559
が届いて	-15560
が必要だ	-15561
が現れた	-15562
が空いて	-15563
が終わる	-15564
が義務化	-15565
が良い人	-15566
が見えて	-15567
が遅れる	-15568
きたんだ	-15569
きっかけ	-15570
きれいに	-15571
くしゃみ	-15572
くするの	-15573
くなくて	-15574
くるから	-15575
くるので	-15576
くれても	-15577
くれるよ	-15578
くんだよ	-15579
ぐるぐる	-15580
けてたよ	-15581
けました	-15582
けますか	-15583
けますが	-15584
ここでも	-15585
こっちで	-15586
ことだい	-15587
ことだし	-15588
ことを繰	-15589
この仕事	-15590
この資料	-15591
この質問	-15592
この辺で	-15593
この辺り	-15594
この面談	-15595
これより	-15596
これ以上	-15597
ご本人が	-15598
ご質問は	-15599
ご質問等	-15600
ご連絡先	-15601
ご都合い	-15602
ご都合が	-15603
させます	-15604
さらなる	-15605
されたの	-15606
されてた	-15607
されても	-15608
されると	-15609
さんが生	-15610
さんにお	-15611
さんに送	-15612
しか申請	-15613
しすぎた	-15614
したとき	-15615
したのが	-15616
したのに	-15617
したりも	-15618
した段階	-15619
してしま	-15620
してたよ	-15621
してるし	-15622
して以来	-15623
して対応	-15624
して来た	-15625
して来る	-15626
して見て	-15627
しないの	-15628
しも想定	-15629
しょっち	-15630
すぎない	-15631
すぎます	-15632
すぐに破	-15633
すべてが	-15634
するかを	-15635
するとか	-15636
するはず	-15637
するほど	-15638
するロゴ	-15639
する事を	-15640
する時は	-15641
する自信	-15642
せないか	-15643
そうして	-15644
そうな人	-15645
そこそこ	-15646
その人が	-15647
その件は	-15648
その場で	-15649
その場に	-15650
その後の	-15651
その日は	-15652
その様な	-15653
その結果	-15654
その通り	-15655
それこそ	-15656
それだよ	-15657
それを知	-15658
たいへん	-15659
たくなる	-15660
たければ	-15661
たちには	-15662
たった今	-15663
たりして	-15664
だからか	-15665
だからさ	-15666
だけで行	-15667
だけどさ	-15668
だけに絞	-15669
だけれど	-15670
だそうだ	-15671
だと何か	-15672
だと理解	-15673
だよねー	-15674
だろうに	-15675
ちらっと	-15676
っこいい	-15677
ったのよ	-15678
っていく	-15679
っておき	-15680
ってお客	-15681
ってから	-15682
ってとこ	-15683
ってどう	-15684
ってるか	-15685
ってる最	-15686
って作業	-15687
って報告	-15688
って結構	-15689
って表現	-15690
ついでに	-15691
であって	-15692
でいいよ	-15693
できたし	-15694
できたね	-15695
できる様	-15696
でき次第	-15697
ですでに	-15698
でできた	-15699
での作業	-15700
での売上	-15701
での管理	-15702
ではどの	-15703
では何を	-15704
では詳細	-15705
では豚肉	-15706
でもっと	-15707
でもよく	-15708
でも一番	-15709
でも来て	-15710
でエラー	-15711
で作った	-15712
で学んで	-15713
で忙しく	-15714
といいな	-15715
とうがい	-15716
とお会い	-15717
とお考え	-15718
とか色々	-15719
とか言わ	-15720
とご相談	-15721
として残	-15722
との兼ね	-15723
とはいえ	-15724
とは全く	-15725
とは違う	-15726
とみなさ	-15727
とわかる	-15728
とんでも	-15729
とケーキ	-15730
とトマト	-15731
と思うか	-15732
と思うし	-15733
と思うな	-15734
と言えば	-15735
と話して	-15736
と飛行機	-15737
どうです	-15738
どうなの	-15739
どう参入	-15740
どこかに	-15741
どこに何	-15742
どちらの	-15743
どの商品	-15744
どの木が	-15745
どの部署	-15746
ないこと	-15747
ないのが	-15748
ないのに	-15749
ないのは	-15750
ないのよ	-15751
ないよう	-15752
ないわよ	-15753
なお世話	-15754
なくてさ	-15755
なくては	-15756
なくて困	-15757
なくない	-15758
なことは	-15759
などにも	-15760
なのです	-15761
ならその	-15762
なら何か	-15763
なんだろ	-15764
な候補者	-15765
にいます	-15766
にお任せ	-15767
にお伝え	-15768
にお部屋	-15769
にかかわ	-15770
にくくて	-15771
にこだわ	-15772
にご不満	-15773
にご使用	-15774
にご紹介	-15775
にさらに	-15776
にしてる	-15777
にすると	-15778
にするの	-15779
につっこ	-15780
につれて	-15781
になるし	-15782
になるね	-15783
になる事	-15784
になれば	-15785
にはその	-15786
には何人	-15787
には内緒	-15788
には完成	-15789
には料金	-15790
には特別	-15791
には賛成	-15792
にも同じ	-15793
にも対応	-15794
にも関わ	-15795
に何にも	-15796
に入るの	-15797
に分ける	-15798
に合った	-15799
に向けた	-15800
に変える	-15801
に大きく	-15802
に感じる	-15803
に書いて	-15804
に比べて	-15805
に沿った	-15806
に答えて	-15807
に繋がる	-15808
に行くと	-15809
に行くよ	-15810
に話して	-15811
に詳しい	-15812
に達する	-15813
に限らず	-15814
のお店を	-15815
のお給料	-15816
のお菓子	-15817
のお金を	-15818
のかけら	-15819
のかなあ	-15820
のか確認	-15821
のご依頼	-15822
のご意向	-15823
のご期待	-15824
のご注文	-15825
のですよ	-15826
ので会社	-15827
のどっち	-15828
のならば	-15829
のは何故	-15830
のは承知	-15831
のは確か	-15832
のほうに	-15833
のほかに	-15834
のものが	-15835
のもので	-15836
のやり方	-15837
のようで	-15838
のウェブ	-15839
のジョン	-15840
のスキー	-15841
のテレビ	-15842
のニーズ	-15843
のビール	-15844
のベスト	-15845
のベッド	-15846
のページ	-15847
のリンク	-15848
の一つに	-15849
の一人に	-15850
の中には	-15851
の予定で	-15852
の予定は	-15853
の予定を	-15854
の仕事に	-15855
の仕方が	-15856
の仕組み	-15857
の写真を	-15858
の原産地	-15859
の大幅な	-15860
の市場が	-15861
の意見を	-15862
の手助け	-15863
の新幹線	-15864
の方との	-15865
の方向性	-15866
の時には	-15867
の時間が	-15868
の時間は	-15869
の書類は	-15870
の準備を	-15871
の生産性	-15872
の確認で	-15873
の種類と	-15874
の細かい	-15875
の途中で	-15876
の違いは	-15877
の都合で	-15878
の量が多	-15879
の顧客が	-15880
はあるよ	-15881
はお手元	-15882
はこちら	-15883
はそれで	-15884
はそんな	-15885
はただ今	-15886
はできる	-15887
はないの	-15888
はなんだ	-15889
はみます	-15890
はもちろ	-15891
は各部署	-15892
は来週の	-15893
は横浜市	-15894
は非常に	-15895
ばかりで	-15896
ひと安心	-15897
へお連れ	-15898
への興味	-15899
べイヤー	-15900
ほかにも	-15901
ほど延ば	-15902
ますかね	-15903
ますから	-15904
また明日	-15905
まだあと	-15906
まだ同じ	-15907
まであと	-15908
までに戻	-15909
まで上が	-15910
まで滞在	-15911
まともに	-15912
まれます	-15913
みたいね	-15914
みました	-15915
みんなが	-15916
みんなと	-15917
めますし	-15918
められる	-15919
もあって	-15920
もいつも	-15921
もちゃが	-15922
もともと	-15923
ものだと	-15924
もらおう	-15925
もんです	-15926
もプラス	-15927
も仕事も	-15928
やったら	-15929
やっちゃ	-15930
やってお	-15931
やってた	-15932
やり抜く	-15933
ようにね	-15934
ようには	-15935
よう依頼	-15936
よう努力	-15937
よく理解	-15938
よく聞く	-15939
よっぽど	-15940
より大分	-15941
より良い	-15942
より随分	-15943
より高い	-15944
らせます	-15945
らないわ	-15946
られるし	-15947
りの日程	-15948
りますし	-15949
り合わせ	-15950
り始める	-15951
るからな	-15952
るからね	-15953
るか予測	-15954
るという	-15955
るときに	-15956
るのかい	-15957
るのです	-15958
るような	-15959
るんだね	-15960
る予定の	-15961
れますよ	-15962
れるから	-15963
れる方が	-15964
わかるよ	-15965
わけだし	-15966
わけです	-15967
わなきゃ	-15968
われます	-15969
をいつも	-15970
をおかけ	-15971
をお受け	-15972
をかけて	-15973
をご利用	-15974
をご検討	-15975
をしたい	-15976
をしたが	-15977
をしてて	-15978
をしても	-15979
をやめて	-15980
をメール	-15981
を上げて	-15982
を下げる	-15983
を丸ごと	-15984
を付ける	-15985
を伝える	-15986
を何とか	-15987
を借りる	-15988
を再確認	-15989
を出した	-15990
を出せる	-15991
を切って	-15992
を加えて	-15993
を加える	-15994
を務める	-15995
を取り扱	-15996
を含めた	-15997
を呼んで	-15998
を幾つか	-15999
を得ない	-16000
を必要と	-16001
を感じる	-16002
を抱えて	-16003
を持ち帰	-16004
を探そう	-16005
を支払わ	-16006
を早めて	-16007
を書くの	-16008
を止めて	-16009
を求める	-16010
を稼いで	-16011
を聞いた	-16012
を落とす	-16013
を行った	-16014
を見せる	-16015
を見たい	-16016
を見てて	-16017
を見直し	-16018
を見直す	-16019
を見込み	-16020
を訪ねて	-16021
を起こす	-16022
を超えて	-16023
を迎える	-16024
を通じて	-16025
を選んだ	-16026
を開ける	-16027
を集める	-16028
を頼んで	-16029
んとこの	-16030
んないよ	-16031
アクロバ	-16032
アダムス	-16033
アナフィ	-16034
アマンダ	-16035
アワード	-16036
アーサー	-16037
イレイン	-16038
インフラ	-16039
ウェザー	-16040
ウォルト	-16041
オカヤマ	-16042
オシッコ	-16043
オニオン	-16044
オムレツ	-16045
オレゴン	-16046
カスタム	-16047
カナダに	-16048
カリブ海	-16049
カロリー	-16050
カーテン	-16051
ガバイト	-16052
クガイア	-16053
クッキー	-16054
クラ農家	-16055
クレーム	-16056
クーポン	-16057
グラント	-16058
ケーブル	-16059
ゲストの	-16060
コマンド	-16061
コースで	-16062
コードは	-16063
サマリー	-16064
ザーブド	-16065
シアター	-16066
シュレッ	-16067
シリアル	-16068
シリコン	-16069
ジムさん	-16070
ジャンル	-16071
ジョアン	-16072
スイーツ	-16073
スコット	-16074
ストップ	-16075
スペシャ	-16076
ソムリエ	-16077
タイラー	-16078
タブ上で	-16079
ダメです	-16080
チャージ	-16081
チームと	-16082
ットボブ	-16083
ツールで	-16084
ティンの	-16085
ティンガ	-16086
テイラー	-16087
テストで	-16088
テンプレ	-16089
データは	-16090
トップの	-16091
トレード	-16092
トーマス	-16093
ドル払う	-16094
ニーズを	-16095
ノウハウ	-16096
ハイブリ	-16097
ハッピー	-16098
バスに乗	-16099
バッチの	-16100
バレンタ	-16101
パーソン	-16102
ヒーター	-16103
ビックリ	-16104
ビルには	-16105
フェイズ	-16106
フォンの	-16107
フォール	-16108
フストロ	-16109
フラワー	-16110
フルーツ	-16111
プッシュ	-16112
プレミア	-16113
ヘンリー	-16114
ベテラン	-16115
ペットの	-16116
ペットを	-16117
ページに	-16118
ペースで	-16119
ホテルが	-16120
ホテル代	-16121
ボブさん	-16122
マイナス	-16123
マガジン	-16124
マリノス	-16125
マークは	-16126
メモリで	-16127
メリッサ	-16128
メーター	-16129
メールの	-16130
メールや	-16131
モットー	-16132
モバイル	-16133
モヤモヤ	-16134
ャージー	-16135
ラキシー	-16136
ラベルを	-16137
ラミレス	-16138
ランチに	-16139
ランチの	-16140
ラーメン	-16141
リスさん	-16142
リモート	-16143
リー部長	-16144
ルールも	-16145
ルールを	-16146
レクター	-16147
レットを	-16148
ロビーの	-16149
ローンの	-16150
ワイワイ	-16151
ンで料理	-16152
ンに仮装	-16153
ヴァンス	-16154
ヴィーガ	-16155
ヶ月ほど	-16156
ールーム	-16157
一つだけ	-16158
一括検収	-16159
一番大切	-16160
一週間は	-16161
万ぐらい	-16162
万の削減	-16163
万トンを	-16164
万円です	-16165
万円近く	-16166
上あまり	-16167
上がった	-16168
上の画像	-16169
下方修正	-16170
不可能な	-16171
不適切な	-16172
中に取引	-16173
主任講師	-16174
乗り換え	-16175
乗り継ぐ	-16176
予定だよ	-16177
予定変更	-16178
予算内で	-16179
事ができ	-16180
事が沢山	-16181
事はない	-16182
事は無理	-16183
事を伝え	-16184
事を理解	-16185
事を約束	-16186
事を願う	-16187
事実です	-16188
事尽くし	-16189
事業を行	-16190
二週間で	-16191
井さんの	-16192
井口です	-16193
人たちと	-16194
人たちは	-16195
人の不安	-16196
人事評価	-16197
人向けの	-16198
今すぐに	-16199
今のうち	-16200
今年から	-16201
今日が初	-16202
仕事には	-16203
他の人に	-16204
他の人も	-16205
付きで大	-16206
付けない	-16207
仰る通り	-16208
任せるよ	-16209
企業向け	-16210
休めない	-16211
休んでる	-16212
休憩室に	-16213
休暇をと	-16214
会う機会	-16215
会社って	-16216
会社なら	-16217
会社には	-16218
会社の人	-16219
会社紹介	-16220
会議での	-16221
伝票入力	-16222
住宅建築	-16223
佐藤部長	-16224
佐野さん	-16225
体調を崩	-16226
何人いる	-16227
作れない	-16228
作業して	-16229
使います	-16230
使いやす	-16231
価格とか	-16232
保険って	-16233
保険には	-16234
保険仲介	-16235
個人情報	-16236
候補者は	-16237
健康的な	-16238
備え付け	-16239
備品申請	-16240
働かない	-16241
働き始め	-16242
僕たちは	-16243
僕たちも	-16244
優先順位	-16245
元気です	-16246
先なので	-16247
先延ばし	-16248
入ってた	-16249
入場から	-16250
全てです	-16251
全社共通	-16252
全社員に	-16253
共同投資	-16254
内田さん	-16255
内部統制	-16256
円くらい	-16257
円ですね	-16258
処理して	-16259
出しっぺ	-16260
出し方は	-16261
出勤時に	-16262
出向いて	-16263
出席者が	-16264
出張費が	-16265
出来たら	-16266
出来てる	-16267
出来るか	-16268
出来事は	-16269
出荷予定	-16270
分野です	-16271
初めから	-16272
初耳です	-16273
別にいい	-16274
別の実績	-16275
到着して	-16276
前もって	-16277
割引を適	-16278
効率悪い	-16279
効率的で	-16280
効率良く	-16281
化学物質	-16282
化粧品は	-16283
北米では	-16284
医療機器	-16285
午前中は	-16286
午後には	-16287
印刷して	-16288
印象を与	-16289
去年から	-16290
収益予測	-16291
取り急ぎ	-16292
取り扱い	-16293
取締役と	-16294
取締役会	-16295
受けたい	-16296
受け取る	-16297
受注した	-16298
口座変更	-16299
台ぐらい	-16300
各取締役	-16301
合意でき	-16302
同じ様な	-16303
同じ質問	-16304
同一宛先	-16305
同席する	-16306
同感です	-16307
向こうが	-16308
向こうは	-16309
君が興味	-16310
君たちの	-16311
君のこと	-16312
君の仕事	-16313
呼びかけ	-16314
呼ぶから	-16315
品質管理	-16316
商品分類	-16317
問題には	-16318
喜ばれる	-16319
営業から	-16320
営業部に	-16321
四半期は	-16322
困ってる	-16323
固定資産	-16324
国産木材	-16325
国際空港	-16326
国際貿易	-16327
在学中は	-16328
地震とか	-16329
報告から	-16330
声をかけ	-16331
声を掛け	-16332
売り文句	-16333
売り込み	-16334
変えない	-16335
夏までに	-16336
外にいる	-16337
外には出	-16338
外出する	-16339
外部委託	-16340
大丈夫だ	-16341
大山さん	-16342
大石さん	-16343
大規模な	-16344
大谷さま	-16345
太という	-16346
太一さん	-16347
契約では	-16348
契約要項	-16349
好きだし	-16350
始めても	-16351
嫌なこと	-16352
嬉しいわ	-16353
嬉しく思	-16354
子供向け	-16355
字が小さ	-16356
存じ上げ	-16357
存在する	-16358
学ぶのに	-16359
安いけど	-16360
安すぎる	-16361
安っぽく	-16362
安全対策	-16363
実家から	-16364
実家に帰	-16365
宮本さん	-16366
家の中で	-16367
家庭教師	-16368
専門用語	-16369
将来的に	-16370
導入する	-16371
小さい字	-16372
小島さん	-16373
少し上が	-16374
就職した	-16375
屋さんは	-16376
屋根付き	-16377
山さんの	-16378
山口さん	-16379
山田珈琲	-16380
川井部長	-16381
川口さん	-16382
工場から	-16383
差し入れ	-16384
市場では	-16385
帰りの便	-16386
平井課長	-16387
年ぐらい	-16388
年の経験	-16389
年ぶりの	-16390
年前後の	-16391
年生です	-16392
年目です	-16393
幸田さん	-16394
店舗での	-16395
建物から	-16396
建設的な	-16397
弊社から	-16398
弊社では	-16399
弊社との	-16400
弊社専用	-16401
引き継い	-16402
引き継げ	-16403
引き続き	-16404
引っ越し	-16405
当初から	-16406
当社製品	-16407
役に立ち	-16408
役に立つ	-16409
役割分担	-16410
彼の散ら	-16411
彼は食事	-16412
待ちです	-16413
後すぐに	-16414
後でそれ	-16415
従業員も	-16416
御社の株	-16417
御社をお	-16418
必要なら	-16419
必要事項	-16420
志願者を	-16421
忘れちゃ	-16422
忠さんと	-16423
思えない	-16424
性に問題	-16425
息子さん	-16426
悪くなる	-16427
情報です	-16428
情報入力	-16429
情報提供	-16430
想定より	-16431
意のある	-16432
意味では	-16433
意味でも	-16434
感じだよ	-16435
成長する	-16436
我が社に	-16437
戻ります	-16438
所に出張	-16439
手伝うよ	-16440
手段です	-16441
手続きに	-16442
打ち上げ	-16443
技術職の	-16444
技術設計	-16445
押さえて	-16446
持ち込み	-16447
持ち込む	-16448
振り込み	-16449
掛かって	-16450
探します	-16451
措置を取	-16452
握り寿司	-16453
携帯電話	-16454
支払処理	-16455
救急医療	-16456
散らかり	-16457
整理して	-16458
敷居が高	-16459
料金設定	-16460
断れない	-16461
新商品は	-16462
新婚旅行	-16463
新製品の	-16464
新製品を	-16465
新規研修	-16466
方がよい	-16467
方が多い	-16468
既存研修	-16469
日あたり	-16470
日だから	-16471
日なので	-16472
日の夕方	-16473
日までに	-16474
日以内に	-16475
日本に帰	-16476
日本人が	-16477
日本人は	-16478
早いです	-16479
早く処理	-16480
早まった	-16481
早退して	-16482
時からで	-16483
時からの	-16484
時ですね	-16485
時に予定	-16486
時に成田	-16487
時の為に	-16488
時はどう	-16489
時以降か	-16490
時差ぼけ	-16491
時点では	-16492
時間をと	-16493
時間以上	-16494
時間内に	-16495
暗くなる	-16496
更新して	-16497
更新指示	-16498
最大容量	-16499
最後まで	-16500
最終的な	-16501
最終的に	-16502
最高経営	-16503
月の中旬	-16504
月までの	-16505
月曜から	-16506
有効期限	-16507
有意義な	-16508
望ましい	-16509
望まれる	-16510
朝一番で	-16511
期日指定	-16512
期末まで	-16513
木さんは	-16514
木下さん	-16515
木曜には	-16516
木曜日に	-16517
末までに	-16518
本さんは	-16519
本当に助	-16520
本社から	-16521
村上さん	-16522
来シーズ	-16523
来年まで	-16524
来月発売	-16525
来週の水	-16526
松田さん	-16527
枚くらい	-16528
枚ですね	-16529
株を所有	-16530
株主さん	-16531
案ですが	-16532
検討して	-16533
業界には	-16534
業界経験	-16535
業績の下	-16536
業者から	-16537
業者との	-16538
楽しみだ	-16539
楽しんで	-16540
様でーす	-16541
機会を狙	-16542
次の段階	-16543
次の議題	-16544
次の質問	-16545
次は商品	-16546
正式採用	-16547
正規販売	-16548
武田信五	-16549
歯医者の	-16550
毎年同じ	-16551
毎晩残業	-16552
気に入る	-16553
気を付け	-16554
気を悪く	-16555
気持ちが	-16556
水木さん	-16557
決めるよ	-16558
決定です	-16559
決議事項	-16560
泊まった	-16561
泊まって	-16562
注文番号	-16563
津村課長	-16564
活用して	-16565
海外旅行	-16566
海外知財	-16567
消費者が	-16568
消費者は	-16569
混んでる	-16570
済みです	-16571
済みます	-16572
減ります	-16573
渡辺さん	-16574
港湾当局	-16575
火曜日の	-16576
火災です	-16577
点と改善	-16578
点などは	-16579
無くなる	-16580
無理です	-16581
片づけて	-16582
片づける	-16583
片付ける	-16584
特別手当	-16585
状況では	-16586
理事会が	-16587
環境規制	-16588
生かせる	-16589
生み出す	-16590
生ビール	-16591
生産性や	-16592
産休に入	-16593
産前産後	-16594
用ですか	-16595
用の面接	-16596
田さんも	-16597
田中さん	-16598
田口さん	-16599
申請可能	-16600
申請方法	-16601
男性用の	-16602
画像処理	-16603
発行部数	-16604
発言する	-16605
百万ドル	-16606
百八十個	-16607
的だよね	-16608
的なもの	-16609
的にしか	-16610
皆に説明	-16611
目の前に	-16612
目撃した	-16613
目標は何	-16614
目標達成	-16615
相当な数	-16616
相応しい	-16617
相手の側	-16618
相手の話	-16619
眠れない	-16620
着工件数	-16621
知ったら	-16622
知る事が	-16623
知れたら	-16624
知識不足	-16625
研修生が	-16626
研究室は	-16627
確かめて	-16628
確かめる	-16629
確実だよ	-16630
確認した	-16631
社さんの	-16632
社ですか	-16633
社と取引	-16634
社と話を	-16635
社などの	-16636
社などは	-16637
社なんだ	-16638
社につき	-16639
社に変更	-16640
社に投資	-16641
社の山本	-16642
社の製品	-16643
社の谷本	-16644
社員全員	-16645
社員番号	-16646
社長にお	-16647
社長の弟	-16648
社長様に	-16649
私たちを	-16650
私だって	-16651
私の専門	-16652
積み込み	-16653
積み重ね	-16654
空を飛ぶ	-16655
空港から	-16656
立ち位置	-16657
箇条書き	-16658
節約にも	-16659
簡易包装	-16660
納期の件	-16661
紙製品を	-16662
紙詰まり	-16663
紛失事件	-16664
細かい点	-16665
終わった	-16666
終われば	-16667
終われる	-16668
終了する	-16669
経つのは	-16670
経営管理	-16671
経営者が	-16672
経営陣が	-16673
経営陣に	-16674
経由とか	-16675
結果を見	-16676
結構いる	-16677
継続して	-16678
総務部の	-16679
翌日には	-16680
考えてた	-16681
考えても	-16682
考えでは	-16683
考えない	-16684
考えると	-16685
耐震済み	-16686
耳が悪い	-16687
聞いたら	-16688
聞かない	-16689
聞かれた	-16690
聞き役を	-16691
聞くのに	-16692
職場環境	-16693
背景には	-16694
腹を立て	-16695
自動計算	-16696
自社資産	-16697
興の計画	-16698
興味深い	-16699
船に移動	-16700
船の予約	-16701
船会社に	-16702
良いです	-16703
良い同僚	-16704
良い方法	-16705
若いから	-16706
若いのに	-16707
苦情が入	-16708
英会話を	-16709
英語学校	-16710
荒川社長	-16711
蔵できる	-16712
薄い灰色	-16713
行かれる	-16714
行きます	-16715
行こうか	-16716
行ったら	-16717
行われる	-16718
補強工事	-16719
製品を買	-16720
製品全般	-16721
製品部門	-16722
製造から	-16723
製造さえ	-16724
西川さん	-16725
西海岸の	-16726
西田さん	-16727
見えます	-16728
見た中で	-16729
見つから	-16730
見ました	-16731
見比べて	-16732
見積書の	-16733
視される	-16734
視察に来	-16735
視察団の	-16736
覚えてお	-16737
親睦会の	-16738
解約防止	-16739
言うには	-16740
言うほど	-16741
言うよね	-16742
言うんだ	-16743
言わない	-16744
計算して	-16745
記載して	-16746
訳がある	-16747
証券取引	-16748
試してみ	-16749
詰め込み	-16750
話がある	-16751
話せます	-16752
話できる	-16753
話をして	-16754
話を聞く	-16755
話聞いて	-16756
該当する	-16757
認定販売	-16758
語を話す	-16759
語学学校	-16760
誰ですか	-16761
課として	-16762
課長の下	-16763
請求書を	-16764
貢献した	-16765
販売予測	-16766
販売戦略	-16767
販売計画	-16768
責任者が	-16769
貿易機構	-16770
資料室に	-16771
足がかり	-16772
車で行く	-16773
迎えに行	-16774
近いから	-16775
近かった	-16776
近くだと	-16777
近くに居	-16778
近藤くん	-16779
返事が来	-16780
迷信深い	-16781
追加料金	-16782
追加生産	-16783
追加資料	-16784
追跡番号	-16785
退勤時に	-16786
送られた	-16787
進めても	-16788
遅らせる	-16789
遅れる旨	-16790
遅れを取	-16791
運動不足	-16792
過ぎると	-16793
部品にば	-16794
部屋ずつ	-16795
部長って	-16796
都市部の	-16797
都道府県	-16798
配布して	-16799
鈴木部長	-16800
長すぎる	-16801
長に連絡	-16802
長期目標	-16803
開発中の	-16804
開示事項	-16805
開示資料	-16806
開設した	-16807
間に合い	-16808
間違えて	-16809
関係悪化	-16810
関取締役	-16811
関東地区	-16812
閲覧専用	-16813
集めてる	-16814
雇われる	-16815
雰囲気に	-16816
電子署名	-16817
電話では	-16818
電話線を	-16819
電車に乗	-16820
青木です	-16821
非常階段	-16822
音はする	-16823
頂きたく	-16824
頂ければ	-16825
項目別に	-16826
頑張れよ	-16827
領収書は	-16828
頼まれた	-16829
頼みたい	-16830
頼みます	-16831
頼んだよ	-16832
願います	-16833
顧客全て	-16834
顧客対応	-16835
顧客満足	-16836
飛行機で	-16837
食べかけ	-16838
食事会の	-16839
高く評価	-16840
高さんが	-16841
12345	-16842
▁1500	-16843
▁2018	-16844
▁あくまで	-16845
▁あちこち	-16846
▁あなたを	-16847
▁ありがと	-16848
▁あります	-16849
▁あんなに	-16850
▁いいねえ	-16851
▁いずれに	-16852
▁いったん	-16853
▁いっぱい	-16854
▁いつもは	-16855
▁うちから	-16856
▁うちでは	-16857
▁うちの子	-16858
▁えぇっと	-16859
▁おもしろ	-16860
▁お一人で	-16861
▁お互いの	-16862
▁お力にな	-16863
▁お名前と	-16864
▁お客様が	-16865
▁お手元の	-16866
▁お預かり	-16867
▁けれども	-16868
▁ここでの	-16869
▁こちらに	-16870
▁こっちに	-16871
▁この仕事	-16872
▁この会社	-16873
▁この場合	-16874
▁この電話	-16875
▁これなら	-16876
▁しまった	-16877
▁じっくり	-16878
▁じゃあね	-16879
▁すべての	-16880
▁ずいぶん	-16881
▁そういや	-16882
▁そうかー	-16883
▁そうして	-16884
▁そうはい	-16885
▁そこには	-16886
▁そちらで	-16887
▁その中で	-16888
▁その事も	-16889
▁その人を	-16890
▁その他に	-16891
▁その他の	-16892
▁その場で	-16893
▁その場合	-16894
▁その方は	-16895
▁その日は	-16896
▁その時に	-16897
▁その荷物	-16898
▁たとえば	-16899
▁だったら	-16900
▁できたら	-16901
▁できます	-16902
▁でしたら	-16903
▁では今日	-16904
▁では始め	-16905
▁では後程	-16906
▁では来週	-16907
▁では私が	-16908
▁では私は	-16909
▁でもあの	-16910
▁でももう	-16911
▁でも部長	-16912
▁というと	-16913
▁とんかつ	-16914
▁どっちに	-16915
▁どの様な	-16916
▁どの製品	-16917
▁ないです	-16918
▁なければ	-16919
▁はいはい	-16920
▁ほんとだ	-16921
▁ほんとに	-16922
▁ますます	-16923
▁またこの	-16924
▁また何か	-16925
▁また後で	-16926
▁まったく	-16927
▁もうすぐ	-16928
▁もし他の	-16929
▁もし相手	-16930
▁もし私が	-16931
▁ゆっくり	-16932
▁ようこそ	-16933
▁イレイン	-16934
▁ウォルト	-16935
▁ウチでは	-16936
▁エクセル	-16937
▁クリーン	-16938
▁クルーズ	-16939
▁サポート	-16940
▁サンプル	-16941
▁サーバー	-16942
▁シアトル	-16943
▁シリアル	-16944
▁シリコン	-16945
▁ジェニー	-16946
▁ジョージ	-16947
▁ストレス	-16948
▁スポット	-16949
▁センサー	-16950
▁タイラー	-16951
▁タクシー	-16952
▁チェック	-16953
▁ディナー	-16954
▁デビッド	-16955
▁ドローン	-16956
▁ドンさん	-16957
▁ニュージ	-16958
▁ハワイ島	-16959
▁フォント	-16960
▁フロリダ	-16961
▁ブルース	-16962
▁ボーナス	-16963
▁マイアミ	-16964
▁マニング	-16965
▁マラソン	-16966
▁メールは	-16967
▁メールを	-16968
▁ユーザー	-16969
▁ラッキー	-16970
▁リサさん	-16971
▁リネン類	-16972
▁リュック	-16973
▁一番近い	-16974
▁一緒にお	-16975
▁一般的に	-16976
▁上田さん	-16977
▁上野社長	-16978
▁中田さん	-16979
▁人当たり	-16980
▁今シーズ	-16981
▁今年度も	-16982
▁今後とも	-16983
▁今日出勤	-16984
▁今月中に	-16985
▁仕方ない	-16986
▁仕様変更	-16987
▁仰る通り	-16988
▁休みの間	-16989
▁会社から	-16990
▁佐伯部長	-16991
▁何か手伝	-16992
▁何か良い	-16993
▁何が問題	-16994
▁何ですか	-16995
▁何時から	-16996
▁何時ごろ	-16997
▁働き過ぎ	-16998
▁僕はまず	-16999
▁先ほども	-17000
▁全体的に	-17001
▁全社員の	-17002
▁出来ない	-17003
▁出来れば	-17004
▁利永さん	-17005
▁助かった	-17006
▁動作が遅	-17007
▁勤務時間	-17008
▁去年同様	-17009
▁友井部長	-17010
▁古賀さん	-17011
▁各部署で	-17012
▁各部署の	-17013
▁吉田さん	-17014
▁同感です	-17015
▁向こうの	-17016
▁君たちの	-17017
▁君はいつ	-17018
▁商品発送	-17019
▁商品開発	-17020
▁営業部は	-17021
▁土曜日の	-17022
▁大丈夫よ	-17023
▁大変失礼	-17024
▁大学中退	-17025
▁契約社員	-17026
▁奥さんと	-17027
▁完璧です	-17028
▁実は今週	-17029
▁実は私も	-17030
▁射撃犯が	-17031
▁小坂さん	-17032
▁岡田さん	-17033
▁平田先生	-17034
▁幸いにも	-17035
▁弊社には	-17036
▁当たり前	-17037
▁当社の各	-17038
▁彼女から	-17039
▁彼女なら	-17040
▁従業員の	-17041
▁従業員は	-17042
▁忘れずに	-17043
▁念のため	-17044
▁慰労会の	-17045
▁我が社に	-17046
▁手続きを	-17047
▁折り返し	-17048
▁排出許可	-17049
▁新規購入	-17050
▁日本での	-17051
▁日本では	-17052
▁日本人は	-17053
▁明らかに	-17054
▁昨日の夜	-17055
▁木曜日は	-17056
▁木村さん	-17057
▁本当だね	-17058
▁本決算の	-17059
▁林業では	-17060
▁柏木さん	-17061
▁武藤さん	-17062
▁歴史的に	-17063
▁氏家さん	-17064
▁気分転換	-17065
▁水曜日に	-17066
▁法人料金	-17067
▁海外出張	-17068
▁現時点で	-17069
▁生徒達は	-17070
▁由美さん	-17071
▁皆さんは	-17072
▁皆さんも	-17073
▁真理さん	-17074
▁知らせて	-17075
▁知り合い	-17076
▁研修期間	-17077
▁確認次第	-17078
▁社外から	-17079
▁社用車の	-17080
▁社食って	-17081
▁私からの	-17082
▁私が決め	-17083
▁私なんか	-17084
▁私なんて	-17085
▁私の友人	-17086
▁私はこの	-17087
▁私はまだ	-17088
▁突然のお	-17089
▁経費削減	-17090
▁締め切り	-17091
▁美味しい	-17092
▁羨ましい	-17093
▁聞いた事	-17094
▁能勢さん	-17095
▁自分でも	-17096
▁自動運転	-17097
▁航空券は	-17098
▁藤本さん	-17099
▁西洋料理	-17100
▁谷口さん	-17101
▁貿易戦争	-17102
▁赤ちゃん	-17103
▁輸入活動	-17104
▁運転手は	-17105
▁運送業者	-17106
▁重量制限	-17107
▁野田さん	-17108
▁金曜日は	-17109
▁鉄道車両	-17110
▁間違った	-17111
▁電話番号	-17112
▁青木さん	-17113
▁顧客から	-17114
▁高橋さん	-17115
、8500	-17116
あげようか	-17117
あげられる	-17118
あったかな	-17119
あったよね	-17120
あっと言う	-17121
あまりにも	-17122
ありえない	-17123
ありそうな	-17124
あり得ます	-17125
あるんです	-17126
いいのかい	-17127
いいのでは	-17128
いいんだよ	-17129
いたいけど	-17130
いたんです	-17131
いちゃった	-17132
いですしね	-17133
いないです	-17134
いないよね	-17135
いなくなる	-17136
いませんよ	-17137
いろいろと	-17138
うちに紹介	-17139
うちの関係	-17140
うまくいき	-17141
うまく行く	-17142
えた場合は	-17143
えればいい	-17144
おっしゃる	-17145
おめでとう	-17146
おられます	-17147
お世話にな	-17148
お会いして	-17149
お使いにな	-17150
お客さんに	-17151
お客さんの	-17152
お客さんも	-17153
お客様から	-17154
お役に立て	-17155
お料理上手	-17156
お知り合い	-17157
お話しした	-17158
お買い上げ	-17159
お願いして	-17160
お願いです	-17161
かかりそう	-17162
かったよね	-17163
かったんだ	-17164
かなり早い	-17165
かなり良い	-17166
かについて	-17167
からすぐに	-17168
からの提案	-17169
から戻った	-17170
から戻って	-17171
から木材を	-17172
から言って	-17173
かチェック	-17174
か聞いてみ	-17175
があったの	-17176
があったり	-17177
があっても	-17178
があるのは	-17179
がある人が	-17180
があんまり	-17181
がいいです	-17182
がおっしゃ	-17183
がきちんと	-17184
がされたら	-17185
がずれ込む	-17186
ができるか	-17187
がとっても	-17188
がないので	-17189
が優れない	-17190
が出てきた	-17191
が出ること	-17192
が出来れば	-17193
が出来上が	-17194
が変わった	-17195
が多いんだ	-17196
が大事です	-17197
が好きなの	-17198
が導入した	-17199
が必要って	-17200
が溜まって	-17201
が無ければ	-17202
が生まれる	-17203
が詰まって	-17204
が近いので	-17205
が遅れてる	-17206
が長くなる	-17207
きています	-17208
くださった	-17209
くらいには	-17210
くれぐれも	-17211
くれないか	-17212
ぐらいには	-17213
こういうの	-17214
こういった	-17215
ここで一番	-17216
ここに来て	-17217
ここに来る	-17218
こだわった	-17219
こだわりが	-17220
こちらまで	-17221
こっちの日	-17222
ことあるよ	-17223
ことが出来	-17224
ことが多い	-17225
ことが大事	-17226
ことですね	-17227
こととして	-17228
ことなので	-17229
ことに気づ	-17230
ことはある	-17231
ことは全て	-17232
このあとは	-17233
このことは	-17234
このソフト	-17235
この仕事を	-17236
この会社に	-17237
この会社は	-17238
この会議室	-17239
この商品の	-17240
この度はお	-17241
この短期間	-17242
この製品の	-17243
これからは	-17244
これですね	-17245
これは私の	-17246
これは良い	-17247
これまでの	-17248
こんなこと	-17249
こんな感じ	-17250
ご説明にあ	-17251
ご遠慮なく	-17252
さえあれば	-17253
させている	-17254
させて頂く	-17255
さまざまな	-17256
された救助	-17257
されていて	-17258
されるより	-17259
さんですね	-17260
さんという	-17261
さんにその	-17262
さんの方が	-17263
さんの書類	-17264
しいもので	-17265
しかねます	-17266
しか空いて	-17267
しきれない	-17268
しくなって	-17269
したいから	-17270
したいだけ	-17271
したことを	-17272
したらまた	-17273
したんだよ	-17274
した場合は	-17275
しちゃった	-17276
していたの	-17277
しているし	-17278
しておくね	-17279
しておける	-17280
してお伝え	-17281
してお話を	-17282
してお電話	-17283
してきます	-17284
してしまい	-17285
してたから	-17286
してないと	-17287
してないよ	-17288
してますよ	-17289
してるって	-17290
しないでね	-17291
しないとね	-17292
しましたね	-17293
しますよね	-17294
しまわって	-17295
じゃなきゃ	-17296
すぎるのは	-17297
すぐに対応	-17298
すぐに連絡	-17299
すごく良い	-17300
することと	-17301
するだけで	-17302
するでしょ	-17303
するのは嫌	-17304
するのを待	-17305
するべきか	-17306
するらしい	-17307
するコスト	-17308
する場合の	-17309
すれば明日	-17310
せざるを得	-17311
せっかくの	-17312
そういう事	-17313
そうかもね	-17314
そうしよう	-17315
そうだけど	-17316
そうだよね	-17317
そうでした	-17318
そうですし	-17319
そうでない	-17320
そう思うの	-17321
そちらのご	-17322
そのうちの	-17323
そのせいで	-17324
その商品が	-17325
その場合は	-17326
その期間は	-17327
そばを食べ	-17328
それだけで	-17329
それは承知	-17330
それは結構	-17331
そんなに遠	-17332
そんな感じ	-17333
たくの商品	-17334
たようです	-17335
たりしない	-17336
たんだよね	-17337
だからなあ	-17338
だけですが	-17339
だけなので	-17340
だけの特別	-17341
だったはず	-17342
だったわね	-17343
だってこと	-17344
だともっと	-17345
だと思って	-17346
だと言って	-17347
ちょうだい	-17348
ったほうが	-17349
ったらしい	-17350
ったらまた	-17351
っちゃって	-17352
っていうか	-17353
っていう噂	-17354
っていたの	-17355
っていたよ	-17356
っていつも	-17357
っているね	-17358
っておくよ	-17359
ってきたね	-17360
ってきてね	-17361
ってことか	-17362
ってことは	-17363
ってたんだ	-17364
ってどこで	-17365
ってどんな	-17366
ってないね	-17367
ってまして	-17368
ってるけど	-17369
ってるのよ	-17370
ってるよね	-17371
って聞いて	-17372
つきやすい	-17373
つもりだよ	-17374
つ選択して	-17375
づらくなる	-17376
ているので	-17377
であります	-17378
できないと	-17379
できないよ	-17380
できるかい	-17381
できるなら	-17382
できるので	-17383
できる印刷	-17384
できる範囲	-17385
でしたから	-17386
でしょうし	-17387
ですけどね	-17388
でそういう	-17389
での時間を	-17390
ではないよ	-17391
では後ほど	-17392
でもないし	-17393
でやってた	-17394
でよければ	-17395
でよろしく	-17396
といいます	-17397
といいよね	-17398
というのを	-17399
という印象	-17400
という形で	-17401
という点で	-17402
という状況	-17403
という考え	-17404
とかですか	-17405
とかもある	-17406
ときもある	-17407
とこなので	-17408
とても大事	-17409
とても貴重	-17410
となかなか	-17411
となるので	-17412
とはどんな	-17413
とは違って	-17414
とりました	-17415
とアメリカ	-17416
と一緒にお	-17417
と個人的に	-17418
と呼ばれる	-17419
と呼びます	-17420
と思うかい	-17421
と日本語版	-17422
と比較して	-17423
と相談して	-17424
と知り合い	-17425
と言ったら	-17426
と言われる	-17427
と話す機会	-17428
どう思った	-17429
どこにいる	-17430
どちらとも	-17431
どなたかに	-17432
ないからな	-17433
ないことが	-17434
ないことに	-17435
ないのかな	-17436
なかったな	-17437
なかなか来	-17438
なことです	-17439
なことでも	-17440
なので食事	-17441
ならないの	-17442
ならもっと	-17443
なんだから	-17444
なんて無理	-17445
なんとかな	-17446
にある通り	-17447
においての	-17448
にお客様を	-17449
にお弁当箱	-17450
にお知らせ	-17451
にお返事を	-17452
にかかって	-17453
にくかった	-17454
にしたので	-17455
にしてくれ	-17456
にしました	-17457
にする予定	-17458
にできます	-17459
にとっては	-17460
になったり	-17461
になるって	-17462
になるのは	-17463
になるはず	-17464
になる事を	-17465
にはあまり	-17466
にぴったり	-17467
にもかかわ	-17468
にもなって	-17469
にオフィス	-17470
にログイン	-17471
に何か問題	-17472
に出るので	-17473
に向かって	-17474
に含まれる	-17475
に基づいた	-17476
に恵まれて	-17477
に戻ったら	-17478
に気づいた	-17479
に相談して	-17480
に着くのが	-17481
に移りたい	-17482
に積まれた	-17483
に聞いてみ	-17484
に行かない	-17485
に行かれる	-17486
に行くけど	-17487
に行く予定	-17488
に行ったの	-17489
に行ったり	-17490
に行ってた	-17491
に行って見	-17492
に見合った	-17493
に話しかけ	-17494
に追われて	-17495
に間に合う	-17496
のある会社	-17497
のある方は	-17498
のお客様に	-17499
のかしらね	-17500
のが本当に	-17501
のが難しい	-17502
のことでも	-17503
のご予定は	-17504
のでそれで	-17505
のではなく	-17506
のはずです	-17507
のみんなに	-17508
のやり取り	-17509
のように思	-17510
のコーヒー	-17511
のチケット	-17512
のトラック	-17513
のバイヤー	-17514
のビジネス	-17515
のペンギン	-17516
のメンバー	-17517
のリリース	-17518
の一時的な	-17519
の件ですが	-17520
の位置付け	-17521
の使い方は	-17522
の引き出し	-17523
の承認を待	-17524
の支払いを	-17525
の赤ワイン	-17526
の通りです	-17527
の高田です	-17528
はいつでも	-17529
はいつもの	-17530
はおそらく	-17531
はお休みを	-17532
はお決まり	-17533
はこちらの	-17534
はしません	-17535
はずいぶん	-17536
はずなんだ	-17537
はどうだい	-17538
はやっぱり	-17539
はブラック	-17540
は以上です	-17541
は我が社の	-17542
ひとりひと	-17543
ぴったりの	-17544
へ行きたい	-17545
へ行ったの	-17546
べきですか	-17547
べきですよ	-17548
ほうがよい	-17549
ほうが良い	-17550
ほとんどが	-17551
ほんとうに	-17552
ました通り	-17553
ますもんね	-17554
まず最初に	-17555
また後ほど	-17556
また来ます	-17557
まだ聞いて	-17558
まったくの	-17559
みたいなの	-17560
みたいよね	-17561
みてくれる	-17562
みなさんの	-17563
みなさんは	-17564
もうすでに	-17565
もう一つの	-17566
もきちんと	-17567
もしないし	-17568
もっとお金	-17569
もっと購入	-17570
ものがある	-17571
ものですが	-17572
ものですよ	-17573
ものなんだ	-17574
ものにする	-17575
もらうよう	-17576
もらえたら	-17577
もらえない	-17578
もらえると	-17579
もらったら	-17580
もスーパー	-17581
も良いです	-17582
やすかった	-17583
やったこと	-17584
やっていけ	-17585
やってます	-17586
やはり和食	-17587
やりますよ	-17588
やることが	-17589
やることも	-17590
よいですね	-17591
ようお願い	-17592
ような事は	-17593
ような気が	-17594
ような気も	-17595
ように説得	-17596
よりはまし	-17597
らしくてね	-17598
らっしゃる	-17599
らないので	-17600
らなくても	-17601
らやましい	-17602
られたもの	-17603
られている	-17604
られないな	-17605
られますね	-17606
られますよ	-17607
られるかな	-17608
りしてたら	-17609
りに欠けて	-17610
りましたね	-17611
りますかね	-17612
り始めたら	-17613
るとしたら	-17614
るのですか	-17615
るようにな	-17616
る予定だよ	-17617
れたときに	-17618
れています	-17619
れますよね	-17620
ろうとして	-17621
わけですか	-17622
わけにはい	-17623
われますか	-17624
をおつなぎ	-17625
をお聞かせ	-17626
をお預かり	-17627
をください	-17628
をした場合	-17629
をしていて	-17630
をする前に	-17631
を作ること	-17632
を作成して	-17633
を使います	-17634
を使う事で	-17635
を入れても	-17636
を入れると	-17637
を入れれば	-17638
を入力して	-17639
を出したり	-17640
を取らせて	-17641
を取りに来	-17642
を取るのに	-17643
を売るのは	-17644
を導入する	-17645
を当たって	-17646
を持ってる	-17647
を理解する	-17648
を考えると	-17649
を見つけた	-17650
を見つけて	-17651
を見てみた	-17652
を見ながら	-17653
を見に行く	-17654
を買いたい	-17655
を選択して	-17656
んだったら	-17657
んだと思う	-17658
んだよなあ	-17659
んですがね	-17660
アイデアを	-17661
アクティブ	-17662
アシュトン	-17663
アポイント	-17664
アメリカが	-17665
インテリア	-17666
ウェーから	-17667
オファーを	-17668
オフライン	-17669
カジュアル	-17670
カレーター	-17671
カーペット	-17672
ガバイトの	-17673
キャンドル	-17674
クサーモン	-17675
グループと	-17676
グループの	-17677
ケビンです	-17678
ケージの中	-17679
コスタリカ	-17680
コーナーも	-17681
サイトから	-17682
サポートに	-17683
サムさんが	-17684
サムさんに	-17685
サービスで	-17686
サービスは	-17687
シャンパン	-17688
ジェラルド	-17689
ジャマイカ	-17690
ジュリーが	-17691
ジョーンズ	-17692
スイートル	-17693
スクロール	-17694
スタッフが	-17695
スタンプが	-17696
ストリート	-17697
スプレッド	-17698
スペイン語	-17699
スペックは	-17700
スペンサー	-17701
スポークス	-17702
スーパーで	-17703
ス部長はお	-17704
セッション	-17705
センターで	-17706
ソーシャル	-17707
ダクタブル	-17708
ダストが見	-17709
チームへの	-17710
チーム全体	-17711
ッグデータ	-17712
ッドタウン	-17713
ツアー企画	-17714
テクニック	-17715
デイビット	-17716
デザイナー	-17717
デザインし	-17718
デザイン部	-17719
デフォルト	-17720
デメリット	-17721
デモンスト	-17722
データでは	-17723
データを探	-17724
ドライバー	-17725
ドルのはず	-17726
ナルホット	-17727
ニュースで	-17728
ネット決済	-17729
ノベルティ	-17730
パターンで	-17731
ヒアリング	-17732
ビジネスを	-17733
ビュッフェ	-17734
ファイルで	-17735
フォームに	-17736
フライデー	-17737
フライトは	-17738
フルネーム	-17739
ブラウンは	-17740
プレゼンに	-17741
プレゼンの	-17742
プロボスト	-17743
ホテルって	-17744
ホテル宿泊	-17745
ボストンの	-17746
ボタンです	-17747
ボーリング	-17748
マレーシア	-17749
メモをとる	-17750
メールでも	-17751
メールに送	-17752
メールの方	-17753
ラブホテル	-17754
ラリーさん	-17755
ランチをご	-17756
ランチ休憩	-17757
ランドリー	-17758
リフォーム	-17759
リュックの	-17760
リリースは	-17761
リーさんが	-17762
ルソンです	-17763
レッスンを	-17764
レートでの	-17765
ローレンス	-17766
ローワーク	-17767
ワーキング	-17768
ヶ月あれば	-17769
ートバック	-17770
ームですが	-17771
一ヶ月を切	-17772
一人暮らし	-17773
一緒に作業	-17774
上がったり	-17775
上がります	-17776
上が来期に	-17777
不満はない	-17778
世話をする	-17779
並んでいる	-17780
中身がこぼ	-17781
丸太を中国	-17782
久しぶりに	-17783
予定ですが	-17784
予定を確認	-17785
予想される	-17786
事が出来る	-17787
事が幾つか	-17788
事業部です	-17789
交流を促す	-17790
交渉します	-17791
人の小さな	-17792
人事からの	-17793
人事で承認	-17794
人事担当者	-17795
人事部に行	-17796
今ちょっと	-17797
今年の監査	-17798
今年も水木	-17799
今日この後	-17800
今日中には	-17801
今期の業績	-17802
今終わった	-17803
仕事に応募	-17804
仕事を続け	-17805
仕方ないよ	-17806
付けないと	-17807
以上ですが	-17808
以外で通勤	-17809
仰るとおり	-17810
企業と取引	-17811
休みがいる	-17812
会いました	-17813
会ってない	-17814
会社でして	-17815
会社ですか	-17816
会社ですね	-17817
会社に依頼	-17818
会社のサム	-17819
会社のロゴ	-17820
会社の中に	-17821
会社の事業	-17822
会社の代表	-17823
会社の評判	-17824
会社はその	-17825
会社を経営	-17826
会社を設立	-17827
会社全体で	-17828
会議がある	-17829
会議のこと	-17830
会議の予定	-17831
会議をする	-17832
会議を別途	-17833
会議を手配	-17834
会議を設定	-17835
伝えておき	-17836
伝えました	-17837
似ています	-17838
佐々さんは	-17839
佐伯社長の	-17840
佐藤さんに	-17841
佐藤さんの	-17842
何か思いつ	-17843
何か聞いた	-17844
何があった	-17845
何とかなる	-17846
何をしたの	-17847
作業効率は	-17848
作業手順書	-17849
使えません	-17850
使用したい	-17851
例を挙げて	-17852
価値を付加	-17853
価格に転嫁	-17854
便利ですね	-17855
保険会社の	-17856
信頼できる	-17857
側としては	-17858
傾向がある	-17859
入っている	-17860
全員の指紋	-17861
出しますか	-17862
出しますね	-17863
出てこない	-17864
出席します	-17865
出張に出て	-17866
出来るよう	-17867
出社時間を	-17868
出荷分から	-17869
分かるけど	-17870
分のお弁当	-17871
初めてです	-17872
利永さんの	-17873
前年同期比	-17874
助かったよ	-17875
助けが必要	-17876
労災の一種	-17877
動作しない	-17878
勤務時間外	-17879
北野さんの	-17880
医者の予約	-17881
印してから	-17882
印をつける	-17883
原料コスト	-17884
原本を取得	-17885
参加できる	-17886
参考になる	-17887
及び当日の	-17888
反応を見て	-17889
受け入れて	-17890
召し上がり	-17891
可能ですね	-17892
各部署より	-17893
合いはいい	-17894
合うように	-17895
同僚たちが	-17896
名前を記入	-17897
周りにどう	-17898
商品に満足	-17899
商品の一つ	-17900
商品の交換	-17901
商品の宣伝	-17902
商品を販売	-17903
商品を輸出	-17904
商品取引と	-17905
商品開発部	-17906
喜びそうな	-17907
喜んでもら	-17908
営業チーム	-17909
営業担当者	-17910
営業部から	-17911
営業部では	-17912
四半期から	-17913
回数を増や	-17914
困っちゃう	-17915
困りました	-17916
国語に対応	-17917
基礎知識は	-17918
売れている	-17919
売上アップ	-17920
売上計上が	-17921
変化に抵抗	-17922
外国人対応	-17923
多いですよ	-17924
大きくない	-17925
大きなこと	-17926
大きな車両	-17927
大丈夫だと	-17928
大事なのは	-17929
大切なこと	-17930
大切なんだ	-17931
大切な要素	-17932
大学からの	-17933
大学を卒業	-17934
大野さんが	-17935
好きなこと	-17936
好きなので	-17937
子供たちが	-17938
存じ上げて	-17939
学の学士号	-17940
学ぶことは	-17941
学生の維持	-17942
安くないな	-17943
実際に見て	-17944
対象だから	-17945
尊敬します	-17946
小島さんの	-17947
少々お時間	-17948
少しお話し	-17949
少しぐらい	-17950
少し遅れて	-17951
居なかった	-17952
届いている	-17953
届きますか	-17954
山元さんを	-17955
山田さんが	-17956
工場で製造	-17957
工場の生産	-17958
工場を建設	-17959
工場を閉鎖	-17960
工学を勉強	-17961
差し上げて	-17962
市場調査を	-17963
席について	-17964
帰ってきた	-17965
年度の目標	-17966
年末までに	-17967
広いですね	-17968
建て替える	-17969
引継ぎを行	-17970
当社商品の	-17971
役に立てて	-17972
彼について	-17973
彼のことは	-17974
彼らの材料	-17975
彼女にこの	-17976
彼女のせい	-17977
彼女の事を	-17978
後でリスト	-17979
従業員は皆	-17980
心がければ	-17981
心配でした	-17982
必要ですが	-17983
必要ですね	-17984
忘れたんだ	-17985
忘れる前に	-17986
忙しくなり	-17987
怖いですね	-17988
思いついて	-17989
思い浮かべ	-17990
急なお願い	-17991
情報が必要	-17992
情報の変更	-17993
情報を引き	-17994
情報シェア	-17995
意味します	-17996
意見ですが	-17997
我が社から	-17998
戻ってきて	-17999
手を挙げて	-18000
手短に説明	-18001
扱っている	-18002
承認される	-18003
拝見させて	-18004
指名された	-18005
探してきた	-18006
揃ったかな	-18007
揃ってます	-18008
損はないよ	-18009
支援が必要	-18010
数ヶ月前に	-18011
文化財保存	-18012
新しいもの	-18013
新しい経理	-18014
新聞読んで	-18015
方法がある	-18016
日はかなり	-18017
日は空いて	-18018
日本からの	-18019
日本の遺跡	-18020
日本人女性	-18021
日本企業は	-18022
日本産材木	-18023
日程の変更	-18024
早かったね	-18025
早めに予約	-18026
明日お休み	-18027
明日の午前	-18028
時からだよ	-18029
時からです	-18030
時から午後	-18031
時から開始	-18032
時ごろには	-18033
時に作った	-18034
時半頃から	-18035
時間を取り	-18036
時間を短縮	-18037
書いちゃう	-18038
書類に印鑑	-18039
書類の一覧	-18040
書類を確認	-18041
最悪の事態	-18042
月の終わり	-18043
月末までに	-18044
有給休暇も	-18045
期限はいつ	-18046
未開拓分野	-18047
本人様確認	-18048
本当にいい	-18049
本当に良い	-18050
材木に加工	-18051
来ますので	-18052
林業と鉱業	-18053
案だと思う	-18054
案件として	-18055
業者と話を	-18056
楽しく過ご	-18057
機密情報を	-18058
機械の電源	-18059
欲しいとか	-18060
欲しいんだ	-18061
正しい判断	-18062
残っている	-18063
残念ですが	-18064
毎年恒例の	-18065
気がするね	-18066
気づかせて	-18067
気に入られ	-18068
気を付けた	-18069
気持ち悪い	-18070
求人募集を	-18071
活躍が期待	-18072
[...]
