▁the 29309070
, 23824625
. 22338429
▁of 14927208
▁to 14111034
▁and 14098461
▁a 9370884
s 9193016
▁in 9109243
▁is 6820807
▁for 5088468
- 4500111
▁that 4091027
▁with 3864535
▁on 3620981
▁you 3600774
▁The 3143088
▁be 3056836
▁are 3053546
▁as 2993394
▁it 2770782
▁( 2441909
▁from 2380623
▁can 2370594
▁by 2369392
▁will 2263745
▁or 2245637
' 2179849
▁this 2124345
▁not 2103148
▁I 2094762
: 1940272
▁your 1825372
▁at 1724105
▁have 1705604
) 1701389
▁ 1665119
▁an 1651511
▁was 1512342
▁" 1419054
ing 1400672
▁In 1394452
▁we 1388675
▁has 1288363
▁which 1238848
ed 1125331
▁- 1104275
t 1075386
▁also 1055856
▁our 1046819
▁all 1046389
’ 1019481
▁their 924387
▁more 923764
▁but 920738
▁time 900637
d 896917
▁This 872371
▁It 860742
▁other 846242
▁use 842656
▁A 816462
▁one 814208
▁its 799892
▁such 785368
▁Japan 781580
" 781234
▁We 768112
▁about 763270
? 753704
▁they 742822
▁If 736041
▁new 727236
▁so 712999
▁there 701691
▁information 694522
▁when 689118
▁file 687418
▁been 680072
▁do 678217
▁if 656902
▁only 627713
/ 611990
▁people 602426
▁who 600253
▁may 599600
▁any 592888
ly 583375
▁data 576689
▁into 573739
▁up 571658
▁out 569405
er 557690
S 543707
▁You 533395
▁them 525096
▁were 521692
▁make 511334
▁these 507310
▁first 506830
▁system 503981
▁used 498496
▁. 493260
▁should 492388
▁business 489138
▁like 488747
▁through 479821
▁work 479566
▁than 479028
▁need 478706
e 475127
▁To 463308
! 454259
▁no 454089
▁year 452567
). 452546
▁“ 451060
▁he 447214
▁well 443795
▁Japanese 443172
▁For 441481
▁how 439150
▁after 435088
▁using 431350
▁many 431120
▁most 430022
y 422291
re 421745
▁world 419933
▁then 418072
▁my 417353
▁his 412582
▁very 406411
▁what 404587
▁some 404343
_ 399574
▁high 394381
al 385649
▁over 382015
▁each 380371
▁where 376389
▁would 375348
in 374620
th 363633
▁two 363250
▁As 363087
▁us 362209
▁see 360497
▁years 360471
▁same 356413
▁2 352927
▁number 349113
▁had 347011
; 343729
▁S 340994
▁get 339000
▁even 338903
▁want 337633
▁way 336644
▁different 335677
▁3 333910
▁products 332523
or 328536
▁order 327553
), 324357
▁must 324305
▁between 323050
▁take 321978
▁company 320713
o 319687
▁made 318472
▁including 317697
i 316632
m 316347
D 314470
▁When 313584
a 312272
▁development 305130
▁support 303716
▁1 303523
r 297421
▁help 293504
▁services 292989
▁under 292395
▁– 290681
▁just 290424
▁because 290159
▁& 287248
▁application 286054
es 285499
▁files 284087
▁long 283496
▁There 281919
▁re 279746
▁open 278650
▁find 276791
▁me 276197
▁important 274776
A 273224
▁service 271705
▁while 270523
▁does 270423
▁without 270415
C 268937
▁now 267704
▁available 266141
▁those 266015
▁following 265182
▁Group 264571
▁management 264458
▁And 263328
▁day 262955
▁set 262532
▁process 262446
▁case 261829
▁before 261207
▁during 256299
n 255308
▁How 254926
▁B 254739
2 253475
▁own 251988
▁part 251113
▁program 248746
▁could 247809
G 247550
▁based 247076
▁Company 246215
▁water 245954
▁both 245753
▁C 245626
▁research 245384
▁[ 244714
▁go 243844
▁provide 243676
▁device 242937
▁around 242932
▁computer 242846
▁change 242501
▁E 242444
▁good 242243
▁best 241840
▁possible 240975
▁various 240906
▁here 239403
▁life 239159
g 237891
▁addition 237115
▁However 236557
▁place 236147
▁necessary 235426
▁right 233698
▁At 232669
▁Windows 231849
▁power 230909
▁University 230480
] 230136
▁know 229527
▁product 228737
▁market 228191
▁able 228121
” 227538
▁But 227353
▁said 226157
to 224860
▁create 224364
▁example 223984
▁software 222657
▁companies 221794
▁After 221768
▁being 220381
▁Tokyo 220053
▁technology 219304
▁experience 218312
▁With 218045
▁10 217465
▁design 217193
I 216588
F 215644
▁end 215485
▁He 215172
▁much 214769
▁back 213931
▁free 212740
K 212251
▁value 210698
▁future 209541
▁her 209225
▁area 208863
B 208047
▁activities 207589
▁What 207453
▁extension 206719
▁4 205604
▁P 205329
▁three 204902
▁large 203860
▁customers 203694
▁due 203532
▁name 201941
▁still 201687
▁project 201269
▁So 200946
▁user 200607
▁T 200263
▁U 199360
▁On 199051
▁quality 198106
▁G 197742
▁within 197275
▁5 197235
able 197188
▁website 197178
▁small 197077
▁countries 196296
▁video 195880
▁local 194167
▁access 192380
M 191836
▁every 191159
▁period 191041
▁since 191036
." 190085
▁think 188678
▁O 188086
▁personal 188035
c 185914
▁/ 184544
on 184517
▁environment 183349
▁students 183226
▁working 183063
▁another 182444
The 182205
▁All 181851
T 181575
▁etc 181293
▁They 180861
com 180710
▁page 180407
▁production 179481
▁financial 178746
▁account 176975
▁become 176913
▁start 176510
▁special 176483
▁international 175564
ll 175429
ve 175197
▁control 175150
▁Please 174877
▁performance 174631
▁result 174470
▁New 174417
▁global 174377
▁level 173323
▁type 172882
▁Information 172644
▁increase 172602
▁next 172563
ers 172455
▁please 172089
▁: 171882
▁un 171668
V 171507
▁current 171242
▁look 170974
▁results 170008
ation 168228
▁users 167973
▁come 167595
▁e 166982
▁content 166625
▁form 166613
▁shall 165972
▁click 165644
▁problems 165373
▁No 165319
▁main 164943
▁home 164688
( 164518
▁site 163633
▁held 163611
▁down 163216
▁R 163161
▁group 163039
▁great 162219
▁list 161818
▁above 161383
▁better 160654
▁N 160363
▁person 159860
▁million 159774
▁China 159549
▁systems 159108
▁last 159003
▁Our 158807
▁full 158035
P 157426
▁International 157034
▁version 156750
▁energy 156730
▁making 156730
▁always 155739
▁F 155537
▁sales 155349
▁method 155302
▁required 154526
▁amount 154388
▁top 153889
▁often 153721
▁course 153666
▁don 153643
▁real 153172
▁public 153004
3 152683
▁English 152552
▁did 152379
W 151227
▁Co 151139
▁M 151039
▁event 150333
▁children 150202
▁materials 150165
▁days 149937
▁human 149629
▁body 149285
▁contact 149220
▁D 149171
▁network 148446
▁country 148376
▁security 147518
ity 146855
the 146610
▁de 146585
▁industry 146239
▁point 146239
▁per 146154
▁cannot 145971
▁online 145836
▁she 145624
▁social 145478
▁means 145475
▁view 145183
h 144934
▁These 144628
▁give 144347
▁Re 143934
▁further 143737
▁changes 143334
▁put 143051
k 142854
f 142392
x 142260
▁continue 142097
▁problem 142018
▁K 141852
p 141174
▁food 140916
E 140698
▁policy 140409
▁off 140164
▁needs 139958
▁check 139855
▁several 139513
▁space 139139
▁select 139134
▁By 139088
▁city 139000
▁growth 138856
b 138649
▁together 138598
▁already 138065
▁below 138058
▁installed 137960
ic 137664
▁7 137373
▁team 136929
N 136771
▁second 136223
▁called 135263
▁devices 135163
▁found 134940
▁things 134722
en 134332
▁provided 134325
no 133608
▁risk 133524
▁material 133453
▁operating 133322
▁try 133279
▁lot 133175
▁him 133131
▁related 132832
▁share 132776
▁Do 132715
▁members 132244
▁price 132030
▁car 131956
▁applications 131746
1 131392
▁few 131330
▁' 130964
▁times 130889
▁line 130788
... 130709
▁range 130428
▁button 130347
▁20 130149
H 130063
▁6 129970
▁address 129522
4 129370
▁field 129237
▁too 129145
▁easy 129013
ion 128992
▁choose 128949
▁light 128616
▁school 128594
st 128473
▁enjoy 128168
▁conditions 127967
▁image 127682
▁key 127564
▁yen 127284
▁third 126826
▁United 126577
▁8 126424
▁rate 126311
▁add 126267
▁An 125932
▁issues 125721
ment 125710
▁V 125418
▁customer 125061
▁specific 124982
▁side 124895
▁again 124777
▁download 124234
▁works 124207
▁feel 123833
▁features 123772
▁areas 123398
▁size 123350
▁allows 123135
▁fiscal 122798
an 122545
▁app 122455
▁H 122435
X 122211
▁March 121904
▁rights 121701
it 121663
▁game 121525
▁government 121523
▁provides 121405
▁God 121297
▁Center 121157
". 121068
▁non 120876
▁low 120695
▁L 120603
▁offer 120521
▁room 120500
▁sure 120072
u 119669
ro 119307
▁fact 119291
up 119225
▁items 119114
▁include 119103
▁Management 118944
", 118432
▁equipment 117816
▁Business 117798
▁hand 117690
▁really 117643
▁today 117297
▁understand 116936
▁family 116459
▁society 116378
▁operation 116070
▁12 115922
▁About 115785
▁improve 115669
le 115589
▁show 115543
▁plan 115527
▁simple 115455
Y 115324
▁option 115184
us 115138
▁created 115066
J 115003
▁total 114753
l 114681
▁W 113942
▁One 113881
▁left 113322
▁From 113167
▁am 113036
▁model 112987
▁building 112927
▁appropriate 112662
▁among 112652
▁natural 112457
▁health 112337
▁until 112209
▁old 111975
▁state 111923
▁little 111885
▁ensure 111788
▁live 111726
▁economic 111615
▁against 111473
ness 111466
▁hard 111466
▁employees 111395
▁might 110875
▁details 110790
▁Service 110670
▁store 110576
▁programs 110496
," 110450
ta 110361
▁solution 110260
▁popular 110199
▁X 110083
▁cases 109963
▁cost 109862
▁developed 109527
▁J 109439
▁something 109234
▁learn 109185
▁function 109183
▁run 109130
▁money 108978
▁tool 108956
▁less 108774
▁minutes 108441
▁Internet 108405
▁started 108382
▁difficult 108250
▁Asia 108227
▁email 108081
co 107839
▁15 107809
▁date 107274
▁major 106881
▁card 106736
▁Contact 106709
▁screen 106647
O 106540
▁play 106536
▁drive 106454
▁color 106360
▁say 105813
ive 105612
▁Data 105271
▁training 105203
▁Policy 105017
▁World 104858
▁types 104592
▁keep 104584
▁measures 104583
▁driver 104519
▁short 104271
▁hours 104205
▁common 104190
▁center 103987
▁resources 103980
▁18 103922
▁investment 103904
▁US 103852
▁automatically 103782
▁certain 103712
▁study 103686
▁whether 103645
▁settings 103539
▁Research 103481
▁going 103440
▁unique 103181
▁region 103037
na 102988
▁care 102843
▁makes 102779
▁history 102746
▁established 102696
▁Download 102645
▁30 102410
▁located 102086
▁music 102016
▁art 101702
▁Now 101260
▁billion 101143
ri 101080
▁code 100879
▁general 100825
▁City 100690
▁present 100587
▁interest 100228
ko 100076
▁States 100015
▁offers 99840
▁situation 99697
▁man 99487
▁safety 99409
ry 99247
▁standard 99226
▁private 98986
▁environmental 98926
▁Therefore 98669
▁Mr 98635
▁built 98573
▁Then 98458
▁along 98256
▁operations 98233
▁allow 98190
▁cause 98105
▁looking 97833
ra 97820
▁read 97820
▁single 97820
▁previous 97763
▁parts 97537
▁Since 97497
▁easily 97471
▁test 97415
▁media 97392
5 97299
▁s 97236
▁mind 96987
▁Chinese 96958
▁effect 96919
▁past 96698
term 96691
▁individual 96588
▁visit 96373
▁Your 96226
▁air 96185
▁wide 96063
▁My 96060
▁report 95910
▁options 95785
el 95541
▁That 95451
▁across 95407
▁technologies 95311
▁reason 95265
▁strong 95260
▁directly 95236
▁corporate 95128
▁love 94728
▁expected 94527
▁original 94486
▁receive 94431
▁given 94407
▁beautiful 94328
▁known 94112
man 94031
▁events 94005
▁treatment 93946
do 93409
▁why 93328
▁exchange 93257
▁language 93198
▁efforts 93134
ku 92995
▁women 92799
▁particular 92663
▁once 92662
te 92574
▁19 92506
▁terms 92502
▁close 92302
▁culture 92161
▁search 92137
▁via 91913
▁others 91777
as 91655
▁whole 91587
▁foreign 91572
ate 91519
▁mobile 91444
▁kind 91363
▁impact 91319
▁develop 91243
▁format 90890
▁solutions 90803
▁position 90705
▁Here 90446
▁quickly 90438
▁issue 90193
▁article 90155
▁variety 90116
▁outside 90080
▁projects 90005
▁menu 89814
▁meet 89762
▁install 89760
▁done 89714
▁supply 89666
▁methods 89480
▁paper 89247
▁hotel 89171
▁selected 89140
▁Click 89047
de 88927
▁complete 88749
▁connection 88455
L 88283
ent 88243
▁thing 88166
▁designed 88158
▁according 88143
▁four 88129
▁came 88089
▁increased 88047
▁Board 87990
ization 87983
▁Free 87844
▁Also 87813
▁role 87783
▁table 87614
▁text 87586
▁having 87579
▁machine 87525
▁higher 87466
▁phone 87339
▁April 87283
▁structure 87103
▁community 87066
▁digital 87047
▁Use 86940
▁turn 86867
▁Ltd 86852
▁knowledge 86786
▁Program 86622
time 86612
▁taking 86568
▁Q 86542
▁meeting 86527
at 86517
In 86148
▁received 86119
▁ways 86069
▁pay 85935
ma 85906
ary 85902
▁iPhone 85850
▁feature 85798
▁Open 85713
▁* 85562
▁education 85548
▁never 85516
▁itself 85428
▁temperature 85329
go 85325
▁immediately 85264
▁effective 85015
▁pre 84953
▁source 84858
▁section 84744
▁house 84723
▁achieve 84532
▁reduce 84459
▁processing 84457
▁1. 84445
▁Corporation 84433
▁facilities 84293
▁School 84249
▁multiple 84185
▁additional 84050
▁platform 84003
▁enough 83984
▁forward 83946
Z 83894
ist 83739
▁away 83692
▁includes 83542
▁let 83431
▁needed 83395
▁everything 83222
▁analysis 83156
▁demand 83080
— 83014
age 82921
▁early 82847
▁tools 82787
▁server 82747
▁big 82718
▁half 82673
▁taken 82440
▁purpose 82400
▁front 82380
▁income 82193
▁installation 82135
▁especially 82066
▁11 81993
▁oil 81960
▁request 81915
▁questions 81905
▁believe 81853
▁sound 81831
▁apply 81690
▁con 81636
▁Article 81567
R 81508
▁later 81497
▁series 81491
▁added 81471
▁currently 81438
me 81401
▁similar 81103
▁attention 81101
▁May 81089
▁child 81074
▁staff 81050
▁office 80955
▁bring 80829
▁co 80754
▁display 80712
▁message 80631
▁Institute 80576
▁System 80563
▁medical 80546
▁member 80422
▁displayed 80405
▁File 80332
▁connected 80322
▁Services 80280
▁overseas 80254
▁head 80154
▁October 80023
▁inside 79805
ty 79773
▁p 79651
▁location 79647
export 79327
▁capital 79225
▁move 79178
▁National 79172
▁window 79139
▁16 79057
▁months 78947
based 78938
▁Committee 78887
▁travel 78584
▁web 78513
▁latest 78457
▁assets 78455
▁transfer 78386
▁Technology 78271
▁uses 78244
▁property 78234
ji 77905
▁entire 77860
ne 77793
▁build 77724
▁enter 77550
▁protection 77484
▁law 77480
▁error 77462
▁providing 77458
▁save 77257
▁games 77243
▁100 77193
▁included 77163
▁yourself 77075
▁2000 77016
▁step 77000
▁call 76980
▁month 76800
▁photo 76790
▁June 76769
▁loss 76764
▁film 76705
and 76626
.” 76585
▁least 76520
▁functions 76485
▁9 76349
▁communication 76342
▁shown 76242
▁heart 76241
▁14 76234
ia 76184
▁Global 76136
▁President 76116
▁Google 76012
▁remove 75918
▁brand 75885
da 75806
▁2019 75804
▁creating 75762
▁party 75664
▁action 75609
▁speed 75539
▁age 75477
▁13 75451
▁living 75402
▁News 75375
▁developing 75345
▁national 75285
▁costs 75153
▁i 75135
▁purchase 75132
▁however 75083
7 75037
▁leading 75026
▁September 74998
▁traditional 74893
▁basis 74816
▁surface 74731
▁Bank 74680
▁values 74612
▁far 74462
▁Home 74356
▁construction 74206
▁comes 74205
▁Development 74166
▁basic 74127
ized 74024
▁stage 73979
▁return 73861
▁young 73827
▁everyone 73790
▁manufacturing 73761
▁lead 73714
▁considered 73705
▁quite 73603
▁either 73525
▁shows 73462
▁requirements 73422
▁nature 73273
ance 73271
▁almost 73250
▁understanding 73211
▁face 73191
▁Go 73190
▁mode 73188
▁videos 73188
ating 73185
▁night 73122
ant 73056
▁December 72935
▁words 72853
▁points 72628
▁2020 72576
▁seen 72514
▁Select 72263
ar 72243
▁De 72231
▁existing 72196
▁Pro 72130
▁review 71959
▁prevent 71888
▁opportunity 71825
ian 71791
▁send 71733
▁Some 71628
▁Note 71594
▁style 71582
▁images 71574
ur 71559
▁While 71467
▁class 71428
▁storage 71425
▁cut 71398
▁payment 71310
ism 71281
▁became 71232
▁2018 71205
▁She 71203
▁ask 71005
▁Europe 70981
& 70972
▁First 70856
▁Support 70817
▁got 70682
▁clear 70665
▁plant 70654
▁economy 70537
▁fields 70508
▁professional 70458
ba 70439
▁limited 70355
▁follow 70347
▁damage 70216
▁opening 70157
▁potential 70138
▁five 70085
▁lower 69995
▁ability 69945
un 69867
▁modern 69856
▁supported 69813
▁response 69775
▁hope 69722
▁subject 69722
▁effects 69704
▁completely 69609
▁white 69606
▁cooperation 69605
est 69581
▁promote 69581
▁focus 69568
▁question 69550
▁recovery 69490
mo 69463
▁highly 69408
ated 69401
▁perform 69140
▁... 68959
▁took 68956
▁prices 68790
▁regarding 68781
▁longer 68755
ous 68703
▁internal 68695
bit 68668
▁learning 68647
▁active 68549
be 68470
▁status 68469
▁skin 68451
▁More 68397
▁Korea 68377
▁base 68345
▁Ko 68146
line 67952
▁hands 67912
▁1, 67896
v 67818
ul 67812
▁recent 67682
▁businesses 67599
ru 67598
▁steps 67547
▁takes 67521
▁update 67504
rs 67460
▁organization 67456
▁2021 67454
ting 67348
▁Android 67275
▁— 67195
▁Directors 67146
▁buy 67119
▁Driver 67105
▁useful 67010
▁simply 66999
▁external 66924
▁activity 66876
▁self 66857
▁book 66790
▁post 66773
▁link 66684
▁sense 66633
z 66591
▁actually 66526
▁PC 66495
▁tax 66475
▁Inc 66336
ine 66278
li 66134
▁stock 66099
um 66044
raw 65993
▁went 65931
se 65883
▁approach 65851
▁Video 65729
▁Hotel 65669
▁significant 65632
▁gas 65628
▁condition 65612
▁copy 65548
▁thought 65477
▁Science 65472
▁July 65385
▁began 65382
less 65362
ga 65309
ka 65299
▁components 65280
▁suitable 65271
▁Office 65262
▁associated 65233
ya 65205
▁properties 65195
▁changed 65142
▁Of 65111
▁Project 65040
▁Mac 64990
▁rules 64959
▁applied 64890
▁TV 64711
▁Although 64651
▁generation 64605
▁decided 64600
▁November 64591
▁Digital 64535
ki 64497
▁advanced 64495
▁note 64475
▁beginning 64464
▁fully 64464
▁hot 64278
▁skills 64162
▁setting 64144
▁Be 64127
▁box 64126
shi 64115
▁target 63997
▁default 63988
▁models 63946
® 63831
▁sea 63788
▁contribute 63760
▁trade 63744
mi 63623
il 63583
▁Privacy 63574
▁17 63561
▁2017 63497
▁technical 63467
▁recommended 63384
▁supports 63336
▁General 63291
w 63108
▁places 63101
ha 63010
▁Can 62974
▁tell 62775
▁wish 62726
▁ever 62684
▁throughout 62623
▁Intel 62548
▁Kyoto 62503
▁yet 62441
tic 62364
▁stay 62351
▁Art 62346
▁friends 62337
▁output 62205
▁consider 62201
▁complex 62176
▁Search 62139
▁50 61927
U 61865
▁factors 61779
▁increasing 61758
▁Even 61722
▁average 61722
▁South 61694
▁relevant 61554
▁upon 61519
▁idea 61345
▁connect 61340
▁photos 61317
▁camera 61273
▁dis 61226
▁Act 61126
▁stores 61112
▁daily 61077
▁land 60990
▁Dr 60989
▁notice 60942
▁leave 60889
▁safe 60882
▁Security 60798
▁command 60784
▁true 60750
▁official 60663
▁caused 60652
▁mainly 60601
▁therefore 60456
▁agreement 60455
▁East 60445
▁Ka 60423
▁January 60392
▁asked 60285
We 60225
▁matter 60200
▁export 60160
6 60092
▁Step 60084
ac 60075
▁physical 60067
▁sub 60006
▁involved 59990
▁relationship 59818
▁memory 59773
▁floor 59705
▁usually 59703
▁plans 59637
▁credit 59598
Q 59589
ize 59589
▁accordance 59550
ence 59512
▁regulations 59418
▁charge 59346
▁elements 59346
▁require 59215
▁processes 59201
▁IP 59122
▁During 59082
ex 59048
▁THE 59035
▁red 59015
▁term 59008
▁August 58987
▁Many 58965
▁themselves 58850
▁near 58771
▁stop 58603
▁soon 58565
▁taste 58549
▁doing 58543
▁browser 58521
▁laws 58518
▁running 58509
et 58470
▁specified 58237
▁consolidated 58234
▁release 58226
▁opened 58196
ies 58190
▁solve 58008
▁efficiency 58007
▁green 58006
▁sent 57825
▁conducted 57746
▁greater 57737
▁worth 57735
▁2016 57684
lo 57582
▁press 57581
▁See 57509
▁sites 57475
▁levels 57467
▁largest 57423
▁domestic 57388
▁CO 57327
▁organizations 57299
▁multi 57298
▁Us 57249
▁aim 57208
▁American 57195
▁groups 57190
▁balance 57188
▁standards 57121
▁contains 57119
▁responsible 57104
▁enable 57083
ling 57023
for 57018
▁object 56960
wa 56951
▁walk 56921
▁men 56894
▁protect 56877
con 56862
▁item 56846
▁watch 56830
▁parties 56823
▁released 56810
▁job 56774
▁exhibition 56717
▁talk 56556
▁ready 56550
▁password 56476
out 56395
▁audio 56378
▁direct 56315
▁clean 56299
▁Not 56280
▁ago 56247
▁collection 56238
▁document 56223
▁markets 56155
▁nuclear 56145
▁Web 56137
▁31, 56110
chi 56095
▁policies 55973
▁record 55914
▁Other 55883
is 55817
▁appear 55814
▁rest 55808
▁industrial 55779
▁capacity 55754
▁opportunities 55735
▁contents 55722
▁blood 55660
▁planning 55633
▁disease 55627
▁sustainable 55615
▁participants 55601
▁final 55542
▁hold 55437
▁Personal 55419
▁Design 55356
▁His 55355
▁Apple 55342
▁distribution 55332
▁cash 55314
▁week 55247
▁background 55243
▁pressure 55221
▁volume 55214
▁Museum 55189
ter 55118
▁compared 55047
▁Department 54975
,” 54946
▁hair 54913
▁lost 54911
▁says 54843
▁performed 54766
▁famous 54737
▁legal 54679
▁black 54618
▁Because 54573
▁Site 54498
ch 54493
▁avoid 54421
▁Online 54399
▁North 54397
▁High 54351
▁weight 54308
▁San 54306
▁published 54286
▁flow 54254
▁2. 54250
▁rather 54195
▁won 54193
▁maintain 54186
▁documents 54169
▁cloud 54140
end 54126
▁lives 54123
▁24 54115
▁goal 54110
▁likely 53954
▁becomes 53938
▁IT 53882
▁actions 53877
8 53818
▁rates 53801
▁correct 53766
▁Director 53762
ted 53726
ce 53722
▁selection 53715
▁progress 53698
▁announced 53674
▁perfect 53671
▁actual 53668
▁benefits 53645
▁February 53630
ative 53627
▁practice 53531
▁Prefecture 53525
▁pro 53524
min 53415
▁tea 53395
▁reasons 53365
▁manage 53345
▁Power 53231
▁carried 53182
▁European 53174
▁depending 53135
12 53102
▁bar 53099
▁cookies 53071
▁25 53001
▁collaboration 52995
It 52977
▁Date 52949
▁interesting 52949
20 52946
▁percent 52898
▁consumption 52897
ton 52858
▁described 52857
▁write 52847
▁secure 52727
▁Mo 52628
▁Let 52539
▁eat 52501
▁heat 52467
▁easier 52451
▁completed 52436
▁unit 52405
▁decision 52329
▁shares 52320
▁commercial 52318
▁Each 52162
bu 52127
▁restaurant 52073
▁interface 51955
▁track 51933
son 51895
▁board 51849
▁hotels 51829
▁bottom 51783
▁Park 51767
so 51746
▁bit 51736
▁marketing 51697
▁advance 51658
▁though 51627
im 51620
▁plants 51556
▁growing 51538
year 51434
▁summer 51425
▁expand 51407
▁length 51326
one 51303
▁backup 51296
▁fish 51278
▁cells 51250
▁engine 51213
▁respect 51078
▁40 51039
▁continued 51013
▁creation 50981
▁station 50972
▁$ 50970
▁visitors 50900
▁Facebook 50884
▁Ma 50813
▁maximum 50715
▁Summary 50701
la 50695
▁Z 50657
▁ideas 50629
▁goods 50628
▁requires 50619
▁Terms 50605
▁word 50576
▁Live 50573
▁written 50464
▁c 50435
▁instead 50423
10 50389
▁reduction 50322
▁introduced 50320
▁risks 50289
▁client 50231
▁starting 50229
▁infrastructure 50228
▁core 50188
▁Typhoon 50151
▁reach 50140
▁science 50119
▁Next 50104
▁institutions 50047
▁excellent 49999
▁seems 49927
am 49923
▁purposes 49886
▁2015 49849
▁Association 49820
▁User 49796
▁en 49773
▁choice 49758
▁produced 49628
▁student 49625
▁shop 49580
▁Jesus 49568
▁season 49560
▁America 49497
▁grow 49496
▁partner 49470
▁fun 49456
▁road 49456
▁Twitter 49386
▁Type 49367
▁m 49325
▁task 49278
▁Once 49155
▁difference 49129
▁conduct 49089
Re 49085
▁pages 49064
▁Financial 48906
▁essential 48785
▁recommend 48764
▁central 48741
▁interested 48741
▁ID 48732
▁concept 48718
▁Report 48706
▁clients 48705
▁sign 48682
▁behind 48655
▁cultural 48649
▁scale 48621
▁Most 48615
▁patients 48581
▁disk 48551
▁input 48491
▁Add 48477
▁changing 48448
▁trying 48402
▁View 48305
▁trust 48298
▁signal 48286
▁rooms 48257
▁manner 48240
▁t 48190
bi 48168
▁21 48104
▁delivery 48102
▁net 48069
▁delete 48043
▁story 48007
▁USB 47984
ke 47971
▁Software 47944
▁towards 47939
▁news 47916
▁Hong 47914
▁positive 47911
▁According 47905
▁maintenance 47889
▁Station 47856
▁helps 47839
▁artists 47804
▁picture 47800
ities 47755
▁map 47710
▁approximately 47677
ge 47665
▁anti 47617
▁implementation 47588
▁Server 47532
▁properly 47498
ci 47494
▁produce 47469
if 47413
▁success 47376
▁prior 47366
▁wanted 47334
▁Asian 47316
▁moment 47280
▁gives 47141
izing 47130
▁studies 47122
▁Using 47063
▁presented 47046
▁(1) 46994
▁lines 46965
▁prepare 46948
▁coming 46922
▁university 46900
▁© 46897
▁six 46835
▁town 46786
▁carry 46737
pe 46732
▁India 46697
▁deep 46695
net 46640
▁path 46620
▁b 46543
▁3000 46537
▁Page 46523
▁Korean 46510
▁cross 46504
▁Al 46492
▁Check 46468
▁Ministry 46447
▁strategy 46436
▁paid 46418
▁Just 46380
▁movement 46378
ish 46362
▁Law 46334
bo 46327
▁profit 46310
related 46307
▁obtained 46294
▁Festival 46282
ten 46279
▁spread 46211
▁Such 46205
▁+ 46163
▁toward 46163
▁ground 46161
▁registered 46152
per 46149
▁Before 46147
of 46137
▁importance 46117
▁database 46101
ful 46090
▁partners 46067
▁improvement 46038
▁shape 46034
-19 46033
▁bank 46031
▁enhance 46018
▁regular 45995
▁Share 45962
▁determine 45958
▁getting 45957
▁trading 45953
▁package 45947
▁begin 45945
▁normal 45896
▁Code 45885
▁extremely 45880
▁procedure 45814
▁master 45802
▁guide 45779
▁rich 45756
▁(2) 45750
▁follows 45742
▁fast 45739
▁waste 45717
ING 45713
This 45655
▁errors 45645
▁Music 45634
tra 45632
▁disaster 45603
▁ended 45581
mail 45571
▁0 45571
xhtml 45551
▁Li 45546
▁= 45503
▁fresh 45397
▁Why 45395
▁ones 45380
▁tour 45368
▁cover 45360
▁App 45352
▁contract 45335
▁responsibility 45331
gu 45326
ium 45299
▁stable 45293
▁funds 45272
▁cold 45255
▁character 45195
▁cell 45185
▁middle 45125
▁prepared 45111
▁Corporate 45079
▁2014 45069
▁session 45064
▁Microsoft 45042
▁glass 45027
▁fixed 45025
▁impossible 45016
▁panel 45006
▁folder 44960
▁La 44928
▁x 44927
▁distance 44923
▁remember 44851
▁climate 44845
▁sometimes 44839
ster 44820
mp 44777
▁shared 44767
▁weather 44702
▁someone 44666
▁versions 44666
▁acquisition 44571
▁Year 44564
▁reports 44511
▁advantage 44472
▁Media 44462
▁fall 44443
▁Me 44442
▁touch 44411
yama 44389
▁overall 44366
▁woman 44354
▁sector 44346
+ 44338
▁direction 44337
ability 44287
▁medium 44283
▁characteristics 44264
▁force 44249
gi 44192
po 44161
▁tree 44161
▁regions 44159
▁offered 44146
▁mean 44144
▁highest 44133
▁remain 44118
▁Kong 44099
▁players 44048
▁linked 44032
▁worked 44001
▁internet 43986
▁Furthermore 43970
▁Ro 43820
▁refer 43797
▁Or 43768
▁edit 43768
▁Car 43726
▁doesn 43719
@ 43700
▁remains 43672
▁warm 43654
13 43652
▁registration 43638
▁3. 43637
▁Products 43626
▁independent 43622
▁numbers 43601
▁cancer 43583
▁carefully 43563
ator 43540
▁century 43514
▁anything 43513
▁challenges 43503
▁PDF 43451
men 43431
▁guests 43424
▁compliance 43413
▁2013 43411
▁experiences 43387
▁Energy 43378
▁particularly 43351
▁configuration 43342
▁told 43314
▁fix 43293
▁traffic 43234
▁connecting 43213
by 43188
land 43183
ak 43128
▁saw 43074
▁Su 43061
▁allowed 43058
▁manually 42944
ical 42918
▁Government 42910
ial 42877
▁combination 42863
▁placed 42829
▁fuel 42820
ol 42818
▁presence 42759
▁En 42728
ir 42706
▁instructions 42621
▁OF 42618
▁resolution 42613
▁soft 42601
▁thus 42583
▁morning 42554
▁Read 42524
▁conversion 42498
MA 42438
▁Health 42406
▁Cloud 42388
▁powerful 42368
▁joint 42364
▁Na 42338
▁war 42337
▁Are 42308
▁People 42306
▁Osaka 42294
▁reported 42289
▁fire 42286
▁convenient 42274
▁st 42235
▁determined 42228
▁profile 42224
▁supporting 42168
▁enables 42110
▁Ha 42087
▁successful 42073
▁metal 42072
▁pass 42055
▁listed 42046
▁nothing 42045
nd 41993
▁host 41931
▁serve 41900
▁ideal 41891
▁custom 41886
▁fair 41838
▁comprehensive 41835
▁Help 41834
40 41833
▁answer 41814
▁transactions 41751
▁electronic 41742
▁spring 41721
ology 41718
▁strength 41712
▁moving 41697
▁Le 41660
▁Learn 41616
▁felt 41599
AL 41593
▁Mi 41572
▁separate 41531
▁efficient 41512
▁late 41508
▁shopping 41458
▁benefit 41452
▁respond 41449
der 41426
▁units 41426
▁didn 41382
▁battery 41377
▁eyes 41331
▁offering 41276
▁Taiwan 41254
▁detailed 41252
▁huge 41243
▁spend 41238
▁population 41212
▁recently 41205
▁# 41184
▁) 41162
▁War 41154
▁appearance 41147
sa 41143
▁automatic 41139
▁possibility 41131
▁theme 41096
▁Make 41064
▁Product 41061
▁effort 41051
▁thinking 40975
use 40955
▁obtain 40909
▁participate 40897
の 40873
▁rule 40835
▁happy 40832
▁Control 40829
▁messages 40808
▁accounts 40806
▁act 40806
▁appears 40778
▁Special 40760
▁< 40729
▁concerning 40729
▁‘ 40726
ally 40717
▁round 40654
▁Stock 40648
▁colors 40638
▁steel 40604
▁feeling 40603
▁launch 40603
day 40600
▁establish 40575
tro 40556
▁facility 40537
▁OS 40528
▁led 40450
ie 40433
▁Plan 40422
▁load 40398
▁apps 40396
▁・ 40386
▁techniques 40357
▁integrated 40314
9 40309
▁atmosphere 40298
30 40253
▁comfortable 40253
vi 40220
▁Library 40219
▁tab 40214
za 40205
▁objects 40190
▁Exchange 40189
▁Through 40177
▁gave 40160
▁stored 40159
▁blue 40149
▁Top 40136
▁Access 40063
▁mountain 40062
▁Moreover 40059
▁AI 40043
▁testing 40019
▁limit 40015
▁serious 40013
▁Under 39954
▁worldwide 39902
▁accept 39889
▁Time 39863
▁death 39857
▁virtual 39847
▁insurance 39840
▁desired 39817
▁dry 39794
▁deliver 39792
▁Get 39785
▁looks 39785
▁initiatives 39769
▁mentioned 39738
▁f 39702
▁Store 39662
▁Today 39612
▁rice 39596
▁regional 39582
▁Party 39496
▁Professor 39493
▁plastic 39487
▁experts 39468
▁Best 39462
▁affected 39436
▁Press 39433
ning 39422
way 39422
▁researchers 39383
▁layer 39353
▁applicable 39347
▁monitoring 39328
▁Earth 39269
▁collect 39269
▁realize 39242
▁beyond 39235
ding 39230
IN 39217
mm 39120
▁strengthen 39110
▁Website 39103
▁Ho 39098
▁cities 39022
▁bus 38988
▁Pre 38961
▁convert 38942
▁French 38899
▁-- 38872
▁initial 38848
▁Manager 38834
▁significantly 38830
▁diseases 38804
▁improving 38792
▁resource 38773
mon 38757
▁although 38744
▁Sa 38704
▁Wi 38693
▁exercise 38670
▁double 38665
▁procedures 38656
▁train 38651
▁Russian 38645
= 38637
▁political 38633
▁survey 38632
▁d 38624
▁Social 38601
▁electric 38571
▁wind 38548
▁Take 38475
▁drivers 38468
▁affect 38455
▁category 38451
▁license 38448
▁API 38443
▁beauty 38401
▁translation 38360
▁playing 38353
▁Australia 38351
di 38349
▁60 38349
▁networks 38282
▁brought 38280
ang 38256
▁Citrix 38256
os 38254
▁winter 38249
scale 38239
▁UN 38239
jo 38224
▁vehicle 38221
▁issued 38159
▁Un 38153
▁writing 38148
▁figure 38142
▁occur 38132
▁recognized 38123
▁inter 38111
▁peace 38106
▁trip 38101
▁handle 38078
▁statements 38038
Japan 38023
▁Network 37961
▁cards 37957
▁Back 37953
▁hour 37929
▁covered 37925
▁identify 37914
▁deal 37912
▁Create 37892
▁2012 37878
▁ratio 37872
▁improved 37863
▁Man 37839
▁expansion 37827
▁expect 37813
▁York 37806
▁parameters 37776
▁annual 37761
▁quarter 37708
pro 37692
ping 37691
cho 37675
▁sports 37641
▁capabilities 37635
▁icon 37635
▁reading 37628
▁break 37594
MP 37585
ni 37570
▁mass 37560
▁Description 37522
▁negative 37522
▁presentation 37471
:00 37462
ー 37451
▁aims 37449
▁workers 37429
quality 37414
▁individuals 37408
▁TO 37401
▁introduce 37380
▁List 37359
▁State 37358
▁degree 37341
den 37332
▁views 37327
▁fine 37247
▁Education 37213
▁RE 37206
▁engineering 37206
▁log 37195
▁sharing 37179
01 37165
▁vision 37152
▁House 37130
▁bad 37118
op 37093
▁turned 37076
▁micro 37070
▁deleted 37068
▁Singapore 37050
▁extra 37049
▁asset 37032
▁newly 37021
▁reduced 37019
▁Language 37018
▁director 37014
▁defined 37009
▁meat 36997
▁drink 36991
▁reference 36963
▁22 36938
▁otherwise 36937
▁parents 36928
▁implement 36926
▁industries 36878
▁launched 36875
▁Minister 36870
▁fee 36858
▁innovation 36825
▁Y 36818
▁forms 36803
▁Yu 36792
▁depends 36782
▁resulting 36765
▁chain 36762
over 36756
▁Based 36751
▁wait 36747
▁estate 36641
▁manufacturer 36638
▁Investment 36623
▁Con 36621
ad 36597
▁shareholders 36572
qui 36563
▁critical 36552
▁patient 36546
▁pain 36521
▁France 36486
▁Africa 36476
▁snow 36454
▁recover 36449
▁Engineering 36442
ut 36404
▁whose 36397
▁player 36390
▁stand 36354
▁2011 36348
▁AND 36326
▁wear 36324
▁directors 36317
16 36308
ca 36283
▁block 36282
▁fashion 36282
▁restore 36278
▁Life 36269
▁agree 36269
▁garden 36261
▁meaning 36224
▁happen 36204
14 36202
▁Real 36202
▁expert 36194
▁sources 36191
▁experienced 36182
▁updated 36171
▁Application 36162
▁Graduate 36139
▁drop 36124
▁Any 36113
▁visited 36107
▁reliable 36104
▁eye 36100
▁iOS 36046
TM 36011
▁piece 36004
▁finished 35997
▁rise 35950
▁cutting 35943
▁schools 35923
80 35915
▁Customer 35889
▁behavior 35872
▁vehicles 35870
▁meters 35868
▁tasks 35838
▁accounting 35836
▁Sea 35832
▁passed 35823
▁channel 35815
▁ex 35803
que 35790
lic 35767
▁buildings 35755
▁Agreement 35663
▁match 35657
▁Russia 35655
▁actively 35632
ship 35621
▁smooth 35572
ap 35569
▁born 35561
▁kinds 35559
▁decrease 35547
▁manufacturers 35537
▁Name 35534
▁collected 35530
lu 35525
▁increases 35507
▁promoting 35506
▁Vietnam 35480
▁join 35477
▁advertising 35470
▁becoming 35454
▁integration 35422
▁wall 35421
▁detail 35368
▁Vi 35363
25 35336
▁sold 35325
▁Copyright 35314
▁St 35311
▁drug 35304
▁generated 35291
les 35269
▁chance 35253
▁Day 35243
▁Play 35240
ho 35235
】 35221
ise 35217
▁machines 35163
▁sun 35161
pa 35148
▁Human 35140
▁perspective 35138
IT 35127
▁cars 35062
▁owner 35052
▁element 35023
▁favorite 34999
▁giving 34996
▁challenge 34972
ichi 34939
▁privacy 34938
▁lack 34922
▁equipped 34915
▁earth 34906
▁characters 34898
▁frame 34871
▁requests 34871
▁dance 34864
ER 34850
▁Part 34775
▁Award 34766
▁contain 34766
house 34754
To 34743
▁chemical 34736
▁classes 34735
red 34733
▁sale 34720
ong 34682
ard 34670
cy 34666
tsu 34657
▁pattern 34651
Fi 34648
▁goes 34646
ring 34629
▁achieved 34606
▁names 34599
▁labor 34572
▁Full 34569
▁sheet 34545
▁Meeting 34529
▁entry 34528
▁remote 34477
▁continues 34473
▁Set 34463
LE 34442
▁audience 34409
* 34408
▁former 34369
▁Air 34339
▁driving 34337
va 34310
▁smartphone 34302
▁component 34293
RE 34284
18 34280
▁execution 34246
▁hit 34238
▁emissions 34222
ite 34198
▁gain 34198
▁Thus 34179
▁books 34177
▁Ra 34164
AR 34161
sion 34149
▁voltage 34143
▁Germany 34131
▁expenses 34127
▁mother 34108
・ 34103
▁creative 34095
▁ingredients 34090
EN 34075
id 34045
▁regard 34019
▁welcome 34013
▁measure 33973
17 33972
▁Foundation 33955
▁career 33889
▁usage 33864
▁cable 33855
▁pieces 33848
▁influence 33808
▁Another 33802
▁removed 33799
▁mission 33771
▁park 33761
▁wood 33743
▁voice 33739
▁di 33713
▁Only 33707
▁mechanism 33703
▁practical 33699
▁monitor 33690
side 33671
ot 33652
▁dishes 33638
▁competition 33607
▁closed 33594
▁pictures 33591
▁measurement 33586
▁port 33586
▁transport 33579
▁goals 33559
▁register 33558
▁implemented 33557
▁trees 33555
▁clearly 33530
▁circumstances 33529
▁street 33521
▁forget 33512
▁innovative 33502
▁moved 33472
▁trend 33470
AC 33453
▁slightly 33426
▁era 33423
▁Thank 33398
▁coffee 33395
▁sample 33338
50 33335
▁confirm 33322
▁communities 33296
11 33293
▁Travel 33251
▁association 33230
▁healthy 33222
▁FY 33206
▁23 33202
▁feedback 33198
▁Environmental 33191
▁import 33114
ible 33087
san 33055
▁carbon 33040
▁diverse 33031
▁solid 33014
▁dedicated 33001
▁Christ 32995
▁holding 32979
▁learned 32973
▁smart 32961
▁sell 32940
▁entered 32913
▁Thailand 32909
▁faster 32908
ure 32899
▁ordinary 32835
▁promotion 32827
IC 32783
▁segment 32719
▁principle 32714
▁framework 32699
rd 32685
▁damaged 32683
▁department 32681
▁Guide 32678
▁Line 32637
.4 32606
▁super 32598
▁matters 32563
▁context 32562
▁anyone 32539
▁interests 32528
▁operate 32501
▁scene 32493
▁meetings 32484
▁gift 32482
▁Sometimes 32475
▁upper 32474
▁artist 32450
▁lose 32449
pre 32421
US 32418
ft 32412
▁switch 32398
▁festival 32396
▁Ki 32386
▁Council 32383
▁academic 32354
▁hardware 32351
▁UK 32345
▁Agency 32335
▁doctor 32332
▁earlier 32257
▁thanks 32251
% 32233
▁architecture 32218
▁consideration 32186
▁Rights 32183
▁weeks 32175
▁probably 32166
▁nice 32162
▁links 32156
▁o 32150
▁establishment 32143
▁2010 32101
▁Over 32095
▁Great 32081
▁recorded 32081
▁accurate 32077
▁Airport 32073
▁delicious 32068
▁Yes 32060
▁wine 32056
19 32055
▁Where 32054
▁girl 32032
▁28 32030
▁auto 32015
▁Hi 32014
▁primary 32012
app 32007
▁foundation 31996
▁Photo 31990
▁reality 31980
▁technique 31980
▁employee 31977
▁Audit 31962
▁evaluation 31948
▁orders 31929
▁generally 31915
our 31908
▁door 31883
▁ad 31880
▁handling 31876
▁leaves 31846
▁Sign 31845
▁met 31844
▁instance 31823
▁fill 31803
▁Find 31784
▁Central 31777
▁restaurants 31773
▁Environment 31760
sis 31749
▁Executive 31666
▁draw 31642
ze 31640
▁adding 31612
▁LINE 31609
▁Da 31604
shima 31597
▁library 31594
▁heard 31581
▁minimum 31566
▁exactly 31564
free 31546
▁larger 31534
▁else 31499
▁Shin 31483
▁consent 31447
▁sex 31428
▁associate 31413
▁formed 31411
ow 31395
▁assistance 31394
▁Email 31384
70 31374
ID 31359
▁combined 31359
▁Start 31342
▁preparation 31338
iv 31328
dis 31325
▁solar 31303
▁raise 31284
file 31283
▁Pacific 31282
▁advice 31260
▁【 31253
▁Bar 31250
▁Society 31250
▁Net 31235
▁alone 31224
▁Systems 31221
▁4. 31191
▁provision 31141
we 31139
▁installing 31135
▁awareness 31121
▁brain 31107
▁causes 31099
.7 31097
▁Ri 31093
▁bed 31077
▁flowers 31076
▁edge 31064
▁island 31061
▁reducing 31058
▁Print 31012
▁discount 31000
vo 30993
▁(3) 30983
▁allowing 30966
▁reservation 30945
▁Ni 30944
dy 30941
▁finally 30932
ger 30920
▁star 30920
▁sleep 30914
▁investors 30897
): 30895
▁ISSN 30883
▁managed 30874
0 30867
▁expertise 30859
▁bio 30825
-1 30783
act 30775
▁frequency 30770
ries 30764
▁consumer 30750
her 30748
▁cooking 30721
▁electricity 30721
▁Keep 30711
▁stated 30695
▁previously 30682
ST 30633
32 30619
▁reviews 30606
▁corresponding 30587
▁bright 30581
▁express 30568
▁Foreign 30556
▁Text 30528
▁West 30520
▁himself 30503
▁websites 30501
”. 30493
sha 30475
▁pick 30461
▁factory 30458
▁visual 30454
au 30453
▁articles 30453
▁Buy 30449
▁conference 30438
ung 30393
▁aware 30384
▁mid 30381
▁cream 30351
▁hear 30346
▁raw 30339
▁successfully 30297
▁Po 30284
▁occurs 30281
▁liquid 30270
ray 30253
▁drugs 30246
▁pool 30228
▁SD 30207
▁decide 30195
▁Figure 30191
▁gold 30175
15 30164
▁Its 30163
▁military 30131
▁recognize 30125
▁ancient 30109
zo 30100
▁destination 30095
As 30064
▁German 30037
▁print 30029
▁dark 30013
▁instruments 29994
▁Paris 29976
▁abroad 29970
TA 29949
▁transaction 29938
For 29936
▁families 29927
ana 29921
▁focused 29895
▁description 29881
qu 29872
▁happens 29869
let 29850
▁teams 29846
▁myself 29843
board 29840
▁reached 29840
▁ticket 29826
▁Conference 29823
▁corner 29802
▁Ta 29801
▁played 29778
▁Star 29765
▁transportation 29753
▁Notice 29742
▁YouTube 29738
▁saved 29737
▁explain 29717
▁budget 29711
▁specify 29706
ME 29703
▁stability 29688
26 29682
▁relationships 29673
▁served 29670
ber 29666
rate 29656
▁foot 29648
▁expression 29632
▁committed 29621
▁Basic 29615
▁ten 29585
▁practices 29558
▁intended 29552
▁revenue 29543
60 29533
▁accuracy 29533
▁functionality 29533
IL 29462
hi 29410
▁trends 29409
▁日本語 29407
ED 29403
▁differ 29398
▁definitely 29394
▁fees 29389
▁leaders 29379
j 29372
▁Industry 29350
ee 29346
▁Sun 29340
▁26 29337
TO 29331
▁proper 29330
▁heavy 29310
▁g 29306
▁returned 29298
▁repair 29294
▁currency 29279
▁drawing 29278
▁engaged 29277
▁filter 29270
ner 29267
▁height 29262
▁trial 29258
:30 29243
▁discussion 29230
▁adopted 29229
party 29226
▁female 29190
▁followed 29187
▁Vol 29182
▁locations 29175
▁Christmas 29171
▁saying 29163
ig 29155
port 29145
▁effectively 29144
ler 29139
▁tests 29123
▁manual 29102
▁Well 29092
su 29060
▁Arts 29060
including 29015
▁200 29003
é 29000
▁fit 28987
▁Indonesia 28981
▁designated 28979
▁accepted 28977
sen 28972
▁Account 28968
▁gradually 28945
▁title 28904
▁extensions 28900
▁27 28886
▁Food 28884
yo 28880
▁failure 28879
▁relatively 28877
▁Okinawa 28867
▁Division 28857
▁square 28849
▁cool 28825
ti 28820
▁01 28820
▁statement 28820
▁receiving 28793
▁Market 28792
▁Photos 28777
▁noise 28777
▁comments 28772
▁module 28771
▁Lu 28762
▁Street 28740
▁father 28731
▁decline 28726
▁courses 28719
▁Games 28702
▁states 28687
▁Di 28686
▁tourism 28685
▁residents 28674
▁Files 28671
64 28648
▁MP 28645
▁situations 28612
▁scope 28610
▁updates 28592
▁Her 28591
▁dish 28590
-2 28572
org 28554
If 28534
▁quick 28518
▁domain 28517
▁Team 28511
▁resistance 28501
▁Chi 28491
▁wrong 28472
▁persons 28470
om 28466
DA 28445
▁watches 28443
▁subsidiaries 28434
▁constantly 28431
▁indicated 28418
▁cycle 28417
▁Red 28401
▁River 28381
▁Public 28361
▁stress 28361
▁guarantee 28349
▁communications 28339
old 28337
he 28331
ju 28326
▁expensive 28323
IP 28322
▁fruit 28316
▁CEO 28312
gen 28311
▁firm 28285
▁directory 28279
SE 28273
▁conventional 28270
▁educational 28263
▁CD 28251
tion 28233
▁Change 28182
▁valid 28178
▁wonderful 28171
▁mm 28163
▁numerous 28162
▁Green 28156
▁platforms 28156
▁Mobile 28155
▁relations 28143
▁Italy 28133
▁capable 28125
▁acquire 28111
▁detective 28087
▁Every 28046
▁motor 28039
▁Don 28038
▁Canada 28033
▁Events 28024
zu 28013
▁starts 28013
▁tried 28003
▁seem 27996
tin 27988
▁introduction 27988
▁Black 27975
▁schedule 27960
▁posted 27959
▁designs 27952
ab 27925
▁II 27917
.6 27910
▁64- 27904
▁interior 27897
▁salt 27887
▁engage 27882
▁smaller 27865
▁differences 27853
▁widely 27842
▁rain 27841
▁shipping 27840
▁Hotels 27838
▁Studies 27830
▁pop 27824
▁Show 27820
down 27813
▁consists 27806
▁Blog 27797
▁transmission 27791
▁animals 27790
site 27789
▁ceremony 27761
▁vi 27759
▁submit 27756
▁environments 27752
90 27729
ン 27725
led 27723
▁universities 27708
▁decisions 27675
▁topic 27670
▁White 27659
▁discuss 27641
▁Ya 27634
▁transition 27632
ification 27629
▁strategies 27628
21 27604
CO 27596
PS 27588
▁dialog 27576
▁contained 27567
▁spent 27557
▁mountains 27555
▁phase 27535
▁thin 27523
▁administration 27504
▁aspects 27497
▁couple 27496
▁channels 27482
▁Pa 27459
▁Links 27437
▁500 27431
▁composition 27430
▁Dai 27421
▁airport 27420
▁explore 27418
▁sky 27411
▁consumers 27410
▁Professional 27390
– 27379
▁friend 27371
▁Event 27368
▁radio 27361
▁COVID 27350
▁scientific 27347
?" 27341
▁spirit 27333
▁expressed 27303
ture 27298
▁communicate 27298
▁flash 27293
▁factor 27284
▁Track 27279
▁named 27274
▁seven 27274
io 27268
▁London 27261
▁Protection 27257
▁Community 27256
▁award 27231
▁Work 27221
▁attached 27208
▁slow 27208
▁explained 27184
▁sufficient 27175
work 27105
CC 27095
lin 27078
▁31 27076
▁scheduled 27064
▁leads 27056
▁evidence 27053
▁Economic 27050
lar 27031
▁Ba 27022
▁expanding 27015
▁Club 27012
▁historical 26981
▁Unity 26980
▁speak 26964
▁planned 26958
▁enabled 26956
▁JAPAN 26942
SP 26917
▁Sho 26902
▁Western 26901
▁Model 26897
▁disclosure 26895
▁banks 26894
▁sp 26875
▁cleaning 26871
▁performing 26855
▁houses 26836
▁Overview 26834
▁sides 26834
▁Water 26819
▁spot 26815
▁Mar 26799
▁except 26798
28 26795
▁recording 26788
off 26782
You 26773
▁Building 26769
▁brands 26767
▁Inter 26758
24 26732
▁provider 26731
ual 26715
▁Category 26705
CH 26704
car 26692
▁emergency 26692
▁leader 26688
▁correctly 26684
kan 26679
▁compatible 26663
▁Italian 26660
▁medicine 26659
▁acquired 26656
ious 26653
form 26625
▁adjust 26615
▁weak 26597
▁participation 26590
▁valuable 26590
▁Connect 26589
▁chosen 26585
▁Sales 26584
▁NTT 26573
level 26559
▁shops 26550
▁root 26528
▁EU 26526
▁recognition 26518
▁author 26515
.8 26505
▁Map 26492
▁investments 26486
type 26468
▁entrance 26463
▁Se 26442
▁examples 26435
▁delivered 26425
▁Content 26416
▁Number 26406
▁structures 26405
▁rapid 26403
back 26400
▁Te 26368
27 26365
▁Island 26364
▁records 26361
▁servers 26351
▁turns 26351
ins 26347
▁la 26345
▁concerns 26329
▁Per 26307
▁flat 26296
▁desire 26295
▁forecast 26293
▁Settings 26291
▁approval 26276
tu 26270
istic 26269
▁referred 26266
▁mail 26262
▁productivity 26260
ja 26248
▁chat 26243
▁cm 26230
▁surrounding 26213
▁stone 26210
▁Due 26188
PA 26180
▁displays 26178
▁river 26169
▁ship 26155
▁manager 26152
▁teaching 26152
▁comfort 26128
▁familiar 26126
▁proposed 26119
▁seek 26114
▁employment 26109
▁script 26095
▁2) 26090
cc 26082
▁counter 26053
▁museum 26045
▁languages 26037
▁flexible 26034
▁visiting 26004
▁Dis 25993
sh 25987
▁Bo 25987
cl 25986
▁80 25986
▁exist 25985
▁rental 25977
▁fundamental 25976
、 25972
▁Watch 25966
▁generate 25950
▁desktop 25920
▁priority 25918
▁certificate 25912
▁Instagram 25904
▁securities 25899
▁Card 25888
▁notes 25873
▁Main 25864
ified 25863
▁apartment 25862
▁earnings 25841
▁forest 25841
ck 25837
▁Studio 25827
▁blog 25826
▁returns 25816
▁Section 25806
▁Hokkaido 25793
▁housing 25793
▁Up 25765
▁commitment 25764
▁waiting 25760
▁alcohol 25758
▁developers 25755
▁baby 25754
tal 25737
▁usual 25737
▁campaign 25718
▁friendly 25716
▁Choose 25704
fin 25702
▁Space 25696
▁considering 25684
▁seconds 25677
▁Platform 25671
▁Chat 25658
ES 25653
▁Organization 25648
tri 25639
▁extent 25638
▁expectations 25622
▁truly 25621
▁debt 25614
▁2008 25605
right 25586
ped 25575
▁29 25575
▁prevention 25570
▁define 25568
▁kitchen 25565
click 25562
▁Recovery 25552
▁filled 25552
▁ahead 25538
▁sets 25538
▁Enter 25525
see 25522
▁Trade 25514
▁sounds 25511
▁tourists 25490
▁protected 25480
▁ice 25470
▁village 25469
▁Menu 25463
▁formation 25461
oc 25443
▁symbol 25436
▁se 25426
▁> 25419
▁Have 25404
▁confirmed 25399
▁dream 25367
▁Last 25356
▁selling 25355
▁manufacture 25338
▁owners 25335
val 25311
▁equal 25307
100 25306
▁symptoms 25298
▁Official 25294
▁wants 25294
▁offices 25287
▁Details 25277
▁flower 25277
▁walls 25264
▁increasingly 25262
▁personnel 25260
AT 25259
▁rid 25254
▁computers 25251
▁column 25250
kawa 25239
▁unless 25238
ran 25237
▁remaining 25231
ware 25222
▁im 25209
▁purchased 25207
▁finance 25205
▁joined 25190
▁km 25184
ile 25180
▁partition 25180
▁Their 25166
▁rare 25160
▁Ad 25159
▁court 25154
▁logo 25147
▁fabric 25137
▁flight 25133
\ 25127
▁Experience 25123
▁Hall 25108
sk 25106
SC 25104
▁capture 25073
set 25057
si 25056
▁iron 25048
▁Members 25045
▁Users 25045
▁Long 25044
▁walking 25039
▁amazing 25036
.9 25034
▁mouse 25030
▁Advanced 25022
▁bath 25018
29 25015
▁convenience 25015
▁applying 24993
▁Word 24983
▁outstanding 24979
▁clinical 24978
▁FAQ 24977
ther 24976
▁infection 24972
▁Post 24969
▁gets 24967
king 24960
▁Women 24960
▁organized 24940
light 24936
▁visible 24926
▁primarily 24925
▁attack 24904
▁calculated 24895
▁reserved 24890
▁@ 24887
▁30, 24879
AS 24876
UN 24875
ists 24831
▁URL 24831
▁Key 24828
▁president 24823
▁crisis 24821
▁replace 24808
No 24783
▁Industrial 24783
▁preview 24780
▁agencies 24779
▁movie 24778
▁portfolio 24755
▁dynamic 24748
▁100% 24736
making 24734
▁temple 24730
▁Republic 24721
▁species 24721
▁Series 24714
▁sensor 24712
▁alternative 24700
▁discussed 24682
▁IN 24670
ever 24656
▁Culture 24650
like 24649
▁Innovation 24637
▁principles 24636
▁regularly 24618
▁ma 24586
”, 24573
▁maintaining 24561
▁discussions 24549
MS 24515
MO 24507
▁USA 24502
▁template 24490
mer 24466
NO 24463
ide 24455
▁vegetables 24449
▁02 24432
▁bag 24420
▁Table 24415
▁mix 24415
▁Medical 24410
▁urban 24396
▁noted 24391
▁assessment 24381
▁Extension 24368
▁History 24353
▁Lord 24347
▁reporting 24337
▁wireless 24330
▁imp 24301
▁observed 24300
▁zero 24291
▁al 24289
▁Fund 24277
▁Order 24276
▁sections 24248
▁fear 24240
▁representative 24238
EL 24211
▁Shi 24207
▁Master 24205
▁stakeholders 24168
▁rapidly 24159
▁subscription 24130
ON 24128
▁Affairs 24118
▁win 24112
▁approved 24110
▁journey 24108
press 24098
▁older 24097
OR 24088
▁respective 24085
▁poor 24080
▁Super 24075
kin 24073
ET 24067
how 24061
▁sugar 24057
PDF 24053
▁firms 24052
▁automotive 24050
▁Standard 24032
▁Wiki 24024
SA 24022
▁string 24015
▁monetary 24014
▁necessarily 24009
35 24001
▁agreed 23993
▁retail 23989
▁kept 23983
▁selecting 23982
▁tap 23978
▁signs 23974
▁letter 23971
▁girls 23966
yu 23963
▁1) 23963
▁ensuring 23951
ons 23948
36 23944
▁calls 23939
▁despite 23933
▁continuous 23932
▁contribution 23931
▁Sex 23918
PO 23916
▁2009 23903
▁operational 23891
▁certification 23889
▁strategic 23876
▁frequently 23875
▁governments 23872
▁Results 23868
ub 23862
▁circuit 23862
▁clicking 23858
▁windows 23854
▁authorities 23849
▁audit 23839
▁earthquake 23815
OS 23796
ction 23794
▁comment 23782
▁milk 23781
EC 23779
▁substances 23773
NA 23772
Japanese 23765
ological 23759
▁forces 23758
▁evening 23747
▁Target 23729
mb 23726
▁patterns 23723
▁90 23720
▁subsidiary 23716
▁creates 23708
▁amounts 23705
▁Training 23700
▁aimed 23691
▁Related 23690
22 23688
31 23677
▁begins 23668
▁Promotion 23647
▁electrical 23636
▁professionals 23634
▁birth 23611
em 23588
▁films 23585
▁container 23583
▁plate 23583
▁shift 23572
▁clothes 23561
ration 23544
▁optimal 23544
▁divided 23535
▁straight 23523
▁agency 23487
▁Smart 23480
▁treat 23472
▁Students 23468
▁Trust 23458
▁concerned 23455
▁CMS 23454
▁Outlook 23454
▁comply 23451
hara 23433
▁guest 23417
▁encourage 23406
oka 23394
▁participated 23370
fa 23355
▁Profile 23334
▁ocean 23334
▁easiest 23330
▁extensive 23326
▁Future 23309
▁estimated 23307
▁Area 23305
▁soil 23298
▁opinion 23288
▁CSR 23284
▁Fuji 23278
▁mo 23278
▁studying 23267
▁70 23265
▁hall 23259
▁feed 23258
▁index 23256
▁showing 23251
▁helping 23247
Vendor 23223
ency 23223
▁organic 23221
▁diet 23218
ised 23209
▁greatly 23208
De 23207
▁talking 23192
low 23182
▁workshop 23140
▁guidelines 23132
▁decreased 23130
▁reliability 23125
▁arts 23116
▁looked 23116
▁reasonable 23111
▁regardless 23110
▁contrast 23109
▁laser 23108
▁Nations 23098
▁Pandora 23090
Pro 23078
▁Companies 23073
▁Temple 23055
▁reflect 23055
▁speech 23036
▁Safety 23034
▁Collection 23033
▁mechanical 23027
ス 23016
ging 23013
▁tourist 23005
▁advantages 22999
▁showed 22991
▁appeared 22989
▁finish 22971
Note 22965
55 22964
▁teachers 22963
ron 22960
EX 22958
▁secret 22958
▁Taka 22944
▁biggest 22944
▁animal 22925
▁bi 22921
can 22916
▁yellow 22910
▁Yo 22886
▁Local 22871
▁suppliers 22868
▁claim 22858
▁Lake 22854
IA 22836
▁disabled 22822
▁parameter 22820
▁expanded 22772
▁distributed 22763
sur 22760
xi 22759
▁inspection 22755
▁signed 22752
▁Mitsui 22749
▁competitive 22748
▁majority 22745
▁technological 22745
▁topics 22745
▁mark 22732
▁classic 22724
▁Both 22722
▁race 22714
▁connections 22710
[ 22708
ps 22706
▁figures 22703
ants 22698
▁Good 22693
▁kids 22690
▁Sumitomo 22689
▁truth 22689
Con 22683
▁partnership 22673
▁specialized 22666
▁Fukushima 22665
▁holiday 22623
▁happened 22622
▁Forum 22621
▁editing 22617
▁registry 22615
▁degrees 22597
SI 22594
▁ST 22593
▁helped 22578
▁controls 22575
fu 22573
▁Those 22564
row 22562
cent 22557
▁isn 22555
▁painting 22554
▁ending 22550
▁push 22539
▁conducting 22536
▁Two 22528
fer 22521
ations 22518
▁ride 22517
▁Room 22509
▁03 22494
▁pe 22480
art 22469
room 22465
▁00 22465
ions 22461
▁thousand 22461
▁realized 22453
▁Sha 22437
▁Class 22415
▁raised 22415
ip 22406
▁listen 22389
▁payments 22382
23 22375
OL 22366
▁helpful 22361
▁Resources 22358
▁forth 22352
▁iTunes 22346
▁Enterprise 22345
▁virus 22345
▁unable 22344
▁bridge 22311
▁Prime 22299
▁objective 22299
▁Grand 22297
▁fat 22294
▁Auto 22293
▁everyday 22285
ina 22284
class 22267
CA 22258
▁citizens 22245
▁lighting 22238
▁Ar 22233
che 22230
ah 22225
▁centers 22224
▁Road 22219
▁Communication 22213
▁continuously 22188
▁configure 22185
▁Release 22170
▁assigned 22158
cur 22157
▁agent 22152
▁Log 22144
▁acid 22140
ral 22134
▁equity 22133
▁compensation 22124
▁concrete 22119
▁strongly 22118
▁300 22114
▁Head 22114
▁optical 22114
▁landscape 22110
▁improvements 22092
▁paint 22091
▁contemporary 22085
▁constant 22083
▁authentication 22074
▁Place 22066
RC 22062
▁permission 22060
▁targets 22059
cha 22050
▁opinions 22048
▁analyze 22046
▁closely 22042
ear 22041
▁entering 22035
▁nor 22031
gra 22027
▁strengthening 22023
▁submitted 22018
▁positions 22014
▁eight 22010
▁Image 21992
▁Ju 21991
▁thousands 21987
▁printing 21977
▁intellectual 21966
ition 21945
▁Pay 21938
▁5. 21919
cing 21916
fi 21911
▁Kobe 21911
▁exclusive 21899
▁Solutions 21887
▁layout 21881
▁strive 21877
45 21862
▁broad 21859
▁providers 21858
list 21857
▁2007 21844
▁Period 21838
▁venue 21794
▁careful 21793
▁wife 21790
part 21776
top 21770
85 21769
▁Thanks 21761
▁sweet 21760
▁die 21756
log 21747
▁enterprise 21739
▁governance 21732
▁nearly 21722
▁thermal 21720
▁35 21716
▁Plant 21707
box 21701
▁John 21687
What 21679
▁LED 21672
▁Private 21670
▁interview 21669
pon 21663
style 21643
86 21633
▁Amazon 21627
▁identified 21625
▁ball 21619
▁Source 21599
▁song 21597
▁engineers 21592
▁upgrade 21587
▁Conditions 21577
▁pan 21573
▁occurred 21571
▁temporary 21556
▁initiative 21554
▁radiation 21553
▁severe 21540
ep 21527
▁stories 21527
▁exchanges 21511
▁w 21509
▁1: 21504
▁tips 21503
▁transferred 21497
AM 21491
ward 21485
▁brings 21479
▁nation 21470
▁parent 21460
▁ISO 21441
Default 21428
▁zone 21407
▁sc 21403
▁Update 21399
▁provisions 21399
500 21397
made 21397
uff 21388
▁guidance 21382
▁answers 21381
▁resort 21356
▁Movie 21354
▁fans 21334
▁Mitsubishi 21329
­ 21325
▁seeing 21322
AN 21310
▁Ga 21310
▁fight 21304
▁Location 21297
ren 21290
ably 21272
▁losses 21243
▁committee 21242
▁hospital 21242
▁Multi 21238
▁comparison 21237
▁completion 21236
▁tickets 21235
▁¥1 21226
▁church 21206
▁Union 21205
▁Exhibition 21203
▁Sustainability 21200
AP 21195
▁categories 21194
▁assist 21183
▁specifically 21180
▁identity 21179
▁participating 21179
▁Bi 21171
TS 21161
▁Member 21160
▁Men 21159
-4 21156
▁mini 21142
DO 21140
▁Quality 21130
▁scheme 21122
▁loans 21121
▁sake 21117
▁Moon 21110
▁route 21109
▁parking 21103
▁confidence 21098
▁32 21095
▁recommendations 21080
Nucleus 21053
▁Out 21041
▁mouth 21040
▁profits 21032
mor 21030
▁Spanish 21016
▁inform 21015
▁Case 21014
▁conflict 21012
▁Recover 21011
▁accommodation 21011
tech 21007
▁lunch 21005
▁Course 21003
▁achieving 20988
▁band 20988
▁v 20985
▁documentation 20974
▁freedom 20971
▁sl 20959
▁Tsu 20954
▁universal 20948
q 20944
▁Save 20934
▁Hu 20930
▁foods 20909
▁Who 20906
lan 20897
GA 20896
▁enjoyed 20891
▁anywhere 20885
▁focusing 20885
▁invited 20881
▁anniversary 20880
▁functional 20880
▁flows 20876
68 20874
▁containing 20873
▁Without 20861
▁seat 20842
▁JA 20838
▁Message 20837
▁watching 20837
▁graphics 20828
▁Setting 20822
▁Court 20819
▁processed 20813
▁booking 20809
ake 20804
jp 20803
PC 20797
▁thereby 20782
▁Tour 20744
aki 20731
▁Atheros 20726
▁mis 20720
▁relating 20720
▁ha 20719
ken 20716
03 20713
▁gr 20709
▁utilizing 20708
▁lecture 20706
▁WiFi 20705
▁cook 20703
Do 20697
long 20695
▁Among 20693
▁pretty 20693
▁represents 20676
▁Features 20673
▁Qu 20658
pi 20657
▁worry 20644
▁Convention 20634
▁Blue 20633
▁48 20626
▁label 20615
ven 20614
▁theory 20605
▁whom 20587
5% 20586
▁sending 20585
▁investigation 20583
ura 20574
uri 20572
▁Yokohama 20571
▁Test 20567
▁concern 20564
▁faith 20561
▁keys 20559
▁Micro 20557
▁Sony 20556
▁facing 20544
▁implementing 20543
LA 20533
0000 20526
ix 20524
MyApplication 20514
zi 20514
▁Ne 20514
▁pot 20514
▁2018. 20511
▁entertainment 20511
▁temporarily 20510
▁rent 20499
▁movements 20480
▁Sen 20479
ators 20475
▁extended 20472
▁developments 20471
▁Review 20470
▁pull 20446
▁native 20435
▁represent 20422
▁n 20421
▁contacts 20420
▁MA 20414
.1 20408
▁Finally 20406
▁carrying 20397
▁onto 20389
▁clock 20387
▁porn 20376
▁Publication 20374
▁opens 20374
▁bought 20369
▁Transfer 20365
▁packaging 20365
▁saving 20357
75 20355
▁requested 20353
▁runs 20353
▁facilitate 20348
▁Ten 20341
MI 20334
▁scenery 20334
▁instrument 20331
▁evaluate 20330
▁adults 20329
▁wire 20321
▁beach 20306
▁Jo 20304
▁DVD 20303
▁notification 20301
▁Prof 20287
TION 20286
▁Alliance 20277
▁effectiveness 20272
▁cameras 20269
▁pp 20267
▁Du 20265
bar 20262
van 20259
▁simulation 20254
tle 20244
▁INFORMATION 20243
▁Backup 20242
▁Device 20242
000 20241
▁thick 20241
▁Study 20237
▁specifications 20228
air 20227
▁continuing 20217
▁patent 20214
34 20208
▁Ms 20204
▁dinner 20202
Com 20200
▁relation 20192
▁proceed 20181
▁founded 20173
ming 20158
▁Shop 20157
ue 20156
▁reform 20156
▁roles 20154
▁Registry 20145
▁hidden 20140
▁sauce 20132
▁laptop 20128
▁experiment 20127
▁iPad 20126
▁jobs 20120
▁therapy 20115
▁2019. 20114
▁SA 20107
▁Linux 20104
▁Bio 20100
▁fund 20094
") 20091
ties 20091
BA 20090
▁plug 20082
▁residence 20082
▁Limited 20081
▁sexual 20079
▁Ku 20069
99 20058
▁perfectly 20055
sp 20042
▁extend 20041
▁invest 20032
KB 20029
▁contracts 20026
▁Game 20020
▁Sp 20010
▁fi 20008
▁protein 19998
ult 19992
▁treated 19989
▁Hot 19961
ai 19954
ving 19951
▁copyright 19946
▁El 19944
▁finding 19941
▁exciting 19932
▁Film 19929
▁accident 19929
▁Big 19925
▁leadership 19922
▁Light 19918
▁choosing 19904
▁Ver 19902
▁Try 19900
▁exposure 19897
DB 19880
▁Sub 19879
▁aid 19879
▁yuan 19876
▁assume 19874
▁depth 19872
▁sin 19867
▁Tai 19865
▁sessions 19863
▁Custom 19858
▁• 19857
▁stages 19845
med 19837
RI 19831
▁Holdings 19821
▁cap 19819
▁Unit 19818
▁ob 19817
▁son 19803
ute 19796
▁6. 19796
ose 19789
▁Tableau 19783
▁Second 19780
▁info 19778
▁MO 19772
▁ca 19771
▁indicate 19770
▁centre 19768
▁restrictions 19766
▁transformation 19766
av 19753
▁2: 19745
▁2018, 19743
▁Additionally 19743
▁magnetic 19736
ane 19735
▁loved 19733
▁attractive 19729
▁discovered 19726
▁2020. 19721
▁Drive 19721
▁narrow 19716
▁emerging 19712
▁Install 19709
▁leaving 19707
33 19700
▁ease 19699
▁Regarding 19696
▁04 19666
▁Garden 19664
▁eating 19662
▁conversation 19655
$ 19654
▁cuisine 19654
▁enabling 19653
▁templates 19649
▁criteria 19631
friendly 19629
▁OR 19629
▁Supervisory 19620
▁Faculty 19614
39 19603
▁examination 19600
DS 19590
▁detection 19582
▁deposit 19579
▁dead 19578
▁British 19577
.10 19572
▁ongoing 19569
▁texture 19565
▁studied 19559
▁indicates 19558
▁Sciences 19549
▁cheap 19542
▁stream 19542
▁? 19541
▁senior 19534
▁Adult 19528
▁Electric 19525
▁Steel 19524
▁appreciate 19519
▁Method 19511
▁drives 19510
▁compact 19505
▁sharp 19502
RO 19501
▁owned 19495
▁reception 19494
▁dangerous 19492
▁equivalent 19488
▁Fujitsu 19484
▁viewing 19484
▁Earthquake 19482
▁executive 19467
▁administrative 19464
▁contributing 19463
() 19460
▁Materials 19455
▁keeping 19455
▁conservation 19453
▁economies 19451
▁License 19447
▁renewable 19436
▁wooden 19431
▁insert 19430
▁spots 19420
▁attend 19418
▁formats 19418
▁California 19402
▁Form 19383
lip 19377
▁sizes 19375
▁Edo 19370
▁eliminate 19368
moto 19366
▁du 19358
▁controlled 19356
▁Malaysia 19353
▁Port 19350
▁lifestyle 19349
▁managing 19347
▁discover 19345
ify 19344
▁rock 19344
▁studio 19344
▁origin 19339
▁Centre 19335
▁Keyword 19331
▁teacher 19330
▁nine 19324
ell 19319
▁artificial 19311
▁husband 19303
DE 19297
▁array 19295
not 19294
▁spaces 19293
▁percentage 19288
▁enterprises 19284
▁variable 19284
▁Book 19280
▁reset 19278
.5 19273
tor 19270
▁Request 19270
-3 19269
▁sensors 19269
sc 19262
09 19246
▁Technical 19246
▁dollars 19245
▁performances 19243
lon 19234
▁graduate 19234
▁Risk 19220
RA 19208
▁concentration 19208
▁sectors 19199
▁Call 19194
▁Virtual 19183
▁plays 19183
▁opt 19172
:19 19166
▁weapons 19158
▁Dropbox 19157
gar 19155
▁2020, 19151
▁thank 19143
▁theater 19133
▁Nissan 19129
▁applies 19128
▁entirely 19127
▁VPN 19124
▁Display 19123
▁Like 19116
wi 19115
▁broadcast 19114
▁Family 19110
▁holds 19110
▁scan 19104
.3 19096
▁police 19094
▁operated 19086
▁attended 19075
▁Sports 19074
▁45 19069
matic 19067
▁node 19066
EE 19052
▁originally 19051
▁authority 19036
▁reaction 19036
▁availability 19031
▁photographs 19027
▁navigation 19023
▁producing 19018
called 19017
▁upload 19017
▁Activities 19015
▁separately 19013
▁nearby 19010
▁missing 19009
▁respectively 18998
▁Fu 18990
▁Solution 18989
▁Nuclear 18988
▁Despite 18977
▁trouble 18972
ley 18969
IF 18961
▁sand 18956
▁Ex 18946
!! 18934
ign 18934
par 18931
▁fan 18931
▁Israel 18928
▁humans 18921
ice 18919
▁minute 18899
▁Philippines 18898
!" 18893
▁Nippon 18890
▁2016, 18888
▁min 18886
▁2017, 18879
▁institution 18873
DI 18868
▁heating 18866
vent 18865
▁Currently 18859
ver 18857
▁typical 18853
46 18843
▁ME 18834
▁row 18820
▁Nagoya 18817
▁Si 18816
▁trans 18816
▁05 18814
▁cancel 18814
ole 18806
▁tend 18805
▁extract 18801
▁catch 18797
▁translated 18797
▁wash 18796
▁pleasant 18793
▁newer 18791
▁consistent 18783
▁standing 18772
▁possibilities 18770
ld 18759
77 18754
nes 18748
▁sum 18746
▁para 18742
48 18741
▁terminal 18737
▁portion 18723
AD 18720
▁Send 18717
▁duties 18693
▁Lo 18692
▁designers 18692
▁Performance 18690
▁pursue 18681
▁bonds 18680
▁diversity 18674
▁mutual 18664
ok 18655
▁accessible 18655
▁complicated 18640
▁philosophy 18638
▁claims 18634
▁serves 18634
▁plus 18628
▁appeal 18623
▁African 18622
▁lessons 18621
▁Yun 18619
▁Third 18618
tel 18613
▁2006 18612
▁utilize 18611
▁remained 18594
▁dollar 18593
▁sustainability 18589
▁closer 18582
▁editor 18582
book 18579
ct 18570
▁samples 18566
▁Cha 18565
▁Ken 18564
38 18563
▁emails 18549
▁accelerate 18542
▁thoughts 18541
▁Sunday 18521
▁definition 18521
▁paragraph 18521
▁Detailed 18516
▁2005 18513
▁rose 18512
▁College 18505
▁Middle 18496
▁juice 18496
06 18482
▁2017. 18482
tan 18478
ud 18478
▁tri 18478
▁powder 18475
tes 18472
cm 18468
02 18465
▁Database 18465
▁venture 18445
ec 18444
▁login 18444
▁observation 18437
▁Commission 18433
▁codes 18421
▁Gen 18417
zz 18412
▁inventory 18406
▁2015, 18405
ments 18400
▁Gallery 18399
▁Indian 18398
amp 18397
▁count 18386
▁Usually 18384
ulation 18383
▁MI 18381
▁grown 18379
ny 18376
▁buying 18372
▁replica 18361
▁district 18358
05 18348
▁furniture 18347
edge 18341
▁Mori 18325
▁delay 18325
▁Bluetooth 18323
you 18317
▁deployment 18317
▁Spring 18313
▁addresses 18298
▁Further 18295
▁y 18288
plugins 18287
▁setup 18286
ound 18276
▁Color 18273
▁bo 18273
▁absolutely 18272
▁boost 18270
▁intelligence 18259
▁knows 18259
mura 18248
▁outdoor 18237
There 18234
AI 18232
▁taxes 18232
▁empty 18229
▁Samsung 18227
▁operator 18225
▁Plus 18207
▁Spain 18205
pt 18188
▁reaches 18183
▁novel 18178
▁measured 18174
▁ASUS 18170
▁calculation 18162
▁Beijing 18159
▁2019, 18158
▁aircraft 18158
▁branch 18154
ned 18142
▁County 18134
▁agricultural 18134
▁loan 18129
▁club 18127
▁south 18126
▁sensitive 18117
▁peak 18116
▁motion 18104
▁resolve 18103
▁Cultural 18091
▁Prize 18088
▁repeat 18084
▁Remo 18078
▁cat 18076
▁Hiroshima 18075
ery 18069
▁fruits 18060
▁edition 18056
ari 18053
▁certainly 18052
▁clothing 18052
▁north 18049
▁serving 18049
▁covers 18045
ami 18042
▁bringing 18040
▁r 18039
▁Express 18029
MC 18027
▁Communist 18027
▁Link 18024
▁battle 18023
len 18001
▁fishing 17989
mun 17975
▁Chemical 17969
▁officers 17969
~ 17960
▁attacks 17959
▁pleasure 17952
▁06 17947
”) 17933
▁songs 17925
ack 17924
▁invite 17922
▁modules 17915
▁capability 17914
dic 17910
▁Motor 17909
CE 17904
mate 17903
▁refund 17898
▁mental 17895
▁mirror 17891
▁structural 17886
▁suggest 17883
▁skill 17876
▁circle 17875
▁assembly 17874
▁coating 17871
▁independently 17866
▁(19 17861
▁Masa 17860
igh 17858
▁Kingdom 17848
▁acts 17846
▁demands 17846
▁sit 17846
▁Version 17844
▁Cal 17843
▁examine 17828
▁packages 17827
▁Children 17825
▁flavor 17821
run 17817
▁autumn 17816
▁Asset 17814
▁Kin 17807
▁dialogue 17804
rn 17803
▁th 17792
IM 17770
▁stars 17761
▁knew 17759
▁aluminum 17758
▁Introduction 17756
▁calendar 17754
▁pair 17750
pot 17745
▁feet 17740
▁attitude 17737
95 17736
▁ends 17731
▁Town 17721
▁Tri 17718
▁lots 17718
▁believed 17706
▁forced 17703
meter 17700
all 17699
▁HD 17697
▁Capital 17687
speed 17674
▁precision 17673
pir 17666
▁disclose 17660
2000 17657
▁transparent 17650
▁logistics 17646
▁IoT 17641
▁controller 17641
▁disasters 17641
sho 17639
aries 17637
▁interaction 17637
▁lived 17633
▁tracking 17628
▁Castle 17625
▁Tu 17623
ag 17621
▁Mode 17621
▁keyboard 17618
▁consult 17616
▁sequence 17612
▁angle 17610
▁7, 17607
▁male 17603
▁representatives 17603
▁split 17582
▁smell 17580
▁Non 17567
▁glue 17566
▁premium 17565
▁layers 17562
▁Bitcoin 17560
▁wild 17557
Please 17548
▁mono 17548
▁wave 17544
He 17543
▁Right 17543
▁k 17538
▁10, 17537
▁bodies 17536
▁Ja 17530
▁permanent 17527
▁Friday 17525
ick 17523
▁automation 17518
▁Tohoku 17517
▁agreements 17512
▁Adobe 17496
▁Comp 17492
▁telephone 17492
▁Cooperation 17490
▁downloaded 17487
▁division 17486
▁ring 17485
▁ourselves 17480
▁Com 17477
▁marked 17470
▁vary 17456
hu 17452
▁doubt 17451
▁mixture 17447
▁monthly 17445
66 17442
fe 17442
▁Three 17442
49 17440
▁perhaps 17435
als 17427
▁King 17418
▁flexibility 17418
▁fulfill 17417
cra 17415
▁crystal 17405
▁joy 17401
▁boot 17400
▁Working 17398
▁suit 17388
▁2016. 17387
▁enhanced 17383
▁attempt 17381
04 17378
rant 17377
▁agents 17376
▁09 17375
-10 17374
▁feelings 17374
▁Pe 17369
▁com 17367
▁extreme 17364
▁preparing 17360
▁Win 17359
▁07 17354
point 17341
tter 17341
name 17336
Mo 17330
▁turning 17329
▁MAX 17323
▁inner 17323
▁Mu 17317
▁financing 17316
37 17312
▁healthcare 17312
code 17308
hand 17308
CI 17306
▁7. 17302
▁detect 17300
▁recipe 17299
▁em 17298
▁tracks 17290
▁Address 17283
▁configured 17281
▁elderly 17268
69 17267
rt 17267
gan 17266
▁opposite 17266
▁harm 17263
▁console 17258
▁adapt 17256
▁nations 17255
▁(1 17254
▁awarded 17252
▁ho 17250
▁Anti 17248
▁fell 17243
ei 17232
44 17227
rk 17227
▁stopped 17226
▁shoes 17220
▁household 17198
▁prefer 17197
When 17195
late 17190
Co 17184
▁po 17183
▁verification 17182
▁funding 17178
▁utility 17172
▁suddenly 17168
▁proposal 17159
uring 17157
▁ne 17152
▁folders 17150
▁strict 17148
▁depend 17134
▁150 17133
▁hydrogen 17133
▁globally 17127
▁execute 17126
▁developer 17122
▁Compliance 17117
▁adult 17116
▁thread 17113
▁Size 17111
▁combine 17105
-8 17101
gy 17100
▁satisfaction 17097
▁fiber 17083
my 17079
iti 17072
▁miss 17071
▁teach 17071
▁si 17066
▁Gra 17064
lia 17062
information 17059
tain 17058
▁establishing 17057
▁Property 17053
▁efficiently 17052
▁refers 17048
▁buttons 17045
▁entity 17043
▁Bay 17040
▁confirmation 17040
vers 17037
65 17036
▁officials 17033
ier 17025
temp 17023
Ro 17019
▁mixed 17018
▁ANA 17010
▁Paper 17009
▁breakfast 17009
▁latter 17008
▁tape 17002
▁satellite 17001
▁temperatures 16987
itis 16979
▁! 16970
key 16967
▁mask 16954
▁Mark 16943
star 16933
▁tablet 16927
▁speaking 16917
▁Tourism 16910
▁checked 16909
▁2015. 16899
▁Follow 16895
▁parallel 16895
▁IC 16894
▁signals 16893
▁Having 16890
▁overview 16888
▁certified 16884
▁cl 16884
▁Shopping 16883
yl 16881
▁movies 16881
▁mechanisms 16878
▁cheese 16868
▁deemed 16867
▁aiming 16865
▁HOME 16861
▁operators 16861
▁massive 16857
ph 16853
▁gained 16853
▁album 16850
▁simultaneously 16850
▁Che 16849
78 16842
▁ranking 16836
▁1990 16835
▁Tube 16828
▁h 16827
▁Whether 16826
▁observe 16822
< 16819
▁pandemic 16818
ica 16813
▁quiet 16810
▁Action 16806
▁4000 16798
▁Computer 16794
▁Olympic 16790
▁encounter 16787
SHI 16784
ography 16783
<< 16782
▁width 16775
▁twice 16771
▁sort 16767
oma 16752
▁Options 16751
▁SE 16744
dai 16739
new 16738
ev 16737
▁burden 16726
gg 16716
ns 16716
▁laboratory 16715
▁seminar 16712
▁vital 16708
▁Return 16707
▁3) 16693
▁Close 16690
▁phones 16676
MENT 16675
iz 16675
ient 16671
▁Securities 16664
▁replaced 16661
▁(" 16658
▁overcome 16658
▁duration 16649
▁recycling 16649
▁08 16641
▁regulatory 16641
79 16637
▁Gold 16630
▁ASEAN 16623
▁difficulties 16620
lor 16618
▁※ 16614
ivity 16600
▁superior 16600
▁dust 16599
▁civil 16593
▁8. 16583
▁Han 16566
▁arrived 16556
▁roof 16551
▁tank 16543
▁Learning 16539
▁beer 16537
ks 16535
read 16535
▁liabilities 16534
▁impression 16533
▁characteristic 16520
▁Machine 16518
▁existence 16518
▁Partner 16517
08 16514
▁Nomura 16512
▁interact 16512
96 16509
▁maintained 16502
▁minimize 16483
▁stations 16481
▁vast 16481
St 16476
han 16467
duc 16465
▁tradition 16464
▁prefecture 16459
ens 16457
▁damages 16457
▁membership 16457
▁Desktop 16454
▁chicken 16446
PI 16442
76 16436
▁sha 16433
vis 16424
mat 16423
▁gap 16421
mal 16420
▁printed 16415
▁Marketing 16412
generation 16408
LO 16398
▁relax 16398
TP 16394
▁OK 16393
▁periods 16392
▁timely 16392
known 16390
▁boat 16389
MB 16382
▁approaches 16382
▁workplace 16380
ash 16379
▁lock 16379
▁television 16378
1000 16376
▁bread 16376
▁broken 16376
kai 16374
▁holidays 16373
▁blocks 16370
▁400 16362
▁hundreds 16359
▁MS 16358
▁vessels 16353
▁Dec 16345
▁elegant 16345
ND 16342
TC 16338
▁earn 16338
rum 16337
▁pure 16335
▁proud 16324
ek 16320
with 16319
▁bowl 16319
▁na 16312
▁bathroom 16304
▁electronics 16303
▁compare 16287
▁Saturday 16285
▁poly 16281
▁fail 16279
▁« 16273
▁Shanghai 16268
▁limits 16265
▁9. 16257
▁wet 16255
WA 16252
▁seeking 16231
▁difficulty 16223
▁Christian 16222
▁robot 16215
▁checking 16186
ple 16180
▁pace 16180
▁DC 16162
▁Tweet 16161
▁Process 16158
▁attract 16151
▁automated 16150
▁accessories 16146
▁introducing 16146
EP 16138
▁). 16137
▁diagnose 16129
▁reputation 16127
-5 16123
▁horizon 16111
▁luxury 16111
▁meal 16109
▁forecasts 16106
▁gate 16100
▁managers 16099
▁adjustment 16094
▁Following 16093
▁appointed 16093
▁mention 16092
▁inquiries 16091
▁slowly 16089
▁Newest 16088
▁Material 16084
▁Yoshi 16079
▁freely 16072
▁belongs 16069
▁Java 16067
▁gentle 16056
UL 16055
▁Will 16054
take 16053
▁ads 16052
OC 16047
▁2002 16046
▁restart 16046
▁Land 16042
▁Analysis 16040
mar 16033
▁spending 16027
▁Articles 16025
▁INSTITUTE 16016
▁apparent 16012
▁lesson 16010
▁gather 15999
▁reduces 15998
TER 15989
07 15980
▁coal 15979
RT 15976
▁Shu 15966
PM 15962
▁understood 15962
▁lease 15955
CK 15954
▁Introduced 15950
▁Cor 15947
▁Meanwhile 15947
▁bear 15942
▁react 15941
▁fluid 15939
but 15932
▁trips 15922
▁arrival 15912
▁End 15911
DC 15907
▁Instead 15906
▁arrive 15904
mit 15898
Mi 15895
▁Analytics 15894
▁liability 15893
▁Brand 15888
▁silver 15888
▁thoroughly 15880
▁prohibited 15879
▁8, 15870
▁DE 15869
▁Modern 15856
▁marine 15851
▁Officer 15844
▁ELECTRONICS 15843
▁Pi 15843
ates 15838
▁COMMUNICATION 15830
▁cope 15830
▁Square 15828
▁normally 15827
▁robust 15820
▁Ru 15816
89 15815
ino 15815
▁router 15813
▁2003 15812
▁Nature 15810
Ex 15808
▁unusual 15808
▁designer 15801
▁removal 15801
▁pregnancy 15800
ble 15798
▁Old 15798
shu 15797
▁Visit 15795
▁fourth 15793
▁Shrine 15790
phy 15789
▁loop 15788
▁Run 15784
▁Operating 15783
BO 15774
Me 15772
▁Internal 15772
▁Him 15760
▁travelers 15758
▁Gu 15757
3% 15756
▁departments 15755
▁wearing 15741
▁Production 15738
▁demo 15737
▁verify 15725
▁Manuscript 15718
▁safely 15718
▁36 15712
▁gl 15710
▁concluded 15708
oid 15705
▁eventually 15704
▁listening 15703
▁stands 15699
ade 15697
▁diameter 15691
▁legs 15687
▁2014, 15684
ATION 15683
▁Annual 15683
▁HTML 15681
▁Love 15678
▁(4) 15677
▁pen 15676
▁hole 15674
81 15662
Invalid 15660
▁Coupon 15659
▁gender 15657
osis 15654
uck 15654
▁stronger 15651
▁locate 15648
▁seemed 15648
▁printer 15642
ob 15636
▁greatest 15635
▁customize 15621
ace 15620
▁Total 15620
▁specialist 15617
▁1999 15608
▁exit 15608
▁pet 15605
▁desk 15604
▁¥ 15601
▁shock 15598
▁wrote 15596
▁Representative 15595
▁exposed 15587
▁Finance 15584
▁signature 15581
▁charged 15579
▁putting 15576
▁purchasing 15573
▁measuring 15569
IR 15568
PP 15567
▁smartphones 15565
▁aspect 15562
▁rising 15559
▁NO 15555
▁waves 15545
ENT 15543
▁accurately 15537
ア 15528
eng 15527
FA 15524
▁college 15522
▁enhancing 15517
ib 15498
bra 15497
▁Reference 15494
▁propose 15487
minute 15483
▁Communications 15483
▁deeply 15483
▁scientists 15482
▁batteries 15479
Pa 15476
▁shell 15474
▁tables 15472
▁Mexico 15467
-7 15463
0913 15462
2355 15456
PR 15452
▁Naka 15449
▁hundred 15449
▁daughter 15448
▁wedding 15448
▁objectives 15446
▁Depending 15443
▁assign 15442
。 15441
TI 15438
▁subsequent 15438
▁Vice 15432
ctor 15418
▁procurement 15418
▁styles 15416
▁reflected 15415
▁Im 15409
▁suffering 15406
▁~ 15406
▁screening 15403
▁drawn 15401
▁soup 15401
:--- 15397
DR 15397
▁died 15392
▁exists 15392
▁ensures 15389
▁tons 15389
▁ENGINEERS 15385
▁Important 15382
▁dates 15381
▁obligations 15377
▁Fukuoka 15374
:2188- 15370
▁granted 15367
▁Eco 15365
-5693 15363
▁afraid 15363
▁Academy 15362
▁cart 15359
▁imagine 15359
ada 15354
▁Notes 15352
67 15348
▁tag 15348
▁suggestions 15337
▁grant 15334
cul 15328
TH 15327
▁Level 15322
▁surprise 15322
▁letters 15317
▁youth 15311
▁wil 15309
▁planet 15306
▁suffer 15303
bus 15300
▁oven 15294
▁Mini 15293
▁revised 15279
▁optimize 15277
▁prescribed 15277
mic 15275
▁casino 15275
▁indicators 15275
▁chocolate 15274
▁exhibitions 15274
ATE 15273
▁gone 15269
▁announcement 15257
▁inspired 15257
ect 15253
don 15243
▁reply 15242
sy 15240
▁describe 15240
▁elementary 15229
▁steam 15229
▁noting 15228
▁couldn 15222
▁Enjoy 15220
▁Audio 15216
▁lay 15213
▁Tap 15208
▁revealed 15207
43 15200
FT 15199
▁drinking 15199
▁excess 15198
▁replacement 15194
wide 15193
▁Turn 15187
▁brush 15180
▁USD 15179
▁supplies 15179
▁describes 15178
▁lies 15169
▁subjects 15164
▁campus 15161
▁passing 15155
▁wonder 15155
▁cherry 15140
My 15139
▁Cross 15139
87 15137
▁generations 15136
▁causing 15134
▁programming 15128
▁busy 15126
ender 15119
▁Ocean 15117
▁plenty 15116
▁experiments 15109
▁Editor 15108
▁33 15097
▁relative 15086
▁roll 15086
▁satisfied 15082
▁Engine 15081
▁machinery 15079
ou 15073
▁naturally 15073
▁contributions 15072
▁tower 15071
56 15070
▁typically 15067
▁consultation 15059
▁contest 15055
▁corrupt 15055
▁themes 15051
▁mostly 15048
▁Har 15047
play 15046
6% 15043
▁executed 15039
▁calculate 15038
▁threat 15036
▁inflation 15034
▁spiritual 15025
las 15021
▁bottle 15016
▁animation 15013
▁presents 15010
▁utilization 15006
▁instruction 15005
▁FOR 15004
▁Mon 15002
200 14995
▁2013, 14991
▁brief 14985
▁lake 14982
▁unknown 14967
▁settlement 14966
▁Pass 14965
▁Kei 14963
▁streets 14962
▁specialists 14958
des 14956
▁su 14954
▁burn 14953
▁Look 14952
-12 14950
▁Large 14949
▁Acer 14944
▁analytics 14943
▁fly 14934
▁contributed 14932
life 14930
▁crucial 14927
▁stick 14925
▁incorrect 14923
ncies 14922
▁34 14917
▁arise 14912
▁embedded 14906
▁Sur 14903
gawa 14888
に 14888
So 14876
step 14876
sized 14869
88 14866
▁calm 14865
▁scenes 14863
▁failed 14862
▁Bible 14851
▁Ab 14849
▁leg 14848
head 14845
▁dealing 14844
▁algorithm 14834
▁cooperate 14827
▁JR 14825
▁spoke 14825
▁Copy 14824
▁Insurance 14822
▁prompt 14819
▁Price 14814
pan 14808
▁quantity 14803
▁detected 14798
▁Phone 14796
▁Guidelines 14794
▁JPY 14794
tr 14787
▁Seminar 14787
BI 14786
du 14775
▁cooling 14775
▁cast 14768
▁Partners 14764
▁sync 14759
▁lights 14743
▁secondary 14741
▁warning 14741
▁Accounting 14740
42 14739
bin 14738
▁Bu 14731
▁combining 14729
▁Federation 14725
▁Active 14716
▁Mt 14708
tric 14706
▁absence 14698
▁craft 14697
▁judgment 14696
▁8.1 14690
▁everywhere 14684
▁exact 14683
▁Myanmar 14680
▁Strategy 14679
▁Hand 14678
mark 14667
▁exceed 14661
mpl 14659
▁modify 14658
▁RO 14657
▁rubber 14648
▁faculty 14641
▁trademarks 14639
▁Regional 14638
▁cache 14629
qua 14627
▁Natural 14620
▁CA 14619
▁Peace 14618
UT 14616
▁2004 14610
▁measurements 14608
▁commands 14602
▁passion 14600
▁Applications 14599
▁Nu 14593
▁achievements 14592
▁EN 14590
▁Australian 14588
▁Customers 14586
▁leverage 14586
atory 14584
▁density 14584
▁false 14571
▁Looking 14567
▁operates 14554
▁Cho 14552
OP 14549
from 14535
▁border 14534
▁statistics 14533
▁accumulated 14528
▁gear 14525
82 14520
chan 14520
▁Spirit 14520
▁disable 14519
▁margin 14514
▁2011, 14510
▁impacts 14505
▁sa 14504
▁Sustainable 14497
RP 14493
▁] 14491
How 14488
▁presentations 14487
▁vertical 14484
▁concepts 14482
▁concert 14473
▁excited 14466
▁Brazil 14465
# 14459
▁proven 14459
▁” 14448
bs 14443
▁dress 14439
▁l 14433
▁2021. 14432
▁AD 14428
▁Changes 14427
▁meals 14426
▁Student 14421
▁transparency 14421
98 14418
nt 14415
▁castle 14415
▁Chief 14409
▁conclusion 14408
7% 14396
hereinafter 14396
▁jump 14392
▁protocol 14391
lig 14390
ara 14389
machi 14386
▁JavaScript 14386
▁chemicals 14385
▁taught 14380
▁le 14378
▁sheets 14378
▁hearing 14371
▁consulting 14360
▁ra 14358
▁3: 14356
▁hide 14356
▁Export 14350
▁Disaster 14349
▁Payment 14347
▁Fill 14345
▁Southeast 14342
▁Excel 14339
▁trademark 14333
mission 14329
▁Secure 14322
300 14318
lea 14317
▁colleagues 14317
▁dog 14317
keeping 14314
▁activate 14314
▁Buddha 14308
▁booth 14308
ans 14307
▁cultures 14306
58 14303
aku 14303
▁ceiling 14301
▁panels 14301
▁Hitachi 14298
ome 14296
▁toilet 14296
4% 14295
▁precious 14294
2) 14293
▁explains 14293
▁impressive 14290
▁ski 14287
▁experimental 14285
PL 14282
▁religion 14279
> 14277
which 14277
▁photography 14273
▁sitting 14266
bb 14265
▁decades 14265
▁contributes 14261
▁Monday 14256
pin 14252
-6 14250
▁Paul 14250
▁accompanied 14247
▁interactive 14240
▁popularity 14240
gre 14238
▁2001 14238
▁plane 14234
screen 14231
▁Vision 14224
▁trigger 14224
▁tested 14221
▁engagement 14216
gue 14214
▁Though 14214
▁surrounded 14212
)[ 14210
▁nano 14210
ham 14209
ms 14208
▁cup 14208
▁leather 14207
▁revolution 14207
▁lo 14204
ez 14200
▁Technologies 14199
▁Consolidated 14194
▁afternoon 14194
▁Skip 14191
▁par 14188
az 14185
▁moisture 14174
ibility 14173
▁Sky 14170
▁Medicine 14168
Therefore 14162
▁Care 14161
▁pump 14159
▁publication 14148
▁requirement 14148
▁paying 14146
sum 14141
such 14135
▁attractions 14134
▁Credit 14131
▁Fair 14130
▁Rules 14127
▁arising 14123
gun 14111
▁washing 14105
▁entities 14095
▁raising 14091
▁seeds 14087
▁pollution 14085
▁Edit 14079
eg 14076
▁candidates 14073
▁Beach 14071
▁involves 14068
wn 14067
▁disc 14067
▁challenging 14066
ric 14065
▁wheel 14065
▁permitted 14063
▁2012, 14062
▁Small 14062
▁seats 14060
rist 14059
▁coupon 14059
▁score 14059
▁shrine 14052
▁Jun 14051
▁homes 14051
▁soul 14051
▁diagnosis 14050
▁Ph 14046
▁TOP 14044
▁Contents 14041
▁2014. 14035
▁principal 14035
▁Heritage 14034
▁Value 14028
lim 14027
▁farm 14027
▁prove 14024
▁sophisticated 14022
IS 14020
▁scanning 14015
rin 14013
▁Rakuten 14010
war 14006
▁drinks 14004
▁exception 14004
▁Creating 14003
tim 14002
▁cons 13995
▁locals 13994
cut 13992
▁Mail 13982
▁ultra 13981
▁Current 13979
▁supplier 13979
▁6, 13969
▁admin 13968
▁lets 13962
▁shot 13961
▁Quick 13954
▁Remove 13954
▁workshops 13952
▁Am 13951
verse 13949
▁affects 13948
▁Channel 13943
▁Asahi 13942
▁massage 13940
8000 13937
▁Keio 13936
▁Short 13935
▁gifts 13930
▁header 13930
▁closing 13928
▁explanation 13925
▁segments 13925
▁Azure 13922
97 13918
cell 13914
▁celebrate 13912
struct 13911
▁True 13911
.( 13907
▁composed 13905
▁li 13905
▁tube 13902
▁believes 13901
▁Pan 13896
▁Thai 13892
▁associations 13892
LP 13891
New 13891
7000 13886
exe 13886
tive 13885
▁Tower 13885
CP 13883
EM 13880
▁organize 13878
GE 13875
vel 13871
▁phenomenon 13870
▁spa 13869
▁adopt 13866
▁discovery 13866
▁honor 13864
lation 13863
▁Error 13858
▁happiness 13856
▁falls 13852
▁transform 13852
▁mine 13851
▁Sch 13847
▁Cash 13845
▁flag 13845
▁Premium 13835
▁Possible 13834
▁winning 13833
▁Common 13829
▁SP 13828
ination 13815
▁marks 13813
▁illegal 13809
▁proposals 13801
8% 13797
)" 13795
▁pray 13787
view 13785
▁moves 13782
800 13781
▁Shareholders 13781
▁adjusted 13780
▁Min 13778
▁Besides 13774
▁50% 13773
▁notify 13770
▁appropriately 13769
▁gathered 13766
▁characterized 13756
ル 13756
▁ba 13746
▁minimal 13743
▁predict 13740
72 13739
▁Ca 13734
▁Shopify 13731
▁boxes 13730
▁deals 13728
▁Tool 13725
▁confident 13722
▁Hiro 13718
▁decoration 13718
▁MyApplication 13716
▁SIM 13711
ature 13708
▁removing 13708
▁Casino 13705
▁Author 13703
▁ProgID 13695
▁correction 13693
▁lectures 13690
▁Codes 13678
▁rec 13671
▁grid 13670
▁Pin 13669
nch 13667
▁essence 13665
▁victims 13665
▁charges 13656
▁musical 13652
▁Info 13650
▁timing 13649
73 13647
▁Screen 13644
spect 13640
▁traveling 13638
get 13635
ov 13635
And 13627
▁grade 13626
▁Session 13620
▁Xi 13620
▁mood 13620
▁involving 13609
▁obtaining 13608
▁rear 13598
▁SO 13597
▁immediate 13596
▁2.0 13592
▁reserve 13588
▁\ 13586
47 13571
▁relief 13571
OT 13570
▁Tech 13568
CR 13565
▁strictly 13564
ICE 13557
▁purchases 13555
▁smile 13554
train 13552
▁DO 13548
▁AC 13542
▁EX 13541
▁preferences 13540
▁administrator 13538
▁semiconductor 13537
▁Apply 13536
▁Electronics 13535
▁Tools 13534
▁Outline 13532
▁cancellation 13521
▁ka 13517
▁appointment 13513
▁Den 13511
cept 13504
▁PA 13496
▁defense 13494
▁Index 13487
cip 13486
41 13485
▁highlight 13480
uma 13478
▁AR 13477
▁Conduct 13477
▁holes 13476
▁tip 13473
▁behalf 13472
▁varieties 13472
IST 13471
59 13457
cap 13457
▁Embassy 13457
ros 13454
▁optional 13454
cro 13446
▁cur 13444
sei 13438
izer 13435
▁hosted 13432
▁Church 13431
cess 13429
IO 13427
▁SDK 13421
▁chart 13418
▁mold 13416
▁paste 13415
0.0 13411
CL 13411
▁optimization 13410
dent 13409
▁coast 13408
nic 13403
▁commonly 13403
▁computing 13401
ase 13398
ume 13398
▁thickness 13398
▁assess 13397
int 13386
▁(“ 13382
▁paintings 13377
▁modified 13376
▁engines 13370
sure 13369
▁sight 13366
▁rely 13365
▁2021, 13360
▁agriculture 13352
▁Associate 13351
▁Edition 13348
▁XML 13348
▁Solving 13346
▁malfunction 13341
▁Hub 13340
illa 13339
ising 13334
▁ECO 13332
hal 13329
▁talked 13327
▁Zealand 13324
▁adoption 13324
▁shower 13323
▁converted 13319
5000 13315
FS 13311
-11 13309
▁CON 13307
tern 13304
.11 13300
▁heaven 13299
54 13290
▁PRO 13290
▁dining 13282
▁copper 13265
▁Core 13262
hy 13260
▁pleased 13255
▁Region 13251
▁farmers 13249
9000 13248
▁refrigerator 13247
▁Visual 13245
▁Cap 13243
▁religious 13243
▁surprised 13237
▁folk 13235
▁grew 13232
▁Put 13229
▁Industries 13228
▁beings 13228
power 13223
▁asking 13223
▁Unfortunately 13218
table 13214
▁Joint 13214
▁Offer 13213
▁exports 13207
▁Mountain 13197
▁Tax 13194
▁corporations 13189
▁represented 13189
▁processor 13188
▁violation 13187
▁enjoying 13185
▁Suite 13179
▁Direct 13178
▁Administration 13177
▁ver 13175
▁magazine 13167
▁lens 13164
▁wallpaper 13163
3000 13161
▁struggle 13159
▁calling 13158
▁Estate 13152
▁Ben 13149
pu 13139
▁sightseeing 13138
▁streaming 13138
74 13132
▁drag 13132
▁banking 13127
▁Chipset 13123
▁featured 13123
▁maybe 13123
▁pin 13115
▁Cookies 13114
▁Dan 13113
▁insights 13109
NET 13108
▁Statement 13105
▁entitled 13102
▁pressing 13101
▁receipt 13100
▁particles 13098
▁Fa 13095
AGE 13091
▁Kan 13088
▁dating 13088
▁uniform 13087
▁38 13085
▁VR 13082
600 13066
yan 13053
▁Chairman 13053
▁evolution 13053
▁cluster 13052
▁hybrid 13051
vert 13050
▁genetic 13045
▁profitability 13040
▁summary 13036
▁bike 13032
▁muscles 13031
▁unnecessary 13031
PE 13030
▁tissue 13030
NI 13027
); 13026
graph 13026
shin 13024
▁collaborative 13024
▁wealth 13024
6000 13019
roll 13019
▁maximize 13019
phone 13016
▁Corp 13015
▁Ve 13014
Be 13012
▁jointly 13012
▁imported 13002
▁Ambassador 13001
▁Economy 13001
▁recovered 13000
▁draft 12999
▁prize 12995
▁responses 12995
▁marriage 12993
▁universe 12992
▁Schedule 12986
▁findings 12982
▁alliance 12976
▁discounts 12969
▁distribute 12969
▁covering 12966
▁reverse 12966
▁residential 12965
▁revision 12960
▁disposal 12959
▁Ste 12958
▁Storage 12958
All 12947
▁Village 12946
71 12945
▁dividend 12944
▁aging 12939
▁° 12934
▁ownership 12932
▁Chrome 12931
イ 12931
▁artistic 12927
cu 12925
▁greenhouse 12922
▁consequences 12920
zawa 12919
▁receives 12918
▁shooting 12914
DP 12912
▁Matsu 12905
▁Status 12902
▁creativity 12896
▁strip 12896
▁warming 12893
▁achievement 12887
▁chapter 12885
▁SSD 12884
sym 12880
UM 12879
kyo 12875
▁Sei 12875
SO 12871
▁faces 12869
▁cent 12859
▁gallery 12859
▁Cat 12846
▁attach 12844
▁Explorer 12842
cious 12840
responsibilities 12839
▁Toyota 12838
▁happening 12838
▁focuses 12836
▁Recently 12833
▁visa 12830
▁Fast 12829
▁wasn 12828
001 12823
▁demonstrate 12821
jin 12817
ey 12813
ano 12806
▁disappear 12799
▁indicator 12790
▁ro 12789
▁inquiry 12787
mination 12782
▁37 12782
tics 12781
▁bags 12781
▁sport 12780
▁28, 12774
▁Cup 12774
sta 12772
▁viewed 12771
▁voting 12766
▁delivering 12764
active 12759
▁10% 12759
yoshi 12757
61 12753
▁chose 12753
▁excessive 12751
▁portal 12750
▁Summer 12739
rus 12737
▁Meiji 12735
cast 12734
▁advise 12734
▁jewelry 12734
▁produces 12731
▁faced 12726
▁11, 12724
▁XP 12723
App 12720
▁Sichuan 12718
▁lu 12717
▁protecting 12717
▁Planning 12716
▁ir 12716
▁Works 12714
▁blockchain 12711
▁switching 12707
▁decorated 12705
▁coverage 12703
▁belong 12701
▁convey 12694
▁1000 12693
▁brown 12684
▁integrate 12680
▁Ge 12677
▁iCloud 12675
▁Bridge 12670
dia 12669
▁macro 12669
▁charging 12666
▁cotton 12663
▁ran 12661
▁Washington 12660
▁millions 12659
▁speakers 12656
リ 12656
▁Manufacturing 12653
▁reserves 12650
▁representation 12648
▁2010, 12646
▁identification 12645
▁manufactured 12644
▁15, 12642
▁ecosystem 12640
▁Field 12639
▁Repair 12636
▁coronavirus 12636
▁Governance 12635
▁hydro 12635
pp 12632
▁seasonal 12630
▁Fig 12626
▁infected 12625
▁Join 12624
▁Panel 12622
▁Does 12618
▁driven 12612
iness 12611
▁doors 12610
▁(2 12609
▁1.5 12607
jima 12606
▁CPU 12603
▁guides 12599
▁automobile 12596
▁Box 12593
▁announce 12593
▁notifications 12593
▁scenario 12589
tron 12588
▁enhancement 12587
▁Nishi 12583
now 12582
▁bound 12582
At 12576
▁feels 12576
▁steadily 12574
▁featuring 12571
▁Laboratory 12570
▁regulation 12567
▁unlock 12564
▁lists 12562
▁2013. 12559
▁Especially 12559
▁Additional 12556
▁outlook 12555
▁Marine 12554
ati 12551
▁meets 12551
specific 12547
▁Hy 12546
cons 12545
▁steady 12542
ball 12535
▁escape 12533
▁HP 12531
▁abilities 12530
▁suspension 12528
▁Available 12522
link 12521
▁visits 12519
▁Legal 12518
▁IS 12514
▁western 12514
▁Trump 12511
▁1998 12509
▁surveys 12503
400 12500
ged 12497
▁Translation 12495
▁compete 12494
▁Tender 12493
▁camp 12493
▁northern 12493
▁Easy 12486
▁absorb 12485
▁NAOJ 12483
LC 12479
84 12477
hai 12475
▁younger 12475
hiro 12472
92 12471
▁Agent 12471
zen 12469
▁trace 12464
▁Roman 12462
63 12458
▁ni 12458
cat 12456
til 12456
▁oxygen 12456
▁39 12453
SD 12451
▁Summit 12450
rov 12449
▁Sound 12446
▁constructed 12440
On 12438
▁departure 12435
▁wa 12434
pping 12430
▁NOT 12429
▁smoothly 12428
sai 12422
▁Kyushu 12420
4000 12417
ach 12417
▁outline 12415
▁spin 12414
▁Leave 12413
▁tours 12412
But 12410
NT 12410
▁hosting 12407
▁Bureau 12402
rating 12401
▁DNA 12400
▁Import 12399
▁ta 12397
▁crowd 12396
ori 12393
▁Week 12390
-20 12385
▁Tan 12380
pil 12373
▁satisfy 12371
▁substance 12368
ef 12359
print 12357
▁variables 12352
▁accidents 12348
▁mat 12347
▁Registration 12343
2018 12341
▁JP 12340
ert 12338
isation 12336
▁election 12336
▁disclosed 12333
▁Item 12328
▁Questions 12328
▁competitiveness 12328
▁Cam 12324
▁Ji 12321
▁whatever 12318
some 12314
▁biological 12314
▁KO 12311
▁memories 12310
▁query 12309
▁Oh 12308
Windows 12307
▁willing 12304
▁east 12297
▁matches 12297
▁trillion 12295
▁Everyone 12293
▁neck 12292
Le 12290
▁birthday 12289
▁giant 12285
ule 12284
▁ion 12284
▁pharmaceutical 12284
▁Kai 12283
▁keeps 12282
▁mining 12281
▁territory 12274
▁vibration 12273
▁hat 12271
▁Contract 12265
▁Launch 12263
▁120 12254
▁doctors 12245
▁wallet 12242
ō 12238
▁intention 12237
▁targeted 12236
▁orange 12227
▁pointed 12227
▁charm 12225
▁» 12223
▁liver 12222
▁HO 12219
▁exercises 12207
▁refuse 12205
▁lab 12200
▁hub 12199
▁Buddhist 12194
LI 12192
▁Integration 12192
▁laid 12190
▁harmful 12188
▁tight 12188
▁AS 12186
▁strange 12186
gon 12185
▁clarify 12184
General 12181
▁occasion 12180
▁branches 12178
▁smoke 12176
ded 12175
aw 12174
▁David 12174
▁fa 12172
II 12166
▁commission 12165
▁Clean 12162
▁exp 12161
je 12158
▁downloading 12154
▁Kawa 12152
▁shapes 12151
▁somewhat 12150
Free 12141
▁dose 12137
▁encryption 12130
▁precise 12126
▁TRIPROUD 12124
▁returning 12124
▁dreams 12120
▁estimate 12119
KA 12114
▁suggests 12114
▁semi 12110
▁routes 12105
▁initially 12104
▁criminal 12102
Un 12099
▁nodes 12099
▁kill 12098
▁preventing 12097
▁Awards 12096
▁Need 12096
uc 12095
▁District 12095
▁random 12095
▁Password 12094
▁haven 12092
▁dial 12091
▁proof 12091
La 12089
▁LAN 12087
▁foster 12087
▁Bangkok 12084
▁throw 12078
KI 12074
TV 12071
rit 12071
▁beneficial 12069
▁trials 12068
▁Player 12067
▁1980 12066
TE 12065
agi 12064
▁AMD 12062
▁indeed 12058
▁professor 12057
▁teeth 12056
chu 12055
lect 12055
carbon 12054
▁archive 12054
water 12053
▁golf 12047
▁danger 12035
▁gathering 12031
ifies 12030
▁gene 12029
▁rubles 12029
mod 12028
▁Jewelry 12028
▁matching 12027
▁robots 12027
▁basically 12026
▁Outside 12023
▁DJ 12021
▁screenshot 12019
▁informed 12018
▁Jan 12014
▁Fire 12012
load 12010
▁fault 12010
▁interpretation 12008
▁fl 12004
▁promoted 12003
▁junior 12001
▁serial 12000
ii 11999
achi 11996
order 11986
▁supplied 11983
▁specification 11981
lt 11977
▁personally 11976
▁suggested 11970
▁knowing 11969
▁Youth 11967
▁Royal 11966
▁seriously 11966
▁emotional 11964
▁Zen 11959
being 11957
▁regime 11957
▁Syn 11956
▁decorate 11955
▁incident 11955
▁Projects 11951
▁underlying 11951
▁breast 11950
▁roots 11950
ora 11946
▁comrades 11945
▁brother 11936
▁arm 11934
▁inspiration 11930
py 11928
▁jurisdiction 11928
▁Drivers 11926
▁peaceful 11924
lines 11918
▁cake 11917
▁1,000 11913
9% 11911
saki 11910
▁west 11908
▁assumed 11907
▁potatoes 11906
NE 11905
▁Sakura 11905
▁talent 11904
script 11903
▁Updated 11901
▁filling 11901
▁separated 11901
▁birds 11900
EST 11899
▁arrange 11897
24. 11890
▁syntax 11890
▁plates 11888
ella 11887
▁hang 11887
▁Los 11883
▁converter 11879
▁optimized 11878
▁succeed 11878
▁navigate 11876
ians 11866
▁chip 11866
ement 11861
▁HTTP 11861
▁cloth 11860
▁corporation 11859
▁egg 11859
▁nervous 11853
▁Panasonic 11851
▁precisely 11851
▁IR 11848
field 11842
▁falling 11842
▁defining 11840
▁Apps 11839
▁adventure 11837
path 11834
▁Fe 11831
▁negotiations 11826
▁filters 11825
▁vegetable 11823
CM 11819
▁Sapporo 11819
▁substantial 11815
▁Lab 11813
▁argument 11807
▁exhibit 11806
▁Campus 11805
▁restoration 11805
▁arch 11804
▁preferred 11802
ng 11800
put 11797
▁riding 11791
▁union 11790
▁Atomic 11789
▁Standards 11789
▁kit 11789
▁42 11788
▁minor 11786
▁pour 11780
▁preserve 11780
▁Chengdu 11778
い 11778
▁Low 11776
▁taxi 11775
its 11774
▁bacteria 11770
▁font 11769
▁TOKYO 11766
▁southern 11764
▁facts 11763
▁frequent 11760
▁pink 11757
▁dimensions 11754
▁absolute 11752
▁bonus 11752
▁muscle 11752
▁eco 11751
▁token 11751
▁pipe 11749
cket 11745
▁mill 11744
▁edges 11741
▁Watches 11737
uch 11736
▁globe 11733
94 11729
▁affordable 11729
▁promptly 11727
▁Swiss 11725
▁NA 11720
▁Nan 11719
▁loading 11717
▁evaluated 11714
RU 11713
▁Title 11713
▁accommodate 11713
▁logic 11713
▁outer 11711
▁posts 11698
▁incorporated 11696
ML 11694
shan 11694
▁Sw 11694
2% 11693
▁eggs 11692
▁Survey 11689
▁activated 11682
▁emphasis 11682
▁1997 11681
▁estimates 11680
▁belt 11678
With 11677
▁sensitivity 11675
SM 11673
▁pi 11671
▁Cons 11665
▁kilometers 11664
▁microphone 11663
▁Convert 11662
▁rotation 11658
omy 11657
▁intend 11656
▁guess 11655
▁hearts 11650
▁searching 11650
▁none 11640
▁formula 11637
▁customized 11632
▁submission 11632
▁Journal 11627
▁ve 11627
date 11626
HO 11624
▁Acquisition 11624
▁eligible 11624
▁Paragraph 11623
▁deepen 11622
▁Secretary 11617
▁resolved 11616
▁tough 11609
design 11608
▁resulted 11605
▁threats 11604
▁destruction 11603
▁spec 11600
service 11599
▁Interest 11598
▁Va 11597
▁investigate 11596
▁flights 11595
ched 11592
▁admission 11592
▁Self 11591
▁ultimate 11588
▁Replica 11586
▁investing 11586
▁sat 11586
▁grand 11585
En 11584
▁viewpoint 11584
▁Gas 11582
▁strengths 11582
▁Releases 11581
▁hi 11581
▁reactions 11580
▁repeated 11578
1) 11575
▁destroyed 11569
▁startup 11567
▁Remember 11565
▁publish 11560
burg 11559
▁dive 11559
▁NVIDIA 11558
▁adapter 11555
▁blind 11550
▁Bur 11549
▁awards 11540
▁Fiscal 11539
▁GB 11539
▁customs 11536
▁evil 11535
▁ships 11534
▁leaf 11533
▁railway 11530
▁candidate 11529
media 11528
▁meant 11526
▁obvious 11523
▁clouds 11520
▁Hawaii 11517
▁rural 11513
FI 11511
▁13, 11511
51 11510
53 11506
▁Kim 11504
▁Canadian 11502
▁handled 11498
▁Below 11495
▁Often 11495
▁Perhaps 11494
▁gaming 11493
▁warehouse 11493
▁PM 11492
▁destroy 11491
▁flu 11491
ular 11488
▁Edge 11485
▁j 11485
▁Properties 11477
▁Otherwise 11476
cus 11474
▁2011. 11472
▁¥2 11470
rm 11469
▁reflecting 11466
▁Which 11464
▁12, 11462
▁sole 11461
▁Senior 11460
▁shoot 11460
▁integrity 11459
▁Point 11454
▁officer 11449
source 11447
▁AM 11439
62 11438
state 11437
▁Delivery 11434
▁Installation 11434
▁tells 11434
▁directions 11433
mori 11432
lut 11431
▁shade 11429
commerce 11427
▁preceding 11425
▁arms 11424
▁diagram 11423
An 11422
▁deposits 11422
▁wider 11421
▁designing 11420
▁stimulate 11417
▁Supply 11416
▁newsletter 11413
fect 11404
▁analog 11403
▁tone 11403
▁Resort 11402
▁adjustments 11402
ban 11397
▁phenomena 11397
pm 11396
rid 11396
▁largely 11396
▁SC 11394
▁emission 11394
▁nose 11394
▁adds 11392
face 11391
▁historic 11389
▁vacation 11388
▁regarded 11384
▁Workshop 11383
▁Ac 11382
▁Lin 11382
▁losing 11379
FC 11376
▁bars 11375
▁ci 11375
▁ordered 11375
▁dashboard 11374
rest 11369
▁killed 11369
▁dispute 11362
▁Bus 11360
▁poverty 11360
▁seal 11360
▁stuff 11356
▁fairly 11355
aba 11353
▁Base 11353
▁2012. 11349
▁founder 11345
▁alloy 11343
▁checks 11338
▁king 11337
▁perspectives 11337
▁pepper 11336
cle 11335
▁tutorial 11333
91 11332
▁ITOCHU 11330
ラ 11327
▁aren 11326
ashi 11324
▁Camera 11323
▁readers 11322
▁bond 11320
gest 11316
▁Cancel 11314
▁Infrastructure 11314
▁violations 11314
▁Operations 11310
▁stipulated 11309
▁Spa 11308
▁ear 11308
57 11307
▁Bra 11306
scal 11303
▁whenever 11303
▁recipes 11301
▁Feedback 11297
▁Chapter 11294
▁Programs 11291
Pacific 11290
▁Planet 11288
▁attracted 11283
▁wishes 11283
ik 11280
▁Clear 11280
▁Cut 11267
▁Guest 11265
▁drum 11262
▁vote 11262
CS 11260
oli 11260
▁syn 11249
▁columns 11248
▁campaigns 11244
und 11241
oo 11237
▁attributes 11236
▁internationally 11234
▁tags 11234
ene 11230
▁guy 11223
▁arranged 11222
ker 11219
▁contrary 11218
▁2008, 11217
stone 11215
ential 11214
▁Client 11208
▁islands 11206
▁bill 11205
▁authorized 11204
▁Rock 11203
▁entries 11203
▁Talk 11199
▁worship 11199
▁organs 11193
▁indoor 11192
▁Login 11189
▁molecular 11189
ific 11183
NS 11181
nan 11175
bashi 11171
Tokyo 11168
▁caught 11168
▁9, 11167
▁Flash 11167
▁collecting 11166
▁plot 11166
▁joining 11165
▁horse 11164
ff 11158
Dis 11157
▁attribute 11156
Pre 11155
▁stomach 11153
▁formal 11149
▁revenues 11148
▁Automatic 11146
▁roads 11145
1% 11141
▁connector 11139
▁withdraw 11135
▁Islands 11129
mu 11128
ola 11127
▁MHI 11125
▁ranging 11125
▁Certificate 11124
▁Pen 11123
Ma 11118
▁refresh 11118
▁favorable 11109
▁Magic 11108
radi 11103
▁cute 11102
▁favor 11100
▁mobility 11100
▁Kita 11099
▁emotions 11092
ically 11089
▁maps 11083
▁Relations 11082
▁Style 11080
▁trusted 11078
▁nutrition 11076
pel 11069
▁volumes 11068
OK 11066
ani 11065
2016 11061
▁expressions 11057
var 11056
▁engineer 11056
▁25, 11052
yuki 11050
HD 11045
▁tournament 11045
fo 11042
▁passage 11042
▁Configuration 11040
COM 11039
▁factories 11038
▁epi 11036
ls 11034
ris 11031
GS 11030
VER 11030
itch 11026
▁intelligent 11023
▁strain 11018
dan 11017
▁Yama 11017
▁symposium 11016
▁forum 11015
▁Young 11014
▁Switzerland 11011
▁develops 11011
▁chronic 11010
▁clip 11009
▁begun 11005
rous 11004
test 11001
▁headquarters 11000
▁Za 10999
cil 10995
▁Asus 10995
▁derived 10995
▁ICT 10992
▁mapping 10992
▁Calendar 10990
▁Em 10989
▁guaranteed 10989
tori 10987
▁Continue 10986
▁injection 10986
ved 10982
▁Overseas 10982
▁connectivity 10981
tation 10980
▁extraordinary 10974
1, 10972
▁Come 10971
bed 10970
▁Aki 10970
▁Accordingly 10969
▁environmentally 10967
more 10966
▁chief 10966
▁drill 10965
fra 10962
▁realization 10960
ifier 10959
▁Je 10957
▁20, 10956
▁stretch 10955
▁3- 10954
▁duty 10951
▁loaded 10948
▁firmware 10947
▁clinic 10944
▁pack 10944
▁dried 10942
▁totally 10941
vin 10940
▁Terminal 10940
▁combines 10940
▁directed 10940
▁tablets 10939
cor 10938
are 10936
▁exclusively 10936
era 10933
▁Wa 10925
▁meter 10925
char 10923
▁representing 10920
▁painted 10919
▁solving 10918
▁APU 10917
▁Welcome 10915
52 10914
▁improves 10914
nu 10912
ters 10908
▁aroma 10906
▁cha 10906
▁swimming 10905
actic 10903
▁bases 10903
▁boy 10899
▁fold 10898
▁carrier 10897
▁16, 10896
▁crafts 10895
▁climb 10894
▁heritage 10891
▁Images 10889
▁assistant 10888
▁proteins 10884
▁volunteer 10881
▁def 10880
wood 10879
▁injury 10873
▁insight 10873
▁GO 10872
public 10871
▁Assistant 10871
▁SQL 10867
▁Flights 10860
▁viewer 10860
▁Naga 10858
▁durable 10858
reg 10856
▁moon 10856
▁crime 10855
▁FI 10854
▁forming 10851
▁commit 10846
▁independence 10843
▁Valley 10841
▁converting 10841
dra 10839
▁shortage 10835
▁outcome 10834
▁experiencing 10829
od 10828
▁Regular 10827
▁targeting 10827
performance 10825
▁abundant 10824
▁EV 10821
▁membrane 10819
dimensional 10816
she 10816
▁Country 10815
▁offset 10815
▁retirement 10814
▁64 10813
▁Climate 10813
▁bulk 10806
▁beam 10802
▁forests 10801
vol 10800
ele 10799
▁VM 10799
HI 10795
▁Night 10795
▁Czech 10794
▁complexity 10794
▁arbitration 10793
▁stylish 10792
▁rating 10791
ox 10789
cin 10788
▁stem 10787
▁alarm 10786
lash 10785
ics 10784
▁noticed 10783
▁apart 10781
▁Construction 10780
▁occurrence 10778
ax 10777
bot 10776
▁profiles 10775
▁transmitted 10773
band 10771
▁consisting 10766
▁moments 10766
▁chair 10761
ike 10759
▁distinguish 10755
lock 10753
▁Typically 10752
▁surfaces 10751
▁Purchase 10750
▁Task 10750
▁hopes 10748
IE 10747
▁passport 10746
▁modes 10743
using 10742
▁distinguished 10742
▁Conclusion 10740
met 10738
▁corruption 10735
▁Toshiba 10734
▁migration 10733
▁literature 10732
▁Major 10731
▁individually 10731
▁grass 10730
▁logs 10729
2015 10725
ク 10724
▁savings 10723
▁1.0 10715
▁Exp 10712
▁mod 10708
▁reconstruction 10704
LL 10702
user 10702
▁affairs 10701
ject 10693
▁solved 10692
tract 10687
▁considerable 10687
▁Electronic 10684
▁stones 10683
▁Hon 10680
▁thorough 10677
▁routine 10676
▁Saudi 10675
▁Netflix 10673
aff 10672
▁horizontal 10672
▁Cost 10671
ミ 10670
▁catalog 10662
cade 10654
▁graphic 10652
▁Oil 10643
Shi 10641
▁Should 10636
▁plugin 10636
▁requiring 10636
▁reaching 10634
▁transmit 10633
▁Did 10632
▁beat 10632
▁yield 10628
HA 10627
▁reflects 10626
▁Peter 10617
▁abuse 10617
2019 10616
▁moral 10616
▁choices 10615
pers 10614
▁1995 10609
▁Skype 10607
▁hy 10603
NC 10602
▁GT 10600
▁Latin 10598
▁cyber 10598
card 10595
▁Tips 10594
▁engaging 10594
▁instant 10594
▁foam 10593
▁dense 10592
▁lie 10592
▁65 10588
▁BE 10587
▁olive 10586
LY 10585
rie 10580
ory 10577
▁Way 10577
▁encouraged 10577
▁comp 10576
▁■ 10573
▁meta 10571
berg 10567
▁polymer 10567
eo 10566
uk 10560
▁blend 10560
▁papers 10557
▁liquidity 10556
UPDATE 10553
▁Has 10551
▁passengers 10550
▁protective 10550
▁deadline 10546
nal 10543
▁Delete 10541
zan 10540
▁Command 10538
▁politics 10536
Su 10535
▁Creative 10530
BC 10526
gal 10525
▁rod 10525
▁Ser 10523
▁1996 10522
▁construct 10522
serv 10521
col 10520
▁exhaust 10517
▁Unlike 10513
▁Restaurant 10507
mmer 10505
▁Inquiry 10503
▁copies 10502
▁promotional 10502
▁Disk 10496
▁disabilities 10496
▁neuro 10496
▁26, 10493
▁stroke 10487
cel 10485
▁seminars 10485
▁appliances 10484
▁foreigners 10484
Search 10483
ets 10482
▁Fun 10482
▁suite 10479
▁NEWS 10473
▁appreciation 10473
atsu 10472
ulate 10472
▁boards 10471
▁ports 10470
▁ju 10462
▁pipeline 10461
▁delicate 10460
These 10459
▁Along 10458
ette 10454
▁reads 10454
▁14, 10453
▁logical 10448
▁immune 10447
▁fantastic 10444
▁Palace 10440
▁determines 10440
▁viruses 10440
ama 10439
▁specialty 10439
▁scenarios 10435
▁tsunami 10434
」 10432
▁Universal 10431
▁qualified 10431
▁str 10430
▁finger 10428
▁Rome 10427
▁Snow 10427
▁harmony 10426
▁Archives 10424
▁alert 10424
▁pursuant 10423
▁del 10421
▁600 10417
▁reactor 10415
▁Seoul 10414
▁solo 10412
▁PR 10411
hiko 10410
▁rarely 10404
▁retain 10403
One 10402
▁z 10402
▁deploy 10401
▁Imperial 10398
▁unexpected 10398
vic 10395
dict 10394
▁Discount 10392
▁pension 10391
▁Discover 10390
▁tie 10390
▁authentic 10389
▁desirable 10389
▁bigger 10386
ジ 10386
ret 10384
▁festivals 10384
only 10380
▁pricing 10376
▁blank 10374
▁tension 10374
▁welcomed 10372
▁lift 10371
▁Max 10370
▁AP 10368
▁¶ 10368
suke 10367
▁utilized 10367
acy 10366
▁PS 10364
▁fails 10363
▁tail 10360
atic 10358
oriented 10357
ended 10355
sRising 10350
▁shareholder 10350
▁resin 10349
ita 10347
▁beef 10347
▁Mag 10346
▁Package 10346
leg 10345
▁delivers 10343
▁reveal 10343
ening 10341
▁fluctuations 10341
▁discharge 10334
▁Enable 10332
▁staying 10332
▁aesthetic 10331
▁ur 10329
▁visibility 10328
▁Videos 10327
▁exceptional 10326
▁scratch 10325
▁adequate 10324
▁toys 10324
▁compounds 10322
▁rail 10320
▁weekend 10317
▁influenced 10314
▁Fan 10313
▁Nevertheless 10313
▁statistical 10312
duct 10310
▁Preview 10306
▁solely 10306
gin 10304
▁cargo 10304
▁Switch 10303
▁anime 10300
▁Rating 10299
▁welfare 10299
▁magnet 10298
▁spray 10298
▁Developer 10295
▁gun 10295
▁Force 10294
▁deletion 10291
▁attempts 10288
▁indispensable 10288
▁sho 10288
▁geo 10285
range 10283
wan 10279
▁Disclosure 10278
▁vulnerable 10278
cher 10274
▁1970 10268
▁2009, 10265
▁vessel 10265
▁Yet 10258
win 10257
▁27, 10255
ups 10253
▁Hide 10252
▁programme 10252
▁Canon 10249
▁Fix 10249
▁floating 10248
▁lemon 10248
▁arrow 10247
▁Upon 10245
▁talks 10244
▁significance 10242
▁cardboard 10240
▁drawings 10240
-18 10236
▁actors 10236
▁physics 10235
▁et 10232
▁Sato 10231
▁magic 10231
▁releases 10230
▁Format 10228
▁browsing 10226
る 10224
▁nearest 10221
▁intervention 10220
▁Later 10219
▁Move 10215
▁18, 10210
▁Hospital 10205
▁showcase 10204
83 10203
▁DETAIL 10200
▁expense 10199
▁portable 10197
vid 10196
clock 10191
▁sister 10191
emia 10189
▁Simple 10188
▁offline 10188
▁LTD 10186
▁marketplace 10184
▁neither 10184
FP 10178
▁toolbar 10178
GB 10177
▁Wang 10177
▁springs 10176
▁Glass 10175
▁deeper 10175
▁worse 10175
▁hedge 10174
▁infections 10173
▁authors 10172
と 10169
▁restored 10167
▁speaker 10167
▁ultimately 10167
▁Firefox 10164
▁passenger 10160
▁Heavy 10158
▁acting 10157
▁tasty 10157
ney 10156
▁Equipment 10156
RS 10154
▁Iran 10154
eb 10153
▁Mount 10153
▁Province 10150
▁Visa 10148
▁seafood 10146
▁44 10144
▁collaborate 10144
▁breaking 10143
▁Netherlands 10140
▁intense 10139
▁vulnerability 10137
▁accordingly 10136
▁receiver 10133
▁relaxing 10124
pl 10121
▁officially 10121
▁Madrid 10119
▁CC 10115
▁grounds 10112
▁Bill 10110
rch 10107
▁19, 10106
▁Commercial 10106
▁declined 10105
▁Wind 10101
▁passes 10096
▁placing 10094
▁colorful 10093
▁bloom 10091
rea 10090
▁Age 10087
▁static 10087
ug 10085
▁JBIC 10084
▁ages 10084
▁browsers 10084
を 10084
▁External 10083
▁slide 10082
ITY 10081
▁bicycle 10081
▁liable 10081
▁Framework 10080
▁humanity 10079
▁sta 10079
▁yesterday 10075
▁casual 10072
▁Fashion 10068
▁quantum 10068
perhaps 10067
▁WordPress 10067
▁Given 10062
▁algorithms 10061
▁conducts 10061
▁demonstrated 10059
▁20% 10054
▁Oct 10054
▁hyper 10054
▁libraries 10054
▁knife 10053
ida 10052
▁DS 10051
ART 10048
AND 10047
▁crown 10047
▁graph 10047
▁proxy 10046
▁Being 10045
▁intensity 10043
holder 10040
▁2010. 10040
▁Nagasaki 10040
size 10038
▁JAEA 10038
▁resistant 10037
▁Arbitration 10033
▁Para 10033
▁promise 10033
▁Lecture 10032
▁arrangement 10031
2.0 10029
well 10026
▁circulation 10024
▁pm 10020
▁Def 10019
▁Reserved 10019
▁realistic 10019
▁30% 10016
▁bone 10016
▁crash 10014
▁Parties 10013
guchi 10010
▁ON 10010
▁hosts 10009
▁minister 10006
▁telecommunicati 10005
▁Tuesday 10002
tone 9998
open 9997
▁fur 9997
▁Purpose 9994
China 9993
▁Cell 9989
▁Remote 9987
▁Everything 9980
▁meaningful 9980
▁binary 9978
FX 9977
▁acceptance 9977
pass 9976
law 9974
▁Tom 9974
▁specially 9974
▁titles 9974
▁Impact 9973
▁Initiative 9972
▁arrangements 9970
▁tomorrow 9969
▁cor 9968
▁Acc 9967
▁pursuing 9967
VI 9966
▁determination 9966
▁trained 9966
▁Wednesday 9963
▁Measures 9962
fully 9961
hour 9959
▁networking 9959
:15 9958
▁Instruments 9957
▁stack 9956
berry 9954
▁motivation 9953
▁seasons 9952
▁generating 9951
▁75 9949
▁captured 9947
▁Notebook 9946
grade 9944
▁Default 9942
▁41 9941
▁scholarship 9940
▁Growth 9939
Bo 9938
▁reforms 9938
TT 9937
▁prototype 9936
▁Job 9934
▁Yasu 9934
▁fingers 9934
▁salad 9933
ili 9932
▁Function 9931
▁incredible 9928
▁Mix 9927
▁scroll 9923
▁jacket 9922
uous 9917
▁supplement 9915
í 9913
▁55 9912
▁Bre 9912
▁exc 9908
high 9905
logy 9905
▁HR 9905
レ 9904
hua 9903
shaped 9903
▁cre 9900
▁translate 9899
looking 9898
▁canvas 9897
▁celebration 9897
▁guitar 9897
▁Friends 9894
▁Kyo 9894
position 9891
lot 9890
▁Made 9890
▁Olympics 9889
▁allocation 9889
cid 9888
▁bow 9888
▁Son 9885
▁nu 9885
▁29, 9883
▁palm 9883
▁combat 9881
▁Mus 9880
GI 9879
cal 9878
▁collective 9878
-01 9874
▁applicants 9874
▁chains 9873
▁golden 9870
DF 9868
▁Guo 9864
▁43 9863
YA 9859
ulator 9859
▁Very 9858
KU 9857
▁containers 9855
▁tired 9855
▁households 9854
▁obligation 9853
abil 9851
▁Flow 9849
▁buffer 9848
▁Mid 9846
▁malicious 9846
▁Activity 9845
dies 9843
▁affiliates 9841
▁Solar 9840
▁fer 9837
▁potentially 9835
vit 9832
▁SMS 9831
fun 9830
UR 9827
▁CONTACT 9827
▁Resource 9827
ison 9826
OD 9823
fr 9821
▁Euro 9821
▁childhood 9819
▁Iwa 9818
▁Statistics 9818
▁demonstration 9818
▁unpleasant 9818
wo 9815
▁Connection 9812
▁crack 9808
▁24, 9807
▁stainless 9807
▁certificates 9806
place 9805
▁suffered 9800
▁introduces 9797
cri 9795
▁17, 9795
However 9794
Our 9792
▁● 9792
▁46 9787
▁remind 9787
▁orientation 9785
action 9784
▁Comments 9782
▁Toyo 9782
eri 9780
▁4: 9779
▁Sc 9779
▁cal 9777
▁Par 9775
rr 9774
▁Tw 9774
▁stocks 9774
▁Integrated 9771
▁fraud 9767
▁Individual 9764
▁tele 9763
▁flood 9762
sil 9758
▁Radio 9758
▁attributable 9758
IX 9757
▁Narita 9757
▁supervision 9757
▁EC 9756
▁Nara 9753
▁Holy 9751
▁Reg 9751
▁incorporate 9750
▁metals 9750
▁Eastern 9749
▁complement 9747
uchi 9742
TOR 9741
▁Pri 9741
▁violence 9739
shop 9737
▁Competition 9735
▁partial 9735
▁honey 9731
▁surgery 9731
utter 9729
▁coordination 9729
▁hook 9729
▁survive 9725
▁promotes 9724
▁Cookie 9722
▁decorative 9722
▁Treatment 9717
▁mu 9717
att 9716
pri 9716
93 9715
▁Golf 9714
▁frozen 9711
loc 9710
▁gray 9710
▁bri 9708
▁Double 9707
▁burning 9707
▁Restore 9705
▁Sam 9705
▁flour 9705
LS 9698
▁Traditional 9697
▁interactions 9697
▁inserted 9694
▁validity 9694
▁Jin 9693
▁withdrawal 9687
▁Vo 9685
▁biodiversity 9682
▁exhibited 9681
▁limitations 9681
▁SSL 9676
▁Kit 9675
▁STORE 9673
▁dough 9670
They 9669
wer 9669
▁Firmware 9669
▁treatments 9669
▁ga 9665
▁paths 9665
bel 9664
ト 9664
▁Camp 9660
lit 9658
▁bird 9655
▁addressed 9654
▁21, 9653
arch 9650
▁11. 9650
mers 9646
▁cooperative 9646
▁Chain 9643
▁Ministers 9642
ulated 9641
▁proportion 9640
▁vacuum 9640
▁vice 9639
▁Nam 9638
▁Promo 9637
▁breath 9637
/10 9632
▁consecutive 9631
▁classification 9630
▁Typical 9628
pet 9627
▁Chu 9627
▁hurt 9626
▁earned 9619
gno 9618
▁browse 9618
▁Forest 9616
▁% 9615
ese 9609
ites 9606
▁Partnership 9605
▁(5) 9604
▁outcomes 9604
ima 9602
oon 9602
▁repeatedly 9602
effective 9601
▁reviewed 9600
▁controlling 9599
▁Walker 9596
▁Disc 9593
▁physician 9590
▁issuance 9588
▁dependent 9587
▁crypto 9586
▁Shipping 9585
▁Things 9578
yn 9577
▁LA 9577
▁audits 9577
▁conflicts 9577
▁pose 9574
▁documentary 9572
▁responding 9572
▁LE 9571
ky 9570
▁cri 9566
▁pilot 9566
ASE 9564
▁da 9562
oi 9559
▁Reports 9557
▁Speed 9554
▁suited 9554
▁VI 9553
▁Voice 9552
▁instances 9552
VC 9550
RON 9548
rick 9542
▁Challenge 9539
▁stood 9538
▁wake 9531
▁:: 9529
▁reader 9528
▁Ch 9525
oph 9524
▁Berlin 9522
:10 9521
▁2- 9519
▁mounting 9519
▁Protect 9511
▁(3 9509
cer 9504
▁compatibility 9501
▁decade 9500
▁poll 9500
▁promotions 9500
▁smoking 9500
▁Gar 9498
▁Angeles 9496
omic 9495
▁Santa 9494
▁supposed 9494
▁2007, 9491
bl 9489
▁apartments 9489
▁Consulting 9488
▁involve 9488
▁bamboo 9486
▁acknowledge 9485
CD 9482
▁250 9482
▁lifetime 9482
MT 9480
▁Staff 9480
▁inconvenience 9478
▁prayer 9477
km 9473
▁Various 9473
2020 9468
▁LLC 9467
▁Sojitz 9465
▁honest 9465
▁retrieve 9465
▁permissions 9464
▁LCD 9461
▁AMeDAS 9460
ception 9456
▁married 9456
▁forever 9455
▁curve 9443
▁Abe 9437
▁colored 9434
▁perception 9434
▁Tel 9433
▁chest 9433
▁Managing 9432
bil 9431
▁applicant 9430
▁Register 9426
▁Transport 9425
▁Making 9423
gate 9422
▁Processing 9422
ending 9421
▁grasp 9421
wear 9419
▁discretion 9418
▁neighborhood 9417
sub 9413
▁drama 9412
BE 9410
▁athletes 9409
▁Taking 9407
▁UI 9407
▁determining 9407
▁deck 9406
▁Until 9405
▁institutional 9405
▁Turkey 9404
▁Build 9401
▁Getting 9400
▁Mission 9400
▁Within 9399
▁Background 9398
▁autonomous 9396
▁warranty 9396
▁4) 9395
▁HE 9395
▁cookie 9395
▁pa 9395
care 9394
▁gains 9393
▁wipe 9393
▁LNG 9391
▁mag 9389
▁molecules 9387
▁England 9381
▁ch 9381
▁clips 9381
▁Memory 9378
▁distinctive 9377
▁BIOS 9376
▁slot 9376
▁combinations 9375
pad 9372
▁employed 9372
▁oldest 9372
▁Greek 9371
▁diamond 9370
▁oral 9370
onic 9369
▁Practice 9366
▁Cambodia 9365
Open 9364
▁Rate 9363
▁ko 9360
▁Maps 9358
▁frames 9358
▁chef 9352
▁consistently 9352
▁beginners 9351
▁Jiuzhaigou 9350
▁analyzing 9348
▁Father 9346
Go 9345
▁III 9345
▁col 9343
person 9341
tta 9340
▁Fall 9333
▁manga 9332
▁succeeded 9332
metric 9329
▁Vietnamese 9328
▁Going 9327
▁alongside 9327
▁firmly 9327
▁somewhere 9326
ato 9325
bon 9325
tail 9324
▁organizational 9323
▁Born 9322
eth 9321
▁highlights 9321
▁Consumer 9320
▁Was 9320
▁functioning 9319
▁accessed 9316
▁remuneration 9315
▁namely 9314
▁repository 9313
▁Winter 9312
▁Starting 9311
▁dancing 9310
mes 9308
saving 9306
▁reservations 9303
cre 9300
fl 9299
▁shut 9299
▁Moscow 9298
dle 9296
▁Wall 9295
month 9291
▁Shibuya 9291
▁producer 9290
▁volunteers 9290
▁humidity 9286
▁Latest 9284
▁innovations 9284
▁questionnaire 9284
▁2.5 9283
▁classified 9283
▁instantly 9281
city 9279
store 9277
ough 9274
▁dividends 9274
▁Sai 9273
▁Cisco 9271
▁performs 9271
Po 9268
▁attending 9268
IES 9266
▁antivirus 9265
▁disorders 9265
▁GDP 9261
Hi 9257
▁Consider 9255
▁Kansai 9255
▁merger 9250
▁gratitude 9247
▁sought 9247
▁workflow 9247
▁locally 9244
▁Classic 9243
▁Regulations 9241
▁Careers 9238
▁annually 9237
eu 9234
▁exam 9234
▁producers 9232
ui 9227
▁heads 9227
▁Yahoo 9226
▁vitamin 9226
CON 9223
▁Structure 9223
▁Collect 9221
▁connects 9220
▁Interface 9218
▁Example 9215
▁cursor 9215
▁Adding 9213
▁stops 9211
nce 9210
SU 9209
▁defend 9209
post 9208
▁Knowledge 9208
▁tender 9206
▁fe 9205
▁linear 9205
▁terrace 9205
▁reflection 9204
▁spectacular 9204
は 9202
▁Manual 9200
cam 9199
SL 9197
▁nursing 9197
▁curriculum 9196
front 9192
KO 9190
▁handles 9188
▁inspect 9186
FE 9183
▁theoretical 9183
bol 9182
▁legislation 9178
▁chi 9176
MAN 9174
▁mi 9174
▁signing 9173
-15 9171
▁Located 9170
▁restricted 9170
▁underground 9170
▁Selection 9168
▁Engineers 9165
▁enforcement 9164
application 9163
▁sciences 9162
▁spectrum 9156
▁ethnic 9154
▁colour 9153
▁pregnant 9153
▁tall 9153
▁Bin 9151
iki 9149
▁impairment 9148
▁metrics 9148
▁compression 9146
▁Tab 9144
real 9142
▁mounted 9142
▁sweets 9142
rai 9139
▁qualities 9133
▁retained 9132
▁Tele 9131
▁hire 9131
▁luck 9128
▁Trading 9125
▁ribbon 9125
harm 9124
▁3.0 9123
▁adverse 9122
▁Pakistan 9121
▁Touch 9121
▁ties 9121
▁imagination 9120
▁invalid 9118
map 9116
▁personality 9116
Term 9114
▁miles 9114
▁Pal 9113
▁Opening 9112
▁intuitive 9111
MM 9109
▁vitamins 9108
▁2022 9104
TR 9103
▁22, 9103
▁moderate 9103
▁addressing 9099
▁Hard 9097
▁interfaces 9094
▁unlimited 9093
▁zones 9091
ique 9090
▁interviews 9090
hor 9089
▁Evaluation 9088
▁antenna 9085
▁balanced 9085
Send 9084
▁SU 9084
ook 9081
▁photograph 9080
▁preservation 9080
▁PowerPoint 9078
scape 9076
▁Factory 9075
ink 9074
▁imaging 9070
▁Tourist 9069
▁unauthorized 9069
▁proprietary 9067
▁Object 9063
▁Presentation 9063
ao 9062
lav 9061
▁adhere 9061
onym 9060
▁Thursday 9060
▁identifiers 9060
▁upcoming 9060
▁Document 9059
▁recipient 9057
▁binding 9051
▁bedroom 9043
▁rush 9043
▁province 9040
▁fitness 9038
atch 9036
▁mineral 9036
▁Together 9032
▁alive 9029
OM 9025
ying 9025
▁friendship 9025
tical 9021
▁UTC 9020
Act 9019
▁Four 9019
▁Golden 9018
▁sick 9016
1.1 9011
▁Ber 9005
▁Northern 9004
BS 9002
▁Host 9001
▁Issues 9000
▁Shinjuku 8999
▁assumptions 8995
▁Hira 8994
▁Mother 8993
lumin 8992
▁validation 8989
カ 8989
RR 8987
▁2030 8987
▁MIDI 8987
cca 8986
▁possess 8986
▁indication 8981
▁tackle 8981
▁endeavor 8980
▁Forecast 8978
▁prevents 8977
▁47 8976
exp 8975
▁genuine 8972
▁filed 8971
▁stamp 8969
▁neutral 8965
▁Ethernet 8964
ECT 8963
▁journal 8963
▁Times 8960
▁posting 8960
▁lowest 8959
▁nationwide 8954
ala 8953
flow 8953
▁symbols 8952
▁pitch 8951
▁NI 8950
▁gel 8950
world 8946
▁× 8946
gation 8945
inter 8944
▁Manage 8944
▁Want 8941
▁classical 8940
▁$1 8937
▁balls 8936
▁publishing 8933
▁Body 8932
▁Operation 8931
bank 8927
live 8926
▁rhythm 8925
▁transfers 8923
▁Arm 8921
▁hypo 8921
Is 8919
▁dropped 8919
▁classroom 8918
▁Academic 8917
▁Chiba 8917
coming 8916
▁flying 8916
▁Response 8915
▁dual 8914
▁Always 8912
▁rational 8911
▁99 8908
▁identifying 8908
▁Safe 8907
▁mesh 8907
older 8905
GO 8904
▁mandatory 8904
itation 8897
▁realizing 8897
▁Trans 8896
▁sunlight 8894
ago 8893
ishi 8893
▁holder 8893
▁placement 8893
▁landing 8892
▁psychological 8891
▁spacious 8891
creating 8890
har 8890
▁electro 8890
▁hill 8890
▁Buddhism 8884
▁sushi 8884
rc 8883
▁Topics 8883
▁Tur 8882
▁Congress 8879
▁Zone 8879
▁Documentation 8877
▁Gate 8876
▁Newsletter 8876
▁drying 8875
ache 8873
▁Devices 8873
▁Grant 8872
▁Medium 8872
▁brake 8871
▁pulse 8868
uki 8866
▁sen 8866
rou 8864
rri 8864
▁abstract 8862
UE 8861
▁Fixed 8859
Most 8858
space 8858
シ 8858
cie 8857
▁Metal 8857
▁Consulate 8855
▁strike 8855
▁Prince 8853
English 8852
▁constitute 8851
▁sh 8851
▁kid 8850
▁Geo 8849
▁Independent 8849
duction 8848
▁twenty 8848
▁Prevention 8847
▁ban 8845
-9 8844
TF 8843
▁competitors 8840
▁creators 8840
comp 8839
▁cord 8839
▁recall 8837
▁Cra 8836
▁Tomo 8836
▁10,000 8835
▁800 8834
▁tunnel 8832
▁cosmetics 8831
900 8829
mus 8829
▁fu 8829
▁Francisco 8828
▁Fi 8827
▁crop 8826
▁sudden 8825
▁assurance 8824
taka 8822
▁completing 8821
▁dramatically 8821
▁mistake 8820
iff 8815
ching 8813
▁ham 8812
▁Ultra 8811
▁agenda 8811
▁debate 8811
▁scanner 8811
▁Onsen 8810
▁Ball 8805
▁Far 8803
▁Single 8803
▁restrict 8803
▁inflammation 8800
umi 8799
▁glasses 8798
oh 8796
▁highlighted 8794
▁periodically 8794
▁accessing 8789
▁advancement 8787
▁observations 8786
▁Aspire 8784
▁Give 8784
▁Partition 8782
turb 8781
tis 8777
▁threads 8776
color 8773
▁allocated 8770
heat 8765
▁Protocol 8765
rio 8763
▁Initiatives 8755
▁ceramic 8755
▁divide 8754
▁Beautiful 8753
▁glance 8751
LD 8750
▁Architecture 8744
▁bug 8744
▁Meetings 8742
▁Miya 8741
fold 8739
▁UNIQLO 8739
Time 8738
▁tech 8734
▁urgent 8734
た 8733
▁Expand 8732
▁rh 8730
under 8725
▁fellow 8725
▁mistakes 8725
other 8724
▁cables 8724
ifying 8719
▁Magazine 8717
▁declared 8717
▁Coast 8715
▁judge 8714
▁belief 8713
ancy 8709
▁activation 8708
▁deployed 8708
▁empower 8707
▁Catalog 8706
▁intensive 8706
rated 8703
▁swap 8702
stop 8698
▁invitation 8697
▁permit 8697
ALL 8696
br 8692
▁2-3 8692
▁Col 8687
trans 8686
▁Str 8686
▁Tra 8686
▁grateful 8686
Qu 8680
▁chances 8680
▁exceeds 8680
lish 8679
Or 8678
▁roughly 8677
▁23, 8676
▁CL 8675
▁preparations 8670
▁rows 8670
▁undertake 8670
▁guard 8668
aging 8667
▁suspended 8666
▁vendors 8666
▁separation 8665
▁cra 8659
ees 8656
▁plasma 8656
MD 8655
▁Moonrise 8653
▁calculations 8652
▁baking 8651
nai 8650
oonset 8650
▁Metropolitan 8650
▁Pinterest 8647
▁fighting 8647
▁founding 8647
non 8646
▁ART 8646
▁editors 8645
▁Bag 8643
about 8641
▁Fo 8639
hen 8638
▁Portal 8636
▁debut 8634
▁51 8633
▁maker 8632
▁monument 8631
▁noodles 8631
▁blow 8630
▁Mai 8629
▁publicly 8628
▁screens 8625
sky 8622
▁partnerships 8622
▁worried 8622
▁Tea 8621
▁conscious 8620
SR 8619
zaki 8619
▁attracting 8619
gram 8618
▁cooked 8618
▁vector 8618
▁mature 8616
Page 8615
▁generator 8614
▁Career 8610
▁Cur 8609
▁Sample 8609
▁ESG 8607
▁wisdom 8603
▁pad 8601
▁cease 8598
▁waters 8597
Sa 8594
▁DI 8593
▁football 8592
▁ter 8592
▁trains 8592
▁affiliated 8590
▁bid 8590
tai 8589
▁enormous 8588
▁powered 8588
ced 8584
excluding 8584
▁Heart 8584
▁Assembly 8583
rator 8582
▁Programme 8582
▁corners 8582
▁consolidation 8581
2017 8579
Data 8578
タ 8578
▁Sheet 8576
▁currencies 8576
▁MC 8575
▁Symposium 8575
▁surely 8575
▁threshold 8575
vy 8574
▁1- 8574
▁rainfall 8573
▁Off 8569
END 8565
▁Kanagawa 8565
▁Ke 8562
force 8561
fish 8559
din 8555
▁licenses 8555
▁exploring 8554
▁Emperor 8551
▁Nor 8550
▁batch 8550
cular 8549
▁SDGs 8549
▁gaining 8549
▁appreciated 8547
▁architectural 8543
▁recognizes 8543
ae 8540
▁harvest 8540
SS 8538
▁Ze 8538
▁rough 8538
▁anticipated 8537
Mon 8536
uro 8535
▁Cy 8535
▁ke 8533
▁Egypt 8532
▁stunning 8531
teen 8530
▁Entries 8529
▁uncertainty 8529
▁Ci 8527
rig 8524
▁Complete 8524
▁intends 8523
▁TAB 8522
▁undefined 8522
▁finishing 8521
▁chips 8520
▁Tibetan 8518
▁remarkable 8517
▁cafe 8516
value 8515
▁Notification 8514
▁1960 8513
ARD 8511
chron 8510
▁Nov 8507
▁conclude 8506
▁Subscribe 8505
▁¥3 8504
▁updating 8503
:20 8500
AB 8500
▁5000 8498
Ha 8497
viv 8497
▁crew 8497
▁Shares 8495
▁ink 8494
tani 8493
▁farming 8493
▁Farm 8490
▁asks 8490
▁speeds 8489
▁tropical 8487
conf 8486
▁Workspace 8485
▁va 8485
▁brick 8484
dom 8483
▁organ 8477
▁bottles 8476
▁listing 8475
▁repairing 8475
▁sentence 8471
TL 8469
▁prominent 8469
▁bandwidth 8468
▁affecting 8462
▁Pricing 8459
▁Filter 8456
▁5- 8453
▁TA 8453
▁winner 8453
▁coat 8452
▁texts 8452
▁Trip 8451
▁justice 8451
▁Block 8450
▁varies 8449
note 8447
▁Specifically 8447
IDE 8446
▁53 8446
▁consist 8445
▁Policies 8444
this 8443
▁dessert 8443
▁seeks 8443
bling 8441
▁simplest 8441
▁variations 8440
Net 8437
▁52 8436
▁180 8435
▁Configure 8435
▁Gi 8435
▁Scan 8434
▁excitement 8434
▁fifth 8434
▁portrait 8433
▁romantic 8430
▁NYK 8429
▁BA 8427
▁HI 8427
▁patch 8427
GP 8425
▁Dragon 8425
▁pork 8424
tting 8422
▁rat 8421
▁researcher 8421
▁Wu 8420
▁databases 8420
▁Ishi 8418
▁cave 8416
▁infectious 8411
▁shine 8409
▁Silver 8408
▁guarantees 8408
RY 8405
base 8405
itive 8405
install 8404
▁rescue 8404
▁examined 8401
nics 8399
▁lounge 8399
▁quantities 8398
ural 8397
▁Daily 8396
▁unlikely 8396
▁Pack 8395
▁consume 8394
▁leakage 8394
▁schemes 8394
▁medication 8390
▁protest 8389
ige 8388
ria 8388
▁consciousness 8388
▁LI 8385
▁Story 8385
▁soap 8384
tz 8381
▁Ban 8379
▁fewer 8378
▁chamber 8376
▁incurred 8376
▁analyses 8375
▁Ob 8374
▁Previous 8373
▁cheaper 8371
3) 8367
▁cinema 8366
▁grows 8365
▁quantitative 8364
▁invested 8362
▁cryptocurrency 8361
▁cultivation 8359
kh 8358
▁boundaries 8356
▁magnificent 8355
▁pride 8355
▁limitation 8354
▁glad 8353
▁Lion 8352
gel 8351
matsu 8351
▁invoice 8350
▁guys 8347
▁identical 8347
▁scenic 8338
▁broadcasting 8337
▁lid 8336
ロ 8335
▁analyzed 8332
▁discrimination 8332
▁laugh 8331
▁centered 8327
▁relaxed 8326
body 8325
▁kick 8324
▁termination 8324
▁liked 8323
▁viewers 8323
▁Wikipedia 8322
mble 8320
▁declaration 8320
▁Concerning 8319
▁circuits 8319
▁Er 8318
▁suppress 8316
で 8316
hold 8315
than 8315
▁pocket 8315
▁Assets 8313
▁Requirements 8311
cker 8310
▁Galaxy 8310
owned 8309
host 8308
▁monitors 8308
▁SoftBank 8300
▁buyers 8300
▁Collaboration 8299
▁homemade 8299
▁terminals 8299
DM 8298
▁tens 8297
▁Arab 8296
lam 8295
▁CAD 8292
▁hesitate 8290
▁2005, 8287
Comp 8285
lat 8283
▁Answer 8281
▁mount 8281
PT 8280
▁broker 8280
▁drops 8280
▁aggregate 8279
NG 8278
▁Movement 8278
▁worn 8270
▁Entertainment 8268
▁indicating 8268
▁floors 8267
▁surveillance 8267
▁Posted 8266
nate 8265
ini 8264
▁collections 8264
lum 8263
▁iPod 8263
▁Ship 8259
▁attraction 8259
RF 8257
▁Intelligence 8257
▁traders 8256
▁widespread 8255
VM 8252
▁Others 8252
rink 8251
▁Several 8250
▁boss 8250
▁legend 8250
▁lucky 8249
▁playback 8248
▁spreading 8246
▁Fra 8245
Can 8244
▁modeling 8243
▁citizen 8242
▁Gal 8241
▁Southern 8241
▁countermeasures 8240
arian 8238
-17 8237
▁Prior 8237
▁encouraging 8236
▁preserved 8236
ANA 8235
▁Stay 8235
▁institute 8235
▁microwave 8235
▁Strategic 8233
pens 8230
▁prosperity 8229
ASS 8228
▁Cyber 8228
▁answered 8226
▁Setup 8225
▁fake 8225
"). 8224
▁Record 8224
▁bra 8224
▁2009. 8223
▁Era 8214
▁diabetes 8214
▁lively 8214
▁Poly 8213
▁bilateral 8213
▁pros 8211
▁Automotive 8206
▁securing 8203
▁Deep 8202
▁bomb 8201
▁loads 8201
▁Principles 8198
▁graduated 8198
▁authorization 8197
▁Position 8196
▁Stop 8196
▁deterioration 8196
° 8195
▁amplifier 8195
▁expiration 8194
▁Manufacturers 8193
Google 8190
nia 8188
▁butter 8187
wing 8185
▁Option 8184
Chi 8179
▁equally 8179
ulating 8176
▁Controller 8174
▁photographer 8174
ility 8172
▁lovers 8171
▁brothers 8169
pat 8168
▁Billiard 8166
▁WA 8166
▁Wine 8166
▁vol 8163
soft 8162
▁inclusion 8161
▁gently 8160
▁involvement 8159
▁Statements 8156
▁dynamics 8154
▁considers 8153
▁nail 8151
▁crude 8147
1.0 8145
▁Mer 8145
-30 8144
piece 8144
▁impressed 8143
writing 8140
▁guided 8139
▁synthetic 8139
▁49 8138
▁Module 8138
▁prime 8138
most 8137
▁Methods 8136
▁Sep 8136
▁durability 8136
▁lineup 8136
▁Preparation 8135
▁heated 8134
▁malware 8132
▁unlike 8128
rich 8126
▁unprecedented 8126
suit 8125
▁launching 8125
▁truck 8125
▁manages 8124
▁Vista 8123
▁PST 8120
▁recommendation 8117
▁motors 8115
▁Automation 8113
rite 8110
▁aged 8110
▁borders 8110
▁newspaper 8109
▁projected 8107
▁spices 8105
▁axis 8104
▁relatives 8104
round 8103
▁barrier 8103
▁span 8101
▁Pu 8100
▁medicines 8099
sid 8097
▁titled 8096
▁dioxide 8095
YO 8093
5,000 8091
▁offerings 8091
▁subscribers 8091
▁executives 8090
RM 8089
▁hospitals 8089
▁op 8086
▁strap 8085
▁destinations 8084
▁pursuit 8082
oku 8081
▁Rose 8081
▁Demo 8080
After 8079
▁OTFE 8079
▁RAM 8079
-13 8078
▁Plaza 8078
▁garlic 8076
ESS 8075
GC 8075
▁slip 8074
Work 8072
ush 8071
▁diplomatic 8068
マ 8064
▁licensed 8061
vision 8060
▁rack 8060
BR 8059
▁cho 8059
▁Qing 8055
ock 8054
▁genes 8054
▁rolling 8052
▁Americans 8051
▁traditions 8051
▁blocked 8046
▁feeding 8045
▁Points 8043
▁encrypted 8043
▁van 8043
▁summit 8042
▁Cart 8039
▁2006, 8038
▁Officers 8038
▁rope 8038
▁cabinet 8036
▁Monitor 8035
▁DB 8034
bal 8032
▁80% 8031
▁tract 8030
▁therapeutic 8027
hin 8021
▁insulation 8021
eat 8020
▁1992 8020
▁shadow 8020
mov 8019
▁GE 8019
▁Mc 8019
▁Tree 8019
▁plain 8019
fit 8016
Lo 8008
▁Maintenance 8008
▁Kazu 8007
▁museums 8007
▁pole 8007
▁chemistry 8005
▁resident 8005
:12 8004
ologist 8003
▁Down 8003
▁conjunction 7999
▁Multiple 7998
▁consistency 7998
▁Bun 7997
▁acids 7997
▁bin 7996
▁Practical 7995
▁Explore 7994
▁blossoms 7994
▁modification 7994
▁compound 7993
Wa 7991
organ 7991
▁Mal 7991
▁prison 7989
psy 7988
▁Face 7988
▁intermediate 7987
town 7986
▁loves 7985
▁radioactive 7984
▁wouldn 7982
:45 7981
▁wheels 7981
▁probe 7978
▁carries 7977
▁Federal 7973
▁leisure 7972
▁Sendai 7970
▁aggressive 7967
Car 7966
な 7966
▁logging 7965
▁probability 7965
▁rub 7965
lay 7964
▁72 7962
▁substrate 7962
far 7961
iko 7959
▁crowded 7959
▁enemy 7958
▁stayed 7957
▁fitting 7954
system 7953
▁Song 7953
▁corrupted 7953
▁globalization 7952
▁Ai 7951
ali 7949
bell 7949
▁healing 7949
present 7947
▁distinct 7947
▁Recent 7946
▁masks 7946
▁minerals 7946
▁unified 7945
2014 7943
▁Michael 7940
avi 7939
▁subscribe 7938
▁tissues 7937
700 7936
▁Train 7936
▁possibly 7936
▁yes 7936
ract 7932
▁Admission 7932
▁telling 7930
▁centuries 7928
▁swim 7928
▁Holiday 7926
▁CH 7924
▁Reporting 7923
▁wrap 7923
▁loud 7922
nation 7921
▁skip 7921
▁Effective 7919
▁HA 7917
▁IDE 7917
▁shirt 7917
Ad 7915
▁AWS 7915
▁ears 7914
ogen 7909
ounce 7907
▁easing 7906
ened 7904
▁switches 7901
▁billing 7898
▁pioneer 7897
▁walked 7896
Tech 7894
▁mysterious 7894
▁Robert 7893
▁Soft 7893
▁afford 7893
▁encoding 7892
▁belonging 7890
▁54 7889
▁atomic 7888
▁continually 7887
▁shi 7887
share 7884
▁BR 7882
▁Hello 7881
market 7880
▁Pharmaceutical 7880
frame 7876
cial 7874
▁advisor 7874
▁excluded 7873
▁accepting 7872
▁Islam 7871
▁cuts 7870
▁pit 7870
▁Cabinet 7869
▁Uses 7869
▁Sal 7868
▁villages 7868
night 7866
Per 7860
▁luggage 7859
▁shortcut 7857
ony 7854
▁conferences 7854
▁Ito 7853
ROOT 7852
▁survival 7852
▁2008. 7850
▁lamp 7850
▁gross 7849
▁pond 7848
▁formulated 7847
し 7847
▁intake 7844
á 7842
bro 7841
▁TEL 7840
▁Final 7839
Ko 7838
▁winners 7838
core 7837
▁Returns 7837
▁phrase 7836
gro 7835
▁parks 7835
▁cu 7832
▁promising 7830
▁Past 7826
▁mar 7826
▁shades 7826
▁secured 7825
▁regret 7824
▁failures 7822
Ho 7819
config 7819
▁Original 7819
▁Yan 7819
af 7818
lets 7818
▁slope 7818
blo 7817
▁harsh 7812
▁seed 7812
▁Ryo 7809
▁pairs 7807
UP 7806
▁Employees 7805
?” 7804
dio 7803
▁Dutch 7802
ense 7801
▁Pick 7801
▁elsewhere 7798
▁Defense 7797
watch 7796
bor 7794
▁coin 7794
▁invention 7794
▁nerve 7793
▁Tip 7792
▁labels 7792
▁Different 7791
▁mixing 7790
▁Browser 7789
▁literally 7787
▁oils 7787
flu 7786
rew 7783
▁vaccine 7783
▁picked 7782
encing 7781
/11 7779
▁MD 7779
▁visually 7779
▁wi 7778
▁kidney 7777
▁Taipei 7771
▁Arabia 7769
▁acceptable 7769
▁bot 7768
▁wizard 7768
tine 7767
▁Dance 7767
oper 7764
▁premises 7764
cen 7762
▁des 7762
LIC 7761
▁conversations 7761
▁rounded 7760
▁Ukraine 7759
▁transferring 7759
▁Band 7758
▁practically 7757
` 7756
▁auditors 7756
▁Sri 7755
hr 7753
▁collapse 7752
▁legitimate 7752
▁toxic 7752
▁Converter 7751
aga 7750
▁AV 7748
▁Dial 7748
▁promo 7748
▁silk 7748
▁temples 7748
▁Agriculture 7745
▁Gateway 7744
▁pencil 7743
▁explicit 7742
▁renowned 7742
▁1994 7741
▁FL 7740
▁casting 7740
▁Benefits 7738
▁orbit 7738
direct 7736
tors 7736
▁Paralympic 7736
rill 7735
▁360 7735
▁adjacent 7732
▁widget 7732
▁physically 7731
▁PV 7730
lev 7729
▁cruise 7726
▁painful 7724
▁Van 7723
▁gateway 7722
▁worker 7720
eon 7711
▁tries 7711
cultural 7710
▁Rooms 7709
mine 7704
▁Comment 7704
▁bull 7704
▁kg 7704
▁den 7700
▁regards 7700
dol 7698
turn 7698
▁Flower 7697
amine 7695
▁Flo 7695
▁fastest 7694
▁Items 7693
▁Living 7693
▁Reviews 7693
▁Mis 7692
current 7691
▁Designer 7691
▁Subaru 7690
▁stuck 7690
▁tailored 7690
▁sweat 7689
▁competent 7688
▁inputs 7687
▁Used 7686
▁Dream 7685
▁Ti 7683
▁disputes 7682
para 7681
▁HKEY 7680
▁Porsche 7680
▁Amsterdam 7679
▁formatting 7679
▁advised 7678
0° 7677
▁credentials 7677
emon 7676
mbo 7675
poli 7675
▁Jul 7675
▁verified 7675
▁divisions 7673
▁acceleration 7671
▁Declaration 7667
▁Mill 7667
▁Sand 7666
▁acquiring 7661
▁leak 7661
▁preference 7660
▁valve 7660
▁wage 7659
bound 7657
▁positioned 7657
word 7656
▁Cre 7656
used 7653
▁grain 7652
HR 7651
▁writer 7651
ero 7649
▁Interview 7649
▁climbing 7649
DER 7648
pic 7648
▁shield 7645
FL 7644
▁defects 7644
▁Adjust 7643
▁GA 7636
▁Match 7635
▁Monitoring 7635
▁wires 7635
inate 7633
▁exceeded 7632
▁singing 7631
HC 7628
▁Hat 7628
▁Term 7627
▁accounted 7627
▁presenting 7627
▁waterfall 7627
▁Memorial 7625
▁Battle 7624
building 7623
▁grab 7620
Ch 7619
HT 7619
▁Indonesian 7619
▁exchanged 7618
-16 7615
▁Still 7615
mise 7613
puls 7613
▁clo 7613
▁resume 7613
GR 7610
morph 7608
▁Kids 7607
!!! 7603
▁90% 7603
▁proceedings 7603
shirts 7601
Link 7599
▁societies 7599
▁Bangladesh 7598
▁thereof 7595
▁illness 7593
▁friction 7592
From 7591
▁suits 7589
profit 7587
ん 7585
▁occurring 7584
JI 7583
▁convention 7583
▁correspond 7583
▁diagnostic 7580
ometer 7579
▁SHI 7579
oy 7577
del 7576
▁graduation 7576
emi 7574
▁Supplier 7573
▁Around 7567
▁silent 7566
gaku 7563
▁profitable 7562
▁bend 7561
▁personalized 7559
▁Urban 7558
▁owing 7557
▁Lock 7556
Other 7555
▁clone 7553
▁mom 7553
game 7552
▁domains 7551
EV 7550
▁partitions 7548
▁importantly 7547
▁Near 7546
Pressure 7545
▁LO 7544
▁Ginza 7542
▁tied 7538
-02 7537
▁makeup 7536
electric 7534
▁GPU 7534
▁keywords 7534
▁sends 7534
▁Op 7533
▁insufficient 7532
▁digit 7531
▁payable 7530
▁Think 7529
▁priest 7527
▁sew 7525
▁cultivated 7524
▁upward 7521
text 7519
mai 7516
▁ramen 7514
▁subsequently 7514
▁defines 7513
▁Goals 7511
▁watched 7511
▁backed 7509
aya 7508
▁Administrator 7506
▁Disease 7506
▁dogs 7504
▁queue 7502
▁pipes 7501
▁Allow 7499
ION 7498
▁plum 7498
▁talented 7498
▁Directory 7496
▁endless 7496
phil 7494
▁Metro 7494
▁embrace 7494
▁Participants 7491
▁Tim 7490
Reg 7489
master 7488
▁rotate 7487
▁Ly 7486
▁fatigue 7485
▁welding 7485
▁momentum 7484
ム 7482
▁wound 7481
tur 7480
▁Banking 7480
▁Civil 7480
lier 7478
▁Coin 7478
▁roller 7477
rise 7474
▁Season 7474
▁integrating 7474
▁accompanying 7471
▁Oracle 7468
▁TM 7468
▁cylinder 7468
ood 7466
▁Inside 7466
▁generates 7466
See 7465
last 7465
▁Mad 7464
▁Chile 7463
By 7462
EA 7462
▁nails 7462
▁proved 7460
▁rings 7460
lp 7459
▁Fre 7459
▁visitor 7458
his 7457
▁buyer 7457
▁luxurious 7456
uation 7455
▁GPS 7454
▁compiled 7454
▁rendering 7453
edit 7450
▁Fine 7449
▁bones 7449
▁fossil 7449
▁victory 7448
▁Labor 7446
こ 7446
▁sleeve 7444
▁sour 7443
-03 7442
▁Actually 7442
that 7441
▁Cyclone 7438
▁Usage 7436
▁herself 7435
polis 7434
▁slight 7434
gent 7432
▁stance 7432
▁sn 7431
▁detectives 7429
▁Yuki 7428
▁acute 7428
▁Lee 7424
▁Sync 7424
▁logged 7424
▁Guru 7423
yaki 7422
▁PayPal 7421
▁anxiety 7421
driven 7417
▁incredibly 7417
▁Cafe 7416
▁pu 7415
lies 7414
ea 7413
▁Railway 7413
TSU 7412
▁Prepare 7412
▁Soviet 7412
▁Blockchain 7411
!) 7410
kei 7409
via 7409
▁brightness 7408
▁machining 7408
▁outlet 7408
zhou 7406
▁Saint 7406
▁Simply 7406
ITE 7403
▁incorporating 7403
2013 7400
▁4- 7400
▁recruitment 7400
▁DNS 7399
▁accomplish 7399
▁Apache 7398
ire 7397
▁Bit 7397
▁Five 7397
▁Kumamoto 7397
▁shorter 7396
▁makers 7394
▁Concept 7393
▁trail 7389
claim 7385
str 7385
▁sink 7384
▁breaks 7383
▁oc 7381
sea 7380
▁magazines 7378
▁desert 7377
▁differently 7377
▁violate 7376
▁coastal 7375
▁proactively 7375
ARI 7374
▁Specify 7373
▁Belgium 7372
gging 7371
▁Certification 7371
▁powers 7371
ula 7370
▁substantially 7367
▁exploit 7365
Gen 7364
▁59 7364
▁tile 7364
▁breakdown 7363
just 7362
▁donated 7359
▁hero 7359
▁situated 7358
nar 7356
▁League 7356
▁58 7355
▁Ask 7355
▁concentrate 7354
▁washed 7354
ika 7352
▁decreases 7352
▁worst 7352
▁56 7351
▁Insert 7351
MU 7349
▁Sitemap 7349
agon 7347
▁san 7346
▁Fish 7344
▁seller 7343
▁needle 7342
▁tremendous 7341
▁Announcement 7340
▁automobiles 7340
▁breach 7340
▁valued 7339
.2. 7337
voc 7337
▁vendor 7337
▁virtually 7337
ssociating 7336
INE 7334
▁spare 7331
CLASSES 7329
▁absorption 7329
▁Sites 7327
▁bubble 7327
▁leveraging 7326
Fig 7325
▁Advisory 7325
▁publications 7324
▁masterpiece 7323
▁puts 7321
▁Lighting 7319
▁boys 7319
▁1993 7318
▁advances 7318
▁poster 7318
▁lightweight 7312
▁reproduction 7312
▁kingdom 7310
▁Foodion 7309
▁artwork 7308
▁1.2 7307
▁derivative 7307
▁shoulder 7307
▁sad 7306
▁uploaded 7305
▁Photography 7304
▁complaints 7304
▁Path 7303
▁distant 7303
▁57 7302
▁spoil 7302
▁beautifully 7301
▁intent 7299
▁Round 7297
▁eliminating 7297
▁interfere 7294
▁tent 7294
▁DA 7293
▁beads 7293
grad 7292
▁Satellite 7292
▁dec 7292
▁Patent 7290
▁Bon 7289
▁mall 7289
zy 7288
▁Kami 7288
▁arguments 7284
▁u 7284
Prices 7281
sign 7281
▁audiences 7279
▁duplicate 7277
▁productive 7277
▁Afghanistan 7276
▁beloved 7276
▁username 7275
:40 7274
▁ill 7274
▁planting 7274
▁cock 7273
▁gardens 7273
▁Present 7272
▁Child 7271
▁homepage 7270
▁exceeding 7268
rb 7267
▁Christians 7267
▁Issue 7267
▁Creation 7266
▁exploration 7265
▁keyword 7263
▁assignment 7260
aught 7258
ication 7257
▁incidents 7257
▁renewal 7257
り 7257
▁PCs 7256
▁coins 7256
▁reuse 7256
:16 7255
▁Brother 7255
▁vs 7255
FF 7254
▁Money 7253
root 7249
▁Ag 7249
▁complications 7246
▁valuation 7243
:11 7241
▁terminate 7241
bble 7237
▁10:00 7237
▁declining 7236
▁hardly 7236
▁protocols 7235
tax 7234
▁Miss 7234
loss 7231
▁rocks 7230
▁ritual 7229
cient 7228
▁Diet 7227
▁Adam 7224
▁democracy 7221
▁simplify 7221
▁Islamic 7220
▁evolve 7220
ional 7219
bul 7218
where 7218
▁screw 7218
urge 7214
rian 7213
▁beds 7212
▁valley 7211
▁2003, 7210
▁Suzuki 7210
▁auction 7209
▁eternal 7208
ssel 7207
▁broke 7207
▁manipulation 7207
▁Auditors 7206
▁Console 7205
▁conform 7205
▁apologize 7204
DD 7202
▁Iraq 7202
▁soy 7202
▁Pra 7200
▁ASRock 7199
▁eastern 7199
Man 7198
nam 7196
info 7195
▁Noh 7195
▁Wood 7195
▁circles 7194
close 7192
▁exclude 7191
▁exhibits 7190
▁Contribution 7189
▁Wireless 7189
▁TE 7188
▁365 7185
Th 7184
▁APIs 7182
▁Maybe 7180
iver 7179
▁subtle 7179
▁Sharing 7178
hama 7177
ame 7175
▁shipped 7175
▁particle 7174
▁PE 7173
▁Reduction 7173
▁storing 7173
▁boil 7170
▁tooth 7170
ram 7169
▁bundle 7169
▁skilled 7169
▁KA 7166
▁Nao 7165
▁charts 7163
main 7162
arily 7159
vation 7156
▁Expo 7148
▁clubs 7148
zer 7146
▁Roll 7145
▁sins 7145
▁Consequently 7143
▁voluntary 7141
▁numerical 7140
▁burst 7139
▁Pop 7138
▁Opera 7137
▁beans 7137
▁safeguard 7137
ville 7136
titu 7135
▁gi 7134
ANT 7132
▁reward 7132
▁fraction 7127
cia 7126
▁dye 7122
▁encountered 7122
▁legacy 7122
▁triggered 7120
rupt 7119
-14 7118
▁UNESCO 7116
lov 7114
▁notified 7114
▁radical 7114
:18 7112
case 7112
▁Repository 7111
▁Crypto 7110
▁icons 7110
TRA 7109
▁protects 7109
▁attendance 7106
▁racing 7106
ern 7105
▁fragrance 7105
▁accumulate 7104
▁habits 7104
▁intimate 7103
▁ethical 7102
▁Ruby 7101
▁Incorporation 7100
▁boasts 7098
UB 7097
ius 7097
▁twist 7096
▁Spec 7095
▁Wait 7094
▁exported 7094
▁AL 7092
▁references 7092
block 7091
▁knee 7089
▁sing 7089
sawa 7088
▁James 7088
▁visualization 7087
▁swing 7086
▁Question 7084
▁Wo 7084
▁investor 7084
▁electron 7083
▁partially 7083
▁prestigious 7080
▁Publications 7078
UC 7077
Vi 7076
▁interval 7076
▁menus 7076
▁Compared 7075
▁Reservation 7075
▁continent 7074
▁actor 7073
▁harder 7073
kyu 7071
▁holders 7069
▁Tang 7068
▁rehabilitation 7067
▁WLAN 7066
▁playlist 7064
▁stroll 7064
Incompatible 7060
▁79 7060
sheet 7059
▁heavily 7059
▁Hours 7058
▁depreciation 7056
▁Togoshi 7055
▁(18 7051
page 7049
▁Mor 7049
ブ 7049
▁Booking 7047
▁wines 7047
▁Ari 7045
▁Archive 7044
▁tastes 7044
ginza 7042
▁anymore 7042
cover 7041
▁Maxim 7040
▁mushrooms 7040
▁Utility 7039
▁uninstall 7038
RL 7037
▁Examples 7037
▁Submit 7035
▁enjoyable 7035
▁lending 7035
▁hanging 7032
▁Types 7031
pher 7029
▁PO 7028
▁shore 7027
▁Orchestra 7026
▁concentrated 7026
Lab 7025
▁loops 7023
▁pane 7023
▁ph 7023
▁sorts 7023
▁Sale 7020
lib 7019
▁Disney 7017
▁Rain 7017
▁align 7016
tte 7015
▁Categories 7012
▁hack 7012
ches 7010
▁emerge 7010
▁JAPANESE 7009
▁jam 7007
▁66 7006
eki 7005
▁Overall 7004
▁Reduce 7003
itude 7001
▁confidential 7001
▁strengthened 7001
▁clicks 7000
▁お知らせ 7000
:17 6999
tar 6999
▁expects 6999
Figure 6998
▁GitHub 6998
▁packed 6997
VA 6992
▁Provider 6992
▁coil 6992
▁partly 6992
fix 6990
▁QR 6989
▁Toshi 6989
▁neighboring 6989
blog 6988
▁demanding 6988
▁somehow 6988
away 6987
Min 6983
mid 6983
▁planted 6983
▁Jav 6981
▁Pat 6977
▁pla 6976
▁Little 6975
▁analytical 6975
DL 6974
▁recruit 6974
▁Abstract 6973
▁Aichi 6971
▁FU 6971
▁queries 6970
▁gym 6968
nel 6967
▁geographical 6967
▁Championship 6966
▁10- 6965
2012 6963
mount 6963
▁Seven 6962
GH 6960
makers 6960
▁70% 6959
▁decor 6956
▁prospects 6956
RAM 6953
▁Shift 6953
▁adhesive 6953
▁altitude 6953
▁copied 6953
▁render 6953
▁Milan 6952
▁Side 6952
▁replacing 6951
▁Commerce 6950
:14 6949
▁Guests 6949
▁disadvantage 6947
▁stereo 6947
▁unto 6947
ski 6946
▁renewed 6944
Al 6943
angle 6943
▁unchanged 6943
▁breathing 6941
▁twin 6940
▁Intellectual 6939
▁votes 6939
Photo 6938
▁Wave 6938
▁bearing 6937
▁Qui 6936
▁sincerely 6935
▁ES 6932
▁subkey 6932
ew 6931
▁prompted 6931
▁(10 6929
▁Ensure 6929
▁Mary 6927
▁everybody 6927
pho 6926
▁Mel 6925
▁detector 6925
▁formatted 6924
▁juvenile 6924
▁communicating 6923
▁Owner 6922
▁fits 6922
▁suspend 6919
start 6918
▁securely 6918
▁tire 6918
▁Started 6916
▁Ireland 6915
product 6912
▁excluding 6912
▁Lanka 6910
▁inherent 6909
▁Hai 6908
oxi 6907
▁piano 6907
atur 6906
▁Output 6906
▁flowing 6906
▁vaccination 6904
tier 6903
▁Baby 6903
▁Downloads 6903
▁musicians 6903
イベント情報 6903
▁Hill 6902
▁army 6902
▁Indeed 6901
▁licensing 6901
kg 6900
▁boiling 6900
▁whereas 6900
▁boom 6899
▁evaluating 6899
▁alter 6898
▁permanently 6898
mewb 6897
▁heading 6897
▁installations 6897
hang 6896
▁Ana 6896
▁hip 6896
▁Sweden 6895
▁passwords 6894
▁syndrome 6894
System 6890
tory 6888
ューボ 6888
会 6887
▁max 6885
▁Cla 6884
▁brilliant 6884
▁ordering 6884
▁洋楽 6884
pha 6883
▁Pharma 6882
▁pig 6882
▁refined 6882
▁translator 6882
▁APEC 6881
▁Dong 6880
▁Visitors 6880
▁Inn 6878
PU 6877
▁Alt 6876
‐ 6874
▁dramatic 6874
▁mitigate 6874
therapy 6872
▁puzzle 6871
▁Campaign 6869
▁Chuo 6869
▁Provision 6869
▁Sim 6868
▁storm 6867
▁tightly 6867
▁PHP 6866
▁sleeping 6866
▁bold 6862
VR 6861
▁Contemporary 6861
▁synthesis 6860
▁rewards 6859
second 6858
▁preliminary 6858
ore 6857
▁Kawasaki 6857
▁Understanding 6855
▁steep 6854
pr 6852
▁Forms 6850
▁retro 6850
▁bud 6849
▁Bot 6847
▁peripheral 6845
▁transformed 6845
▁Researchers 6844
Mac 6842
▁auditor 6842
▁backgrounds 6842
lk 6841
▁configurations 6840
▁predicted 6839
lac 6838
▁CORPORATION 6838
▁streams 6836
Tocho 6835
▁Transportation 6835
▁seamless 6835
▁treasure 6835
▁unfortunately 6834
▁1989 6833
▁1991 6833
▁workspace 6833
▁endpoint 6832
▁scripts 6831
▁CSV 6826
▁Python 6825
▁advertisement 6824
▁downloads 6822
▁arises 6821
▁differs 6821
hol 6820
▁voices 6820
data 6818
▁Ever 6818
▁JAV 6816
▁breed 6815
▁proceeds 6815
▁wool 6814
▁Mono 6811
▁attachment 6811
zing 6810
▁Yamaguchi 6810
▁tan 6810
▁notebook 6809
MR 6808
▁Front 6808
▁maintains 6808
▁passionate 6808
▁courts 6806
▁flavors 6806
check 6805
▁YOU 6805
▁emphasize 6805
▁motorcycle 6805
▁participant 6804
That 6803
▁Early 6803
▁internship 6803
▁relaxation 6803
▁40% 6802
▁methodology 6800
▁2007. 6799
▁Tama 6799
▁remembered 6798
▁Volume 6795
4) 6794
▁habit 6793
hood 6792
▁donations 6792
▁Six 6791
▁simulate 6790
ye 6788
▁Katsu 6788
▁Stage 6788
▁graduates 6788
ito 6784
▁fusion 6784
▁statue 6784
▁Rinpoche 6783
▁tiny 6783
mir 6782
▁decorations 6782
▁spam 6779
▁timeline 6778
▁85 6776
etic 6775
location 6774
▁sufficiently 6774
nami 6773
▁Handling 6769
▁Retail 6769
▁contacting 6769
yang 6768
▁tanks 6766
ACE 6765
▁bell 6764
Fu 6760
▁Stream 6759
▁Window 6757
▁credits 6757
▁Domain 6756
▁Generally 6755
▁advancing 6755
▁Minato 6753
▁Queen 6753
▁gases 6753
▁Generation 6751
▁Ichi 6751
▁basics 6751
WE 6750
▁Diamond 6750
▁REIT 6750
▁quarterly 6750
▁sword 6748
▁jet 6747
▁organizing 6747
▁insist 6745
erie 6744
bing 6743
▁cleaned 6741
▁colon 6741
▁(* 6740
▁opera 6740
▁Wal 6739
▁retention 6739
CHA 6738
▁Demand 6738
:50 6736
▁recycled 6735
▁withstand 6735
Start 6734
▁Moto 6734
▁NE 6734
▁Vaio 6734
SK 6733
▁Rolex 6733
▁「 6733
▁circular 6732
▁offshore 6731
▁Input 6729
kura 6728
▁lithium 6727
▁Niigata 6725
standing 6724
▁MOL 6722
▁accelerated 6722
▁firewall 6722
NK 6721
even 6720
▁settle 6720
rent 6719
▁minus 6719
▁mut 6719
LT 6718
phe 6718
▁facial 6717
▁fibers 6717
▁basket 6715
▁hike 6715
▁wrapped 6715
▁drone 6713
▁rinse 6710
▁24- 6709
▁shelter 6709
▁Eye 6708
▁sincere 6707
▁MB 6706
▁Welfare 6706
ava 6705
▁corn 6705
wel 6702
▁lit 6702
▁Bor 6701
▁Wengui 6701
▁pulled 6701
▁utmost 6701
plication 6700
cub 6699
▁peel 6698
▁necessity 6696
▁settled 6696
▁Acronis 6695
▁Inquiries 6695
▁installer 6695
▁clay 6694
View 6693
CAD 6692
REA 6691
▁striving 6691
oz 6690
▁grace 6689
▁visualize 6688
▁acoustic 6685
▁merely 6684
Add 6682
▁Kar 6682
Wallpapers 6680
pol 6680
▁retailers 6680
lliPhone 6679
▁Muslim 6678
▁2004, 6677
▁tick 6677
▁hygiene 6676
▁62 6675
▁edited 6675
▁Bal 6673
▁behave 6673
NY 6672
▁0.5 6672
▁pile 6671
▁shrink 6671
ELL 6670
▁compensate 6668
WS 6667
▁CR 6667
▁Cast 6666
▁fascinating 6666
ident 6665
mini 6665
▁shuttle 6664
▁AOMEI 6663
▁Headquarters 6663
▁dispatch 6663
structure 6662
▁delayed 6662
▁locked 6662
▁manifest 6662
▁Rather 6660
ford 6659
coreline 6657
▁Obama 6657
▁analysts 6657
▁refreshing 6657
▁conditioning 6656
▁Aug 6655
2021 6653
ister 6653
▁towns 6652
▁opponent 6651
▁prop 6651
▁recovering 6651
▁Char 6650
▁witness 6643
▁scrap 6642
▁Segment 6641
▁rape 6641
astic 6640
▁absorbed 6640
▁AT 6638
▁besides 6638
▁ignore 6638
▁startups 6638
▁el 6637
▁hospitality 6637
▁pushed 6637
UD 6636
lands 6636
▁Governor 6636
▁sunset 6636
▁overwhelming 6635
▁saves 6635
International 6633
gh 6633
▁slots 6633
prop 6632
▁Ed 6632
group 6630
▁Domestic 6630
▁accumulation 6629
▁foil 6629
rad 6627
▁Assessment 6627
▁wherever 6627
▁Tag 6626
▁progressive 6625
ibly 6624
▁considerations 6622
Li 6620
▁Subscription 6619
▁snacks 6619
▁undertaken 6619
▁outputs 6618
▁synchronization 6618
▁buses 6617
▁marking 6617
▁(4 6616
▁steering 6616
cost 6613
▁APP 6613
▁Emergency 6613
ay 6611
▁Facilities 6611
▁displaying 6610
▁rises 6609
▁interpret 6608
▁fried 6607
▁pr 6606
rail 6605
▁consumed 6605
▁fol 6604
▁Quantity 6603
▁refrain 6603
▁Ky 6601
▁Theater 6601
▁Boot 6600
▁Chicago 6598
ERS 6597
anda 6595
ウ 6595
▁DR 6594
Up 6593
Download 6590
▁commented 6590
▁accelerating 6589
00 6588
▁Accommodation 6588
▁argue 6588
▁clause 6587
▁mon 6587
through 6586
▁Would 6586
▁fare 6586
▁Improvement 6583
▁Monetary 6583
weight 6578
▁Reader 6577
▁Venue 6577
▁theatre 6577
▁handmade 6576
pack 6574
resistant 6574
▁Recommended 6574
bla 6573
▁barriers 6573
▁garbage 6573
▁remotely 6573
▁towel 6572
odo 6571
▁Layer 6571
ddle 6569
try 6567
.15 6566
▁ranges 6566
▁linking 6565
▁Lesson 6564
グ 6564
bre 6563
▁PI 6563
▁rainy 6561
▁Mega 6560
▁inches 6560
▁Accounts 6559
▁armed 6558
defined 6554
sia 6554
-09 6553
▁Val 6553
▁elected 6553
asse 6552
bri 6552
▁inspire 6552
▁interference 6552
▁verse 6552
▁Progress 6549
▁surge 6549
▁inclusive 6548
▁substitute 6545
▁venues 6544
▁disrupt 6543
▁aside 6541
▁Meta 6540
▁formulation 6539
▁missed 6539
▁varied 6539
ality 6538
▁mild 6538
▁wholly 6537
▁MOV 6536
▁Ski 6536
▁alien 6536
▁cellular 6534
▁Economics 6531
▁Transactions 6530
LU 6527
▁institutes 6527
More 6524
icular 6524
▁Female 6524
▁spouse 6523
▁2,000 6522
▁excellence 6522
▁Gui 6521
▁kimono 6521
▁salary 6521
agent 6520
▁Oka 6520
▁allowance 6520
▁corresponds 6519
SH 6517
▁float 6517
▁lying 6517
.3. 6516
mile 6516
▁OEM 6516
ographic 6515
▁COM 6515
ides 6514
▁MSI 6514
▁carriers 6514
▁Restaurants 6511
▁orchestra 6510
▁Universe 6509
▁rivers 6509
▁Rental 6508
▁salon 6508
▁Tro 6505
▁confirming 6503
▁ingredient 6503
strict 6502
asa 6500
born 6500
cate 6500
▁2006. 6499
pple 6497
▁terrible 6497
▁strings 6496
naka 6495
▁Perfect 6495
▁Cover 6494
▁Cancer 6493
▁Happy 6490
▁Shimo 6490
▁blossom 6489
▁pressed 6486
▁cleaner 6484
▁employer 6484
▁persist 6484
▁accidentally 6483
▁enters 6483
▁Greece 6482
hole 6480
AST 6479
▁Carbon 6478
▁occasions 6476
empt 6470
が 6470
и 6468
▁laying 6467
IG 6465
++ 6464
naga 6463
▁coupons 6463
▁federal 6460
▁corrosion 6459
▁Angel 6458
▁Concert 6457
around 6456
pla 6455
▁fertilizer 6455
▁(@ 6452
▁fashionable 6451
ground 6450
▁Upgrade 6450
▁loose 6449
▁cabin 6447
▁inappropriate 6447
動画 6446
▁Prefectural 6445
▁surplus 6445
▁sacrifice 6444
▁tray 6444
channel 6443
▁--- 6443
▁emerged 6443
add 6442
▁Scene 6442
▁god 6442
▁surprising 6442
acle 6440
hear 6440
trop 6440
lly 6437
hei 6436
risk 6436
▁resist 6435
rain 6432
▁magnitude 6431
▁Artists 6429
▁isolated 6428
▁silicon 6427
▁Cancellation 6426
▁sells 6425
▁adopting 6424
▁hiring 6424
inch 6423
▁cottage 6423
ONE 6422
▁Mont 6421
▁registering 6421
▁sampling 6420
▁Tsukuba 6418
▁essentially 6418
▁spell 6418
charge 6417
▁Apartments 6417
▁delight 6415
▁reboot 6415
▁sponsor 6415
▁Documents 6414
▁boiler 6414
▁skirt 6414
▁Ali 6412
▁Distribution 6411
▁privilege 6411
▁Scientific 6410
▁mankind 6409
▁downward 6407
▁forgotten 6407
stock 6406
▁anytime 6406
日 6406
▁William 6404
▁stabilize 6404
CT 6402
-08 6401
▁detects 6401
▁Girl 6399
ata 6396
▁George 6395
▁Refer 6393
▁eaten 6393
▁entrepreneurs 6393
▁patents 6393
▁JSON 6392
▁hum 6392
▁depression 6391
▁diesel 6389
FO 6388
▁gu 6388
▁spill 6388
nti 6387
▁courage 6387
▁lean 6387
▁highway 6385
▁undergo 6385
Sat 6383
▁Disclaimer 6383
▁PRE 6382
▁Rotary 6381
winning 6379
▁Stainless 6378
▁admire 6378
▁explanations 6377
▁praise 6377
▁weekly 6377
wave 6374
▁envelope 6374
/8 6373
▁Yang 6373
▁relieve 6373
scribe 6372
▁Theme 6372
▁collects 6372
▁confused 6369
▁CE 6368
▁merge 6368
▁broader 6367
▁inexpensive 6367
▁tenants 6367
▁Cu 6366
▁Font 6366
▁attain 6366
▁ranked 6366
▁adapted 6365
:25 6364
▁earthquakes 6361
▁Mari 6360
▁Shan 6360
▁DOC 6359
ena 6358
^ 6357
▁Ye 6356
▁Yoko 6356
after 6354
▁Hence 6354
▁fabrics 6354
▁outlined 6354
gua 6353
▁700 6353
▁Revolution 6353
▁Salesforce 6353
▁instructor 6353
▁Emb 6352
▁IV 6352
▁Laboratories 6351
▁lighter 6351
▁Mizu 6350
▁smallest 6350
▁Philosophy 6348
tant 6347
▁63 6345
▁Zoom 6345
▁Theatre 6343
▁strives 6342
▁Brown 6341
▁Ama 6339
▁Ara 6339
▁donation 6339
▁Bru 6338
▁occupation 6338
▁¥4 6336
section 6335
jan 6333
▁Steps 6333
▁wages 6331
▁minds 6330
eller 6329
▁affiliate 6329
▁extending 6329
▁shipment 6328
▁Chubu 6327
▁Write 6327
▁Ticket 6325
▁Ready 6324
▁delegation 6324
road 6323
▁EL 6323
▁disorder 6323
▁TH 6322
▁Vehicle 6321
She 6320
URA 6320
▁Heaven 6320
▁biomass 6320
nish 6319
▁Ce 6318
▁attorney 6318
factor 6317
▁ah 6316
▁Astellas 6315
▁posture 6315
▁workforce 6315
▁soldiers 6314
▁commitments 6311
▁Hiroshi 6310
▁Wish 6310
Ra 6308
▁Range 6308
▁Xiao 6308
▁zoom 6308
▁4.0 6307
▁submitting 6306
▁café 6304
▁beverages 6303
▁positioning 6302
▁Focus 6301
▁nurture 6300
:22 6299
ride 6299
rom 6298
▁Yi 6298
▁reasonably 6298
▁Route 6296
▁periodic 6296
▁MUFG 6295
▁cultivate 6295
▁footprint 6295
▁canceled 6293
▁workload 6293
▁expire 6291
JP 6290
valu 6290
motion 6289
▁Authority 6289
▁triangle 6287
▁Finland 6286
▁festive 6286
lf 6285
▁hairstyle 6284
▁sphere 6284
▁preset 6282
mpo 6281
▁safer 6281
▁mil 6279
▁pixels 6278
▁alignment 6275
▁Cause 6274
▁explosion 6272
▁gravity 6272
arn 6270
▁baked 6270
▁provoke 6270
▁disks 6269
▁reductions 6269
proof 6267
▁Yamagata 6267
▁penalty 6267
▁nest 6266
▁lobby 6265
▁exert 6264
▁Crystal 6263
▁sustain 6263
▁Utilization 6262
▁advisable 6262
▁Similarly 6261
gami 6260
▁barrel 6258
dem 6257
▁Accept 6257
oke 6256
▁Charts 6256
▁(6) 6255
▁Wallet 6255
▁revisions 6255
▁Character 6254
wise 6253
▁Consul 6253
▁coordinate 6253
▁secrets 6253
LM 6252
▁Cool 6252
▁respiratory 6252
▁IBM 6249
▁connectors 6248
▁hate 6248
▁Letter 6247
▁filing 6247
▁invisible 6247
PORT 6246
inc 6245
taro 6244
▁Cable 6243
▁constraints 6243
▁fallen 6243
▁+81- 6241
▁Heat 6240
▁interim 6240
▁grip 6239
stream 6237
▁CS 6236
inating 6235
▁emit 6235
▁Feel 6234
▁Kii 6234
▁traces 6234
▁Peninsula 6233
▁executing 6232
▁cancelled 6230
lio 6229
▁grams 6228
▁benchmark 6227
ily 6226
outs 6225
▁AVI 6225
▁angel 6225
purpose 6224
▁tiles 6224
mber 6223
▁shelf 6222
OUR 6221
▁appoint 6221
▁Upload 6218
▁fantasy 6218
▁ONLINE 6217
▁pushing 6217
▁sewing 6217
▁tre 6216
▁descriptions 6215
PER 6214
▁Martin 6214
▁Photoshop 6214
▁accepts 6214
▁ethics 6214
posi 6211
▁67 6211
▁initiated 6210
▁toggle 6209
aunt 6208
▁FA 6208
▁adjusting 6208
▁comb 6208
▁furnace 6208
▁Load 6206
▁appliance 6206
▁concerts 6206
change 6205
▁evolved 6205
▁reinforce 6205
▁sorry 6205
aster 6204
▁Ads 6204
ま 6204
gle 6203
▁Connector 6203
▁abnormal 6203
▁bands 6203
▁extends 6203
▁euros 6202
▁Facility 6201
"), 6200
▁Omega 6200
Your 6198
3/ 6197
control 6197
:21 6194
ANCE 6193
▁CI 6192
▁gadget 6192
▁genome 6192
▁emergence 6191
▁assumption 6190
▁lymph 6190
trust 6189
▁Fortunately 6189
Log 6188
▁persistent 6188
コ 6187
ges 6186
▁economics 6185
▁Dynamic 6182
▁countless 6181
▁nutrients 6181
ancing 6179
▁tennis 6179
-04 6178
▁creatures 6178
▁profession 6178
▁Leaders 6177
▁hell 6177
▁ICU 6175
MER 6174
walk 6173
▁⋆ 6172
▁€ 6171
▁Creator 6170
▁reproduce 6170
▁Chemicals 6169
▁Implementation 6169
mag 6168
▁Folder 6168
▁Gays 6167
tube 6166
ushi 6165
working 6165
▁Conf 6165
▁60% 6164
▁celebrated 6164
ogni 6162
▁AN 6162
▁Between 6162
▁Electro 6162
▁Parts 6162
reach 6161
▁reinstall 6160
▁typhoon 6160
▁Branch 6157
▁snack 6157
tent 6156
▁employ 6156
hibi 6155
▁prediction 6154
▁(5 6152
▁Again 6152
rap 6151
▁backups 6151
▁RFID 6150
▁apple 6149
▁eliminated 6147
▁Gift 6146
▁sustained 6145
▁Turkish 6144
▁bonuses 6144
▁repayment 6144
efficient 6143
version 6143
▁lenses 6143
▁programmes 6143
▁variation 6143
▁disadvantages 6140
▁anonymous 6136
▁HDD 6135
▁catalyst 6135
-05 6133
▁vo 6133
▁Higashi 6130
▁pun 6128
▁socio 6128
▁ALL 6127
▁victim 6127
iber 6125
▁Supported 6125
PF 6123
byte 6122
▁mega 6122
▁lamps 6120
▁Increase 6118
▁fulfilling 6116
yard 6115
▁Leadership 6115
▁Bell 6113
▁WEB 6113
▁dirt 6113
▁130 6111
▁trap 6111
▁Hyper 6110
▁comparing 6110
:23 6109
ille 6109
▁Bath 6108
IVE 6107
▁checkout 6107
▁peer 6107
▁fed 6106
▁Ei 6105
▁followers 6105
4.0 6104
▁emphasized 6104
BL 6103
▁#1 6103
▁Invest 6103
craft 6102
▁Employee 6102
▁Plastic 6101
assi 6100
▁accent 6100
▁upgrading 6100
▁Ceremony 6099
▁harness 6099
▁wholesale 6099
▁Phase 6098
▁beaches 6098
▁couples 6098
▁oxide 6098
2010 6097
author 6097
▁comprised 6097
▁downtown 6097
▁spite 6096
shot 6095
▁shake 6095
6) 6094
Ca 6094
▁1-2 6094
▁dig 6094
▁assessments 6093
▁aforementioned 6092
▁exterior 6092
Sp 6091
▁Gene 6091
say 6090
▁ANY 6090
▁knock 6090
▁respondents 6088
▁Messag 6086
▁Zip 6086
▁profound 6086
▁imposed 6085
▁integral 6085
imp 6084
▁cycles 6084
▁discipline 6084
▁faithful 6084
Fri 6083
tune 6081
▁Pattern 6081
sol 6080
▁Trial 6080
▁actuator 6080
▁amino 6080
▁Chang 6079
▁opposition 6079
▁sculpture 6079
▁routing 6078
▁cer 6077
▁depart 6076
rine 6075
▁Subject 6075
▁proactive 6075
shirt 6074
ü 6074
▁Venture 6074
▁Fer 6072
▁Craft 6068
▁restriction 6068
▁prohibit 6067
▁utilizes 6067
HS 6066
iga 6066
▁amendment 6066
▁simulator 6064
lle 6062
una 6062
▁touched 6062
▁Kenya 6061
GL 6060
▁evolving 6059
▁gorgeous 6059
▁5) 6058
▁legally 6058
1/ 6057
metry 6056
▁Affiliate 6056
▁compress 6056
Ar 6052
▁thermo 6051
VE 6050
lance 6049
▁disappeared 6049
▁handy 6049
フ 6049
▁ABOUT 6047
▁backdrop 6047
▁declare 6047
▁devoted 6047
social 6046
▁3.5 6046
▁SM 6046
▁airline 6046
▁shaped 6046
hours 6044
touch 6044
east 6042
▁postcard 6042
▁MAR 6041
thy 6040
▁bypass 6039
▁composite 6038
▁melt 6038
shiki 6037
▁Shizuoka 6037
▁metadata 6037
NER 6036
BU 6035
▁disconnect 6035
▁Deputy 6034
▁Regulation 6034
▁Success 6034
▁Teacher 6034
here 6032
▁packet 6032
ENCE 6031
▁civilization 6031
▁humanitarian 6031
▁Dorjee 6030
▁Hol 6030
▁Jerusalem 6030
▁snapshot 6029
gress 6028
▁centimeters 6028
:24 6026
writer 6026
▁simplified 6026
▁simulations 6026
▁Blu 6024
▁tolerance 6024
Name 6023
▁NC 6023
▁administrators 6023
▁plastics 6022
▁Rinchen 6021
zai 6020
▁decreasing 6020
▁drift 6020
▁Robot 6019
▁erase 6019
▁regulated 6019
nn 6018
▁Logistics 6018
▁isolation 6017
▁sprinkle 6017
▁convinced 6016
▁Investor 6015
▁stickers 6015
▁bracelet 6014
▁calcium 6013
▁funny 6013
▁fo 6012
/2 6011
▁Testing 6009
▁contamination 6009
▁unfair 6009
sumi 6008
▁68 6008
▁biology 6008
escence 6007
leading 6006
▁Income 6006
▁Anniversary 6005
▁handed 6004
▁masters 6004
MAX 6002
▁landscapes 6002
▁winding 6001
▁Feature 6000
taking 5999
priv 5997
▁Ring 5997
rates 5995
学 5994
▁equation 5993
▁immunity 5993
▁Approach 5990
▁lady 5990
▁140 5988
▁flame 5988
▁Residence 5987
▁standpoint 5987
▁versatile 5987
▁approaching 5986
▁migrate 5986
▁dimension 5985
HER 5984
▁Treaty 5983
▁electromagnetic 5983
▁char 5980
akura 5979
▁slider 5978
▁ONE 5977
▁Div 5974
▁heater 5974
▁milestone 5974
▁tune 5974
▁Mass 5972
▁cats 5970
▁tires 5969
▁crimes 5968
▁Hama 5967
FOR 5966
▁61 5966
2011 5965
▁undergraduate 5965
hon 5963
▁loyalty 5963
rage 5962
▁Britain 5962
▁frying 5962
▁scattered 5961
▁BY 5960
▁TRA 5960
▁boiled 5960
▁Premiere 5959
cycle 5958
▁Supporting 5954
Book 5953
▁banner 5953
▁discussing 5952
.1. 5951
▁Chen 5951
▁Del 5951
▁bias 5950
▁foundations 5949
▁tub 5949
▁$9 5948
▁Compact 5945
▁Graphics 5945
▁enforce 5945
▁stove 5945
▁weapon 5943
中 5942
▁trucks 5941
▁investigations 5939
ira 5938
tiva 5938
▁hence 5938
JA 5936
▁disciples 5936
▁overnight 5936
▁Physics 5935
▁enrolled 5935
▁Electrical 5932
▁Dy 5931
▁2005. 5929
▁clan 5929
▁infringement 5928
▁organisation 5928
▁fade 5926
▁missions 5926
ITA 5925
pac 5924
▁proceeding 5923
IV 5921
▁singer 5921
abi 5919
▁Pla 5919
-06 5917
▁Spots 5917
▁Vienna 5917
▁Conversion 5915
▁adaptation 5915
impl 5914
solve 5914
▁mathematical 5914
▁drain 5913
▁flexibly 5912
▁Changing 5908
▁outfit 5906
people 5905
▁Transaction 5905
▁blocking 5905
▁memorable 5905
▁additionally 5904
▁rays 5904
PRO 5902
SON 5902
ode 5902
pop 5902
▁Healthcare 5902
▁whi 5902
ought 5901
qual 5901
▁Israeli 5901
▁UV 5901
▁odd 5901
logical 5900
▁enrollment 5900
▁110 5899
▁Villa 5899
▁Discussion 5898
▁CF 5897
ABLE 5895
▁Kamakura 5895
▁Parents 5895
▁broth 5895
dong 5894
sec 5894
▁Aka 5894
▁enrich 5892
▁royal 5892
gam 5891
▁None 5891
▁$2 5889
AVE 5888
▁Specific 5887
▁slideshow 5887
▁snap 5887
▁ventilation 5887
depth 5886
▁Institutional 5886
▁diamonds 5886
▁reside 5885
eva 5884
▁bind 5884
▁deserve 5883
File 5882
OU 5882
▁allergic 5882
▁Charter 5881
▁crossing 5881
▁graduating 5881
▁NS 5880
▁tokens 5880
▁conditioner 5879
▁spatial 5879
rank 5877
▁MORE 5877
▁fuels 5873
▁Louis 5872
▁refugees 5872
ado 5871
▁Rev 5870
wigs 5868
troph 5864
▁accessibility 5864
▁desires 5864
NP 5863
▁Definition 5863
▁explicitly 5863
▁injured 5862
▁ja 5862
▁utilities 5862
▁FREE 5860
▁hazard 5860
▁mice 5856
bur 5854
▁fixing 5854
▁shutdown 5854
js 5853
kata 5853
▁NOTE 5853
▁Dar 5851
▁diving 5851
▁labour 5850
▁realm 5850
▁wise 5850
▁improper 5848
▁monitored 5847
▁Portuguese 5846
▁lecturer 5846
▁Nepal 5845
▁recommends 5845
.10. 5844
▁Choosing 5843
▁PH 5843
▁embed 5843
▁Cards 5842
▁reject 5841
▁Fla 5840
▁Kanto 5839
▁existed 5839
▁observing 5838
AG 5837
▁mothers 5837
▁Wash 5836
▁Zo 5836
▁Brazilian 5835
▁Ryu 5834
▁Wizard 5834
▁gaps 5833
▁creator 5832
▁relate 5832
▁checkbox 5831
▁chairman 5830
▁indirect 5830
▁baseball 5829
▁Provide 5828
▁alerts 5827
INA 5825
fill 5825
▁Reserve 5825
▁elastic 5825
▁neural 5825
▁Physical 5824
▁renovation 5824
▁tungsten 5824
▁unwanted 5824
▁onions 5823
FR 5822
▁fonts 5822
▁Bai 5821
home 5820
▁Role 5820
▁Laser 5819
▁77 5818
▁awesome 5818
▁backpack 5817
▁ecological 5817
kon 5816
story 5816
▁Updates 5816
▁rated 5816
▁bits 5815
▁Jack 5813
▁Evernote 5812
▁advisory 5812
▁likelihood 5812
▁Compensation 5811
▁generous 5811
Part 5808
▁Comprehensive 5807
▁Justice 5806
▁bump 5806
▁lacquer 5806
▁schema 5806
▁urge 5806
:59 5805
▁; 5801
▁attacker 5801
▁heal 5801
▁injuries 5800
▁Swedish 5798
▁worsen 5798
▁specifies 5797
▁illustrations 5796
▁simplicity 5796
▁purple 5794
▁derivatives 5793
▁supplying 5793
▁mathematics 5791
▁Break 5790
▁Popular 5790
▁behaviour 5789
▁spoken 5789
RAR 5786
▁tubes 5786
▁Arch 5784
▁pertaining 5784
nge 5782
▁Eduard 5782
▁tongue 5782
▁instructors 5781
▁medal 5781
▁lend 5777
▁workpiece 5777
▁Nash 5775
▁Primary 5775
mentioned 5773
▁angles 5773
▁recorder 5773
▁Amnesty 5772
▁Matt 5772
▁elect 5772
▁stake 5772
▁Shira 5770
”). 5769
▁supervisor 5768
▁assembled 5766
▁discomfort 5766
uni 5764
▁exquisite 5764
arm 5763
▁Weight 5763
▁warrant 5763
▁Dia 5760
▁EUR 5760
▁Merc 5760
▁Moving 5760
▁RF 5760
▁Royalty 5760
▁sensations 5759
MX 5758
▁Chamber 5758
▁handler 5758
▁socket 5758
ISA 5757
quarter 5757
▁advertisements 5757
▁COP 5756
▁0.1 5755
▁brew 5753
▁eager 5752
▁fuck 5750
▁salvation 5750
▁scales 5750
▁JS 5749
▁Vin 5749
▁accessory 5749
▁matched 5749
ux 5748
▁fleet 5748
▁nuts 5748
▁palace 5747
▁implies 5746
▁Portugal 5743
▁investigated 5743
▁penetrate 5743
Br 5742
added 5742
▁assumes 5742
Type 5741
▁genre 5741
▁Contest 5740
▁Girls 5739
▁bucket 5739
ppo 5738
▁Apart 5738
▁beta 5738
▁cow 5738
▁phrases 5738
▁SEO 5737
▁companion 5737
▁complain 5737
▁quit 5737
▁ACCESS 5736
▁Designed 5736
rim 5735
▁Charm 5735
plan 5733
▁Reply 5733
▁Challenges 5732
▁Kara 5732
▁lovely 5732
-07 5731
▁Avoid 5728
▁Views 5728
▁combustion 5728
▁Okayama 5727
image 5726
▁crops 5726
saka 5725
▁Gifu 5725
▁infant 5725
▁surroundings 5725
▁LinkedIn 5724
▁imports 5724
tag 5723
▁Ash 5722
▁Balance 5722
▁deleting 5722
▁calculating 5720
1.3 5718
▁Dashboard 5717
▁Flex 5717
▁Snowflake 5717
▁Template 5717
▁maritime 5717
Let 5715
▁Confirm 5715
▁Ren 5715
▁comfortably 5714
▁kernel 5714
▁sofa 5713
will 5712
▁Floor 5711
▁WhatsApp 5711
▁competitions 5711
▁arbitrary 5710
MAP 5709
Out 5708
▁closure 5708
:28 5707
books 5706
stick 5706
▁amongst 5705
ö 5704
▁Silicon 5704
▁Almost 5702
▁bat 5702
▁herein 5702
▁UFJ 5701
▁referring 5701
▁critic 5700
▁claimed 5699
▁hoping 5699
▁Navigation 5698
▁newest 5698
▁terrorist 5696
▁Steam 5695
▁dragon 5695
▁Wat 5694
▁Secretariat 5693
hong 5692
▁Plate 5692
▁comprises 5692
▁structured 5692
て 5692
▁vegan 5691
dar 5689
jun 5689
▁Kuro 5689
▁Plug 5689
ien 5688
▁expectation 5688
▁ignored 5688
ICA 5686
agawa 5686
pit 5686
PD 5685
format 5685
▁continuity 5685
▁incoming 5684
大学 5684
▁favourite 5682
▁sec 5682
年 5681
▁Tracking 5679
▁buffet 5679
▁¥5 5678
▁lined 5677
ude 5676
▁Jobs 5676
▁processors 5675
▁vivid 5674
▁Junior 5673
▁oversee 5673
MIT 5672
▁extracted 5671
first 5670
ova 5670
▁Resolution 5670
▁spirits 5670
chemical 5669
lessly 5668
▁trunk 5668
▁builds 5667
▁nationality 5666
dian 5665
hem 5665
wall 5665
▁strips 5665
fire 5664
▁picking 5664
▁GR 5663
▁opposed 5662
wind 5661
stage 5660
▁consensus 5658
Ltd 5657
elli 5657
▁reviewing 5657
MIC 5656
icate 5656
▁vibrant 5656
▁Nike 5655
▁obviously 5655
ISE 5654
▁divorce 5654
▁reveals 5654
mental 5652
▁finest 5652
▁lawyers 5652
▁obstacles 5652
▁sacred 5652
ich 5650
▁0.0 5650
▁Considering 5650
▁tendency 5650
▁dictionary 5649
▁flesh 5645
▁Tian 5643
▁refine 5642
▁bal 5641
▁defeat 5641
▁exotic 5641
terdisciplinary 5640
人 5640
▁jo 5639
:26 5638
▁municipal 5637
▁81 5636
▁® 5636
▁Drug 5635
▁attendees 5635
▁tumor 5635
First 5634
uce 5634
▁lib 5634
▁priorities 5634
▁minority 5632
hino 5631
▁Unless 5631
▁allocate 5631
INT 5629
▁mainstream 5629
▁rank 5628
WN 5625
▁boats 5625
▁herbs 5625
プ 5625
▁Tours 5624
▁advocate 5624
▁blade 5624
▁negatively 5622
▁Nano 5621
▁souvenir 5621
▁outbreak 5618
▁salmon 5618
Connect 5617
World 5615
▁Bring 5615
▁Ray 5615
Some 5614
▁dare 5613
▁mal 5613
▁headache 5612
USE 5611
▁Barcelona 5609
solid 5608
▁Trademark 5608
Di 5606
▁Against 5606
▁AG 5596
▁Functions 5595
▁Jews 5592
▁frameworks 5591
▁Tanaka 5590
▁cheer 5590
▁civilian 5590
▁Pur 5589
▁lifestyles 5589
EU 5588
quest 5587
▁extraction 5587
▁guardian 5586
zuka 5584
▁restoring 5584
▁lawyer 5583
▁Matters 5581
▁monk 5581
:27 5580
▁varnish 5580
▁Asakusa 5578
▁compressed 5578
▁gasoline 5577
▁thrown 5577
▁dump 5576
▁sponsored 5576
DU 5575
▁Hara 5574
▁Hostel 5574
▁NASA 5574
▁promised 5574
Not 5572
▁Eve 5572
▁restructuring 5572
▁onboard 5571
▁IFRS 5570
▁arrows 5569
▁prints 5569
▁_ 5568
▁umbrella 5568
▁Sil 5566
▁magical 5565
CHE 5564
▁responded 5564
Why 5562
▁Au 5560
lique 5559
▁Daiichi 5559
licit 5557
▁RI 5557
▁ceramics 5557
▁confusion 5557
▁patience 5557
▁disability 5556
▁essay 5555
▁rejected 5555
ド 5555
▁calibration 5554
▁cam 5552
▁Alternatively 5551
▁` 5551
bric 5550
▁Sydney 5550
▁atmospheric 5550
▁crazy 5550
▁talents 5548
▁Jewish 5546
▁delays 5546
▁mainland 5546
▁paints 5546
Next 5545
▁ADC 5545
▁tangible 5544
▁compromise 5542
▁leasing 5542
dust 5541
▁Supreme 5541
▁Feb 5540
▁blessed 5540
pool 5539
self 5539
▁Democratic 5539
▁freeze 5539
▁silence 5536
lating 5535
▁scores 5535
mari 5534
▁DIS 5533
-25 5532
5.0 5532
▁Beauty 5532
▁160 5531
▁ratings 5531
▁wavelength 5531
▁69 5530
▁Cold 5530
▁Safari 5529
▁thirty 5529
LAN 5527
▁fiction 5527
5) 5526
circ 5526
▁Fax 5526
▁Poland 5526
▁lag 5526
photo 5525
:05 5523
▁bunch 5523
▁relay 5520
▁INC 5516
▁{ 5516
▁Minami 5515
▁Mars 5514
▁amid 5514
lute 5513
▁poured 5513
▁issuing 5511
▁shutter 5511
nk 5510
util 5509
▁briefing 5509
▁judged 5509
▁tends 5509
phan 5508
▁caution 5508
pen 5507
▁enlarge 5505
▁napkin 5505
Special 5503
▁cabbage 5503
▁TR 5502
▁unstable 5501
▁Auditor 5499
▁expressing 5499
▁stir 5499
HAN 5498
▁orgasm 5498
▁struck 5497
▁Thr 5496
aka 5495
▁COMPANY 5494
▁Carl 5494
▁allergies 5494
▁Similar 5493
▁BC 5492
▁hor 5492
▁Onlinesaleus 5489
▁diversified 5489
▁grants 5489
ml 5488
▁auditing 5488
EAR 5487
▁Airlines 5487
▁sentiment 5487
▁tin 5486
▁Arabic 5485
▁matrix 5485
▁noticeable 5485
▁Leather 5484
▁joints 5484
▁hunting 5483
▁inspections 5483
door 5482
php 5482
▁Brussels 5482
green 5481
▁GS 5481
▁Nagano 5481
▁Sym 5479
▁gland 5479
▁SATA 5478
:03 5476
▁directive 5476
▁correlation 5475
▁missile 5475
▁shorten 5475
2.1 5473
WC 5473
▁Palestinian 5473
▁fulfilled 5473
bie 5472
mut 5472
science 5472
▁hash 5471
Ba 5470
▁Tutorial 5470
▁cure 5470
support 5469
▁Hana 5469
▁Chemistry 5468
▁fate 5468
▁glory 5468
▁baggage 5467
Hz 5466
▁Saitama 5466
▁shed 5466
chin 5465
▁consequence 5465
▁dealer 5465
▁systematic 5465
▁Dark 5463
▁Networks 5463
▁Nikkei 5463
▁Years 5461
micro 5459
▁ZetaTalk 5459
▁elevator 5459
▁favorites 5459
▁conductor 5458
▁Know 5457
▁Processor 5457
▁considerably 5457
▁*1 5456
▁democratic 5456
▁Admin 5455
▁alternate 5454
▁surf 5453
オ 5453
Information 5452
▁Books 5450
▁Joseph 5450
▁POS 5448
▁sexually 5448
▁CV 5447
▁Mongolia 5447
▁Clo 5445
▁lap 5445
eno 5444
Port 5441
▁ye 5441
▁preventive 5440
▁suspect 5440
▁Languages 5439
▁projection 5439
▁Kanazawa 5438
▁penis 5437
▁Built 5436
CU 5435
itter 5435
▁exceptions 5434
▁shifting 5434
Now 5433
▁supervisory 5433
glo 5432
▁2002, 5432
▁dirty 5432
▁TwitCasting 5431
▁appetite 5430
▁illustrate 5430
▁Dubai 5429
”), 5427
▁Century 5427
▁optimum 5427
ference 5426
▁forums 5426
▁Diversity 5425
▁graphical 5425
▁Deliver 5424
▁LIVE 5424
▁cliff 5424
▁lasting 5423
chem 5422
▁terrorism 5422
▁crane 5421
▁Satan 5419
▁worthy 5418
Global 5416
▁Render 5416
▁clamp 5416
▁immigration 5416
iwa 5415
▁abundance 5415
▁5% 5414
▁Americas 5414
▁telescope 5414
STER 5411
▁Complex 5411
▁beverage 5411
▁architect 5410
▁Horse 5409
▁collector 5408
▁elimination 5408
dium 5407
ensive 5407
rol 5406
▁confront 5406
▁dental 5406
▁Educational 5405
▁Flowers 5404
▁IF 5404
▁pearl 5404
▁welcoming 5404
▁balcony 5402
▁evacuation 5402
▁undertaking 5402
▁upgraded 5402
▁pur 5401
150 5398
nov 5398
▁Mine 5398
▁YOUR 5398
▁bridges 5398
lytic 5397
▁recipients 5396
▁souvenirs 5396
▁CT 5395
▁Hardware 5395
▁elite 5395
ichiro 5394
logist 5394
▁avoiding 5394
▁Dear 5392
▁stays 5392
▁judges 5389
▁Pol 5388
▁Tank 5388
▁Tell 5388
テ 5388
human 5387
zumi 5387
▁Niseko 5387
▁generic 5387
▁Cent 5386
▁miracle 5384
:31 5383
▁Honda 5383
▁additives 5383
▁CSS 5382
▁FO 5381
▁revise 5381
▁Alex 5380
▁till 5380
▁encourages 5379
lith 5378
▁Businesses 5378
▁comic 5378
▁sunny 5378
▁modular 5377
▁norm 5376
ATA 5373
▁Prices 5373
▁cru 5372
▁grave 5371
▁promises 5371
▁transit 5371
▁Established 5370
▁customization 5370
og 5369
▁schedules 5368
▁3,000 5367
▁culinary 5366
▁perceived 5366
local 5365
о 5364
▁100,000 5364
▁Jiang 5364
▁Optional 5362
tribute 5361
▁Uni 5361
▁nights 5360
▁torque 5360
gura 5359
▁Ward 5359
▁Ordinary 5357
▁plaster 5357
▁progression 5357
▁refused 5355
▁examining 5354
▁organisations 5354
▁GIF 5353
▁Improve 5353
▁underway 5353
▁workflows 5353
etsu 5352
▁Nothing 5351
AA 5350
▁95 5350
▁Stores 5350
▁[1 5350
▁practicing 5350
Service 5349
▁anyway 5349
▁deviation 5349
▁dozens 5349
▁occasionally 5349
▁legendary 5348
▁wrist 5346
rene 5345
▁Countries 5345
lex 5344
▁possession 5343
▁incorporates 5342
▁infinite 5342
▁treating 5342
raku 5341
▁Mei 5341
▁Qi 5341
▁der 5341
▁pound 5341
▁Added 5340
▁Doctor 5339
▁Normal 5339
▁Repeat 5339
▁polar 5339
LR 5338
enter 5338
▁hostel 5338
layer 5337
▁Viewer 5337
▁collision 5337
tec 5336
▁Af 5336
member 5334
▁bodyguard 5334
▁darkness 5334
▁chill 5333
▁peculiar 5333
▁Leader 5332
▁Rapid 5332
▁Texas 5332
▁spreads 5331
▁translations 5331
▁tricks 5331
ark 5330
▁1950 5330
▁headed 5330
▁slices 5329
/08 5327
▁Artist 5326
▁assure 5325
▁satellites 5325
▁specializing 5325
fall 5324
▁Measurement 5324
▁qua 5324
▁textile 5324
▁attracts 5323
▁remarks 5323
▁Hanoi 5322
▁Previously 5322
▁Showa 5321
▁Ur 5320
nit 5319
▁Reform 5319
▁78 5318
▁fragment 5318
ail 5316
▁Half 5316
▁gen 5316
▁jar 5316
aca 5315
bian 5315
▁Applied 5315
▁artworks 5315
▁attributed 5315
▁dam 5315
▁deny 5315
onia 5314
▁asleep 5314
mann 5313
▁enemies 5313
▁Coffee 5311
/05 5310
1.5 5310
TORY 5310
culture 5310
▁Roppongi 5309
▁spoon 5309
▁fasten 5308
▁wiring 5307
▁Cri 5306
▁abandon 5306
▁trim 5306
▁Boston 5305
▁MT 5305
User 5304
▁Boy 5304
▁Sensor 5304
▁lining 5304
RN 5303
maker 5303
▁Flu 5303
▁Required 5303
works 5302
▁2003. 5302
▁macOS 5302
▁Yellow 5301
▁(16 5298
▁appearing 5298
▁senses 5298
▁amateur 5297
▁speaks 5297
れ 5297
ARA 5296
▁wheat 5296
大 5296
▁abandoned 5294
▁uncertain 5293
ZA 5292
▁Instant 5292
▁String 5292
▁alike 5292
Mar 5289
rog 5288
▁Installing 5288
OME 5287
▁Paint 5287
udi 5286
vari 5285
bid 5284
▁2001, 5283
▁Iwate 5283
▁Regardless 5283
▁Scholarship 5283
▁farms 5283
▁ri 5283
:35 5281
▁Miyagi 5281
▁hunt 5280
graphic 5279
▁2050 5279
▁5: 5279
▁coconut 5279
▁vinegar 5279
▁demonstrates 5278
▁VPC 5277
▁Exercise 5276
▁metro 5276
axis 5275
bara 5273
▁Advisor 5273
▁cry 5273
▁Better 5272
▁workout 5272
▁8.0 5271
▁crust 5271
▁doctoral 5271
▁pillow 5271
▁amounted 5270
▁collaborating 5270
plant 5269
▁surgical 5269
▁estimation 5266
▁admit 5265
▁pigment 5265
jiang 5264
▁Native 5262
▁Frequently 5261
▁sisters 5261
RIS 5260
▁Victoria 5260
▁Beer 5259
▁disruption 5259
▁pat 5258
▁coral 5257
ello 5256
otic 5256
▁Include 5256
▁Rad 5256
▁champion 5254
▁rust 5254
gene 5253
▁Nihon 5252
▁Procurement 5251
Share 5250
▁Disable 5249
▁HS 5249
▁bracket 5249
▁wo 5249
▁1.1 5248
▁Austria 5248
▁supervise 5248
▁violent 5248
▁interrupt 5247
▁landmark 5247
standard 5246
▁Sy 5246
▁pronounced 5246
Cha 5245
▁gum 5245
▁invented 5245
AV 5242
▁accelerator 5242
▁iconic 5242
EG 5241
▁RIKEN 5241
▁carpet 5241
▁Endpoint 5240
▁metabolism 5239
▁Mod 5238
▁Yamamoto 5238
1.2 5236
▁lane 5236
▁Hope 5235
material 5234
▁Stone 5233
▁boots 5233
▁FAT 5231
▁Unreal 5231
▁acrylic 5231
▁Beyond 5229
▁Extract 5229
▁Payments 5229
▁Toggle 5229
dori 5228
▁sensing 5228
▁slave 5228
:01 5227
▁Components 5227
▁Reading 5226
▁scar 5224
▁organisms 5223
▁artisan 5222
▁boundary 5222
▁frequencies 5222
▁pathology 5222
▁Immediately 5220
▁alcoholic 5220
▁dear 5220
▁keen 5220
▁pillars 5220
WIN 5218
▁folded 5218
▁vulnerabilities 5216
▁switched 5215
▁1988 5214
▁Wide 5214
demand 5212
▁Plans 5212
/12/ 5211
gyo 5211
▁simultaneous 5211
▁Followers 5210
▁Waste 5210
:1 5208
AKE 5208
▁88 5208
▁NGOs 5207
サ 5207
▁kin 5205
▁capacitors 5203
▁motivated 5203
▁consultations 5202
iao 5200
▁insects 5199
▁dairy 5198
Click 5197
center 5197
▁Promote 5196
▁coach 5196
▁grinding 5196
▁sharply 5195
▁Mediterranean 5192
▁commodity 5190
▁costume 5190
▁modifications 5190
▁painter 5190
▁decides 5189
▁governed 5189
lab 5188
vocation 5188
▁AB 5188
▁quote 5188
▁contour 5187
▁identifier 5187
▁overlap 5187
▁Animation 5186
▁Currency 5186
▁steal 5186
▁Explanation 5185
▁controllers 5184
▁waterproof 5184
▁NPO 5183
string 5182
▁shifted 5181
▁PL 5180
▁gods 5180
ULT 5179
rel 5179
TX 5178
▁Lan 5178
▁Drink 5177
▁Authentication 5175
▁diode 5175
▁kindergarten 5175
▁stopping 5175
▁assert 5173
▁illustration 5173
▁hurry 5172
▁survivors 5172
dam 5170
sys 5170
▁cosmetic 5170
Web 5169
economic 5169
▁Av 5169
▁Wei 5168
▁Georgia 5167
▁avoided 5167
▁bite 5167
-23 5166
▁Meet 5166
-21 5165
▁performers 5165
▁copying 5164
▁redeem 5164
GU 5163
▁Finder 5161
▁Tibet 5161
▁mailing 5161
posing 5160
▁Wild 5160
▁Deutsch 5158
▁Peak 5158
▁designation 5158
race 5157
▁cater 5157
▁chairs 5157
ROM 5156
quin 5156
▁bookmark 5156
LET 5155
▁laboratories 5155
▁marker 5155
▁shaft 5155
▁regulate 5152
▁resolutions 5152
▁Than 5151
さ 5151
▁Journey 5150
▁draws 5150
▁multimedia 5149
Sho 5148
▁Hua 5148
▁bay 5148
0.2 5147
▁Speaker 5147
▁psycho 5147
▁fax 5146
▁penetration 5146
▁capacitor 5145
▁fin 5145
ェ 5145
▁costumes 5144
mix 5142
:33 5140
▁Hair 5140
ua 5139
▁Reset 5139
▁cleared 5139
Thank 5138
dec 5138
▁Responsibility 5138
▁approve 5138
▁expenditure 5138
▁influences 5138
▁proximity 5138
▁unavailable 5138
0.00 5137
STAR 5136
mel 5136
▁Saga 5136
▁Templates 5136
▁Effects 5134
▁Inventory 5134
▁cycling 5133
▁replenish 5133
▁treasury 5133
Over 5132
▁Rio 5132
▁73 5131
dd 5130
▁knitting 5129
▁Draw 5128
▁animated 5128
▁odor 5128
▁responsive 5128
▁Receive 5127
▁anchor 5127
▁arrested 5127
▁tale 5127
} 5126
▁Qualcomm 5126
▁Shiseido 5126
▁fixes 5125
▁breeding 5124
▁jazz 5124
▁· 5124
yen 5123
▁Ice 5123
▁SS 5123
▁Programming 5122
▁Sn 5122
▁vintage 5122
tum 5121
▁entrusted 5121
▁pumps 5121
▁omitted 5120
▁poem 5120
▁Bro 5119
▁anticipate 5119
▁arc 5119
▁prefectures 5118
oe 5117
▁Lounge 5117
▁Machinery 5116
▁upgrades 5116
▁grades 5114
▁ATM 5113
▁greeting 5113
▁touching 5112
バ 5112
focus 5111
▁geometry 5111
▁sensation 5111
▁spark 5111
error 5110
▁localization 5110
NN 5109
▁differential 5109
▁traveled 5109
▁Push 5108
▁Revenue 5108
▁wheelchair 5108
▁Essential 5107
▁stitch 5107
3] 5106
Sun 5106
third 5106
▁SW 5106
▁portray 5106
▁FS 5105
▁airplane 5105
holding 5103
▁TT 5103
▁CAN 5102
▁Profit 5102
▁girlfriend 5102
▁hometown 5102
hel 5101
pli 5101
▁Drop 5101
pper 5100
▁Perform 5100
▁Published 5100
clude 5099
▁NEW 5099
▁Never 5099
▁Bla 5098
▁Institution 5098
▁privileges 5097
▁Zi 5095
Read 5094
ologists 5092
▁explaining 5092
▁charming 5091
▁definitions 5091
▁enthusiasm 5091
▁Rich 5090
▁bleeding 5090
▁Entry 5089
cco 5088
▁variant 5088
▁Reason 5087
▁bills 5087
Art 5086
▁Expert 5086
▁advertise 5086
Life 5085
arrow 5085
▁deferred 5085
▁fragrant 5085
▁prioritize 5085
hill 5084
Star 5083
▁cholesterol 5083
▁coloring 5083
▁Bali 5082
▁filtering 5082
WAN 5081
▁pie 5081
▁correspondence 5079
▁council 5079
▁98 5078
▁damp 5078
▁inflammatory 5078
▁distract 5077
▁reminder 5077
▁Parser 5076
▁manicure 5076
▁passive 5075
SFX 5074
▁assured 5072
kko 5071
uka 5071
▁1985 5071
▁fatty 5071
▁Certified 5069
▁molding 5069
▁rep 5069
tree 5068
▁1987 5068
▁comparable 5068
▁newspapers 5068
:08 5067
▁sheep 5067
▁pine 5066
▁servant 5066
▁Logo 5065
▁unity 5063
▁Maria 5062
▁flagship 5062
▁fortune 5062
▁goodwill 5062
:32 5061
▁panic 5061
▁Nobu 5060
▁solvent 5060
bun 5057
/03 5056
▁compliant 5056
rat 5055
▁severity 5055
▁Sponsor 5054
▁headphones 5054
▁metres 5054
▁SITE 5053
▁pixel 5051
▁freight 5050
oop 5049
centric 5047
:02 5046
▁mutation 5046
▁Say 5045
文 5044
▁printers 5043
pur 5041
video 5041
▁OFF 5041
▁gro 5041
▁norms 5040
▁seamlessly 5040
▁tears 5040
BM 5039
vor 5039
▁Shared 5039
1] 5038
lapse 5038
▁apparatus 5038
TEC 5037
ugh 5036
:29 5034
▁Chiyoda 5034
▁comparative 5034
▁lifting 5034
▁Daniel 5033
▁accomplished 5033
▁Forestry 5032
▁Testimonials 5032
▁Autumn 5031
▁intern 5031
Thu 5030
hashi 5030
▁SEC 5030
▁elections 5030
▁examinations 5030
ä 5027
▁horses 5027
▁warmth 5027
▁Minh 5026
▁equality 5026
▁pave 5026
▁projector 5026
▁wondering 5026
▁Wen 5025
TECH 5024
▁Police 5024
▁broaden 5023
▁behaviors 5022
▁superb 5022
sch 5021
▁7/ 5021
▁Charge 5021
▁confidentiality 5021
▁Zero 5020
▁implements 5020
▁Objective 5019
▁delighted 5019
Set 5018
▁Syria 5017
Show 5016
▁24/7 5016
nomiya 5015
▁complaint 5015
▁mystery 5015
▁Conservation 5013
▁beforehand 5013
:38 5012
▁Transit 5012
▁hydraulic 5011
▁Developing 5010
▁symptom 5010
each 5009
easing 5009
national 5009
▁nominal 5009
▁KDDI 5008
▁respected 5008
▁82 5007
eau 5006
▁Observatory 5006
▁Sort 5006
▁dignity 5006
mobil 5005
neur 5004
▁Brief 5003
▁cooler 5003
▁cafes 5002
▁coefficient 5001
gie 5000
Inter 4999
laughs 4998
▁JI 4998
▁SAP 4998
▁bro 4998
▁statutory 4998
▁Army 4997
▁WITH 4997
50,000 4996
▁impose 4996
▁2025 4995
▁Mandarake 4995
▁implications 4995
HL 4994
▁liters 4994
▁Condition 4993
▁Fuck 4993
▁μ 4993
▁Luc 4990
▁positively 4989
/4 4988
▁Guides 4988
▁Medi 4988
▁viral 4988
static 4987
▁deter 4987
▁Chair 4986
▁Highlights 4986
▁Wire 4986
LES 4985
▁tailor 4984
▁limb 4982
002 4981
▁Startup 4981
▁holy 4981
▁uncertainties 4981
▁closest 4980
▁evident 4980
BER 4979
High 4979
▁Las 4979
Col 4978
itz 4978
posed 4978
▁Courses 4978
▁cough 4978
▁2004. 4977
▁Animal 4977
▁Assistance 4977
▁Kra 4977
▁Venice 4977
▁Mind 4976
▁leap 4976
▁Exc 4975
▁renew 4975
▁Fuku 4974
:04 4973
tile 4973
▁coincide 4973
▁sal 4972
▁trick 4972
erated 4971
▁hazardous 4971
▁bent 4970
production 4969
▁arriving 4969
▁sticks 4969
▁deciding 4968
Image 4967
▁Liu 4967
▁Loan 4966
▁emoji 4966
▁repairs 4965
▁sanctions 4965
▁automate 4964
▁Flight 4963
▁internally 4963
yeong 4962
▁Hit 4961
▁ladies 4961
▁shoe 4960
8,000 4959
ody 4959
▁Beat 4959
▁Providing 4959
▁VC 4957
▁Node 4956
▁announces 4956
▁hormone 4956
4] 4955
▁Dual 4955
▁Functional 4955
▁PU 4955
▁plugins 4955
▁slowdown 4955
▁Could 4954
▁euro 4954
worth 4952
▁Cas 4952
▁JOIN 4952
▁Ritsumeikan 4952
▁revolutionary 4952
▁weekends 4950
▁GUI 4948
▁Marubeni 4948
▁earliest 4948
Drive 4947
ORI 4947
Sha 4947
▁Laravel 4947
▁86 4946
▁burned 4946
▁killing 4946
▁Mitsu 4945
▁Vimeo 4945
IB 4944
▁Favorite 4944
▁Takeda 4944
▁Tre 4944
▁struggling 4943
▁compile 4942
Then 4940
lysis 4940
shita 4940
bic 4939
▁quest 4938
/3 4937
0.1 4937
▁Organic 4937
▁decent 4937
▁pointer 4937
▁occupied 4936
TU 4935
▁1986 4935
▁enhances 4935
▁tobacco 4935
▁dosage 4933
▁Cache 4932
▁Script 4930
▁habitat 4930
phi 4929
▁summarize 4929
▁Denmark 4928
▁harmonious 4928
:36 4927
▁kindly 4926
▁readily 4926
▁Cuba 4924
▁Wonder 4924
▁integrations 4924
ido 4923
nie 4923
uda 4923
▁Bags 4923
▁Constitution 4923
▁travelling 4923
Trans 4922
Ta 4920
▁Advertising 4920
▁dated 4920
▁japan 4920
umble 4919
▁treaty 4919
▁tu 4919
OO 4918
zip 4918
▁Argentina 4918
▁― 4917
▁specifying 4916
mode 4915
▁Bush 4915
▁craftsmen 4915
▁villa 4915
▁waist 4915
お 4914
▁350 4913
▁hereby 4913
▁te 4912
▁76 4911
▁RC 4911
▁cement 4911
oscope 4909
▁borrowings 4909
▁deaths 4909
▁markers 4909
BT 4908
▁Pearl 4908
▁harassment 4908
▁GROUP 4907
May 4906
▁Pet 4906
▁tones 4906
▁footage 4905
▁breakthrough 4904
▁theories 4904
:34 4902
▁Secret 4902
▁integrates 4902
count 4901
▁Spi 4901
▁sixth 4901
▁71 4900
▁neo 4900
▁voucher 4900
▁ki 4898
ider 4897
▁Maru 4896
▁Iron 4895
▁TCP 4895
dging 4891
rial 4891
▁overflow 4891
ech 4890
fledged 4890
▁2.1 4890
▁Consultation 4890
▁ML 4890
▁Messages 4889
▁boarding 4888
▁curious 4888
▁ultrasonic 4888
bat 4887
▁episode 4887
▁rigorous 4886
▁Teams 4883
▁beliefs 4883
▁respects 4883
minated 4882
▁Spin 4881
▁Sta 4881
▁assessed 4881
▁Sweet 4880
arms 4879
▁Days 4879
▁Parliament 4879
▁intangible 4879
▁rocket 4879
▁stressed 4879
▁buried 4878
▁Kuni 4877
▁negotiate 4877
▁Chan 4876
▁interruption 4876
▁cakes 4874
die 4873
▁dietary 4873
▁Takashi 4872
▁descend 4872
▁folding 4872
aver 4871
▁searches 4870
hereafter 4868
▁soba 4867
Architect 4866
track 4866
▁indigenous 4866
▁unclear 4865
-22 4864
▁rolled 4864
▁wings 4864
ナ 4864
kami 4863
▁INV 4863
2,000 4862
▁portions 4862
▁punishment 4862
▁SR 4861
▁neglect 4861
▁incentives 4859
▁chic 4858
▁HU 4857
▁rival 4857
operation 4856
▁beginner 4856
▁vocabulary 4856
PH 4855
gr 4855
lla 4855
▁admitted 4855
▁weigh 4855
▁MAN 4854
▁Rice 4854
▁Yen 4854
▁escort 4854
:06 4853
lift 4853
▁approximate 4852
▁candle 4852
fil 4851
oba 4851
▁Fly 4851
▁8.0.1.2 4850
▁bugs 4850
▁Markets 4849
▁doses 4849
▁Fresh 4848
▁bouquet 4848
▁hiking 4847
▁128 4846
▁crystals 4846
▁Fed 4845
Dr 4844
pair 4844
sight 4844
▁logos 4844
2009 4843
▁Brain 4843
TY 4842
GM 4841
▁receptor 4841
▁Establishment 4840
▁neighbors 4840
▁fulfillment 4839
hou 4838
▁Listen 4838
▁fool 4837
ffi 4836
▁counsel 4836
▁originated 4836
▁dressing 4835
▁eliminates 4835
:37 4834
disciplinary 4834
▁25% 4834
▁Frontier 4834
▁cheat 4834
▁immuno 4833
▁weakness 4833
▁surpass 4832
lee 4831
oxy 4831
:07 4830
▁Extreme 4830
▁ambitious 4830
▁transplant 4830
▁Twin 4829
▁drastically 4829
▁sauna 4828
▁turtle 4827
corp 4826
▁Deposit 4826
eliev 4824
pose 4824
▁expenditures 4823
е 4822
▁criticism 4822
▁duck 4822
▁Discovery 4819
▁occupy 4819
▁urine 4819
Memory 4818
▁Worldwide 4818
▁Taiwanese 4817
▁lion 4816
▁Browse 4815
▁Solid 4815
▁liberal 4815
▁Lijiang 4814
wheel 4813
▁OIST 4813
▁bake 4813
title 4811
▁RS 4811
uit 4810
▁shoulders 4810
gata 4809
▁Speaking 4809
▁amendments 4809
▁pants 4809
▁soccer 4809
▁debris 4808
iling 4807
▁Finish 4805
▁ecosystems 4805
▁formulate 4805
▁limiting 4805
▁Aqua 4804
▁tenant 4803
▁Strong 4802
▁vocal 4802
SB 4800
▁charity 4800
▁Nakamura 4799
▁Cru 4798
▁Shot 4798
▁slice 4798
▁Printing 4797
▁Tokai 4797
▁ancestors 4797
▁merchandise 4797
lves 4795
▁Grid 4795
▁Powered 4795
▁amended 4795
▁Walk 4792
▁amenities 4792
▁Fusion 4791
▁Must 4791
▁Testament 4791
▁listened 4791
▁Rent 4790
Royalty 4789
▁dressed 4788
INC 4785
etc 4785
▁74 4785
▁tabs 4783
▁knit 4782
crypt 4781
TOKYO 4780
▁tomatoes 4780
ista 4779
▁Richard 4779
▁flourish 4779
▁perceive 4779
▁letting 4778
April 4777
▁hormones 4777
▁phases 4776
Ka 4775
▁guideline 4775
▁pets 4774
icip 4773
▁inviting 4773
nc 4771
▁Catholic 4771
▁Founded 4771
▁compositions 4771
▁Labour 4769
▁Shima 4769
▁lush 4769
▁uncomfortable 4769
▁bun 4768
▁wanting 4768
WD 4767
▁aligned 4766
▁screws 4766
▁Thomas 4765
▁cartridge 4765
7.0 4762
▁101 4762
uo 4761
worm 4760
▁colours 4760
▁shelves 4760
▁GHz 4759
▁Historical 4759
▁surround 4758
月 4758
▁sights 4757
NEW 4756
▁weaving 4756
デ 4755
▁Revision 4754
▁soak 4754
▁Cel 4753
▁SF 4753
▁commemorate 4753
▁Administrative 4752
▁Sh 4752
▁Chart 4751
▁Membership 4751
▁laptops 4751
TB 4750
▁semiconductors 4750
▁wins 4750
▁Anyone 4749
▁Nobel 4749
▁Cherry 4748
▁coupled 4748
2008 4747
Control 4747
▁Clinical 4747
▁garage 4747
▁FTP 4746
▁Vegas 4746
AF 4745
connect 4742
▁Developers 4742
▁Kobayashi 4742
▁deficit 4742
▁gameplay 4742
▁charter 4741
▁quietly 4741
▁vaccines 4740
▁teen 4739
▁demon 4738
▁Wigs 4737
▁boast 4737
compatible 4736
▁3.1 4736
▁cavity 4736
▁Ctrl 4735
▁1.4 4734
▁Trail 4733
▁bother 4733
▁Charles 4732
▁capturing 4732
dependent 4731
iest 4731
▁galaxies 4731
▁Actions 4729
▁notable 4729
num 4728
▁joke 4728
▁Jen 4727
osphere 4726
▁Deal 4726
▁Hold 4726
▁Posts 4726
▁Asked 4725
,000,000 4724
select 4724
▁Publishing 4724
▁rotating 4724
▁MAC 4723
▁PER 4723
QUE 4722
rp 4722
▁Operator 4722
▁touches 4722
ggle 4721
▁READ 4721
▁murder 4720
▁churches 4719
▁initiate 4718
Edit 4717
chrom 4717
▁Found 4715
▁Investors 4715
lusion 4713
▁stimulation 4713
3.0 4712
phon 4712
▁Sport 4712
▁berries 4712
▁Areas 4710
▁midst 4710
▁Dun 4707
▁Ueno 4707
▁inscription 4707
▁ward 4707
▁Month 4706
▁earning 4706
▁fence 4706
▁gesture 4706
▁troubles 4706
▁Sk 4705
▁[1] 4705
▁recreate 4705
▁Allows 4704
▁Scroll 4703
▁recordings 4703
▁2.2 4702
▁Stick 4702
yuan 4701
▁Christianity 4700
▁Prague 4700
▁Norway 4699
▁infrared 4699
LK 4698
oji 4698
▁JICA 4698
▁adversely 4698
Since 4696
TAL 4696
▁FX 4696
▁SI 4696
▁reliably 4696
▁transistor 4696
▁variants 4696
▁clearance 4695
▁mixer 4695
▁populations 4695
▁Computing 4694
▁Forward 4694
▁Snap 4694
▁$20 4693
▁Tin 4693
▁mentor 4693
▁nozzle 4693
except 4691
▁mitigation 4691
▁Phil 4690
▁evaluations 4690
▁throat 4690
coding 4689
▁briefly 4689
consolidated 4688
▁Performing 4687
▁Stand 4687
mae 4686
tomi 4686
▁expresses 4686
▁dock 4685
▁nitrogen 4685
▁bitter 4684
API 4683
xia 4683
▁stolen 4683
left 4682
▁GP 4682
▁mandate 4680
▁Opti 4679
▁Mayor 4678
▁gradual 4678
▁Rule 4677
▁flo 4677
▁gauge 4677
▁hoped 4677
▁5,000 4675
▁NY 4675
▁filmmaker 4674
▁CCP 4673
▁candy 4673
▁Slide 4672
▁centralized 4672
▁1.3 4671
▁beside 4671
9.0 4670
▁striking 4670
ACHI 4669
▁BI 4669
▁gloves 4669
▁Fee 4668
▁airports 4667
▁alternatives 4667
▁importing 4667
▁tar 4667
2007 4666
Save 4666
▁cumulative 4666
▁microscope 4666
▁albums 4664
ERI 4663
nz 4661
▁Nori 4661
▁Offeror 4659
▁Person 4659
▁volatility 4658
▁debug 4657
▁stretching 4657
子 4657
db 4656
▁Hyogo 4656
▁shipments 4656
▁spiral 4656
▁900 4655
pal 4654
▁slower 4654
oki 4653
▁dealt 4653
▁Length 4651
▁messaging 4651
fine 4650
▁whale 4650
Object 4649
agger 4648
ffer 4648
▁cognitive 4648
▁crumb 4648
▁stew 4648
▁intro 4647
▁mess 4647
▁Records 4644
Option 4643
colored 4642
▁troubleshooting 4642
SION 4641
▁bench 4641
▁photographers 4640
▁rendered 4640
▁traditionally 4640
▁UP 4639
▁VIP 4638
▁yoga 4638
-24 4637
▁CP 4637
▁TS 4636
▁USE 4636
▁illumination 4636
:39 4635
▁Citizen 4635
▁Clip 4635
▁ranks 4635
ZU 4633
▁Experts 4631
▁Princess 4630
amba 4629
▁charger 4629
▁investigating 4629
▁whilst 4629
huang 4628
TEM 4627
▁evenly 4627
▁intersection 4626
▁renovated 4626
▁Aizu 4624
▁disseminate 4624
▁scholars 4624
▁ti 4624
fusion 4623
▁rigid 4623
7,000 4622
rock 4622
▁pause 4621
▁breeze 4620
▁Dam 4619
▁MySQL 4619
▁ruling 4619
▁Battery 4618
▁Resident 4617
▁ambition 4617
ico 4616
cum 4615
kaku 4615
what 4615
▁cups 4615
▁competing 4613
och 4612
▁FEATUR 4612
▁apparently 4611
▁Sector 4610
▁repaired 4610
▁outsourcing 4609
▁palette 4607
hoku 4606
▁committees 4606
▁CNC 4605
▁IE 4605
▁terminated 4605
▁(6 4603
▁twelve 4603
changing 4600
▁booked 4600
5] 4599
Change 4599
serving 4599
lai 4598
× 4598
▁pursued 4598
▁pub 4597
▁unforgettable 4597
▁standardized 4595
▁blame 4592
▁dataset 4592
Soft 4591
write 4591
▁capsule 4591
iii 4588
▁subway 4588
▁qualitative 4586
▁supporters 4586
▁Guangzhou 4585
▁McAfee 4584
▁Woman 4584
▁curry 4584
▁pulp 4584
▁ware 4584
▁organism 4582
istor 4581
toshi 4581
▁Palm 4581
▁silhouette 4581
▁troops 4581
▁Sugi 4580
▁monster 4579
▁rooted 4579
▁slopes 4579
▁Hills 4578
▁galleries 4578
▁Forces 4576
▁honored 4576
▁elaborate 4575
▁scans 4575
▁Gro 4574
▁FC 4573
▁Root 4572
▁denied 4572
▁Simulation 4571
▁intervals 4571
▁pulling 4570
▁Biden 4569
▁dr 4569
▁sculptures 4569
ener 4568
▁Temp 4568
uge 4567
▁composer 4566
west 4564
▁cigarette 4564
▁motherboard 4563
▁projections 4563
▁Prevent 4562
personal 4561
stra 4561
▁FLOWER 4561
▁SAR 4560
▁journalists 4560
▁fluctuation 4559
▁Label 4558
▁stairs 4558
▁compressor 4557
▁fitted 4557
CAP 4556
▁ministry 4556
ASH 4555
▁radar 4555
▁WE 4554
▁pathway 4554
▁Kodo 4553
▁Bear 4551
▁incentive 4549
mono 4548
secure 4548
▁Pil 4548
▁Yoshida 4548
vir 4547
▁defect 4547
▁drew 4547
▁grains 4547
▁juicy 4547
:09 4546
▁PLA 4546
▁Pink 4546
▁fever 4546
▁metropolitan 4545
▁prospect 4545
ben 4544
EMS 4543
sale 4543
▁Responsible 4543
▁implant 4543
▁mg 4542
▁Sold 4541
▁employers 4541
▁incur 4541
▁professors 4541
▁Haru 4540
▁obliged 4540
eria 4539
zaka 4539
▁bolt 4538
TURE 4537
About 4536
▁coatings 4536
▁maturity 4536
▁migrant 4536
▁panoramic 4536
Yes 4535
park 4535
▁USER 4535
▁prizes 4535
è 4534
model 4533
▁degradation 4533
▁lifecycle 4533
▁collateral 4532
▁Ok 4531
▁Picture 4531
▁facilitates 4531
▁calories 4530
ege 4529
▁DATA 4528
▁Ah 4527
▁expose 4527
▁rectangle 4527
▁clusters 4526
▁niche 4526
▁Kura 4525
▁Lead 4525
fast 4524
▁Organizations 4524
OUT 4522
pathy 4522
▁runner 4522
▁HDMI 4520
▁96 4519
▁Crown 4519
▁Danish 4519
▁deformation 4519
▁heel 4519
▁Hero 4518
▁Mura 4517
▁teaches 4517
▁embark 4516
Sim 4515
▁FPGA 4515
▁Spot 4515
▁Recording 4514
rush 4513
▁simpler 4513
RAN 4512
▁Pool 4512
▁Tickets 4512
▁Dialogue 4510
▁nuances 4509
▁prolonged 4509
▁RAR 4508
▁Zhang 4507
▁fireworks 4507
▁impacted 4507
▁Eli 4506
▁drilling 4506
kar 4505
▁Destination 4505
▁satisfying 4505
Business 4504
food 4504
▁PCB 4504
▁atoms 4504
▁forgot 4504
▁Drawing 4503
▁fairness 4503
established 4502
nut 4502
▁Lady 4502
▁shout 4501
▁modest 4500
▁retreat 4500
2] 4499
natural 4499
▁3-4 4499
▁contractual 4499
▁ghost 4499
language 4498
mune 4497
▁Counter 4497
▁Jean 4497
▁fostering 4497
▁monkey 4497
▁timer 4497
▁turbine 4496
▁BMW 4495
▁Relationship 4495
▁Secondly 4495
▁origins 4494
▁manipulate 4492
TEN 4491
roid 4491
▁Shige 4491
▁identifies 4491
▁Heuer 4490
▁melting 4490
lop 4488
▁validate 4488
▁Volunteer 4487
▁gospel 4486
▁Tam 4485
▁narrative 4485
CF 4484
▁1984 4484
▁Gospel 4484
▁sticker 4484
▁yarn 4484
▁Maximum 4482
▁Newsletters 4482
▁Scala 4482
▁municipalities 4482
▁Nidec 4481
▁fog 4480
▁Bel 4479
Don 4478
chain 4478
▁Transformation 4478
電 4477
BB 4476
:42 4475
▁CLI 4475
▁Goods 4475
▁clarity 4474
▁baths 4473
:46 4472
▁dad 4472
▁distortion 4471
/02 4469
▁slides 4469
EI 4468
▁Running 4468
▁Useful 4468
Contact 4467
▁Braille 4467
▁Surface 4467
▁lips 4467
▁silicone 4466
wire 4465
▁scent 4464
▁shrines 4463
メ 4463
lie 4462
▁approx 4462
▁tier 4462
vul 4461
▁Blood 4461
▁wax 4461
▁RA 4460
▁hood 4460
▁optimizing 4460
▁sluggish 4460
▁Shops 4459
▁depicted 4459
▁commerce 4458
▁Monte 4457
resolution 4456
▁BlackBerry 4456
▁genres 4456
phen 4455
▁assessing 4454
▁bears 4454
▁lung 4454
▁pasta 4454
▁newborn 4453
watt 4452
▁aquarium 4452
▁impressions 4452
ona 4451
▁IEEE 4451
▁Joe 4451
▁blanket 4451
▁Riding 4450
▁inhibit 4450
▁Extra 4449
▁LP 4448
bearing 4447
burn 4447
▁Intelligent 4447
▁alleged 4446
▁interpreter 4446
▁sail 4446
▁energetic 4445
▁multiply 4445
▁varying 4445
▁zip 4445
ビ 4445
▁Tiger 4444
▁physiological 4444
built 4443
▁Procedures 4443
▁Excellent 4442
▁cardiovascular 4442
▁organizer 4442
Cloud 4441
▁Huang 4441
▁neat 4441
unk 4440
▁interpreted 4440
eur 4437
▁83 4436
▁pottery 4436
1,000 4435
▁Frank 4435
▁Limit 4435
▁rabbit 4435
-2021 4434
▁Replace 4434
▁Throughout 4433
▁Toyama 4432
IPS 4431
▁mud 4431
▁Orange 4429
Create 4428
▁funded 4428
▁EA 4427
▁comprehensively 4427
▁merged 4427
▁Jim 4426
▁cum 4426
▁tear 4426
:55 4425
hot 4425
▁planets 4425
KEN 4424
▁Atlantic 4423
▁commissioned 4423
▁disinfect 4423
▁Manhattan 4422
▁halls 4421
▁trait 4421
:44 4420
▁Container 4420
▁hills 4420
▁inquire 4420
▁appealing 4419
▁shouldn 4418
▁Takahashi 4417
ICS 4416
aire 4415
▁Procedure 4415
▁restrain 4415
▁soften 4415
lou 4414
▁DM 4414
▁FAQs 4414
▁counted 4414
▁1976 4413
▁districts 4413
▁shadows 4413
▁vagina 4413
▁Morgan 4412
▁antique 4412
QUA 4411
▁Basically 4411
▁longest 4411
▁requesting 4411
▁shifts 4410
▁disciplines 4409
▁tide 4409
▁inhabitants 4408
▁inherited 4408
▁reinforced 4408
▁streamline 4408
▁Traffic 4407
▁JC 4406
▁horn 4406
Ga 4405
▁TAG 4404
▁93 4403
▁Dynasty 4403
▁releasing 4402
▁MM 4401
▁sausage 4400
▁Ker 4398
▁Originally 4397
▁Tao 4397
▁litigation 4396
▁parcel 4396
TRO 4395
▁PART 4395
▁Tada 4395
▁races 4395
▁remedies 4395
▁stating 4395
▁Strap 4394
▁conquer 4394
▁px 4394
▁gaze 4393
▁indirectly 4393
▁84 4392
▁NTFS 4392
▁Rec 4392
国 4392
bility 4391
processing 4391
▁offenses 4391
▁Dry 4389
▁Ultimately 4389
▁authenticate 4389
▁skiing 4389
▁Jump 4388
▁economical 4388
▁humor 4388
▁VS 4387
▁LG 4386
▁mindset 4386
LIN 4384
▁conservative 4383
eptic 4382
AKI 4381
▁approached 4381
▁tomato 4381
imi 4380
▁Flat 4380
▁Sin 4380
▁coordinated 4379
▁slim 4379
▁Bad 4378
wara 4377
▁KI 4377
▁Agricultural 4376
▁Muslims 4376
▁threaten 4376
セ 4375
voltage 4374
ô 4373
▁cracks 4373
▁flip 4373
▁Capacity 4372
▁pins 4372
▁webpage 4371
ogram 4369
▁ferry 4368
▁lowering 4368
ONG 4367
virus 4365
▁Hoimi 4365
▁Initially 4365
く 4365
▁config 4364
▁dozen 4364
▁merchants 4364
▁remedy 4364
gic 4363
▁Gun 4363
▁deliberation 4363
▁Establish 4361
▁coding 4361
maru 4360
▁Interactive 4360
▁Observation 4359
▁yeast 4358
▁Accessories 4357
uffle 4356
▁Desk 4356
▁manufactures 4356
ADA 4355
▁Fuel 4355
flam 4353
▁FR 4353
▁Problems 4353
scopic 4352
▁Bright 4352
▁Cooking 4351
phosph 4350
▁sender 4349
▁timber 4349
Key 4347
▁grandmother 4347
▁Instrument 4345
▁consultant 4345
ャ 4345
的 4345
▁employs 4344
▁tariff 4344
▁describing 4343
▁scheduling 4343
auto 4342
▁Exhibit 4342
nori 4341
safe 4341
▁Mechanical 4341
▁Olive 4341
▁facilitating 4341
▁ginger 4341
▁日本 4341
▁Telephone 4340
▁Hollywood 4339
▁breathe 4339
▁punish 4339
chlor 4338
▁sweep 4337
DY 4336
▁Mur 4336
▁Portfolio 4336
MF 4335
March 4335
▁practiced 4335
▁Much 4334
▁Oku 4333
▁Preferences 4333
▁ripe 4333
:41 4332
▁ACC 4332
▁Lang 4332
▁Shell 4331
▁parliament 4331
▁potato 4331
business 4330
▁bubbles 4330
▁socks 4330
FY 4329
▁angry 4329
▁collectively 4329
week 4328
▁Adventure 4328
▁NT 4328
▁banana 4328
▁totaled 4327
jack 4326
▁resilience 4326
Support 4325
▁dolls 4325
lang 4324
▁suck 4324
▁mere 4323
▁postal 4323
listed 4322
▁Participation 4322
▁basin 4322
▁subscriptions 4322
▁9:00 4321
▁Leg 4321
▁Nowadays 4321
▁interviewed 4321
▁latency 4321
▁seating 4321
▁bare 4320
▁electrons 4318
▁tomb 4318
graphy 4317
▁Scope 4316
▁lawsuit 4316
▁ornament 4316
:43 4315
hira 4315
▁89 4315
▁Registered 4315
▁doll 4315
▁Univ 4314
▁strands 4314
bacter 4313
▁Fruit 4312
▁dominant 4312
▁inevitable 4312
▁echo 4311
▁Merge 4310
▁UL 4310
▁demographic 4310
Get 4309
▁Alexander 4309
▁Matsumoto 4309
▁vapor 4308
:47 4307
▁ZIP 4307
▁cartoon 4307
▁dryer 4307
USA 4306
▁microorganisms 4306
▁united 4306
▁Drag 4305
▁elevated 4305
▁learners 4305
Script 4304
▁acknowledged 4304
▁qui 4304
▁wander 4304
Application 4303
Kernel 4303
uration 4303
going 4302
ime 4302
temperature 4302
white 4302
▁compassion 4302
▁shrimp 4302
750 4301
▁Implement 4301
powered 4300
▁Tags 4300
▁compiler 4300
▁Develop 4299
▁accommodations 4299
▁assemble 4299
ッ 4298
▁SNS 4296
▁flavour 4296
miya 4294
AMI 4293
online 4293
▁Agile 4293
mitted 4292
▁10.1 4292
▁Warning 4292
▁predecessor 4292
elle 4291
▁15% 4291
▁poker 4291
mizu 4289
▁CRM 4289
▁Comm 4289
▁mutually 4289
▁suicide 4287
▁recognizing 4286
▁Consortium 4285
ICAL 4284
fulness 4284
▁Transform 4284
▁prostate 4284
▁transcend 4284
一 4284
sar 4283
▁Promoting 4283
▁Rest 4282
▁Values 4282
lice 4281
▁Jian 4281
▁boutique 4281
▁antibiotics 4280
▁sculpt 4280
FU 4279
ISS 4279
â 4279
▁governmental 4278
▁Elementary 4277
▁RAID 4277
▁homo 4277
▁boring 4276
▁stadium 4276
Article 4275
mul 4275
▁attempting 4275
▁dancers 4274
▁transmitter 4273
▁Semiconductor 4272
▁apparel 4272
▁outdoors 4272
▁supermarkets 4272
▁Immigration 4271
▁Instructions 4271
▁Leading 4271
▁contacted 4271
▁CHA 4270
▁pending 4270
▁straightforward 4270
ック 4270
hn 4269
▁GDPR 4269
ニ 4269
▁costly 4268
Record 4266
▁Quarter 4266
▁computational 4266
▁researches 4266
▁Broad 4265
▁livelihood 4265
▁intermediary 4264
▁Gulf 4263
Every 4262
▁JAXA 4262
▁peaks 4262
kov 4261
▁galaxy 4261
DN 4260
▁Legend 4260
▁overhead 4260
▁Akita 4259
▁seedlings 4259
-60 4258
▁exporting 4258
▁writers 4258
▁Employment 4257
▁Ram 4257
▁Trends 4257
▁id 4257
▁vertically 4257
eight 4256
▁Philip 4256
▁Provisioning 4256
▁conveniently 4256
▁subjected 4256
Pri 4255
▁Hungarian 4255
love 4254
▁diagnostics 4254
▁premier 4254
▁distributors 4253
2.2 4252
▁chefs 4251
▁sketch 4251
hun 4250
▁deliberate 4250
2.5 4249
hard 4249
▁upstream 4249
/5 4248
▁Apr 4248
▁HIV 4248
▁integer 4248
▁seize 4248
き 4248
miss 4247
▁Murata 4247
▁psychology 4246
▁SIG 4245
▁Race 4244
▁enroll 4244
▁ruler 4243
▁sons 4240
▁→ 4240
Pandora 4239
▁endure 4239
John 4238
▁revitalization 4238
▁suburb 4238
▁Availability 4237
OB 4236
▁symbolic 4236
▁tasting 4236
Use 4235
▁Amount 4235
▁balancing 4235
▁efficacy 4235
▁frost 4235
mill 4234
▁lakes 4234
▁sentences 4234
▁loving 4233
▁Button 4232
▁2018) 4231
▁sellers 4231
▁shal 4231
▁shortly 4230
▁ambassador 4228
▁apples 4228
▁Maker 4226
▁backward 4226
▁Chef 4224
▁bass 4224
▁(7) 4223
▁Peru 4222
President 4221
▁2.4 4221
▁metric 4221
パ 4221
▁petals 4220
Sub 4219
dal 4219
▁Kiyo 4219
▁reconstruct 4219
▁reservoir 4219
▁Gran 4218
▁thereafter 4218
▁RSS 4217
▁Graph 4216
▁URLs 4216
▁donate 4216
▁inaccessible 4216
java 4215
ット 4215
▁Giant 4213
▁fairy 4213
▁unemployment 4213
▁outlets 4212
▁pedestrian 4211
▁Abu 4210
▁DX 4210
▁Too 4210
▁¥6 4210
owner 4209
▁Ishikawa 4209
Select 4207
▁packing 4207
▁analyzes 4205
▁recycle 4205
▁diagnosed 4204
7) 4203
▁Iceland 4203
▁Loss 4203
▁sodium 4203
▁runtime 4202
▁vicinity 4202
▁Frame 4201
▁Jakarta 4201
▁arrest 4200
xxx 4199
▁append 4199
▁nutritional 4199
Fuji 4198
▁chopped 4198
▁Formula 4197
▁fragments 4197
LF 4196
▁Alert 4195
▁incorrectly 4195
▁Lamb 4193
▁expired 4193
KE 4192
storm 4192
― 4192
▁Boost 4192
▁PET 4192
lide 4191
▁87 4191
▁Bern 4191
▁dependence 4189
▁inherit 4188
▁versus 4188
▁Builder 4184
▁Former 4184
▁Quad 4184
▁VMs 4184
▁Scale 4183
▁flaw 4183
▁Inspection 4182
▁Mae 4182
▁Offering 4182
▁decisive 4182
▁preserving 4182
COUNT 4181
▁Datadog 4181
▁mechanics 4181
RES 4180
there 4180
▁Aya 4179
▁Wheel 4179
▁geometric 4179
キ 4179
▁Oxford 4178
▁Pure 4178
Press 4177
any 4177
▁Direction 4177
JAEA 4176
▁Halloween 4176
▁assuming 4176
▁(8 4175
▁slogan 4175
Play 4174
mei 4173
▁Taku 4173
▁compartment 4171
▁detach 4171
▁drunk 4171
▁severely 4171
border 4170
Off 4169
▁Clock 4169
ARY 4168
▁noon 4168
▁NHK 4167
▁INTEL 4166
▁shots 4166
▁triple 4166
plex 4165
une 4165
▁multilateral 4165
▁20,000 4164
▁regulator 4164
▁fermentation 4163
▁negotiation 4163
▁payout 4163
▁Become 4162
▁virgin 4162
▁whereby 4162
/07 4160
▁32- 4160
▁babies 4160
▁constitutes 4160
▁floods 4160
URE 4159
divi 4159
forming 4159
▁bronze 4159
▁counting 4159
▁Ethereum 4158
▁Alpha 4157
▁configuring 4157
▁whatsoever 4157
create 4155
max 4155
▁anger 4155
▁Result 4154
▁forefront 4154
SHO 4153
▁Bang 4153
▁Higher 4152
▁unfold 4152
▁flooding 4151
▁thrill 4151
SIS 4150
▁Mileage 4150
▁Plugin 4150
▁shame 4150
▁yo 4150
▁Jam 4149
▁Players 4148
▁Origin 4147
▁PT 4147
▁suspected 4147
▁disturb 4146
▁needles 4146
▁ultrasound 4145
▁Parameters 4144
▁Risks 4144
▁Youtube 4143
▁supermarket 4143
ATIONS 4142
Exp 4142
drop 4142
uan 4142
▁Capture 4140
▁Sell 4140
▁curls 4140
▁prophet 4140
▁accompany 4139
▁expressly 4139
▁meteor 4138
▁Apartment 4137
▁Kur 4137
▁Specialist 4137
▁qualifications 4137
▁strongest 4137
▁Municipal 4136
school 4135
stein 4135
▁Tottori 4135
▁attachments 4135
Cu 4134
▁neutron 4134
large 4133
▁Soon 4132
▁Romania 4131
▁VIDEO 4131
FM 4130
▁Navi 4130
ako 4129
▁1% 4129
▁hierarchy 4129
田 4129
:49 4128
▁relying 4128
▁Dress 4127
0.0.1 4126
▁Manually 4126
▁Pump 4126
▁Telescope 4126
▁equivalents 4126
▁nut 4126
山 4126
▁barcode 4123
▁rob 4123
corn 4122
▁Sar 4120
▁grill 4120
AIR 4119
gia 4118
▁Except 4118
▁PlayStation 4118
う 4118
Server 4117
▁pizza 4117
▁Bond 4115
▁consuming 4115
▁spicy 4115
Commerce 4114
▁Albert 4114
▁absent 4114
▁carrots 4114
▁clarified 4114
▁tribe 4114
rising 4113
▁ions 4113
▁lightning 4112
▁trash 4112
▁diploma 4111
▁hungry 4111
▁Belt 4110
▁Eu 4110
▁REST 4110
▁Speech 4110
▁alteration 4110
▁Panda 4109
▁SN 4109
▁activist 4109
▁impaired 4108
▁motif 4108
▁grapes 4107
▁conclusions 4106
▁panda 4106
▁parade 4106
エ 4106
ulf 4105
▁Naturally 4105
▁supplements 4105
チ 4104
:48 4103
▁okay 4103
6] 4102
▁Aluminum 4102
▁Reflect 4102
▁cozy 4102
Product 4101
▁Waseda 4101
▁swipe 4101
▁fuse 4100
Design 4099
▁91 4099
▁Tera 4099
▁advertisers 4099
▁seismic 4099
flower 4098
held 4098
▁Clients 4098
▁Saving 4098
▁TRUST 4098
▁freezing 4098
▁pseudo 4098
▁comprising 4097
▁hobby 4097
▁vent 4097
▁DELIVERY 4096
▁Polish 4096
▁meditation 4096
▁noble 4096
▁prefix 4096
Korea 4094
AIST 4093
ugu 4093
▁shallow 4093
▁scissors 4090
GN 4089
а 4089
▁Pokémon 4089
▁affirm 4089
▁contractors 4089
WI 4087
also 4087
▁Excellence 4086
▁JST 4086
▁incomplete 4086
LED 4085
lem 4085
▁Liquid 4085
▁hunger 4084
▁broadband 4083
▁merchant 4083
▁terrain 4083
MURA 4082
▁clue 4082
hop 4081
▁Az 4081
▁torrent 4081
glass 4080
▁1983 4080
▁Empire 4080
▁Thi 4079
mont 4078
tance 4078
▁dim 4078
▁Mazda 4077
▁premise 4077
▁towels 4077
▁semester 4076
▁Finnish 4075
▁coordinates 4075
▁YO 4074
stay 4073
▁transforming 4072
▁Nikko 4070
▁aspiration 4070
▁childbirth 4070
▁AVG 4069
▁Temperature 4069
▁pockets 4068
▁summarized 4068
twatches 4067
still 4066
ylene 4066
ummy 4065
▁Football 4065
▁TU 4065
▁sequences 4065
▁Jordan 4064
▁enjoyment 4064
Map 4063
▁Unlock 4063
▁permits 4063
8) 4062
paper 4062
zon 4061
▁Stories 4061
▁bargain 4061
▁forbidden 4061
ERA 4060
▁Flexible 4060
▁pledge 4059
▁residual 4059
▁scientist 4059
▁branding 4058
▁resistor 4058
minded 4056
▁RAW 4056
▁Mastercard 4055
▁idol 4055
▁transformer 4055
▁scalable 4054
▁Oita 4053
▁balloon 4053
6.0 4052
nin 4052
▁Ukrainian 4052
▁num 4052
▁Covid 4051
▁confi 4050
▁meantime 4050
する 4050
Head 4049
SF 4049
▁MSC 4049
▁Painting 4049
▁Whatever 4048
論文 4048
▁Column 4047
▁acquaintance 4047
▁attempted 4047
▁Kata 4045
【 4045
special 4044
▁filming 4043
VPN 4042
▁betting 4042
▁borne 4042
▁prefectural 4042
▁imagined 4041
▁infringe 4041
▁visas 4041
▁reopen 4040
creation 4039
▁Lost 4039
▁prospective 4039
▁emitted 4038
▁ISS 4037
▁sliding 4037
▁Refund 4035
▁Alternative 4034
rang 4033
▁cooled 4033
▁searched 4033
▁stimulating 4033
▁Dean 4031
▁warn 4031
▁entertain 4030
▁gourmet 4030
▁Combined 4029
▁builder 4029
▁snowflake 4029
▁LINK 4028
▁equip 4028
▁playlists 4027
▁useless 4027
ologies 4026
▁PVC 4025
▁Waka 4025
▁hop 4023
▁Fit 4022
▁Incident 4022
▁NIC 4022
▁pal 4022
▁Approximately 4021
▁Split 4021
▁tuna 4021
:57 4020
igo 4020
▁Had 4019
▁Honorary 4019
▁Norwegian 4019
▁championship 4019
Network 4018
▁MU 4018
▁Smartphone 4018
▁archives 4018
▁radius 4018
▁Mountains 4017
▁Toward 4017
▁lowered 4017
Source 4016
▁Haneda 4016
▁cherish 4014
server 4013
▁Decision 4013
sato 4012
▁Innovative 4012
▁mucous 4012
▁OP 4011
▁contaminated 4011
▁gang 4011
mote 4010
▁Cheap 4010
▁Damage 4010
▁Pier 4010
:58 4008
▁Mobility 4007
▁hose 4007
▁posters 4007
▁yields 4007
▁Diego 4006
▁nobody 4006
raise 4005
▁0.2 4005
▁Factor 4005
▁emotion 4005
DT 4004
chel 4004
▁JPG 4004
▁Researcher 4004
▁distributor 4004
▁Ming 4003
stead 4002
▁Kagoshima 4002
▁accomplishment 4002
▁constructing 4002
▁Sakai 4001
▁nickname 4001
▁soda 4001
:54 4000
maki 4000
▁hint 4000
▁shoots 4000
▁tilt 4000
▁Ref 3999
▁lottery 3999
Jo 3997
▁wing 3996
▁92 3994
VP 3993
omi 3993
▁Kana 3993
Auto 3992
Research 3992
aria 3992
▁Premier 3992
▁(15 3991
▁Bird 3991
▁Offers 3990
▁endeavors 3989
▁specializes 3989
▁97 3988
▁basement 3988
▁qualification 3988
cru 3987
▁prevented 3987
▁alphabet 3986
▁announcements 3986
▁pri 3986
make 3985
▁glow 3985
▁pointing 3985
National 3984
▁1982 3984
▁afterwards 3983
▁readiness 3983
▁suspicious 3983
▁resolving 3982
▁probation 3980
▁unused 3980
ート 3980
lian 3979
▁launches 3979
LOW 3978
▁collaborated 3977
▁gambling 3977
▁PLC 3976
▁corrected 3976
aged 3975
▁GHG 3975
▁continuation 3975
▁contributor 3975
▁kilogram 3975
trip 3974
aru 3973
▁Bonus 3973
developed 3972
▁Fin 3972
▁NIPPON 3971
▁germ 3971
▁removable 3971
▁cone 3970
▁dynamically 3970
▁KRW 3969
▁baseline 3969
XP 3968
bag 3967
▁county 3966
▁miso 3966
qi 3965
sensitive 3965
break 3964
endo 3964
▁Wear 3964
▁EE 3963
▁candles 3963
▁lacking 3963
beat 3962
rium 3961
▁Bull 3961
▁Nichi 3961
admin 3960
▁Featured 3960
▁Uninstall 3960
▁Writing 3960
▁courtesy 3959
REIT 3958
▁Television 3958
LINE 3957
olic 3957
▁reinforcement 3957
▁forgive 3956
▁Kiri 3955
▁Optimize 3955
email 3953
▁Kabuki 3953
▁RT 3953
▁souls 3952
▁Arctic 3951
▁Specified 3951
▁feasibility 3951
Form 3950
▁corridor 3950
▁ml 3950
▁Pole 3949
▁Pic 3948
kill 3947
▁eBook 3947
▁kiss 3947
Scale 3946
▁adjustable 3946
erator 3945
learning 3945
▁94 3945
▁commenced 3945
▁je 3945
▁discounted 3944
▁subscriber 3944
▁educate 3942
▁scripting 3942
vil 3941
7] 3940
enabled 3940
▁constructive 3940
▁proportions 3939
OSE 3938
emb 3937
hide 3937
▁Principal 3937
▁*2 3936
▁digestive 3936
Settings 3935
designed 3935
▁Chris 3935
▁crab 3935
OSS 3934
▁Liberal 3934
▁Rankings 3934
▁Slack 3934
▁Toronto 3932
▁curves 3932
▁naked 3932
▁Gaming 3930
ュ 3930
Ni 3929
awa 3929
▁Artificial 3929
lasting 3928
▁Columbia 3928
▁sits 3927
▁102 3926
▁MY 3926
WORK 3925
▁compilation 3925
▁diligence 3925
*1 3924
▁Parking 3924
▁Watanabe 3924
▁faint 3924
▁yard 3924
NF 3923
▁Gem 3923
▁steak 3923
item 3922
uru 3922
▁2019) 3922
ean 3921
▁Authentic 3921
▁FE 3921
▁Holder 3920
▁auxiliary 3920
▁immense 3920
▁tweet 3920
ール 3920
▁Rh 3918
▁relies 3917
▁tolerate 3917
▁Huawei 3916
▁uniquely 3916
BY 3915
▁Jones 3915
▁Dynamics 3914
▁Proposal 3914
▁squeeze 3914
▁freelance 3913
WR 3912
▁SMEs 3912
▁entail 3912
hydrate 3911
▁Laos 3911
▁Passenger 3911
Win 3910
▁residue 3910
▁Tungsten 3909
▁expecting 3909
▁intestine 3909
▁magnesium 3909
▁referral 3909
▁Ran 3908
bio 3906
▁cryptocurrencie 3906
▁employing 3906
▁glucose 3906
▁transported 3906
▁bytes 3905
▁caring 3905
▁swelling 3905
▁acquainted 3903
▁rot 3903
▁Kanji 3902
▁Lao 3902
▁listener 3902
▁prayers 3902
▁groove 3901
mou 3900
▁animations 3900
▁sup 3900
▁XenServer 3899
▁downstream 3899
▁highlighting 3899
▁EXP 3898
▁Housing 3898
▁ramp 3898
fired 3897
▁PCI 3897
▁antioxidant 3897
▁cooperating 3897
grant 3893
ryu 3893
▁academia 3893
EF 3892
▁countryside 3892
▁Above 3891
when 3890
▁PIN 3890
▁PRI 3889
▁Wan 3889
▁POLICY 3888
▁epidemic 3887
▁pussy 3887
unny 3885
▁Count 3885
▁Problem 3885
function 3884
▁android 3884
▁diversification 3884
3,000 3883
frequency 3883
▁Hor 3883
▁SHA 3883
koku 3882
▁franchise 3882
Based 3880
▁demonstrating 3880
▁lifted 3880
iso 3879
Power 3878
▁Insights 3878
▁appraisal 3878
controlled 3877
▁Ground 3877
▁elegance 3877
technology 3876
▁valves 3876
▁fatal 3875
▁alumni 3874
7.5 3873
Config 3873
gated 3873
▁brighter 3873
▁Pictures 3872
ckle 3871
cn 3871
pay 3871
▁PhD 3871
▁courtyard 3871
▁surprisingly 3871
PROJ 3870
▁1981 3870
▁alpha 3870
sui 3869
▁reproduced 3868
▁politicians 3867
tang 3866
▁curator 3865
▁deepening 3865
/09 3864
▁Strip 3864
▁Token 3863
▁Recycle 3862
Check 3861
▁Cook 3861
▁Initial 3861
▁camps 3861
▁Seki 3860
▁sediment 3860
▁memorial 3859
▁moist 3859
▁Fellow 3858
▁WHO 3858
▁awaken 3858
▁enclosure 3858
▁interacting 3858
sequent 3857
▁Neo 3857
▁Sorry 3856
▁nursery 3856
研究 3856
▁Cab 3855
▁Bee 3854
▁beneficiary 3854
▁overlooking 3854
cht 3853
▁Mie 3853
▁bureau 3853
▁rolls 3853
▁2017) 3852
▁Downloader 3852
▁gay 3852
▁successor 3851
▁swallow 3851
▁170 3850
▁Akira 3850
▁Renewable 3850
▁gates 3850
brand 3848
▁distributing 3848
▁raft 3848
▁resilient 3848
Even 3847
security 3847
▁flowering 3847
▁Zhu 3846
▁quota 3846
Pay 3845
emic 3845
▁Math 3845
▁Reasons 3845
/06 3844
NES 3844
▁ICC 3844
▁Rail 3844
▁Wakayama 3844
▁prescription 3844
▁garment 3843
▁Receiver 3842
▁enthusiastic 3842
▁Advantages 3841
▁exemption 3841
▁risen 3841
▁tumors 3840
▁Permanent 3839
あ 3838
▁Kitchen 3837
▁molecule 3837
▁4.1 3836
120 3835
Text 3834
▁ven 3834
Front 3833
stat 3833
▁Exit 3833
▁WTO 3833
▁retains 3833
depend 3832
▁Cryptocurrency 3832
▁Less 3832
▁Whenever 3832
▁conductivity 3832
▁halt 3832
▁Connecting 3831
▁UNIVERSITY 3831
▁Unique 3830
dress 3829
paid 3829
▁reef 3829
▁5.0 3828
▁advent 3828
▁radiator 3828
▁Ethiopia 3827
▁Fat 3827
▁metallic 3827
▁Yamada 3826
▁amusement 3826
▁irregular 3826
▁hired 3825
III 3824
mond 3824
▁Principle 3824
▁Mall 3823
▁aviation 3822
▁hung 3822
▁pharmaceuticals 3821
▁Epi 3820
▁Gau 3820
▁Mart 3820
▁Vancouver 3820
Good 3819
用 3819
▁Fields 3818
▁Utiliz 3818
▁consultants 3818
▁jewel 3818
▁throughput 3818
▁Schema 3817
▁Tatsu 3817
▁1978 3816
▁prosperous 3816
▁robotics 3816
▁traded 3816
▁precautions 3815
▁Finding 3814
▁peers 3813
▁waveform 3813
zone 3812
▁Continuous 3812
▁Smith 3812
▁judicial 3812
▁brushes 3811
▁curiosity 3811
▁downtime 3811
▁subtitles 3811
3.1 3810
3.2 3810
fuku 3810
▁Define 3810
▁Kasei 3810
▁OECD 3810
▁implied 3810
▁GNU 3809
▁dissolve 3809
due 3808
▁1979 3807
▁OUT 3807
▁shining 3807
「 3807
YU 3805
giamo 3805
▁Political 3805
▁rectangular 3805
▁Mina 3804
▁Egyptian 3802
▁Skills 3802
▁blades 3802
▁fisheries 3802
▁resign 3802
▁velocity 3802
▁Metals 3801
▁hormonal 3801
▁messenger 3801
▁badge 3800
▁practitioners 3800
▁Effect 3798
▁Engineer 3798
:56 3797
KAWA 3797
Make 3797
▁pathological 3797
▁Motion 3796
▁Fur 3795
▁Xbox 3794
▁glued 3794
▁computation 3793
▁fry 3793
▁ruins 3792
▁turnover 3792
ILL 3790
▁Ibaraki 3790
▁Shiba 3789
▁curved 3789
▁argued 3787
CZ 3786
▁Navy 3786
allow 3785
shiro 3785
▁Ger 3785
▁tracker 3785
▁grammar 3784
▁typing 3784
:51 3783
▁ample 3783
▁documented 3783
▁dying 3783
PORN 3782
jet 3782
▁SOL 3782
▁quoted 3782
ext 3781
▁bending 3780
▁hereinafter 3780
horn 3779
▁aerospace 3779
▁dedication 3778
ICO 3777
precision 3776
▁11:00 3776
▁arbitrator 3776
▁problematic 3776
▁Cruise 3775
▁Logic 3775
▁OPPORTUNITY 3775
▁territories 3775
▁Persons 3774
▁detecting 3774
▁martial 3774
mino 3772
▁Florida 3772
▁Left 3772
▁vest 3772
▁Experiment 3771
▁Jose 3770
▁fierce 3770
▁caps 3769
▁incorporation 3769
▁conceptual 3768
▁fishery 3768
▁outflow 3768
▁prerequisite 3768
Cam 3766
IAN 3766
aux 3766
Publish 3765
tention 3765
▁erotic 3765
▁PROFILE 3764
▁Spark 3764
▁kits 3764
sumption 3763
▁Foot 3763
▁poorly 3763
▁cattle 3762
▁Ratio 3761
garde 3760
▁Cape 3760
SAT 3759
abe 3759
▁mistaken 3759
▁Interior 3757
ハ 3757
▁2016) 3756
▁Mozilla 3756
▁Ota 3756
▁drove 3756
▁encouragement 3756
9] 3755
▁ET 3755
lette 3754
▁Recorder 3754
▁actress 3754
8] 3753
▁artifacts 3753
coin 3752
uga 3752
▁reg 3751
▁Nar 3750
▁chin 3750
▁recruiting 3749
▁TPP 3748
▁Sponsored 3747
▁executable 3747
▁revival 3747
▁supplementary 3747
BOOK 3746
▁Fri 3746
▁volcano 3746
▁blowing 3745
Bank 3744
DX 3744
RIES 3744
▁packets 3744
▁Biology 3743
▁Complaints 3743
▁Eva 3743
▁Situation 3743
nik 3742
▁discharged 3742
▁Dog 3741
▁Editing 3741
▁organizers 3741
escent 3740
lux 3740
▁Ultimate 3740
▁void 3740
▁Kagawa 3739
▁crawl 3739
call 3737
▁Charity 3737
▁Metadata 3737
▁spike 3737
price 3736
▁Geneva 3736
▁Saka 3736
▁undergoing 3736
▁carved 3735
▁subsidies 3735
▁MR 3734
THE 3733
▁Circle 3733
▁ambient 3733
▁pioneering 3733
▁Optical 3732
▁exchanging 3732
▁Monthly 3731
▁Troubleshooting 3730
▁Activate 3729
ranging 3728
▁Webinar 3728
▁redirect 3728
▁1975 3727
▁Proper 3727
▁manifested 3727
▁understandable 3727
clean 3726
▁feather 3726
▁grandfather 3726
▁Precision 3725
▁predictions 3725
▁diplomacy 3724
alone 3723
▁Comparison 3723
▁splash 3723
▁synergies 3723
▁tuning 3723
NAME 3722
kari 3721
kita 3721
sales 3721
:53 3720
▁Male 3720
▁shampoo 3720
▁thyroid 3720
▁regain 3719
▁Shenzhen 3718
▁Ethics 3717
▁statues 3717
▁Tokugawa 3716
▁Aero 3715
▁Compare 3715
▁Maki 3715
▁starter 3715
▁linen 3714
▁porcelain 3714
ード 3714
▁0.7 3713
▁Quest 3713
▁reign 3713
▁greenery 3712
:52 3711
▁Talent 3711
▁purely 3711
▁purity 3711
▁FM 3710
▁beams 3710
▁fabrication 3710
▁quad 3710
▁roast 3710
critical 3709
▁Bracelet 3709
▁Efforts 3709
▁dragging 3709
▁zoo 3709
▁sorting 3708
Im 3707
▁cheerful 3707
organized 3705
anti 3704
▁Expect 3704
▁VMware 3704
▁prone 3704
labor 3703
▁Seattle 3703
▁postponed 3703
▁volcanic 3703
chen 3702
▁Luther 3702
▁Pavilion 3702
▁emperor 3702
▁governor 3702
▁millimeter 3702
▁receivables 3702
2003 3700
4,000 3700
▁fetus 3700
▁lace 3700
▁poet 3700
新 3700
▁Album 3699
▁Luxury 3699
▁Miyazaki 3699
▁lanterns 3699
mph 3698
▁Lower 3698
▁tariffs 3698
hui 3697
▁Ferr 3697
▁cocktail 3696
▁Kha 3693
▁PD 3693
▁Simon 3691
▁dissolved 3691
▁influential 3691
▁laundry 3691
haus 3690
▁105 3690
▁LORD 3690
本 3690
▁Mirai 3689
▁Kun 3688
[...]
