<brk> 0
。 16086
、 11691
? 3469
▁ 969
▁はい 777
の 508
は 446
が 428
です 395
で 392
! 366
と 350
に 326
▁では 312
を 308
から 302
も 287
A 270
▁でも 261
ね 209
って 207
ですね 198
▁あ 180
▁ええ 178
し 171
1 167
か 163
▁そうですね 158
▁ああ 157
して 156
▁わかりました 155
ですか 154
」 152
な 151
よ 150
▁ありがとうございます 146
には 145
ので 144
2 144
します 141
では 133
▁それは 133
や 130
▁分かりました 129
▁この 129
その 128
この 123
B 120
▁そう 119
について 118
3 118
ちょっと 115
▁うん 112
▁A 111
でも 111
とか 111
んです 111
社の 110
▁その 109
▁じゃあ 109
▁もしもし 108
でしょうか 107
よね 107
5 106
する 105
ですが 105
今 100
しています 99
ですよね 99
▁じゃ 97
にも 97
▁今 95
それは 95
▁実は 94
と思います 93
10 92
した 92
しました 92
「 92
けど 90
▁私は 90
なら 90
ですよ 90
▁それでは 86
かな 86
だから 86
ありがとうございます 85
んだ 83
▁お 82
さん 81
お 81
できる 79
なので 78
月 77
人 76
からね 76
日 76
のですが 76
▁あと 75
▁それで 73
んですよ 73
だよ 73
まで 72
▁今日は 71
している 71
▁そうですか 71
んですか 71
お願いします 71
▁もちろん 70
▁なるほど 70
だけ 69
時 69
そうです 68
また 68
る 68
という 68
新しい 67
んですが 67
ください 66
4 66
んだよ 66
▁ありがとう 66
社 65
がある 65
▁うーん 65
▁で 65
▁また 64
ある 64
んだけど 64
▁こんにちは 64
だね 64
でした 63
として 63
もう 63
ですから 63
わ 63
のは 62
製品 62
▁ただ 62
だ 62
い 62
▁そうです 61
▁そして 61
ことを 61
▁もちろんです 60
時間 60
何か 59
それ 59
▁え 59
でしょう 58
うちの 58
会社 58
まだ 57
もの 57
より 56
ない 56
になります 55
そう 55
▁だから 55
時に 55
私が 54
ありがとうございました 54
電話 54
▁もし 54
▁うちの 54
だと 53
確認 53
してください 53
になる 53
事 52
ことは 52
っている 52
なんです 52
▁なので 52
いい 52
良い 52
分 52
C 51
▁そうだね 51
▁2 51
何 51
▁いいえ 50
本当に 50
15 50
年 50
・ 50
▁1 49
▁それ 49
▁さて 49
私 49
私の 49
少し 49
私は 49
▁それから 49
こと 49
よろしくお願いします 48
された 48
中 48
▁いえ 48
さ 48
いて 47
があります 47
▁何 47
と思う 47
た 47
つ 47
ところ 47
います 47
話 47
だけど 47
▁私も 46
▁いや 46
6 46
▁ちょっと 46
他の 46
▁もう 46
ー 46
▁しかし 45
したい 45
った 45
これ 45
出 45
仕事 45
そうですね 45
▁まあ 45
ことが 45
20 44
ました 44
さんの 43
なんて 43
り 43
される 43
なかった 43
んですよね 43
会社の 43
ように 43
前に 42
来週 42
しております 42
▁私の 42
わかりました 42
変更 42
▁確かに 42
、「 42
それで 42
っています 42
メール 42
かなり 41
いた 41
んでしょうか 41
▁これは 41
じゃ 41
もっと 41
のに 41
かどうか 41
とても 41
問題 40
質問 40
て 40
ら 40
ようです 40
さんは 40
さんが 40
▁かしこまりました 40
▁すみません 40
かも 40
みたいな 40
いいですか 40
までに 40
▁私 39
▁ご 39
だった 39
▁何か 39
はありますか 39
... 39
様 38
▁まず 38
についての 38
私も 38
本 38
聞いて 38
いたします 38
く 38
見て 38
なの 38
大丈夫です 38
ます 38
▁あっ 38
▁いいですよ 38
ご 37
▁えっと 37
いました 37
30 37
んですね 37
ないと 37
いる 37
人が 37
▁本当に 37
▁まだ 37
じゃない 37
▁よろしくお願いします 36
予定 36
商品 36
すぐに 36
▁それに 36
後で 36
のが 36
をして 36
やって 36
よく 36
社に 36
早く 36
全部 36
できます 36
しましょう 35
▁私が 35
連絡 35
とは 35
▁B 35
▁あぁ 35
研修 35
▁例えば 35
んで 35
ような 35
いただけますか 35
E 35
ドル 35
など 34
にお 34
見 34
数 34
をお願いします 34
今日は 34
資料 34
一 34
今日 34
ミーティング 34
さんに 34
あります 34
それを 34
7 34
場合 34
のか 34
と申します 33
での 33
への 33
9 33
いない 33
へ 33
説明 33
大 33
をする 33
しておきます 33
8 33
必要 33
あの 33
、2 33
のですか 33
と思って 32
方 32
んだよね 32
くらい 32
、1 32
データ 32
大変 32
▁「 32
したら 32
社員 32
管理 32
できない 32
じゃあ 32
年間 32
これは 32
と思いますよ 32
ちゃんと 32
もし 32
のです 32
システム 31
すみません 31
しますね 31
自分の 31
特に 31
▁あー 31
してくれる 31
き 31
下さい 31
すると 31
▁そうか 31
え 31
のお 31
時から 31
会社に 31
されている 31
からの 31
の方 31
よう 31
▁えー 31
日本 31
出張 31
用 31
打ち合わせ 30
▁来週 30
については 30
上 30
後 30
なんだ 30
点 30
▁承知しました 30
社は 30
▁皆さん 30
▁他の 30
ません 30
なあ 30
ホテル 30
ますよ 30
み 29
あった 29
名 29
大丈夫 29
S 29
結構 29
仕事を 29
先 29
されて 29
部の 29
人の 29
▁それが 29
にして 29
どんな 29
しね 29
ましょう 29
みたい 29
▁そうそう 29
▁最近 29
だよね 29
するのは 29
ますか 29
最近 29
私たちの 29
事は 29
プレゼン 29
あなたの 29
担当 28
方が 28
があって 28
そんなに 28
▁明日 28
行 28
日に 28
ただ 28
経験 28
- 28
実は 28
営業 28
との 28
物 28
まず 28
ったら 28
ありません 28
▁ところで 28
会議 28
▁あの 28
るの 28
こんにちは 28
に関して 28
プロジェクト 28
明日 27
▁本日は 27
を使って 27
大きな 27
を見て 27
内容 27
はずです 27
▁そこで 27
することが 27
りました 27
手 27
ありがとう 27
対応 27
ほど 27
なんですか 27
ってる 27
きます 27
▁彼は 27
来て 27
助かります 27
があれば 27
▁どうして 27
どの 27
一緒に 27
予定です 26
を確認 26
チェック 26
▁えっ 26
提案 26
▁今日 26
してる 26
情報 26
▁それなら 26
そういう 26
▁これ 26
になって 26
がいい 26
しないといけない 26
▁特に 26
的に 26
ランチ 26
のこと 26
販売 26
だろう 26
部 26
教えて 26
設定 26
いいですよ 26
ために 26
オフィス 26
▁ですが 26
▁お願いします 26
▁おはようございます 26
あなた 26
はい 25
中に 25
がない 25
いません 25
X 25
どのような 25
きました 25
準備 25
こちら 25
なんですが 25
予約 25
▁それと 25
12 25
▁3 25
話を 25
気 25
どう 25
▁今は 25
お願い 25
▁そんな 25
いつも 25
ということ 25
ま 25
彼 25
う 25
どうぞ 25
お客様 25
▁現在 25
コーヒー 25
顧客 25
▁ま 25
サム 25
▁こちらこそ 24
んですけど 24
、3 24
に関しては 24
である 24
M 24
欲しい 24
注文 24
となります 24
週間 24
になった 24
える 24
D 24
デザイン 24
だったら 24
リ 24
ないから 24
そんな 24
があるので 24
同じ 24
のために 24
あまり 24
リー 24
レストラン 24
ン 24
▁僕は 24
▁へえ 24
のところ 24
作成 24
皆さん 24
▁えーと 23
通り 23
場合は 23
をお 23
さんから 23
あと 23
ヶ月 23
▁とりあえず 23
はどう 23
申請 23
色々 23
状況 23
聞いた 23
ありますか 23
社が 23
▁すぐに 23
行った 23
考え 23
したり 23
いただきありがとうございます 23
全然 23
▁一 23
ス 23
50 23
▁まずは 23
通 23
かもしれません 23
▁そうですよね 23
これで 23
しよう 23
▁今回は 23
さんと 23
は何 23
ってこと 23
れば 23
だけで 23
力 23
価格 23
▁どうも 23
業務 23
だと思います 23
部屋 23
メールで 23
▁いいですね 23
事を 23
▁私たちの 23
H 22
回 22
かと思います 22
ります 22
直接 22
に関する 22
企業 22
をしている 22
でしょ 22
午後 22
次の 22
あ 22
ればいい 22
なんだけど 22
サービス 22
れた 22
パーセント 22
ビジネス 22
者 22
▁いつ 22
にある 22
▁わかった 22
▁あら 22
的な 22
たら 22
するよ 22
▁大 22
▁今日の 22
どちら 22
▁今年は 22
作業 22
ではない 22
そうだね 22
探 22
値段 22
店 22
でしょうね 22
▁いつも 22
▁多分 22
はお 22
るのは 22
英語 22
現在 22
参加 22
くれる 22
▁その通りです 22
▁いえいえ 22
皆 22
を見 22
られる 22
なければ 22
手配 22
などの 22
一度 21
御社の 21
見た 21
ると 21
▁了解しました 21
が必要 21
心配 21
▁先日 21
間 21
情報を 21
▁新しい 21
があった 21
商品を 21
それから 21
考えて 21
▁いい 21
他に 21
xxxx 21
行って 21
もあります 21
ではなく 21
というのは 21
でしたね 21
▁10 21
っ 21
なくて 21
別の 21
を持って 21
コース 21
ぜひ 21
しか 21
約 21
どこ 21
の人 21
社と 21
取り 21
ここ 21
L 21
▁助かります 21
してみます 21
よりも 21
書類 21
会社は 21
残業 21
、10 20
いただき 20
をお願い 20
までは 20
らない 20
相談 20
のよ 20
▁そうなんですね 20
▁良い 20
と思うよ 20
報告 20
ん 20
アメリカ 20
だな 20
提出 20
言って 20
時間を 20
直 20
着 20
▁了解です 20
▁どんな 20
に行く 20
まして 20
人に 20
人事 20
▁そうなんです 20
の中 20
前の 20
作 20
僕 20
日の 20
するように 20
みんな 20
こういう 20
▁そういう 20
ずっと 20
事業 20
を出 20
お金 20
新 20
目 20
オフィスに 20
こちらの 20
いただく 20
▁おお 20
そうですか 20
所 20
全て 20
プログラム 20
▁分かった 20
素晴らしい 20
知ってる 20
だし 20
いただいた 19
早い 19
数字 19
させていただきます 19
他 19
についてです 19
されます 19
▁次に 19
▁いいよ 19
そうな 19
くる 19
▁了解 19
用の 19
社内 19
出て 19
とも 19
れる 19
商品は 19
なんだよ 19
水 19
▁そうなんだ 19
ですので 19
ほうがいい 19
僕は 19
させて 19
合 19
▁そうなんですよ 19
▁そういえば 19
に行って 19
月に 19
ですからね 19
はある 19
G 19
社長 19
保険 19
よろしいでしょうか 19
すれば 19
自分で 19
違う 19
かもね 19
るから 19
厳しい 19
ないよ 19
▁あとは 19
▁僕も 19
▁そっか 19
クライアント 19
全 19
日本の 19
大学 19
でしたか 19
イ 19
便 19
けどね 19
したの 19
開発 19
によって 19
▁製品 19
前 19
イメージ 19
け 19
いです 19
▁僕 19
部長 19
だって 19
投資 19
されています 19
マーケティング 19
製品の 19
ここに 19
. 19
あなたが 19
おはようございます 18
はない 18
スケジュール 18
はこの 18
ク 18
来 18
に連絡 18
からは 18
当社の 18
でお願いします 18
金 18
何も 18
ここで 18
大丈夫ですよ 18
請求書 18
うまく 18
▁うちは 18
ご連絡 18
先週 18
▁あなたの 18
もう少し 18
どうですか 18
ということは 18
外 18
会議室 18
してもらう 18
下 18
来た 18
行く 18
入 18
んじゃない 18
くれ 18
さんも 18
会 18
▁去年 18
すぐ 18
のもの 18
クラス 18
内 18
よろしいですか 18
全く 18
ができる 18
そこに 18
台 18
輸送 18
持って 18
感じ 18
従業員 18
良かった 18
はいい 18
▁うわー 18
君 18
うち 18
一人 18
送 18
もある 18
しない 18
少々お待ちください 18
かもしれない 18
しても 18
取引 18
後は 18
くて 18
▁よく 18
承認 18
すべて 18
む 18
返金 18
はどうですか 18
昨日 18
部署 18
リスト 18
分かる 18
君が 18
はもう 18
▁ありがとうございました 18
▁彼女 18
▁あなた 18
▁彼の 18
K 17
はいつ 17
に行 17
▁大丈夫ですよ 17
かと 17
動 17
的 17
▁どう 17
書 17
▁一度 17
るように 17
かかる 17
代 17
技術 17
休み 17
▁彼 17
いつ 17
それが 17
▁彼らは 17
市場 17
いくつか 17
時間は 17
▁5 17
バ 17
を使用 17
商品の 17
に入 17
じゃないですか 17
食べ 17
す 17
める 17
▁御社の 17
今の 17
ということですね 17
一番 17
ぐらい 17
▁やっぱり 17
▁よかった 17
と思いますが 17
場所 17
ことに 17
▁もっと 17
かい 17
のある 17
▁朝 17
こ 17
今回は 17
サイズ 17
難しい 17
▁つまり 17
るのに 17
何を 17
にする 17
関係 17
言う 17
今から 17
きっと 17
パソコン 17
去年 17
連絡します 17
勉強 17
▁とても 17
施設 17
機能 17
事が 17
させる 17
可能 17
方法 17
られて 17
るよ 17
そうですよ 17
かった 17
頃 17
があるから 17
▁どの 17
になっている 17
ミーティングを 17
イベント 17
したいのですが 17
ファイル 17
時は 17
二 17
チーム 17
▁だけど 17
▁残念ながら 17
理解 17
していない 17
について話 17
しますよ 17
▁どういたしまして 17
▁サム 17
したほうがいい 16
ってた 16
田さん 16
分かりました 16
お話 16
がありました 16
していた 16
非常に 16
▁ですので 16
これが 16
いますが 16
調整 16
ってもら 16
になっています 16
確かに 16
いく 16
わからない 16
でお 16
希望 16
れて 16
なのですが 16
いますね 16
セミナー 16
提供 16
ページ 16
印刷 16
面接 16
フ 16
別 16
ですし 16
しないと 16
えて 16
万 16
れ 16
なんか 16
通勤 16
ても 16
いですね 16
いろいろ 16
たい 16
川 16
興味 16
ける 16
移動 16
契約 16
ねえ 16
金額 16
もんね 16
教えてください 16
ってお 16
になりますか 16
早めに 16
初めて 16
▁C 16
追加 16
を作 16
きますね 16
買 16
売 16
ということで 16
のも 16
▁田中さん 16
山 16
忙しい 16
共有 16
め 16
人で 16
すること 16
番号 16
使用 16
▁彼女は 16
ほしい 16
▁そうなんですか 16
でしたっけ 16
を送って 16
にな 16
しましょうか 16
データベース 16
私に 16
彼女 16
に電話 16
せ 16
案 16
担当者 16
部に 16
できますか 16
処理 16
出来る 16
▁ねえ 16
るんだ 16
業者 16
わね 16
彼らが 16
件 16
全ての 16
様々な 16
させてください 16
目標 16
ないといけない 16
彼の 16
出荷 16
ベン 16
サムさん 16
▁いつもお世話になっております 15
と思いまして 15
改善 15
いますよ 15
時の 15
サポート 15
場 15
実際に 15
これから 15
発表 15
が多い 15
後に 15
とりあえず 15
でございます 15
々 15
はいかがですか 15
なぁ 15
そちら 15
メンバー 15
▁他に 15
一週間 15
分の 15
購入 15
解決 15
できて 15
エンジニア 15
らしい 15
ないです 15
社長が 15
必要がある 15
ため 15
日は 15
注意 15
多くの 15
もいい 15
べき 15
お店 15
を作って 15
知らない 15
ブ 15
ツアー 15
んじゃないかな 15
国 15
され 15
なんでしょうか 15
絶対 15
がい 15
そうなんですね 15
人を 15
社で 15
でいい 15
▁皆 15
全員 15
が必要です 15
予算 15
の方が 15
でき 15
にとって 15
ありました 15
みたいで 15
R 15
社員の 15
すごい 15
いって 15
ア 15
導入 15
いただければ 15
度 15
25 15
できると思います 15
言 15
古い 15
みます 15
時間が 15
...。 15
▁その通り 15
今日の 15
11 15
再 15
もらえる 15
高い 15
修正 15
しまう 15
と思うので 15
するの 15
ってきて 15
化 15
紹介 15
課長 15
有給 15
けれど 15
トレーニング 15
▁仕事 15
ならば 15
、5 15
機会 15
必要な 15
みて 15
▁とにかく 15
すでに 15
製品を 15
いつでも 15
だと思う 15
色々と 15
ウチの 15
会社が 15
必要があります 15
▁来週の 15
▁君は 15
彼らは 15
▁あなたは 15
の準備 14
いただいて 14
等 14
▁どうぞ 14
まずは 14
▁今回の 14
せて 14
の事 14
についても 14
と思っています 14
伝え 14
ましょうか 14
長 14
することは 14
▁お客様 14
日間 14
先日 14
旅行 14
▁ここ 14
または 14
のかな 14
我々の 14
配達 14
良かったです 14
そちらの 14
今後 14
してもら 14
でしたら 14
に行った 14
がとても 14
をと 14
枚 14
していました 14
結果 14
ことです 14
▁それも 14
のため 14
▁早く 14
うちに 14
ありますよ 14
必ず 14
人は 14
リーダー 14
早速 14
できました 14
わかる 14
実 14
の仕事 14
▁こちら 14
▁大変 14
▁営業 14
家 14
なかなか 14
ってください 14
▁他にも 14
始め 14
楽しい 14
すべての 14
ル 14
が出て 14
なく 14
▁そうだな 14
っていた 14
可能性 14
を送 14
来る 14
よかった 14
どれだけ 14
多分 14
伝えて 14
今は 14
かけて 14
どうしても 14
置いて 14
ト 14
量 14
簡単に 14
利用 14
そこ 14
してた 14
各 14
日本語 14
経費 14
初 14
月の 14
企画 14
マネージャー 14
過ぎ 14
時期 14
多 14
に来て 14
我が社の 14
▁失礼します 14
期間 14
彼らの 14
人材 14
▁S 14
東京 14
計画 14
ますね 14
見積 14
セキュリティ 14
検索 14
調べて 14
成功 14
僕が 14
ないですよ 14
嬉しいです 14
ド 14
オフィスの 14
しようか 14
▁こちらの 14
案件 14
ほぼ 14
良いですか 14
▁顧客 14
と思いますか 14
更新 14
本当 14
どうやって 14
か月 14
▁来月 14
輸出 14
分くらい 14
を持っている 14
船 14
私たちは 14
お電話 13
▁さっき 13
でしたよね 13
明日の 13
してます 13
総会 13
▁本 13
社内で 13
細かい 13
ではありません 13
口 13
高 13
御社 13
をしています 13
関係の 13
予測 13
次 13
用意 13
ところです 13
生 13
人も 13
▁30 13
大丈夫だよ 13
しばらく 13
ちょうど 13
ですかね 13
切 13
を見つけ 13
みんなに 13
すごく 13
誰 13
現 13
子 13
ことで 13
新規 13
ず 13
なんですよ 13
▁商品 13
レポート 13
りは 13
J 13
どうでしょうか 13
あり 13
▁そこ 13
状態 13
朝 13
の話 13
ないので 13
れない 13
▁昨日 13
時には 13
わかりません 13
ばかり 13
やつ 13
方がいい 13
多い 13
ないの 13
工場 13
確か 13
▁そうすると 13
ホテルの 13
食事 13
ール 13
見積もり 13
上司 13
田 13
そして 13
▁ちょうど 13
緊急 13
▁あまり 13
ダメ 13
ほうが 13
こちらで 13
しっかり 13
があると 13
のご 13
学生 13
可能です 13
がいる 13
だわ 13
やってる 13
▁K 13
ち 13
▁みんな 13
たくさん 13
じ 13
くれてありがとう 13
来年 13
間違い 13
と一緒に 13
はいつも 13
無 13
勤務 13
今年は 13
どのように 13
ること 13
帰 13
▁自分の 13
ことはありますか 13
いらっしゃる 13
子供 13
料金 13
▁かなり 13
好き 13
プロジェクトの 13
▁どのような 13
のでしょうか 13
かもしれませんね 13
でしたよ 13
スペース 13
しますので 13
きた 13
確認して 13
たちが 13
▁すごく 13
があったら 13
IT 13
気が 13
電車 13
終わ 13
のを 13
よい 13
どれくらい 13
おきます 13
品 13
弊社の 13
する予定です 13
は何ですか 13
とこ 13
駅 13
いただけ 13
配送 13
▁そうだよ 13
間に 13
始めた 13
る前に 13
▁ランチ 13
なのは 13
▁どうやって 13
▁大丈夫です 13
分からない 13
ンの 13
できますよ 13
▁M 13
ゆっくり 13
▁君の 13
ほとんど 13
ンを 13
お元気ですか 13
ジョン 13
業界に 13
▁H 12
▁明日の 12
進めて 12
ポイント 12
しい 12
時間も 12
事前に 12
もらって 12
っと 12
出来 12
事務所 12
使 12
ご相談 12
ことも 12
終了 12
定 12
第 12
戻 12
して欲しい 12
▁結構 12
有難うございます 12
達 12
▁実際 12
是非 12
できた 12
君の 12
してきた 12
知り合い 12
付 12
▁最後に 12
会社を 12
▁そんなに 12
私たちが 12
ユーザー 12
させて頂きます 12
までの 12
掲載 12
新人 12
られた 12
課題 12
階 12
の一 12
さっき 12
はず 12
▁ここで 12
▁少し 12
先に 12
んだよな 12
観光 12
作って 12
タイプ 12
調査 12
もので 12
調べ 12
させていただきました 12
N 12
光栄です 12
遅 12
ダ 12
意見 12
そうだ 12
を提供 12
いきましょう 12
だけです 12
なのに 12
とします 12
持ち 12
ート 12
になると 12
マ 12
経営 12
海外 12
選択 12
ということです 12
を探 12
▁ではまた 12
不満 12
車 12
頭 12
いいよ 12
今週 12
あたり 12
るので 12
ロ 12
それに 12
結局 12
やる 12
だからね 12
わよ 12
させ 12
系 12
コ 12
40 12
▁研修 12
エ 12
かなあ 12
ワ 12
じゃなくて 12
書いて 12
のよね 12
小 12
▁あれ 12
以外 12
おります 12
ビル 12
、6 12
がお 12
無理 12
だろうね 12
円 12
どうしたの 12
からも 12
社から 12
▁それはいいですね 12
▁それは助かります 12
心 12
大丈夫だと思います 12
しましたか 12
▁20 12
ありますが 12
学校 12
記録 12
▁マーケティング 12
こちらに 12
▁わー 12
▁とんでもないです 12
▁ぜひ 12
考える 12
学 12
強 12
来月 12
に興味 12
コスト 12
住所 12
訪問 12
ミス 12
候補 12
っていう 12
検討 12
時々 12
くなる 12
取 12
▁ほら 12
▁ええと 12
ことがある 12
ましたよ 12
▁本当ですか 12
誰か 12
今回の 12
▁会社の 12
しなかった 12
返品 12
を使った 12
美味しい 12
休暇 12
課 12
リクエスト 12
別に 12
されました 12
ぁ 12
▁弊社の 12
受注 12
もしくは 12
に対して 12
▁ですから 12
ている 12
紙 12
ワイン 12
良く 12
▁どこ 12
業界 12
のみ 12
▁先週 12
▁どうやら 12
安全 12
ようですね 12
する事 12
あれ 12
サンプル 12
責任 12
99 12
税 12
評価 12
までには 12
見つけ 12
▁日本 12
助けて 12
私たち 12
▁オフィス 12
▁ここに 12
▁やあ 12
コンピューター 12
監査 12
同僚 12
彼に 12
▁さようなら 12
▁きっと 12
▁彼らの 12
▁サムさん 12
社のサムです 12
社のサム 12
時半 11
項目 11
日を 11
事項 11
すべき 11
をします 11
理由 11
次に 11
としては 11
するので 11
次第 11
お時間 11
要 11
▁お電話ありがとうございます 11
法 11
田と申します 11
に必要な 11
送付 11
失礼します 11
会議の 11
▁お世話になっております 11
内に 11
上の 11
そこから 11
お客様の 11
ですと 11
▁お疲れ様です 11
それなら 11
野さん 11
▁彼が 11
皆さんに 11
を考えて 11
皆さんの 11
支払い 11
再度 11
していただけますか 11
決まった 11
と思うのですが 11
できるか 11
当社 11
グ 11
▁いつ頃 11
▁彼ら 11
完成 11
してもらえる 11
新入社員 11
休憩 11
だと思うよ 11
売り上げ 11
お願いできますか 11
致します 11
らしいよ 11
▁今朝 11
んですけどね 11
ると思います 11
一つ 11
▁宜しくお願いします 11
不足 11
するか 11
親 11
料理 11
っても 11
知 11
えた 11
色 11
意味 11
地 11
プロ 11
そうですが 11
んじゃないですか 11
そうですよね 11
やっぱり 11
身 11
明日は 11
もらう 11
信頼 11
られ 11
仕事で 11
▁6 11
働いて 11
にか 11
うちは 11
に対応 11
聞く 11
想像 11
いいですね 11
聞き 11
自分 11
▁そうね 11
話す 11
来週の 11
W 11
いただける 11
いますか 11
もちろん 11
店舗 11
当 11
やり方 11
やり 11
カ 11
テーブル 11
チ 11
▁同じ 11
の予定 11
がありますので 11
たく 11
言ってる 11
袋 11
安い 11
を入れて 11
立 11
みるよ 11
つの 11
▁今から 11
100 11
交渉 11
▁よし 11
売上 11
表 11
くれて 11
って感じ 11
いらっしゃいますか 11
▁アメリカ 11
返事 11
する予定 11
スタッフ 11
24 11
後ほど 11
きちんと 11
に送 11
してもらいたい 11
以上 11
れます 11
合計 11
メモ 11
そろそろ 11
▁大丈夫 11
何が 11
好きな 11
ことがあります 11
ほとんどの 11
とお 11
を説明 11
ット 11
、4 11
の方に 11
ック 11
アンケート 11
っけ 11
りますね 11
だっけ 11
といい 11
出張で 11
難 11
面倒 11
だったよ 11
送って 11
遠 11
気になる 11
やっている 11
りますよ 11
そうなんですか 11
そこまで 11
セ 11
わけ 11
ろう 11
データを 11
を使う 11
受け取 11
ながら 11
くれた 11
したんだ 11
個人 11
何とか 11
めた 11
ることが 11
使い 11
られない 11
と言 11
P 11
▁是非 11
フォロー 11
日程 11
額 11
関連 11
なんだよね 11
もう一度 11
▁オンライン 11
オンライン 11
をお持ち 11
出来ない 11
んだろう 11
トム 11
っているので 11
村 11
今日中に 11
と話 11
ぞ 11
職場 11
だったよね 11
の件 11
入れ 11
分かった 11
CX 11
情報は 11
部門 11
してみて 11
になりました 11
グループ 11
詳細 11
大丈夫ですか 11
▁うち 11
▁価格 11
にこの 11
最終 11
ディナー 11
▁9 11
中国 11
トラック 11
三 11
どのくらい 11
▁良かった 11
社との 11
たちの 11
したいと思います 11
しまいます 11
▁何で 11
働いている 11
思 11
働く 11
が欲しい 11
製造 11
限り 11
アドバイス 11
▁君が 11
しているんです 11
▁我が社の 11
▁ベンさん 11
MBA 11
▁ある 11
株式公開 11
田です 10
▁高 10
おっしゃ 10
役員 10
出席 10
かない 10
▁シ 10
感 10
それでは 10
できれば 10
全体 10
が良い 10
安定 10
株主 10
となる 10
しておく 10
受け 10
バージョン 10
訓練 10
、12 10
▁今のところ 10
T 10
▁先月 10
くなって 10
になると思います 10
したのですが 10
▁そうなの 10
出し 10
しておいて 10
▁それじゃあ 10
なんですけど 10
りに 10
にお電話 10
番号は 10
XX 10
到着 10
品の 10
もらえますか 10
元 10
クレジットカード 10
▁そうだ 10
▁その後 10
案内 10
請求 10
石 10
履歴書 10
頑張って 10
働き 10
▁数 10
▁請求書 10
となっています 10
ところで 10
広告 10
週 10
、20 10
詳しく 10
種類 10
いたしました 10
本日は 10
の商品 10
▁他に何か 10
テ 10
サイト 10
だけでは 10
▁新 10
タ 10
始めて 10
形 10
に出 10
と同じ 10
こんなに 10
はまだ 10
もらった 10
今のところ 10
黒 10
としても 10
目を 10
ストレス 10
社員に 10
▁次の 10
テスト 10
▁確かにそうですね 10
基本 10
すぎ 10
ふ 10
嫌 10
▁ホテル 10
デ 10
るのが 10
きて 10
話し 10
ことになる 10
全員が 10
言葉 10
なんですよね 10
を持 10
待って 10
んだけどね 10
支 10
なる 10
契約書 10
になり 10
が好き 10
はどこ 10
出勤 10
えるように 10
もあるので 10
使って 10
▁今日中に 10
ようにします 10
が入 10
200 10
カード 10
責任者 10
どういう 10
ホ 10
れたら 10
物は 10
かもしれませんが 10
ところは 10
パ 10
いくら 10
割 10
お昼 10
しく 10
不 10
アプリ 10
スト 10
の資料 10
便利 10
それも 10
からな 10
とっても 10
ませんか 10
ってます 10
安 10
体 10
選んで 10
職 10
今年 10
たんだけど 10
影響 10
にします 10
大体 10
っております 10
▁こちらは 10
がたくさん 10
絶対に 10
環境 10
覚えて 10
▁電話 10
の研修 10
採用 10
▁東京 10
誰も 10
の良い 10
モ 10
大事な 10
▁どうもありがとうございます 10
よかったです 10
やはり 10
米 10
▁中 10
よりは 10
システムの 10
▁御社は 10
▁これが 10
▁そうすれば 10
目的 10
ご質問 10
決め 10
ズ 10
性 10
なくても 10
ずに 10
簡単 10
だけの 10
価値 10
ニュース 10
んじゃないか 10
当たり 10
れてる 10
くない 10
あげ 10
ときに 10
を取 10
ぐ 10
ものです 10
くな 10
どうして 10
▁去年は 10
できません 10
ろ 10
そうなの 10
小さい 10
んだから 10
宣伝 10
時間に 10
いたい 10
物の 10
あれば 10
▁部長 10
渡 10
いの 10
聞いてください 10
様に 10
用紙 10
▁4 10
俺 10
依頼 10
ラ 10
つもり 10
検収 10
判断 10
確実に 10
在庫 10
時間の 10
試 10
だめ 10
助かりました 10
商品開発 10
あとで 10
のほう 10
モデル 10
翻訳 10
訳 10
使う 10
かを 10
とって 10
人たち 10
する必要がある 10
を受け 10
認識 10
会議を 10
してから 10
間の 10
記載 10
れました 10
最高 10
があるか 10
仕事が 10
ど 10
くださいね 10
▁E 10
▁おつかれさまです 10
▁ちゃんと 10
研究 10
ご連絡ください 10
個 10
助かるよ 10
州 10
▁はじめまして 10
com 10
もちろんです 10
ドア 10
いただきありがとうございました 10
決断 10
▁素晴らしい 10
パッケージ 10
木 10
▁何の 10
沢山 10
ラップトップ 10
ウェブサイト 10
あなたは 10
プラットフォーム 10
ラベル 10
サムです 10
関税 10
シアトル 10
▁彼らが 10
応募 10
物流 10
製造施設 10
そうなんです 9
していて 9
月曜日 9
▁資料 9
・・・ 9
▁ほんと 9
近 9
において 9
よろしい 9
回答 9
程度 9
しま 9
もらえるかな 9
における 9
いただきます 9
みた 9
業績 9
しましたが 9
期 9
私から 9
かね 9
▁まぁ 9
▁後で 9
不安 9
今年の 9
向けの 9
こちらが 9
I 9
▁お電話代わりました 9
手続き 9
ご連絡します 9
▁確認 9
▁今回 9
と思うんだけど 9
入って 9
られます 9
茶 9
室 9
ったので 9
許可 9
▁ちなみに 9
発送 9
通常 9
修理 9
者も 9
デスク 9
ソフトウェア 9
ば 9
いかがでしょうか 9
給与 9
注文した 9
タイミング 9
社を 9
いている 9
最初の 9
ご報告 9
する必要があります 9
戦 9
わかった 9
をお送り 9
締め切り 9
かが 9
グラフ 9
ホームページ 9
意見を 9
発注 9
▁今週 9
誰かが 9
用に 9
コピー 9
くれるかな 9
有難うございました 9
オープン 9
あんまり 9
メニュー 9
なん 9
答え 9
▁なんで 9
いいね 9
画面 9
無い 9
▁これから 9
なぜ 9
古 9
気に入 9
先月 9
たまに 9
言った 9
かは 9
こう 9
▁今年 9
仮装 9
しておいてください 9
人がいる 9
タイ 9
待 9
ピ 9
怒 9
結構です 9
出発 9
カバー 9
りの 9
平均 9
るって 9
時まで 9
貿易 9
たり 9
泊 9
▁こちらが 9
先の 9
してお 9
気持ち 9
おう 9
んでしょう 9
相手 9
聞きたい 9
16 9
を開 9
ないといけません 9
バー 9
問い合わせ 9
周知 9
▁全 9
してもらって 9
長く 9
言われて 9
そうします 9
した方が 9
なし 9
みましょう 9
のような 9
メーカー 9
作り 9
まま 9
どれ 9
りたい 9
ポ 9
500 9
食べて 9
をご 9
っちゃう 9
が上が 9
だったから 9
値 9
利益 9
なにか 9
年の 9
れなかった 9
取れる 9
しくて 9
するのが 9
挨拶 9
空き 9
そうだった 9
君に 9
もお 9
しまいました 9
こんな 9
出した 9
オフィスは 9
いけない 9
倍 9
とき 9
楽しみ 9
▁今まで 9
いただきました 9
に関わ 9
やった 9
▁それはいい 9
内容は 9
▁質問 9
その通りです 9
について説明 9
考えた 9
ベース 9
ないように 9
設備 9
xxx 9
まって 9
者の 9
っていました 9
リサーチ 9
困 9
F 9
ちゃ 9
OK 9
よな 9
なー 9
みたら 9
いたら 9
使っている 9
▁どこか 9
▁そちらの 9
休 9
っているんです 9
差 9
ったよ 9
e 9
しかない 9
って何ですか 9
しまった 9
を教えてください 9
言ってた 9
さあ 9
マニュアル 9
▁結局 9
悪い 9
雪 9
るか 9
資産 9
サーバー 9
お知らせください 9
協力 9
例 9
管理職 9
研修の 9
▁会社 9
講師 9
努力 9
の可能性 9
スケジュールを 9
社員が 9
失 9
段階 9
経営陣 9
ならない 9
おく 9
支払 9
カメラ 9
御社に 9
西 9
程 9
かかります 9
分析 9
を使 9
はどのくらい 9
写真 9
部分 9
ることができます 9
すぎる 9
今まで 9
かなぁ 9
顧客の 9
目に 9
目を通 9
営業の 9
何でしょう 9
研究開発 9
日本に 9
教え 9
たの 9
けて 9
と思った 9
が悪い 9
大切な 9
問題はない 9
経理 9
居 9
スキル 9
考慮 9
してきました 9
電話を 9
部屋の 9
書類の 9
によると 9
に参加 9
▁チーム 9
海瑠 9
顔 9
ペルソナ 9
我々が 9
の顧客 9
つか 9
顧客が 9
ことができる 9
物を 9
せる 9
の手配 9
どうも 9
残 9
個人的に 9
重要な 9
するんですか 9
くれますか 9
増加 9
して下さい 9
飲み 9
に入れて 9
彼は 9
輸入 9
ってもらう 9
らないといけない 9
を取り 9
の件で 9
したほうが 9
なるべく 9
メールアドレス 9
お話し 9
そこで 9
出張の 9
▁ビル 9
オフィスで 9
カテゴリー 9
▁弊社は 9
いただけます 9
箱 9
ものは 9
んだが 9
ことある 9
曜の 9
ボ 9
を予約 9
資金 9
万ドル 9
生産 9
プレゼンテーション 9
コード 9
エンジニアリング 9
を与える 9
▁リーです 9
社の社長 9
オファー 9
時間ほど 8
▁少々お待ちください 8
へ行 8
がいいですか 8
午前中 8
開催 8
資料の 8
読み 8
合わせ 8
を作成 8
ネ 8
ガ 8
具体的に 8
なさ 8
中には 8
IR 8
事務 8
的には 8
銀行 8
しなくても 8
席 8
▁先 8
いつもお世話になっております 8
時で 8
お待ちしています 8
こちらは 8
▁申し訳ございません 8
御 8
いただきたいのですが 8
メールで送 8
ちょっといいですか 8
特許 8
者は 8
の上 8
取得 8
藤 8
追跡 8
してみてください 8
してみるよ 8
友人 8
感謝 8
▁我々 8
岡 8
がありまして 8
予想 8
ゲーム 8
▁どれくらい 8
17 8
四半期 8
文字 8
そちらで 8
もら 8
ご連絡いたします 8
向け 8
分ほど 8
得 8
▁本日の 8
インターネット 8
角 8
失礼いたします 8
村さん 8
代わりに 8
階の 8
白 8
▁すみませんが 8
% 8
ご意見 8
指示 8
頼 8
集まって 8
世界 8
払 8
のない 8
決めた 8
が出 8
国の 8
ロゴ 8
ことができます 8
会社です 8
のデザイン 8
愛 8
問題ない 8
いたので 8
かもしれないですね 8
事業部 8
のはどうでしょうか 8
パーティー 8
が一番 8
番 8
会社では 8
仕事の 8
十分 8
知識 8
違い 8
していく 8
に関しての 8
だけに 8
携帯 8
終わる 8
楽 8
業 8
くれない 8
務 8
帰国 8
んな 8
認証 8
▁G 8
▁どれどれ 8
いいかな 8
になりますので 8
ございますでしょうか 8
させていただく 8
引き 8
途中で 8
の大 8
足 8
があるんだ 8
分か 8
閉 8
係 8
ミーティングは 8
だそうです 8
▁もう少し 8
そうでしょうか 8
お弁当 8
▁あとで 8
なかったんだ 8
が違う 8
コミュニケーション 8
00 8
できるように 8
焼き 8
要望 8
いるので 8
できるはずです 8
はあった 8
が終わ 8
ッチ 8
がつ 8
スタート 8
▁料金 8
服 8
ラン 8
食べる 8
▁それを 8
▁そしたら 8
なのよ 8
好み 8
が少ない 8
が高い 8
を上げ 8
を利用 8
から連絡 8
変え 8
上げ 8
なくなる 8
できたら 8
ものに 8
アップ 8
▁ス 8
なんとか 8
ップ 8
▁問題 8
なんだよな 8
さえ 8
発 8
彼ら 8
が出る 8
万円 8
進め 8
▁申し訳ありません 8
表示 8
価 8
したいと思っています 8
ってるの 8
近くの 8
腹 8
についてお 8
るね 8
もうすぐ 8
理由は 8
に行こう 8
送り 8
チャンス 8
人数 8
▁予算 8
名前は 8
電話で 8
夕方 8
でいいですか 8
続ける 8
生活 8
と思いました 8
話して 8
会社で 8
よろしくお願いいたします 8
になりますね 8
決定 8
社です 8
今度 8
運転 8
▁週末 8
家族 8
事業を 8
拡大 8
などを 8
▁各 8
社長の 8
おきますね 8
と思ってる 8
昼休み 8
システムを 8
▁通常 8
しまい 8
▁ここの 8
えている 8
現地 8
進捗 8
▁帰 8
ライセンス 8
メールを 8
14 8
やら 8
ごとに 8
変 8
築 8
長い 8
基準 8
ってるんだ 8
数が 8
海 8
式 8
一回 8
お客さん 8
喜んで 8
なくなった 8
ほら 8
▁こういう 8
母 8
してない 8
困る 8
付け 8
▁年 8
ですけど 8
▁ええっ 8
▁そうですよ 8
言わ 8
りますので 8
を教えて 8
負担 8
常 8
事故 8
方の 8
扱い 8
ホテルは 8
知って 8
基本的に 8
するから 8
使える 8
手順 8
ソフト 8
操作 8
上手く 8
にい 8
みたいです 8
▁大丈夫だよ 8
▁うわ 8
▁最初は 8
に変更 8
求 8
転職 8
することで 8
ないけど 8
策 8
適 8
ご説明 8
大きい 8
▁L 8
会の 8
確定 8
の売上 8
はあります 8
じゃん 8
みたいだよ 8
と思うけど 8
来月の 8
弊社 8
出来ます 8
ことはできますか 8
木材 8
仕上げ 8
が原因 8
週間前に 8
さらに 8
がありますか 8
に合わせて 8
一日 8
年くらい 8
名前 8
に連れて 8
さんを 8
入れて 8
していいですか 8
▁僕の 8
しておきますね 8
自己紹介 8
していただいて 8
、15 8
と思うんだ 8
▁トム 8
やすい 8
会った 8
名刺 8
出来て 8
▁朝の 8
大丈夫でしょう 8
面 8
かも知れません 8
アカウント 8
見直 8
ったの 8
▁おー 8
分野 8
良いですね 8
っていますか 8
スライド 8
誰が 8
▁こんな 8
知っている 8
海棠部長 8
気を付けて 8
研修は 8
完了 8
主な 8
各部署 8
を通して 8
事も 8
気を 8
味 8
度の 8
居る 8
短 8
▁15 8
なんで 8
大事 8
人事部 8
こっち 8
企画部 8
異動 8
為に 8
ターゲット 8
条件 8
に話 8
詳細を 8
教 8
▁なら 8
戸倉さん 8
▁少なくとも 8
小さな 8
。。。 8
るんですか 8
転送 8
一年 8
僕も 8
を見つける 8
風に 8
テキスト 8
達は 8
はいくら 8
▁ジョン 8
気をつけて 8
行き 8
ンが 8
ジム 8
ジェ 8
いないので 8
▁前回 8
かわかりますか 8
▁何を 8
ファイルを 8
シ 8
をお知らせ 8
・・・。 8
さんです 8
するための 8
を教えていただけますか 8
ドット 8
選択肢 8
▁いつまでに 8
ボブ 8
なくなって 8
今すぐ 8
空いてる 8
▁トムさん 8
従業員を 8
トン 8
ディ 8
はとても 8
座って 8
幾つか 8
ってきた 8
まる 8
@ 8
英国 8
s 8
ケース 8
客先 8
御社は 8
商品が 8
積み 8
▁自分で 8
セント 8
いいです 8
したくない 8
▁従業員 8
彼女は 8
▁君 8
していますよ 8
に移 8
オンラインで 8
から始めて 8
業界で 8
を知っている 8
▁えぇ 8
ブラッド 8
▁私たちは 8
ベイスギ 8
お世話になっております 7
んでしたっけ 7
いかがですか 7
と思っていた 7
皆様 7
指摘 7
本日 7
お越し 7
と思われます 7
ター 7
ナ 7
▁今年も 7
運営 7
物や 7
メールに 7
レ 7
▁早めに 7
しているよ 7
広報 7
▁早速ですが 7
多く 7
こちらから 7
発行 7
かなくて 7
▁高田さん 7
とおっしゃ 7
であれば 7
一旦 7
何時 7
られますか 7
▁午後 7
りますが 7
▁どうしたの 7
まとめて 7
イントラネット 7
書を 7
類 7
予算は 7
ことがあったら 7
遠慮なく 7
示 7
料 7
テレビ 7
年前 7
他にも 7
▁休暇 7
はどうな 7
たよ 7
野です 7
宜しいでしょうか 7
▁当社の 7
有名 7
を見る 7
増 7
してしまった 7
渡し 7
十分に 7
いただきたい 7
終わり 7
木曜日 7
▁いくつか 7
はいらっしゃいますか 7
いたのですが 7
のですね 7
弊社に 7
川さん 7
おいて 7
原因 7
んでいる 7
自 7
をお願いできますか 7
今後の 7
良いでしょうか 7
去年の 7
話が 7
って何 7
ほどの 7
ますよね 7
少ない 7
のことを 7
はどうでしょうか 7
ビール 7
▁いいね 7
頑張ります 7
▁今日はお越し 7
ブランド 7
が一 7
消費者 7
様子 7
ご提案 7
思い 7
にご 7
いまして 7
とは思 7
があり 7
違った 7
がありますね 7
コメント 7
ぶ 7
今月 7
コン 7
選 7
賞 7
女性 7
▁会議室 7
▁おそらく 7
近く 7
配属 7
不動産 7
屋 7
▁明日は 7
で行 7
▁なぜ 7
を買 7
ための 7
断 7
マン 7
構いません 7
みたいに 7
につ 7
バイト 7
、9 7
▁全然 7
を作る 7
持ってきて 7
ってない 7
が必要ですね 7
連絡して 7
▁工場 7
してもらえますか 7
などが 7
納得 7
わけじゃない 7
満 7
つけ 7
太 7
力を 7
いう 7
技術を 7
位 7
▁カ 7
ビ 7
店の 7
原 7
会話 7
側 7
▁社長 7
耳 7
だいたい 7
18 7
風 7
タクシー 7
おそらく 7
会は 7
起こ 7
対象 7
続け 7
カレー 7
じゃないの 7
しましたよ 7
▁エ 7
急いで 7
食 7
出す 7
を選択 7
という意見 7
▁い 7
失敗 7
するために 7
ケータリング 7
合わせて 7
ボリューム 7
飲み放題 7
▁良いですね 7
卵 7
半 7
火 7
に入って 7
▁あれは 7
▁そういうこと 7
▁それだけ 7
▁今年の 7
書き 7
価格は 7
いで 7
手段 7
くなった 7
ゲ 7
そうか 7
していますよね 7
ぼ 7
言語 7
この辺 7
いった 7
従業員が 7
求人 7
営業部 7
れている 7
大きく 7
会社と 7
ではなくて 7
駐車 7
づらい 7
してほしい 7
山本 7
良かったよ 7
どういった 7
に相談 7
はちょっと 7
思いつ 7
列 7
▁他には 7
ような気がする 7
ミ 7
始めます 7
知り 7
に記載 7
種 7
お手伝い 7
だけどね 7
っちゃった 7
われて 7
いますから 7
いれば 7
になれる 7
クライアントに 7
お客様が 7
不便 7
伝えてください 7
伝えます 7
大学の 7
するまで 7
裏 7
事に 7
ファンド 7
地域の 7
してもらいます 7
をやって 7
ツール 7
になったら 7
は必要 7
▁T 7
言っても 7
▁過去 7
自身 7
の後 7
開始 7
わけではない 7
といいのですが 7
マーケット 7
離 7
寝 7
設置 7
ード 7
に何 7
ったり 7
いらっしゃ 7
▁上 7
▁ABC 7
何人か 7
効率 7
やす 7
実際の 7
保存 7
効果 7
があるのですが 7
たいです 7
▁お客様の 7
23 7
聞 7
会って 7
の数 7
したもの 7
みたいですよ 7
懸念 7
街 7
▁12 7
どこに 7
交換 7
数は 7
沢山の 7
住宅 7
時間ある 7
▁最近は 7
島 7
もいる 7
って言 7
多いから 7
からさ 7
入れる 7
提示 7
平 7
によっては 7
しろ 7
接待 7
サー 7
もあるし 7
ノ 7
スピーカー 7
んだって 7
してみたら 7
フィ 7
金曜日 7
以上の 7
にでも 7
意外と 7
いただけないでしょうか 7
が高 7
なって 7
▁ク 7
らい 7
体調 7
実施 7
ましたね 7
頼んで 7
思った 7
困った 7
重 7
やってみます 7
空いて 7
なくな 7
んでしょうね 7
ってき 7
商 7
っているの 7
▁僕が 7
どうしたらいい 7
覚悟 7
強い 7
▁マ 7
Wi 7
Fi 7
持 7
積も 7
▁誰 7
▁どちらの 7
をお願いしたいのですが 7
と言って 7
ご用件 7
リスク 7
したいので 7
されない 7
問い合わせて 7
社長に 7
現在の 7
今回 7
にお会い 7
だったの 7
▁参加 7
のための 7
名前を 7
大型案件 7
▁お電話ありがとうございました 7
担当の 7
につき 7
先方 7
少々 7
わかりますか 7
いな 7
っていない 7
▁実際に 7
雑誌 7
内容を 7
▁承知いたしました 7
, 7
満足 7
カー 7
ほう 7
ませんでした 7
しますが 7
機密 7
▁確か 7
気がする 7
何でしょうか 7
と思ってるんだけど 7
▁色々 7
に入った 7
入社 7
部署の 7
誰かに 7
部署は 7
たち 7
方は 7
部分は 7
に移りましょう 7
ニューヨーク 7
田中です 7
PDF 7
▁ううん 7
Excel 7
噂 7
を入れる 7
にいる 7
あれは 7
最初 7
にお伺い 7
しているので 7
2、3 7
ゴ 7
さんにお願い 7
かと思いますが 7
社からの 7
展示会 7
したいです 7
ヨーロッパ 7
直前に 7
時間と 7
まれる 7
マーケティングの 7
大切 7
提案書 7
ゴール 7
我々 7
についてですが 7
▁んー 7
するんです 7
上司に 7
▁これらの 7
▁ここまでで 7
チームに 7
積極的に 7
会議は 7
ルール 7
▁はあ 7
▁あなたが 7
▁おい 7
毎日 7
してみましょう 7
把握 7
に合う 7
いただけますでしょうか 7
プ 7
ここの 7
株式会社 7
▁予約 7
お客様に 7
▁私たち 7
制 7
維持 7
それとも 7
を取って 7
負 7
大手 7
数の 7
ム 7
0 7
きましたか 7
▁オーケー 7
最適 7
犬 7
を得 7
▁日 7
▁わ 7
全員に 7
さない 7
向こう 7
があるようです 7
未 7
飛行機 7
するね 7
根 7
落ち着いて 7
ようと 7
宜しくお願いします 7
されていない 7
遅れ 7
版 7
連絡先 7
ことがない 7
航空 7
▁よかったです 7
よくない 7
かもしれないです 7
イン 7
社では 7
引き出し 7
整理 7
手術 7
ってくれる 7
が始まる 7
はずだよ 7
かも知れない 7
発売 7
精算 7
手紙 7
たかった 7
給料 7
遅れて 7
▁食事 7
変化 7
木曜 7
正 7
雇 7
パーセントの 7
それほど 7
給 7
メッセージ 7
掃除 7
▁製造 7
必要ですか 7
▁最初 7
カレンダー 7
ことになります 7
i 7
▁ミーティング 7
地域 7
と思われますか 7
を持ち 7
何度も 7
活動 7
があるかどうか 7
▁印刷 7
んでしょうかね 7
調達 7
消 7
ピーナツ 7
のコース 7
▁今日の午後 7
▁どちら 7
したんですか 7
付ける 7
ブース 7
▁ベン 7
▁誰かが 7
▁それは良かった 7
アシスタント 7
ンさん 7
払う 7
常に 7
また連絡 7
するべき 7
してみ 7
価格を 7
出荷を 7
鉱業 7
テック 7
をした 7
異なる 7
▁なぁ 7
卒業 7
アンディ 7
化学 7
シート 7
日本から 7
ユージニア 7
CEO 7
▁実を言うと 7
サプライヤー 7
▁エレイン 7
スタートアップ企業 7
サプライヤ 7
からお電話 6
外出 6
くの 6
市 6
でもいい 6
お待ち 6
当日は 6
による 6
質疑応答 6
想定 6
のことで 6
▁その場合は 6
取締役 6
要求 6
集 6
質問を 6
頼むよ 6
株主総会 6
ミーティングを始めます 6
傾向 6
についてお話 6
もない 6
▁心配 6
当日 6
も見 6
▁それにしても 6
のように 6
▁去年の 6
周りの 6
と思っている 6
都合 6
▁メールで 6
もらえれば 6
受 6
警察官 6
くらいに 6
先生 6
株 6
費 6
しまして 6
どうでしょう 6
野 6
▁いかが 6
資料が 6
念 6
具体的な 6
られたら 6
ことはない 6
あるから 6
経 6
っていますが 6
ございますか 6
▁承知致しました 6
頂いた 6
カスタマーサービス 6
ときは 6
中の 6
書類を 6
と考えております 6
開発部の 6
ご確認 6
取引先 6
任 6
命 6
成長 6
もしもし 6
間違って 6
▁今後 6
改めて 6
できますでしょうか 6
していただいた 6
増や 6
もう一つ 6
▁小 6
会議で 6
何人 6
来てくれる 6
部品 6
問題なく 6
売り上げを 6
ナー 6
するのも 6
▁お疲れ様でした 6
▁お電話 6
▁そうだった 6
申し訳ございませんでした 6
お待ちしております 6
水曜日の 6
よろしく 6
われた 6
低 6
松 6
▁皆さま 6
▁失礼いたします 6
早いですね 6
したのは 6
年末 6
お客さんが 6
ことがあるんです 6
があまり 6
現状 6
ひとつ 6
くなります 6
りません 6
▁色 6
メ 6
▁今月 6
日と 6
真 6
当然 6
を見せて 6
側の 6
様子を見て 6
を持つ 6
はどうしましょうか 6
▁それだと 6
が多 6
ですもんね 6
頑張 6
もらいます 6
▁後は 6
せずに 6
ビジネスの 6
▁お客 6
安心 6
家に 6
研修で 6
先輩 6
あるんですか 6
レベル 6
げ 6
もん 6
気づ 6
けば 6
ブル 6
した方がいい 6
言えば 6
ちょうどいい 6
▁オ 6
ウチ 6
日から 6
大きさ 6
▁初 6
思い出 6
▁いやー 6
店長 6
じゃないか 6
そういうの 6
ガソリン 6
のかい 6
町 6
相 6
しながら 6
組 6
役 6
出せ 6
ましたか 6
▁当 6
がいっぱい 6
聞いている 6
込んで 6
▁保険 6
ご興味 6
体の 6
いただけませんか 6
かもしれないけど 6
▁とんでもない 6
かわ 6
しましたら 6
しておこう 6
していますか 6
送ります 6
公共交通機関 6
かけ 6
続き 6
したんですが 6
届け 6
び 6
ものを 6
の時に 6
がいいと思います 6
なんですね 6
かなかった 6
すぎて 6
ゆ 6
だったので 6
油 6
の下 6
した時に 6
ことですか 6
の量 6
からです 6
かける 6
を変えて 6
▁だいたい 6
これも 6
マー 6
成 6
良 6
形式 6
はいかがでしょうか 6
ッ 6
みたいだね 6
プラス 6
▁準備 6
になりますが 6
しくない 6
は高い 6
評判 6
▁社員 6
みんなで 6
動き 6
来月から 6
▁ということは 6
▁あちら 6
▁そうなんだよ 6
にしている 6
最後の 6
原料 6
日で 6
ライ 6
ためには 6
外国 6
来ます 6
りも 6
しておくべき 6
られました 6
▁そうだよな 6
はどうやって 6
外国人 6
▁早速 6
経費削減 6
というわけ 6
しておきました 6
費用 6
はできません 6
がちょっと 6
するという 6
がかかる 6
場で 6
半分 6
▁年間 6
かしい 6
を増やす 6
ちゃう 6
恥ずかしい 6
の見積 6
させていただいて 6
言い 6
を引き 6
80 6
ありますね 6
▁よろしくお願いいたします 6
ご飯 6
▁子供 6
ところに 6
医者 6
がいいですね 6
一人で 6
▁実 6
がありますが 6
チェックイン 6
経験が 6
されましたか 6
るよね 6
多くて 6
初めに 6
するわ 6
苦労 6
なんだって 6
▁中国 6
くれないかな 6
好 6
だけではなく 6
▁では早速 6
ってもらって 6
の日程 6
と言う 6
▁お客様は 6
していただく 6
帰り 6
両 6
を理解 6
くれました 6
▁アメリカの 6
ましたが 6
年生 6
躊躇 6
忘れ 6
なかったので 6
が多く 6
お時間を 6
習 6
はどうでしょう 6
サービスの 6
アップデート 6
一年間 6
詳細は 6
日です 6
秋 6
時です 6
▁へー 6
楽しみにしています 6
できないので 6
そのように 6
エリア 6
案を 6
建設 6
ではかなり 6
レベルの 6
公園 6
最新 6
USB 6
メートル 6
ありがたいです 6
だったっけ 6
進 6
に通 6
確実 6
▁大学 6
▁本当 6
グローバル 6
ABC 6
それは助かります 6
名前と 6
が遅 6
▁やはり 6
過ぎて 6
光 6
▁そうします 6
少なくとも 6
が決 6
お電話を 6
充分 6
大量 6
ロー 6
一番の 6
されたら 6
してもいいですか 6
してくれて 6
パーティ 6
忙しく 6
をもら 6
聞いてみ 6
▁いやあ 6
小計 6
▁なんだか 6
知る 6
ちゃって 6
どっち 6
じゃないかな 6
▁ええー 6
んだろ 6
▁月 6
んだね 6
の実 6
らせて 6
▁普通 6
文 6
キー 6
全社 6
邪魔 6
付けて 6
▁時々 6
たんだ 6
音 6
はその 6
があるんですが 6
カタログ 6
娘 6
そこの 6
▁7 6
発生 6
▁えーっと 6
行きたい 6
起 6
けない 6
▁な 6
はありません 6
分かります 6
伝票 6
開 6
痛 6
走 6
ポール 6
の間に 6
病 6
▁本当は 6
違 6
入った 6
いいの 6
割引 6
まあ 6
してみますね 6
なかったら 6
は高 6
じゃないと 6
登録 6
それじゃあ 6
だろ 6
良くない 6
しなくて 6
▁水 6
かもしれないね 6
ったのか 6
ギフト 6
パスワード 6
変わった 6
構わない 6
任せ 6
立ち 6
んじゃないでしょうか 6
引き継ぎ 6
▁それか 6
ぎ 6
▁あんまり 6
はいない 6
ルート 6
んじゃないの 6
▁IT 6
もうちょっと 6
ネットワーク 6
するだけ 6
んだっけ 6
遅い 6
というか 6
につきましては 6
▁マネージャー 6
してある 6
▁人事 6
ID 6
保 6
有 6
冬 6
ようですが 6
花 6
無料 6
そう思 6
ジ 6
なお 6
了解しました 6
▁しかも 6
若い 6
学ぶ 6
▁入社 6
が必要な 6
かないと 6
の予約 6
、11 6
左 6
開示 6
精査 6
えない 6
中です 6
の場合 6
を行 6
がありますよ 6
ありがたい 6
々に 6
▁なかなか 6
ここまで 6
文書 6
専務 6
上が 6
▁先方 6
使わ 6
配 6
無駄 6
嬉しい 6
いいな 6
午前 6
▁申請 6
メールを送 6
時までに 6
でない 6
以来 6
理由を 6
ベスト 6
製品は 6
▁それは素晴らしい 6
メイン 6
競合 6
科 6
夜 6
夕食 6
どこか 6
はありましたか 6
を見ている 6
の書類 6
でお願い 6
はずですよ 6
週末 6
▁メール 6
組織 6
分から 6
あって 6
か分からない 6
の仕方 6
苦手 6
嫌い 6
みる 6
近くに 6
を受け取 6
何かあったら 6
一日中 6
退職 6
でしょうかね 6
例えば 6
と考えています 6
忘れて 6
りますか 6
ガイドライン 6
どうしましたか 6
お知らせ 6
したかった 6
▁急いで 6
▁テーブル 6
なかったよ 6
なきゃ 6
大谷 6
得意 6
繋が 6
数時間 6
▁全部で 6
見せて 6
アプローチ 6
▁販売 6
作った 6
ツ 6
接 6
ヤ 6
▁なんか 6
」「 6
をクリック 6
フォーム 6
点は 6
ご協力 6
長期 6
運 6
を上げる 6
▁全て 6
者が 6
の問題 6
材 6
自信 6
なんでしょう 6
役職 6
ぇ 6
合同 6
午前中に 6
が出来 6
シェア 6
主に 6
▁何も 6
見直し 6
しますか 6
非 6
たくない 6
話し合い 6
議論 6
小規模 6
制限 6
カスタマーエクスペリエンス 6
があったんです 6
過去 6
重い 6
分かって 6
最終的には 6
かに 6
ペルソナは 6
だろうな 6
機 6
空 6
ずつ 6
覚え 6
かもよ 6
シー 6
▁ご興味 6
製 6
それぞれ 6
アレルギー 6
▁ロ 6
通知 6
を決め 6
時間がかかる 6
だったね 6
シュ 6
一緒 6
に関 6
最低 6
あなたに 6
バス 6
を出して 6
もなく 6
るんだよ 6
会社から 6
いませんか 6
▁詳しく 6
おりますので 6
自由 6
目標を達成 6
を開いて 6
つもりで 6
▁どうしてですか 6
私には 6
の職場 6
反対 6
▁社長は 6
▁パ 6
したけど 6
材料 6
実際 6
夜は 6
メールを送って 6
ウェブ 6
しな 6
お休み 6
分かれば 6
際に 6
▁見 6
をチェック 6
めに 6
となると 6
楽しみですね 6
飲 6
ニ 6
いるから 6
出来るだけ 6
今日の午後 6
特別な 6
しようとしている 6
ぐらいで 6
構成 6
の経験 6
おいてください 6
番組 6
定期 6
気をつけ 6
年に 6
▁佐藤部長 6
年は 6
納品 6
付き合い 6
▁それは良かったです 6
ってもらえますか 6
よいですか 6
おりまして 6
▁ホームページ 6
パートナー 6
オン 6
いるんです 6
が見 6
羽田 6
のリスト 6
知らせ 6
しちゃって 6
やっと 6
オ 6
ハワイ 6
仕様 6
社でございます 6
明 6
してみる 6
物も 6
何をしている 6
▁二 6
出来ますよ 6
おはよう 6
忙しくて 6
トピック 6
▁個人的には 6
忘れてた 6
▁プレゼン 6
ボーナス 6
頼む 6
ウ 6
▁今の 6
決 6
ッキー 6
目標は 6
に対する 6
パスポート 6
▁2、3 6
週間の 6
仕事は 6
▁さ 6
給料が 6
こともある 6
研究室 6
機材 6
招待 6
二つ 6
さないといけない 6
▁会社が 6
▁コ 6
えたら 6
だけでなく 6
期間は 6
キャンセル 6
k 6
ここには 6
▁オフィスの 6
できますが 6
していますが 6
報告書を 6
何ですか 6
らしいです 6
ンド 6
フォーマット 6
くださって 6
製品が 6
届 6
と言われました 6
ットを 6
緑茶 6
戻って 6
と話をして 6
▁お待たせいたしました 6
このような 6
で一番 6
くれている 6
▁元気 6
返事を 6
向こうの 6
知ってますか 6
幹事 6
▁誰か 6
似たような 6
▁会議 6
を製造 6
カナダ 6
▁オッケー 6
送った 6
かの 6
の確認 6
カラー 6
悪 6
聞きました 6
火曜日 6
立つ 6
Y 6
▁どのくらい 6
に記入 6
ってもいいですか 6
について話し 6
セールス 6
を担当します 6
ドルで 6
リリース 6
のことです 6
▁もしも 6
なんでも 6
するのを 6
でなければ 6
があるの 6
,000 6
する事に 6
オーダー 6
を取る 6
かお 6
▁正直なところ 6
▁いつでも 6
▁最低 6
▁もしくは 6
を受ける 6
について話し合いましょう 6
でもない 6
▁元気です 6
知らせる 6
コンテナ 6
テキスタイル 6
ブルース 6
買収 6
なりません 6
エンジ 6
だと思いますか 6
ヒギンズ 6
倫理 6
意 6
する事が 6
▁今すぐ 6
元気ですか 6
彼らに 6
知っています 6
辞める 6
東京オフィス 6
コースを受講 6
▁MBA 6
▁じゃぁ 6
のポジション 6
わかって 6
テクノロジー 6
どうもありがとうございます 6
ビジネスチャンス 6
えることが 6
ナンシーさん 6
物件 6
▁お元気ですか 6
することも 6
パレット 6
弊社は 6
田さんはいらっしゃいますか 5
そちらに 5
伺 5
えます 5
そっち 5
シナリオ 5
及び 5
した方が良い 5
この後 5
リハーサル 5
会計士 5
込ま 5
していると思います 5
▁基本的に 5
説明する 5
止めて 5
する方法 5
いこう 5
通りに 5
入り 5
各社の 5
▁皆様 5
最近の 5
状況を 5
最初に 5
とな 5
スムーズ 5
対策 5
くらいかな 5
添付 5
をご覧ください 5
▁毎年 5
していきます 5
▁必要 5
▁人数 5
▁なるほどね 5
大丈夫なの 5
ますので 5
しておりますので 5
在 5
があったので 5
が増 5
加 5
の一部 5
の変更 5
参 5
空いている 5
▁広報 5
の高 5
に戻 5
申し 5
お伝え 5
以降 5
ってるよ 5
▁具体的に 5
範囲 5
フォルダ 5
と相談 5
を進めて 5
返 5
なり 5
届いて 5
XXX 5
日前に 5
がかかります 5
お支払い 5
ませ 5
藤さん 5
保証 5
はどうだった 5
よかったよ 5
優秀 5
そうだよ 5
を与えて 5
▁それはよかった 5
会で 5
させて頂きたい 5
の日 5
ようだね 5
そういうこと 5
率 5
市場の 5
専門家 5
無料で 5
考えています 5
の市場 5
概要 5
田様 5
送られて 5
差し上げます 5
間違った 5
編集 5
北 5
っているのですが 5
そうでしたね 5
を送らせて 5
▁こ 5
話したい 5
時間あるかな 5
いたよ 5
どう思う 5
会議を始めます 5
落ち 5
ています 5
▁売り上げ 5
動画 5
貴重な 5
一つの 5
図面 5
▁本日 5
至急 5
時ごろ 5
めの 5
ることになった 5
したから 5
谷 5
ようなので 5
井 5
13 5
を見直 5
方向 5
に入れる 5
▁どうした 5
任せて 5
頂いて 5
だが 5
飲食店 5
があるんですか 5
▁俺も 5
キ 5
でや 5
だけですから 5
必須 5
▁値段 5
なんとなく 5
面白い 5
▁世界 5
見せ 5
ソ 5
▁この件 5
されていません 5
認 5
にく 5
▁そうでしたか 5
辺 5
込 5
なかったです 5
事業部の 5
が結構 5
できなかった 5
がその 5
ところが 5
でやって 5
呼び 5
出して 5
嘘 5
どう思いますか 5
▁我が 5
厳 5
そうしましょう 5
ハロウィン 5
希望者 5
してくる 5
が入って 5
部長に 5
男性 5
面白 5
欠 5
最 5
いいと思います 5
こちらも 5
壊 5
契約を 5
演 5
お客 5
気分 5
の営業 5
といっても 5
方も 5
いらっしゃいます 5
60 5
つまり 5
素 5
成績 5
答えて 5
集合 5
副業 5
なんだけどね 5
美味 5
野菜を 5
かって 5
は全部 5
るのかな 5
を経験 5
丸 5
大型 5
乗 5
程度の 5
アクセス 5
会食 5
に注意 5
があるんです 5
▁単 5
禁止 5
仲間 5
さが 5
拝見 5
収 5
▁車 5
この件は 5
レッスン 5
やります 5
ント 5
もとても 5
林 5
中で 5
▁そこを 5
対 5
いましたか 5
▁これを 5
焦 5
転 5
だけなら 5
いますので 5
▁お会い 5
個人の 5
ご都合 5
時間の無駄 5
格 5
台風 5
▁山本さん 5
内容の 5
駐車場 5
放 5
社員は 5
社員を 5
装置 5
昼食 5
隣の 5
ゼ 5
こない 5
▁さすが 5
弁当 5
っておいて 5
▁それじゃ 5
声をかけて 5
カードの 5
規則 5
自宅 5
に置いて 5
出かける 5
道 5
徹底 5
見つかった 5
かったから 5
紛失 5
かる 5
▁そうなると 5
回収 5
▁昼 5
▁そこは 5
余 5
持ってくる 5
込み 5
肉 5
の違い 5
年前に 5
わから 5
んでしょ 5
代表 5
手間 5
スイッチ 5
▁11 5
ケ 5
ハイ 5
カル 5
盛り 5
▁海 5
5000 5
伝えておきます 5
だったんだけど 5
うちも 5
に乗 5
るわ 5
を通 5
▁フ 5
してて 5
感じる 5
りが 5
ってるから 5
食品 5
したくて 5
を変える 5
▁海外 5
チーズ 5
小さ 5
以外の 5
ロス 5
ヨ 5
端 5
に向けて 5
▁オリンピック 5
に入り 5
▁英語 5
だろうし 5
▁韓国 5
俺も 5
買い物 5
東 5
がわかる 5
配置 5
教育 5
は全 5
を雇 5
留 5
専門 5
を使っている 5
駅の 5
600 5
年度 5
オフィスを 5
リース 5
社用車 5
かか 5
数を 5
1000 5
めます 5
ミーティングで 5
随分 5
日まで 5
▁そうでしたね 5
ワード 5
▁そうだったんですね 5
文章 5
社会 5
してるよ 5
提出した 5
でこの 5
特 5
をご希望 5
いただいてもよろしいでしょうか 5
方向性 5
を決定 5
ここから 5
昼 5
ないんですよ 5
洋食 5
どこで 5
▁俺 5
電話して 5
職務 5
空港まで 5
▁時には 5
年ほど 5
▁日本語 5
いける 5
ございません 5
の前 5
いつから 5
土 5
になりそう 5
様です 5
人事部に 5
多かった 5
やり取り 5
支社の 5
技術部 5
▁クライアント 5
チームから 5
いくつかの 5
屋さん 5
うちの会社の 5
明日の朝 5
予定通り 5
▁ホテルは 5
する予定ですか 5
べ 5
側で 5
▁一応 5
が必要になります 5
▁そんなこと 5
そう思います 5
▁できれば 5
カリフォルニア 5
学校の 5
ことができました 5
でしたが 5
育 5
高校 5
ージ 5
ング 5
の時 5
父 5
▁や 5
制度 5
アルバイト 5
円で 5
▁我々の 5
語 5
もらいたい 5
彼が 5
辞めてしまう 5
インターン 5
かどうかは 5
いませんが 5
を行い 5
▁うちの会社は 5
部長が 5
▁昔 5
大変ですね 5
はっきり 5
友達 5
って言って 5
通常の 5
建て 5
れると 5
O 5
住 5
居心地 5
コンセント 5
を含 5
オー 5
戸 5
▁50 5
とした 5
申し訳ございません 5
と思ったのですが 5
線 5
ご案内 5
受験 5
▁うちも 5
いいと思う 5
しているんですか 5
質問ですね 5
ようになる 5
クラウド 5
を紹介 5
いただくと 5
クリック 5
説明を 5
間違 5
とその 5
なくなります 5
減ら 5
したよね 5
することを 5
ようなら 5
にしたら 5
お問い合わせ 5
電気 5
▁変更 5
御社が 5
▁多 5
切り替え 5
技術的な 5
▁ハ 5
▁市場 5
プレゼント 5
困っている 5
▁ね 5
してね 5
を出す 5
なんだか 5
みたいなんだ 5
替え 5
マンション 5
えば 5
されてる 5
とかで 5
回数 5
したよ 5
草 5
交流 5
、8 5
ことになった 5
何とかな 5
らしいんですよ 5
イギリス 5
行か 5
当たって 5
返事が 5
みてください 5
その後 5
聞いてみます 5
かってる 5
じゃないよ 5
▁う 5
はいる 5
果 5
らしいから 5
ちの 5
つけて 5
▁前 5
になってる 5
振 5
聞こえる 5
▁一緒に 5
U 5
ギ 5
回くらい 5
関連の 5
行かない 5
いましたよね 5
は少し 5
っていますよ 5
ってくださいね 5
くださってありがとうございました 5
ご迷惑をおかけ 5
動作 5
で対応 5
▁株式会社 5
お名前 5
同 5
健康診断の結果 5
っていたので 5
膝 5
ということですか 5
▁有 5
ご紹介 5
気温 5
たっぷり 5
が落ち 5
だけでも 5
予防 5
まだです 5
が出た 5
ネットで 5
奥 5
▁いつもの 5
予約が 5
の情報 5
泊ま 5
ちゃった 5
じゃないから 5
だったけど 5
▁三 5
県 5
かもしれないよ 5
しなきゃ 5
借り 5
使った 5
ないんだよね 5
もらっていい 5
個くらい 5
もあった 5
方がいいですか 5
▁もしかしたら 5
たんです 5
担当に 5
にアクセス 5
部署に 5
ものが 5
急 5
田さんの 5
▁電車 5
渋滞 5
じゃなかった 5
間に合いますか 5
いけ 5
▁は 5
▁データ 5
がないから 5
ちょっとお 5
▁移動 5
器 5
を購入した 5
顧客との 5
代わり 5
だしね 5
逆 5
えますか 5
▁すでに 5
の新 5
全てが 5
という事 5
別途 5
検討します 5
にしますか 5
向けに 5
なかったから 5
▁毎日 5
モニター 5
してみようかな 5
そうかな 5
エージェント 5
申し上げ 5
の為 5
引 5
実現 5
お会い 5
にね 5
学んで 5
の手続き 5
▁できる 5
がいくつか 5
なよ 5
▁細かい 5
がかか 5
致しました 5
となりました 5
月末 5
今月末 5
見込み 5
しておりました 5
先方の 5
従来の 5
分割検収 5
▁その為 5
が発生 5
ものですか 5
▁ですよね 5
念のため 5
順調 5
とのこと 5
▁早 5
かと思って 5
▁すごい 5
以前 5
なければいけない 5
流 5
ブロック 5
取材 5
されるのは 5
形で 5
弊社が 5
原稿 5
じめ 5
課長が 5
エクセル 5
する前に 5
ご希望 5
▁xxx 5
時以降 5
以上です 5
▁田中 5
報告書 5
見込み客 5
▁どうもありがとう 5
について質問 5
全額返金 5
のおかげで 5
伸び 5
置 5
▁何かお 5
フランス 5
品は 5
読 5
ミリー 5
▁そうなのよ 5
工 5
近い 5
って言う 5
ぶり 5
いらした 5
シーフード 5
▁あそこ 5
▁私たちが 5
かも知れませんね 5
ばかりです 5
があるよ 5
などです 5
となっている 5
扱 5
触 5
デジタル 5
載 5
ボストン 5
の田中 5
今週末 5
に送って 5
▁配送 5
はどちら 5
のほうは 5
しておきますよ 5
送っていただけますか 5
の後に 5
▁それって 5
僕の 5
▁よろしく 5
おうかな 5
休憩室 5
度に 5
が出来る 5
に行きたい 5
じゃないし 5
どうなる 5
の人に 5
けどな 5
田中 5
▁すいません 5
から外 5
保護 5
くれます 5
際の 5
職場の 5
▁ほお 5
捨て 5
▁来年 5
▁一つ 5
抜けて 5
置き 5
彼女が 5
半年 5
▁例 5
面白いですね 5
たちは 5
初めての 5
▁僕もそう 5
なかったの 5
と思ってた 5
皆に 5
チームが 5
▁お昼 5
皆が 5
部屋で 5
皆さんが 5
お知らせします 5
られるように 5
ということですよね 5
点を 5
っておく 5
どうか 5
人もいる 5
良さ 5
アイデア 5
とかって 5
資 5
らの 5
で見 5
u 5
おり 5
▁システム 5
90 5
を選択してください 5
最大 5
実践 5
記入 5
は全て 5
中は 5
自己 5
に大きな 5
自体 5
▁ただし 5
トレーナー 5
後の 5
かしら 5
▁新入社員 5
聞いてみる 5
と話す 5
講座 5
課の 5
撮影 5
電話対応 5
者を 5
タイム 5
分で 5
、2、3 5
為 5
議題 5
が増えて 5
速い 5
祝 5
たが 5
戦略 5
集め 5
驚 5
立て 5
マクマラン 5
▁はは 5
少 5
知ってますよね 5
赤 5
何で 5
読んで 5
」、 5
性格 5
と思うわ 5
見える 5
といった 5
方が良い 5
見えない 5
をお見せ 5
よろしければ 5
距離 5
▁より 5
幸いです 5
へようこそ 5
同時に 5
得られる 5
申し訳ありません 5
可 5
とおり 5
時間がかかって 5
息子 5
ガン 5
大阪 5
っち 5
してもいい 5
二人の 5
るのも 5
するよう 5
事があれば 5
自転車通勤 5
▁あのー 5
掲示板 5
する様に 5
何か問題 5
そんな事 5
えっと 5
買い 5
関わ 5
の申請 5
したんです 5
人生 5
知ら 5
基 5
詰 5
規定 5
▁ライ 5
▁はいっ 5
の前に 5
は難しい 5
していません 5
駅から 5
長い間 5
始 5
比較的 5
あげて 5
がありません 5
Z 5
合併 5
いってる 5
比べると 5
返信 5
いたしますので 5
事について 5
でもある 5
シングル 5
▁上司 5
サン 5
を確認して 5
についてお話し 5
思う 5
来客 5
ご家族 5
を手伝 5
れていた 5
話せる 5
を受けて 5
学校で 5
あげる 5
▁社内で 5
理由で 5
▁全く 5
▁連絡 5
はいつ頃 5
そうね 5
金曜日に 5
簡単な 5
前回の 5
代は 5
▁今月末 5
を考えています 5
の方は 5
をいくつか 5
竹 5
に住んで 5
がまだ 5
していますので 5
集中 5
▁佐藤 5
っていますね 5
▁つい 5
将来 5
の田中と申します 5
いただきたいです 5
スケジュールの 5
佐藤です 5
▁一番 5
してくれます 5
したく 5
してもよろしいでしょうか 5
本当に助かります 5
頂きありがとうございます 5
▁コーヒー 5
▁失礼致します 5
▁良かったです 5
インストール 5
エラー 5
▁不 5
▁おはよう 5
▁マイ 5
ことない 5
んだけれど 5
▁そ 5
二度 5
オプション 5
はお持ちですか 5
▁それとも 5
ようか 5
うちが 5
だなぁ 5
でください 5
お送りします 5
▁すぐ 5
荷 5
を持ってきて 5
駐在 5
▁しばらく 5
寂しく 5
苦情 5
▁夏 5
過ぎた 5
▁別に 5
しようかな 5
埋 5
美 5
チームメンバー 5
産休 5
熱 5
空調 5
メンテナンス 5
これを 5
▁次は 5
▁仕事の 5
残ってる 5
欲 5
も同じ 5
があったのですが 5
ツアーの 5
を入れ 5
一か月 5
薦め 5
書いた 5
なのよね 5
数年 5
してもらってください 5
その時に 5
前から 5
の人たち 5
感謝祭 5
在宅 5
プロセス 5
▁エンジニア 5
でしょうから 5
クリスマス 5
していると 5
広 5
聞いてみますね 5
▁あそこは 5
でね 5
カンファレンス 5
ポスター 5
校 5
えますが 5
短い 5
産 5
することに 5
シンプル 5
がね 5
方針 5
プロジェクトを 5
節約 5
たくさんの 5
洗い 5
守 5
を知って 5
移 5
▁避難 5
るべき 5
助言 5
シャツ 5
しませんか 5
▁一年 5
▁ご用件は何でしょうか 5
▁終わったら 5
下さいね 5
なのか 5
のようですね 5
をしてくれる 5
従業員に 5
方で 5
資料を 5
に近い 5
聞いてみて 5
を雇って 5
企業が 5
バランス 5
▁今週中に 5
客 5
しておいた 5
助かる 5
額は 5
忘れた 5
a 5
必要はない 5
座 5
にあります 5
遅れる 5
か教えて 5
▁最初に 5
何でも 5
いただ 5
指定 5
▁見た 5
▁ふーん 5
▁ジェ 5
ヘ 5
ラー 5
するには 5
アン 5
に特化 5
▁ここから 5
▁常に 5
▁ええっと 5
に来る 5
ロット 5
やる気 5
▁何が 5
プレゼンを 5
を扱 5
関心 5
▁あなたに 5
誰にも 5
に電話を 5
被害 5
▁やって 5
お返事 5
ないと思います 5
いなかった 5
探している 5
まってる 5
えますね 5
を保 5
するのに 5
金曜日の 5
製造業 5
売却 5
連れて 5
ようでしたら 5
ないといけませんね 5
▁最初の 5
▁出荷 5
忘れずに 5
気に 5
火曜日に 5
▁どのように 5
エレン 5
機械 5
あちら 5
には何 5
▁8 5
ご存知ですか 5
サイ 5
言うと 5
▁主 5
ると良い 5
19 5
ヶ月前に 5
▁送 5
補助 5
必要です 5
間は 5
式の 5
した通り 5
品を 5
上で 5
▁来月の 5
はいけません 5
パーセントです 5
ることに 5
があなた 5
は何も 5
▁私もです 5
だい 5
が起こ 5
ラスベガス 5
チェーン 5
みよう 5
アレックス 5
なければならない 5
ソーシャルメディア 5
に基づいて 5
仕事をする 5
エイミー 5
▁ご理解 5
酷い 5
証明書 5
クリーナー 5
▁良く 5
手助け 5
手伝ってもら 5
そ 5
▁写真 5
君は 5
▁彼女が 5
▁彼女の 5
達に 5
▁そちら 5
お時間ありがとうございました 5
することができます 5
運送業者に 5
船荷証券草案 5
リック 5
元気 5
してみよう 5
情報が 5
供給元 5
仕様書 5
にもっと 5
署名 5
と思うんですが 5
顧客は 5
二人 5
ないんだよ 5
ジャ 5
セットアップ 5
したんだけど 5
することです 5
を拡大 5
能力 5
があるんですよ 5
ジャッキー 5
プロフェッショナル 5
ンに 5
応 5
んだい 5
はずだから 5
カメラを 5
何が起こ 5
▁何て 5
大抵 5
スタートアップ 5
僕ら 5
曜の朝 5
新しいことを 5
会計 5
ベンです 5
▁アンディ 5
▁へぇ 5
文化 5
僕たちの 5
責任を 5
授業料 5
を始め 5
についてもう少し 5
偽物を販売 5
話し合う 5
私達は 5
シェリル 5
を担当 5
と呼んでください 5
よい一日を 5
ピーター 5
プレゼン資料 5
始めたばかり 5
エレイン 5
ドルは 5
する必要 5
に影響 5
コンプライアンス 5
日本杉 5
分後に 5
業界に特化 5
由美さん 5
投資家 5
89」 5
ゴルフ 5
ベンチャーキャピタル 5
運ぶ 5
北米 5
2.5 5
開発部 4
代わります 4
すみませんでした 4
社さん 4
もあるから 4
方がいいですよね 4
▁わざわざ 4
お伺い 4
にあたり 4
役員の 4
含め 4
▁すべて 4
を行う 4
予定は 4
当日の 4
概 4
今期 4
議長 4
特定の 4
すればいい 4
誠意 4
伝わ 4
答 4
と判断 4
っても構いません 4
次第です 4
▁一旦 4
その後に 4
補足 4
その方向で 4
▁必ず 4
ご了承ください 4
以上に 4
緊張 4
よろしくお願い致します 4
のお手伝い 4
をさせていただきます 4
向 4
印象 4
というのが 4
一部 4
ができます 4
株主名簿 4
要注意 4
数も 4
当たら 4
じっくり 4
させてもら 4
感じですね 4
寄 4
ないとね 4
えれば 4
連絡しますね 4
なのね 4
人物 4
は見 4
祈 4
派遣 4
士 4
株式 4
▁つきましては 4
済 4
に送ってください 4
お持ち 4
頂 4
構いませんよ 4
ありまして 4
したいんです 4
▁近 4
見え 4
寄って 4
っていて 4
このまま 4
お待たせ 4
空いています 4
と伝えて 4
しておりますが 4
でして 4
▁よろしければ 4
承 4
まりました 4
▁誰に 4
けた 4
▁他 4
所属 4
に入っている 4
▁今までの 4
不明点 4
▁どのようなご用件でしょうか 4
届く 4
によります 4
間違いない 4
されますか 4
となっております 4
速 4
払い戻し 4
購入した 4
って言ってた 4
この間 4
そのような 4
いても 4
探し 4
▁石 4
野さんは 4
何年 4
わたって 4
会う 4
おかげで 4
既に 4
超 4
をしてくれた 4
プリンター 4
週間後の 4
書いてあります 4
になるかもしれない 4
年間も 4
複数の 4
させて頂 4
ければ 4
ることになりました 4
▁以上 4
電卓 4
頂き 4
品物 4
分かりますか 4
▁ご迷惑をお掛け 4
正しい 4
▁北 4
口さん 4
1500 4
本日中に 4
としての 4
そうなのか 4
分かり 4
はあまり 4
余裕 4
▁みなさん 4
ご存知 4
をご覧 4
四半期の 4
をするのは 4
活用 4
サイトに 4
山さん 4
▁先ほどの 4
幅広い 4
本さん 4
▁河本 4
設計 4
▁少々お待ちくださいませ 4
が入った 4
することにな 4
っておりまして 4
お届け 4
って聞いた 4
有望な 4
候補者 4
大き 4
を借り 4
席を 4
ようにお願い 4
お集まり 4
▁そちらは 4
.5 4
考えられる 4
解決策 4
▁何か他に 4
持っていく 4
案ですね 4
それには 4
帰って 4
しようと 4
馴染み 4
▁ケ 4
料理の 4
すごいね 4
案件は 4
されたので 4
いきたい 4
わか 4
行こう 4
になりますよね 4
リティ 4
▁国 4
感じで 4
統一 4
製品には 4
▁なるほどですね 4
▁ふ 4
岩 4
谷さん 4
を伺 4
▁しかしながら 4
いただいています 4
議題は 4
山元 4
ひどい 4
日の夜 4
居酒屋 4
で見た 4
じゃないんですよ 4
▁注意 4
していますね 4
井さん 4
言えない 4
信じ 4
ぐらいは 4
しが 4
って事 4
人には 4
盛り上が 4
お菓子 4
ばっかり 4
▁なにか 4
するって 4
女性社員 4
も準備 4
けます 4
といいですね 4
▁個人 4
テナント 4
珍しい 4
アナウンス 4
休憩中に 4
君たち 4
明日から 4
飛び込み営業 4
商品についての 4
と思ったら 4
動いて 4
みなさん 4
作業着 4
約束 4
スーツ 4
まだまだ 4
▁正直 4
人たちが 4
ることは 4
後日 4
の子 4
の中で 4
トップ 4
上手 4
作れる 4
辞めて 4
月で 4
してるの 4
できるから 4
してるんです 4
接客 4
ってことで 4
年も 4
慣れている 4
▁山 4
ガー 4
ってて 4
▁そうしたら 4
インドネシア 4
▁うまく 4
が開 4
▁それはすごいですね 4
東南アジア 4
決めて 4
山本さんが 4
ってくれ 4
視察 4
そうなると 4
レンタル 4
空港 4
予約を 4
聞いたことがあります 4
はいけない 4
を受けた 4
人気 4
▁頑張って 4
されていた 4
まった 4
んですかね 4
ンで 4
悩 4
まれて 4
コー 4
かり 4
申し訳ない 4
ことはできません 4
会話を 4
大野さん 4
を食べ 4
るのが好き 4
▁ありますよ 4
のお店 4
良さそうですね 4
然 4
はそう 4
疑問 4
どんどん 4
しか聞いて 4
部分を 4
拾 4
寄り 4
っぽい 4
健康 4
らず 4
がいいかな 4
場所は 4
そこは 4
水曜日 4
▁それは素晴らしいですね 4
朝礼 4
費用は 4
ことが出来ます 4
から徒歩 4
▁その間 4
ありますので 4
車で 4
の方から 4
自家 4
▁社員の 4
食べられる 4
念のために 4
は無理 4
だと思いますが 4
に行ってきます 4
運転手 4
次回 4
を起こ 4
帰宅 4
立ち寄 4
知ってた 4
対象に 4
カードを 4
▁J 4
一度も 4
はどれくらい 4
ひと 4
関西 4
相当 4
逆に 4
にしても 4
おいた 4
いただいてありがとうございます 4
社食 4
に対しての 4
まとめ 4
グラム 4
ドレッシング 4
してたんですが 4
に変えた 4
フライ 4
できるようになる 4
解決する 4
ほ 4
これからも 4
予定ですか 4
▁新人 4
立食 4
図 4
そば 4
付いて 4
それだと 4
スタ 4
円になります 4
が入っています 4
受付 4
来た時に 4
▁美里さん 4
だったんですか 4
断然 4
言うなら 4
あんな 4
少なく 4
ないですか 4
してるんですか 4
っていうのは 4
悪く 4
ってことですか 4
ようとして 4
▁だって 4
小麦粉 4
値上げ 4
仕入れ 4
が変わ 4
の価格 4
安く 4
にしたい 4
の量を 4
しまうよ 4
を削減 4
帰りの 4
せば 4
個の 4
レン 4
っこ 4
くと 4
すべきか 4
皆で 4
オリンピック 4
外国人が 4
んなら 4
だけでいい 4
台湾 4
コンビニ 4
知りたかった 4
やすく 4
いましょう 4
▁外国人 4
理解できます 4
学生の 4
依頼を 4
できそうな 4
▁社 4
屋の 4
俺が 4
隣 4
削減 4
を考える 4
賛成です 4
料が 4
費が 4
を調べて 4
されなかった 4
のほうが 4
所に 4
営業部の 4
り返 4
いたくない 4
しておきたい 4
日付 4
31 4
月は 4
失礼しました 4
何かお 4
抜き 4
申 4
頃は 4
読んだ 4
そうやって 4
城 4
分です 4
厳しいですね 4
していただけ 4
されてるんですか 4
どうした 4
お昼は 4
晩 4
で買 4
きつ 4
▁俺は 4
ガッツリ 4
かあ 4
バイキング 4
時間で 4
で調べて 4
るんですけど 4
美味しかった 4
どうかな 4
ックス 4
に向 4
ゲスト 4
そのまま 4
▁パソコン 4
業務は 4
経験があります 4
心強いです 4
りましたので 4
ほか 4
従 4
▁親 4
▁色々と 4
最後に 4
出社 4
終わらせ 4
もこの 4
調子 4
が多いので 4
バタバタ 4
▁それは大変 4
わないといけない 4
ひ 4
ことを祈 4
してもらわないと 4
セミコン 4
応援 4
きましたね 4
みたいだから 4
のできる 4
しゃべ 4
どうだろうか 4
があると思います 4
しておくよ 4
ところでした 4
きません 4
コール 4
になってから 4
どなた 4
も含めて 4
さら 4
とにかく 4
の方々 4
証 4
中学 4
友 4
様の 4
万ドルの 4
集めて 4
りましたか 4
手伝って 4
団体 4
やってみたい 4
▁面接 4
の結果 4
メールします 4
▁インターン 4
千 4
できるだけ 4
部署で 4
ますが 4
点と 4
できませんが 4
に載 4
せます 4
申し込み 4
夏休み 4
密 4
就職 4
かなりの 4
分け 4
本社 4
▁ご家族 4
妻 4
彼女に 4
奥さんは 4
落 4
併 4
魅力 4
センター 4
ショップ 4
内と申します 4
▁その分 4
喜ば 4
プラン 4
住居 4
トイレ 4
ンは 4
冷蔵庫 4
▁リ 4
団 4
▁お忙しいところ 4
じて 4
私どもの 4
室の 4
ようなんです 4
ニア 4
▁上野 4
田さんに 4
部屋は 4
空いてます 4
と思ってます 4
わせて 4
一番いい 4
試験 4
自動的に 4
▁そろそろ 4
戻り 4
取れない 4
も増 4
インターフェース 4
正確 4
ログイン 4
移行 4
ことにしました 4
帰りに 4
▁モ 4
の請求書 4
キロ 4
工事 4
流れ 4
一切 4
午後に 4
お電話番号 4
電 4
設備の 4
からのお 4
際 4
お願いいたします 4
インタビュー 4
報 4
はどのくらいですか 4
▁はっきり 4
数字は 4
▁基本的には 4
ワン 4
はもっと 4
について教えてください 4
詰め 4
ということに 4
理にかな 4
を依頼 4
市場調査 4
を進める 4
▁時間は 4
▁昼食 4
詳しい 4
▁いろいろ 4
数字が 4
だなあ 4
が多いから 4
のね 4
計算 4
大変だったよ 4
勿論 4
比較 4
うんざり 4
先方が 4
それじゃ 4
旧 4
怖い 4
▁いま 4
はじめ 4
とは思えない 4
よさ 4
南 4
同じような 4
増えて 4
泊まり放題 4
▁一体 4
▁ビジネス 4
段 4
▁ド 4
にならない 4
プランを 4
宿泊 4
コスト削減 4
どこにある 4
雰囲気 4
が無 4
くなっている 4
るだけ 4
土地 4
勢 4
価格が 4
売り 4
トラブル 4
をご用意 4
できると思いますよ 4
と思ったんです 4
はよく 4
潰 4
くださ 4
頑張ってね 4
やりたい 4
そりゃ 4
凄く 4
聞いてみたら 4
過 4
▁ずっと 4
聞こ 4
句 4
音が 4
うる 4
仕組み 4
びっくり 4
高め 4
▁どこで 4
ってある 4
いいんですか 4
奥さんが 4
ショッピング 4
クマ 4
いいですよね 4
時間くらい 4
行ける 4
してみた 4
使わない 4
有給休暇 4
年次 4
いましたね 4
なもの 4
ってくる 4
怪我 4
なかったですか 4
ありましたか 4
大石 4
に見 4
品が 4
とは思いますが 4
丁寧 4
ではありませんが 4
ーン 4
運動 4
何の 4
くないので 4
を見た 4
はか 4
ではないですね 4
誰かと 4
などは 4
りで 4
から直接 4
が終わったら 4
外回 4
寒い 4
マスク 4
されていますか 4
失礼 4
ないんですが 4
毎回 4
ってきてる 4
加入 4
▁面倒 4
▁あの時は 4
どうしたんですか 4
分からなくて 4
っか 4
予算が 4
船員会館 4
で仕事 4
あるよ 4
収まる 4
▁会議の 4
▁打ち合わせ 4
スクリーン 4
仕方 4
避難 4
回も 4
危 4
わかん 4
▁分 4
今年も 4
僕に 4
の名前 4
限定 4
井上 4
メモリ 4
の承認 4
人数が多い 4
急に 4
そうなんだ 4
からって 4
ラッ 4
イス 4
礼 4
崎 4
プライベート 4
でその 4
なくなったら 4
角田さんが 4
▁角 4
他の人 4
の際に 4
業務を 4
進める 4
と思っていました 4
というの 4
があるなら 4
出来ますか 4
▁あっと 4
だけじゃなくて 4
月から 4
員 4
えばいい 4
▁ははは 4
でもいいから 4
AI 4
したいんだけど 4
秘密 4
ってもらった 4
外部 4
今月の 4
とかも 4
取って 4
センチ 4
坂 4
滑 4
▁会社に 4
冗談 4
宛に 4
小川 4
されております 4
恐縮ですが 4
の電話 4
いただきたく 4
申し上げます 4
揃 4
くん 4
各自 4
入口 4
をかけ 4
指 4
差し 4
静 4
利 4
そうで 4
本立て 4
は結構 4
▁その時は 4
紹介を 4
▁失礼ですが 4
融 4
られません 4
伺っております 4
が気に入 4
らずに 4
ウン 4
▁残念ですが 4
ご連絡を 4
期待 4
メン 4
患 4
期に 4
体系 4
産業 4
を連れて 4
若手 4
目の 4
再検査 4
お前 4
除 4
ねぇ 4
▁その他 4
予備 4
に行き 4
例年 4
各部門 4
あったら 4
支援 4
プレスリリース 4
散 4
延期 4
注 4
ディー 4
営業部門 4
方面 4
▁これより 4
昨年 4
▁そのような 4
急ぎ 4
事項を 4
▁重 4
承知 4
市場に 4
社向けの 4
末 4
先方に 4
▁こちらも 4
お時間よろしいでしょうか 4
カスタマイズ 4
うちの会社は 4
的にも 4
事情 4
▁この間 4
するもの 4
ないですし 4
意見も 4
雑談 4
経済 4
知名度 4
できますね 4
はどういう 4
▁素晴らしいですね 4
いただいても 4
どうすれば 4
欄に 4
の場合は 4
週末は 4
▁木材 4
にお越し 4
をお教え 4
▁デ 4
▁木 4
▁金曜日の 4
プレゼンで 4
▁いらっしゃいませ 4
年間の 4
新製品 4
てない 4
立ち上げ 4
売れて 4
店が 4
5% 4
同じ時間に 4
連れ 4
▁そうしましょう 4
比べ 4
▁鈴木 4
まいります 4
サラ 4
いとこ 4
抱 4
えてる 4
したのよ 4
魚 4
のお客 4
村さんが 4
いろんな 4
▁お願い 4
オリエンテーション 4
川です 4
この件について 4
ざっと 4
▁その点は 4
上司から 4
ではないですが 4
ことになっています 4
▁分からない 4
おかけ 4
▁たくさん 4
宛て 4
ファイルの 4
に変換 4
▁W 4
ファイルは 4
してくれるかな 4
しているのを 4
どうやら 4
デバイス 4
仕事も 4
回は 4
▁それは助かる 4
と思うと 4
辞 4
に行か 4
すればよいですか 4
私のほうから 4
証明 4
▁そうなんですよね 4
用品 4
が届く 4
いたんですが 4
と聞いています 4
困ります 4
らしく 4
してみようか 4
さっそく 4
足りない 4
▁必要な 4
新たに 4
正式に 4
組み 4
いましたが 4
もい 4
えません 4
本当だ 4
よくある 4
請求書は 4
の処理 4
年代 4
読む 4
覚えてる 4
思い出せ 4
といいね 4
お電話代わりました 4
ようであれば 4
楽しみです 4
ごめん 4
ないといけなくて 4
夏 4
二週間 4
▁小さい 4
眠 4
行ってる 4
待ち 4
の締め切り 4
▁あそこの 4
▁ケー 4
あそこ 4
の数も 4
スピーチ 4
を予定 4
必要はありません 4
を設 4
けています 4
席で 4
45 4
ネット 4
準備は 4
会議には 4
知ってもら 4
こともあります 4
と思ったんですが 4
チームワーク 4
頑張ってください 4
層 4
部内の 4
▁数日 4
みたいだし 4
だったんだよ 4
仕事の後に 4
ラーニング 4
リストに 4
解 4
企画部の 4
参加する 4
かし 4
目から 4
キラ 4
er 4
t 4
稼働 4
定期的に 4
が表示 4
入力 4
に戻ります 4
がこの 4
ータ 4
▁既存 4
参照 4
済み 4
に残 4
残り 4
積 4
がありましたら 4
▁人事部 4
▁昨 4
プロジェクトが 4
スキルが 4
今年度 4
る事 4
▁が 4
仰 4
役割 4
費や 4
各部署に 4
情報と 4
所の 4
研修プログラム 4
数年の 4
昇 4
に入社 4
事です 4
つける 4
新入社員の 4
基本的な 4
に出る 4
窓口 4
のはどう 4
が合わ 4
新人の 4
結果を 4
のドラフト 4
新人が 4
経験のある 4
四 4
短縮 4
勤 4
出来れば 4
共通 4
スムーズに 4
酒 4
一時間 4
手の 4
朝会 4
、30 4
単純 4
する為に 4
▁海棠部長 4
極 4
全体の 4
事で 4
▁ど 4
企業は 4
といて 4
ニーズ 4
のものです 4
生き 4
▁さあ 4
理想 4
基に 4
介 4
なども 4
代独身男性 4
えーっと 4
所は 4
本題 4
▁そもそも 4
▁簡単に 4
する事で 4
何らかの 4
ようになります 4
人々 4
を買う 4
だと思うわ 4
このように 4
今週中に 4
事ですか 4
社風 4
を向 4
機会を 4
そういった 4
何よりです 4
▁只今 4
質 4
▁第 4
にはこの 4
新たな 4
久しぶり 4
▁遅れて 4
体験 4
申し上げた 4
吉 4
できなくて 4
時間がか 4
かっています 4
聞いてくださいね 4
のお客様 4
ビー 4
ハラル 4
最悪 4
プリント 4
▁出張 4
それはちょっと 4
一応 4
は出 4
横 4
▁ホ 4
自転車 4
文書を 4
▁わからない 4
をもらう 4
会社も 4
▁た 4
に使う 4
パー 4
もありますね 4
通勤路 4
▁ロイ 4
見つける 4
をしましょう 4
終わって 4
目で 4
▁佐々さん 4
にしよう 4
一般的な 4
ないか 4
聞か 4
人と 4
やれば 4
だったのに 4
この会社 4
ちゃん 4
伴 4
はないのですが 4
月か 4
しているんですが 4
ブライダル 4
会場 4
会社との 4
▁合併 4
そうなる 4
と申しますが 4
代の 4
どのようなご用件でしょうか 4
のコピー 4
▁それでも 4
お待ちください 4
細 4
していることが 4
のことばかり 4
了解 4
新しく 4
すっごく 4
できませんでした 4
機器 4
▁後 4
希望はありますか 4
客様 4
お客様も 4
を待 4
まれた 4
仕方がない 4
デイブ 4
話せ 4
楽しかった 4
うまくい 4
都内 4
滞在 4
リモコン 4
笑 4
後悔 4
▁私の友 4
添 4
プロジェクトに 4
たのですが 4
▁中国の 4
たった 4
費は 4
ペ 4
▁違う 4
▁いやいや 4
▁製品の 4
ティー 4
の調子 4
お願いできるかな 4
パソコンの 4
▁助かる 4
大丈夫だと思うよ 4
こな 4
の人たちは 4
続 4
事になる 4
ボール 4
写真を 4
記憶 4
はずだ 4
省 4
▁コンピューター 4
ファン 4
綺麗 4
▁今の所 4
無難 4
に入れ 4
にと 4
つも 4
いけなかった 4
ないよね 4
お願い致します 4
▁何か質問 4
予定の 4
型 4
に変わ 4
暇 4
続く 4
ようで 4
ンです 4
が可能 4
ーム 4
明日中に 4
いただけると助かります 4
▁こちらで 4
量を 4
問題なさ 4
ことは可能でしょうか 4
決める 4
納期 4
社の方が 4
変わらない 4
▁見積もり 4
しまって 4
に使用 4
されるのですか 4
▁先週は 4
頂きました 4
以内には 4
できるかな 4
れますか 4
ごめんなさい 4
▁急ぎ 4
確認します 4
サーバーオプション 4
、100 4
してもらった 4
伝えた 4
方法を 4
▁家 4
いましたよ 4
低い 4
れていると 4
授賞式 4
航空の 4
になるか 4
言われました 4
政 4
してすみません 4
▁ハワイ 4
きましたよ 4
にしないと 4
たまたま 4
▁メールアドレス 4
領収書 4
分は 4
先ほど 4
ちょっといい 4
があってね 4
を記載 4
お仕事 4
▁以前の 4
▁一緒 4
年以上 4
▁家族 4
まさに 4
尊敬 4
研究所 4
助け 4
世話 4
推薦 4
いら 4
してくださいね 4
の様子 4
日本へ 4
オフィスを出 4
今お時間ありますか 4
化粧品 4
生徒 4
件で 4
何か問題でも 4
気づいて 4
権利 4
▁予定 4
日が 4
穴 4
たくて 4
くれると 4
の一つ 4
作動 4
してもらいましょう 4
かも知れないですね 4
をもらって 4
いち 4
くれたら 4
完璧 4
大きなプロジェクト 4
とら 4
ってもらえる 4
達の 4
のスタッフ 4
聞いてみるよ 4
見やすい 4
よいでしょうか 4
クルーズ 4
旅 4
シニア 4
違います 4
スピード 4
につなが 4
▁それは良い 4
何をする 4
かっていう 4
毎年 4
始めよう 4
振り 4
▁輸出 4
ほうで 4
▁まさか 4
しておけば 4
遅くまで 4
そのうち 4
ぎりぎり 4
いいけど 4
のデータベース 4
情報を入力 4
しているか 4
リンク 4
間に合わない 4
▁月曜 4
が来 4
研究者 4
を持った 4
じゃないでしょうか 4
になってしまいました 4
それがいい 4
があ 4
ベジタリアン 4
間に合う 4
対処 4
はずっと 4
いたから 4
されてます 4
もう一人 4
楽しみに 4
あるの 4
連絡する 4
越 4
工業 4
うちのホームページ 4
反応 4
量は 4
いいと思うよ 4
って言った 4
目指 4
▁経験 4
解雇 4
かもしれないし 4
とは思う 4
リュック 4
セット 4
の中の 4
配布 4
お願いしたい 4
向かい 4
落ち着いた 4
▁メニュー 4
実行 4
と良い 4
が来たら 4
について話し合いたい 4
▁みんなが 4
チームとして 4
オリビア 4
を用意 4
過ご 4
▁休み 4
▁できるだけ早く 4
▁良い一日を 4
を教え 4
仕事ができる 4
▁結果 4
くらいの 4
場所で 4
事務所の 4
PR 4
するなら 4
をお選び 4
にちょっと 4
ないんです 4
▁中川さん 4
▁キャンセル 4
内の 4
に来た 4
▁もう一度 4
出ている 4
電話を切 4
月曜 4
まったら 4
使えるように 4
についてお話したいのですが 4
まで来て 4
おき 4
計画書 4
が遅れて 4
領収証 4
すいません 4
フォルダー 4
まずい 4
食べ物 4
ナッツ 4
▁ご迷惑をおかけ 4
▁契約 4
r 4
されるまで 4
ご足労 4
コンディショナー 4
ファ 4
クター 4
タイプの 4
と話を 4
配荷率 4
日本では 4
日本市場 4
進出 4
価格設定 4
を考え 4
するのか 4
セル 4
してくださ 4
ンス 4
もう一 4
折り返しお電話 4
次は 4
の一つは 4
大事です 4
飽 4
。」 4
に連れて行く 4
ロンドン 4
▁なんとか 4
▁キャ 4
を見せ 4
の評価 4
サンドイッチ 4
未だ 4
飲料 4
値下げ 4
メント 4
オリジナル 4
けると 4
▁来年の 4
サイン 4
万円くらい 4
きたい 4
したところ 4
やってくれる 4
値引き 4
約束は 4
本当にありがとうございます 4
▁先週の 4
御社と 4
して頂 4
集まり 4
なんかに 4
どうにか 4
ヘルプ 4
外注 4
事を願 4
リーダーで 4
いたしましょうか 4
興味深 4
▁レポート 4
工場を 4
条件を 4
机 4
▁もし何か 4
フライト 4
▁ジュリア 4
公 4
それだけです 4
含 4
ソン 4
ストア 4
んでいます 4
させられる 4
チームリーダー 4
魅力的 4
か確認 4
にお送り 4
人です 4
受講 4
▁見て 4
▁テスト 4
▁早い 4
受け取り 4
田村 4
規模 4
か分かりますか 4
る予定 4
分発 4
に入る 4
をし 4
ベ 4
特別 4
聞かせて 4
してしまう 4
が見つかる 4
田さんは 4
、18 4
▁先ほど 4
▁パッケージ 4
及川 4
独 4
この二 4
▁毎月 4
飲む 4
授業 4
かかりますか 4
基本的には 4
に従 4
バックアップ 4
接続 4
私達 4
にもよ 4
▁アドバイス 4
頂く 4
燃 4
液漏れ 4
液体 4
▁安全 4
ためです 4
まっている 4
測定 4
算 4
すら 4
ジェニー 4
に進 4
ことを検討 4
はあると思いますか 4
▁配達員 4
をクリックして 4
スタン 4
ジー 4
しないで 4
そしたら 4
であり 4
▁ここでは 4
メキシコ 4
▁カナダ 4
教えてもらえますか 4
製品と 4
しているんですよ 4
ブラウン 4
それはとても 4
には行った 4
タグを 4
しなければ 4
環境に 4
がありますよね 4
に出席 4
人々と 4
存在感 4
関係を築く 4
過ごす 4
ケビ 4
社での 4
はないですよ 4
はないですね 4
▁携帯 4
▁きちんと 4
仕事をこな 4
真面目に 4
賢 4
全力を尽くします 4
▁信じ 4
どうなさいましたか 4
感謝しています 4
か月前に 4
しないといけないんです 4
のは知っています 4
心配しなくて 4
リラックス 4
なんて想像 4
怒鳴 4
私を 4
害 4
との事です 4
▁我が社は 4
スキャン 4
しまいますよ 4
してみたいですね 4
▁どうしたんですか 4
この提案 4
▁有難うございます 4
▁オーダー 4
▁銀行 4
ではないですよ 4
食べたい 4
の機会 4
従業員の 4
学んだ 4
問題が 4
テーマ 4
知っていますか 4
▁どうしましたか 4
を取得 4
分前に 4
現在は 4
メールアドレスは 4
いたんだ 4
トン当たり 4
▁前回の注文 4
HS 4
運送業者 4
貸方票 4
市場価格 4
▁運送 4
▁あった 4
どうしました 4
運送 4
私たちに 4
どのくらいの 4
質問があれば 4
▁元気ですよ 4
できると思いますか 4
テリー 4
軸 4
焦点を当て 4
くださってありがとうございます 4
資材 4
サービスを提供 4
がございましたら 4
ウィ 4
イラ 4
行動 4
アンティグア 4
バル 4
ペーパーレス 4
間違いなく 4
▁生徒さん 4
コンテンツ 4
色々な 4
マリア 4
うちの会社が 4
だったり 4
▁建物 4
誰かを 4
で働く 4
CRM 4
成長を 4
チームは 4
マネージメント 4
ジョアンさん 4
小売アパレルストア 4
去 4
影響を受ける 4
▁スケジュール 4
はしない 4
みましょうか 4
くれて有難う 4
▁ベンさんは 4
▁まず最初に 4
証拠 4
伝えて下さい 4
みたいですね 4
残りの 4
ナッツフリー 4
バッチ 4
防ぐ 4
ショー 4
▁ソーシャルメディア 4
頂き有難うございます 4
彼女の 4
訴訟 4
▁ロット 4
▁このポジション 4
が本当に 4
練習 4
として使用 4
知らせて 4
誰と 4
終 4
同僚の 4
リーです 4
▁今日この後 4
▁空港 4
東京オフィスに 4
▁シャーマンです 4
から始め 4
頂けますか 4
めて 4
二人とも 4
アメリカの 4
困難 4
たくさんありますよ 4
郵便 4
全力を尽く 4
するかもしれません 4
あなた方 4
オンラインマーケティング 4
マイク 4
をお探し 4
通訳 4
▁D 4
▁最終的には 4
下さって 4
▁なるべく 4
知っているよ 4
表を 4
ドルの 4
を超える 4
したように 4
▁ロベルト 4
ならなかった 4
ロン 4
▁そうだと 4
スタートアップの 4
できるんです 4
構築 4
を維持 4
とは何ですか 4
401( 4
) 4
拠 4
▁私には 4
ウェビナー 4
▁セールス 4
ドルくらい 4
どうなりますか 4
▁ジョンソンさん 4
Q 4
▁まあまあ 4
▁これについて 4
さんに話 4
冷蔵庫から 4
▁誰が 4
だけだよ 4
▁ナンシー 4
マイアミ 4
メンター 4
だけだから 4
クリスさん 4
かも知れないけど 4
私の名刺です 4
ケン 4
▁助かるよ 4
▁政府 4
▁今週末までに 4
も良い 4
日本は 4
テキサス 4
丸太 4
企業に 4
▁リーと申します 4
真理 4
統合 4
ウィジェット 4
景気 4
コンサルタント 4
V 4
この件 4
利永さんが 4
▁更新 4
企業を 4
出来るよ 4
返事は 4
事業の 4
ドルです 4
ロジスティクス研究 4
ワシントン 4
ピボットテーブル 4
ベンさん 4
企業と 4
見てみるよ 4
▁一つの 4
▁中島です 4
を送りますね 4
▁サプライヤー 4
いないと 4
鉄道車両 4
ゼネラルマネージャー 4
ターミナル 4
事業運営 4
リミテッドパートナーシップ 4
▁東京支 4
サイトウ 4
頂いてありがとうございます 4
事業案 4
▁ノ 4
助成 4
社の高市 3
お電話ありがとうございました 3
こちらこそ 3
直近 3
ってもいい 3
いですし 3
参ります 3
を確認します 3
していただきます 3
以外に 3
いただいている 3
顧問弁護士 3
して頂ければ 3
問題ありません 3
したものです 3
突っ 3
れそうな 3
はご 3
分を 3
マス 3
通し 3
してみたい 3
▁私と 3
となって 3
本番 3
▁ふふ 3
会場の 3
の現状 3
込んだ 3
をたて 3
企業名 3
した資料 3
話したかった 3
なんじゃない 3
限りは 3
押し 3
感じが 3
ドラフト 3
お願いしていいですか 3
を元に 3
優先 3
お忙しい中 3
頂きましてありがとうございます 3
▁I 3
▁とんでもございません 3
臨 3
22 3
上に 3
受付で 3
分前 3
声 3
▁お世話 3
お電話しました 3
変更の 3
登記 3
▁いつも通り 3
伺いたいのですが 3
応接室 3
に向かう 3
▁戻 3
り次第 3
差し上げ 3
致しましょうか 3
伝言 3
手に入 3
ご連絡差し上げ 3
失礼致します 3
▁何でしょう 3
既成 3
皮 3
んじゃないかと 3
▁相談 3
を求め 3
すんなり 3
ものなんですか 3
がないか 3
されるから 3
お金も 3
にかかる 3
保持 3
組んで 3
申請書 3
本様 3
インク 3
パック 3
おりません 3
▁大変申し訳ございません 3
したと 3
▁発送 3
元は 3
当社に 3
▁到着 3
週間後 3
の注文 3
▁当初 3
と配送 3
▁お疲れ様 3
じた 3
聞こえ 3
ってると 3
教えてもら 3
柔軟 3
くださる 3
代も 3
らしいね 3
すご 3
不在 3
野さんの 3
協議 3
まさか 3
本日の 3
印 3
して頂き 3
いたしまして 3
▁改めて 3
に感謝 3
社の松 3
▁岡 3
▁支払 3
日以内 3
▁お支払い 3
▁何かあった 3
退 3
▁現 3
指揮 3
▁確かにそうだな 3
佐藤 3
岡さん 3
上位 3
追いつ 3
発展 3
提供し 3
アイテム 3
システムを導入 3
▁当社は 3
それはいい 3
既存の 3
先日の 3
をご購入 3
ましたでしょうか 3
いたしますね 3
レー 3
頂けますでしょうか 3
口です 3
担当している 3
絞 3
▁やぁ 3
社について 3
っているところ 3
▁山下 3
感想 3
彼らにとって 3
と思っていたんだけど 3
生の 3
は前 3
参考に 3
▁インターネット 3
新聞 3
打開策 3
制作 3
してよろしいでしょうか 3
改装 3
だったか 3
つなぎ 3
ご挨拶 3
つもりです 3
▁それは楽しみですね 3
▁時間 3
▁聞いて 3
を作り 3
木さん 3
▁xx 3
が進 3
考えられます 3
ありますでしょうか 3
べきだと思います 3
考えます 3
らせていただきます 3
見てみよう 3
ございましたら 3
▁残業は 3
半は 3
で終わ 3
トルコ 3
ョ 3
ろうかな 3
万円ぐらい 3
発信 3
わかります 3
ブログ 3
正確に 3
設け 3
と思うんです 3
使えると思います 3
客の 3
適役 3
創業 3
周年 3
を迎え 3
声かけ 3
誠にありがとうございます 3
ございますので 3
いきたいと思います 3
弊社で 3
周 3
豆 3
くす 3
踏ま 3
ことをお 3
緑 3
綺麗な 3
健 3
そうに 3
しておりまして 3
女 3
も出 3
に出勤 3
という情報 3
の匂いが 3
する時 3
▁今度は 3
歯医者 3
もそれ 3
する人も 3
▁風邪 3
が確定 3
▁遠 3
無いでしょうか 3
▁ここは 3
イマイチ 3
誰の 3
んでもら 3
の予算 3
してたの 3
遠慮 3
替える 3
ではないですか 3
▁200 3
付けた 3
をあげ 3
旨 3
警備員 3
に苦情 3
▁日本の 3
労 3
いも 3
コーナー 3
ドリンク 3
に出て 3
んでる 3
しません 3
さま 3
同情 3
いきなり 3
怪 3
汚 3
部分に 3
正直に 3
られたり 3
▁大概 3
家庭 3
後半 3
いてい 3
許 3
可愛 3
同期 3
であった 3
▁鈴木さん 3
▁すごいですね 3
洋服 3
義務 3
になっちゃ 3
稼げる 3
素晴らしいですね 3
土日 3
平気 3
延長 3
週に 3
こそ 3
足り 3
しそうな 3
▁料理 3
で働いて 3
趣味 3
▁そうですねえ 3
▁強 3
で育 3
親戚 3
いけば 3
コネクション 3
前職 3
何度か 3
を引っ張 3
▁工場の 3
乗り 3
行動を 3
すると思います 3
▁先方は 3
んだった 3
▁ハラールフード 3
フード 3
が厳しい 3
アル 3
じゃなく 3
を決めた 3
車の 3
なかなかいい 3
だねえ 3
話は 3
掛け 3
百 3
この人 3
ブレ 3
ダー 3
待遇 3
俺の 3
を行います 3
相手の 3
出さ 3
なければなりません 3
で話 3
隠れ家 3
カルビ 3
▁竹 3
ことだと思います 3
スルー 3
自分が 3
いくと 3
出せる 3
いうと 3
時も 3
▁完全に 3
上は 3
会話が 3
続いて 3
▁聞く 3
交代 3
のお話 3
▁それはそれは 3
になっちゃう 3
▁ほ 3
▁ちょっと待って 3
▁今日も 3
結構な 3
陸する 3
登録されている 3
を許可 3
専用 3
歩いて 3
迎 3
発電 3
開ける 3
パン 3
▁余 3
議事録 3
事件 3
▁飲み 3
気付 3
飲み会 3
その時も 3
▁先月の 3
社に連絡 3
ものの 3
重要 3
落と 3
罰則 3
していないので 3
強化 3
やると 3
防げ 3
渡す 3
これまで 3
のでは 3
▁過去に 3
昼に 3
の負担 3
▁賛成です 3
牛 3
けちゃ 3
出身 3
疑 3
▁こっち 3
くから 3
それって 3
だったのよ 3
落ち込 3
▁ア 3
のこ 3
もった 3
その時は 3
習慣 3
は上手く 3
挙 3
▁どれ 3
▁以前は 3
だったんですが 3
ようにしています 3
増えた 3
▁営業部 3
は各 3
▁以前 3
できないんでしょうか 3
▁パート 3
の簡単な 3
になるんです 3
勝手 3
しておかないと 3
▁後ほど 3
ある程度 3
あると思います 3
を導入 3
温 3
▁毎 3
いたいと思います 3
名と 3
内容ですか 3
000 3
良さそうだね 3
飲み放題に 3
追加の 3
海鮮 3
桶 3
貫 3
頃に 3
りたいのですが 3
卵料理 3
スク 3
熟 3
飯 3
を感じ 3
堅 3
液 3
くせに 3
サービスが 3
堂 3
が多くて 3
儲け 3
アンケートで 3
も何も 3
殆ど 3
みようか 3
パンの 3
するんでしょうか 3
人件費 3
遣 3
今でも 3
ギリギリ 3
▁小麦粉 3
りして 3
削 3
がっかり 3
▁持ち 3
ランス 3
焼 3
翌日 3
固 3
をカバー 3
棄 3
▁それについては 3
人員 3
収容 3
飲食 3
増える 3
需要 3
一般 3
表は 3
観光客 3
をよく 3
アジア 3
複雑 3
つかない 3
バイリンガルの 3
日本人 3
想 3
▁なんだって 3
学校に 3
手元 3
売上は 3
右 3
下が 3
が持 3
を開いた 3
していきたい 3
▁管理 3
賃 3
って頼む 3
移転 3
仕 3
屋に 3
たところ 3
とこの 3
は無 3
▁右 3
毎月 3
▁これに 3
年間約 3
▁そうは言っても 3
最も 3
なこと 3
もあるからね 3
減らす 3
のが良い 3
レジ 3
フィードバック 3
のか教えてください 3
▁正確には 3
気づきました 3
っての 3
数字と 3
今度は 3
▁つ 3
を書く 3
もんだよ 3
必死に 3
▁文章 3
で一 3
発で 3
▁私は今 3
▁期待 3
はいかが 3
チームの 3
上司も 3
褒めて 3
したいことがありまして 3
ことでしょうか 3
お値段 3
▁通常は 3
120 3
のお値段 3
▁サービス 3
▁ご希望 3
かりません 3
本で 3
ませんでしょうか 3
作るの 3
手間も 3
スーパー 3
があるわよ 3
外で 3
ウォーキング 3
カフェ 3
はどうかな 3
あそこの 3
主が 3
体調崩 3
決まり 3
するな 3
になりましたか 3
強く 3
勧め 3
お迎え 3
慣れて 3
数社 3
語学 3
には何か 3
あっという間に 3
▁残業 3
だもんね 3
しなくちゃ 3
▁ほんとだね 3
してくれ 3
他部署 3
みれば 3
にならないように 3
も休み 3
いね 3
終わったら 3
季節 3
参加人数 3
中国語 3
も参加 3
聞けて 3
▁せっかく 3
▁それはとても 3
▁よろしく頼むよ 3
の関係 3
ホテルのロビーで 3
法務 3
救急 3
にお連れ 3
▁必要があれば 3
を呼 3
付き 3
お客様には 3
治療 3
金額を 3
▁ホテルの 3
に応じて 3
ならないように 3
村上 3
公立校 3
大変だった 3
が大変 3
▁お父 3
で日本 3
▁不安 3
を拠点に 3
募金を 3
いいのか 3
▁私どもの 3
建物の 3
プロジェクトは 3
いただいてありがとうございました 3
▁議題は 3
に一 3
を優先 3
敬 3
ほうがいいんじゃないですか 3
に入っています 3
にしましょう 3
800 3
英語で 3
コミュニケーションが 3
問 3
がやり 3
制度の 3
人まで 3
▁募集 3
受け付けます 3
続けて 3
望 3
んじゃないかしら 3
のではないかと思います 3
行う 3
異 3
浅 3
▁お疲れ 3
▁田 3
さんはいらっしゃいますか 3
▁浅 3
に比べ 3
お世話 3
お子 3
任せてください 3
▁本当に感謝しています 3
▁新規 3
杉 3
の開発 3
施設を 3
設 3
を満たす 3
社に委託します 3
しており 3
建築 3
ホーム 3
▁学校 3
狙 3
考えている 3
施設は 3
▁キッチ 3
壁 3
レンジ 3
電子 3
照明 3
を選べ 3
坪 3
をお願いいたします 3
▁どのようなご用件 3
上野 3
▁ご存知 3
存 3
願 3
▁奥 3
▁内 3
43 3
▁ジュ 3
メールを送りますね 3
その前に 3
学を 3
ころ 3
したので 3
▁言語 3
場合の 3
自動翻訳 3
を設定 3
設定の 3
部署を 3
ース 3
に進む 3
出張を 3
なんだね 3
時を 3
ケー 3
褒 3
と表示されている 3
お見積り 3
の方の 3
お見積 3
分しか 3
ヶ国語 3
がかなり 3
わかりませんが 3
がかかり 3
▁今日はありがとうございました 3
質問があったら 3
▁はいどうぞ 3
▁年齢 3
層は 3
検討しましょう 3
忙しい中 3
が適 3
なるし 3
▁13 3
部署も 3
も入れて 3
▁全部 3
してもらえるかどうか 3
▁次回の 3
えーと 3
教えてもらって 3
にくい 3
を全部 3
になるんですよ 3
▁合計 3
なるほどね 3
を足 3
視 3
なるほど 3
にもな 3
仕方ない 3
39 3
分譲 3
そういうのも 3
キッチ 3
▁今度 3
そうだなあ 3
旬に 3
になるのかな 3
気がします 3
25000 3
▁安 3
▁違いますよ 3
でしたけど 3
トリー 3
具体 3
意外 3
同士 3
で大 3
▁再来週の 3
よろしくね 3
わざわざ 3
価格の 3
になさ 3
▁もしよろしければ 3
になら 3
▁私どもは 3
売買 3
ございます 3
やめて 3
展示 3
ご心配 3
お話を 3
聞かせてください 3
▁物 3
らか 3
らしいんです 3
したいという 3
ちら 3
発掘 3
みたんですけど 3
もと 3
プレッシャー 3
が何か 3
しちゃう 3
▁田中さんの 3
▁松本さん 3
さんって 3
凄 3
みたいだけど 3
を変 3
ュ 3
即 3
のが大変 3
って言ってました 3
を残 3
を立てて 3
の取得 3
義務化 3
消化 3
なんですけどね 3
で動 3
同僚が 3
読みましたよ 3
買った 3
電池 3
という事ですね 3
させていただきたいのですが 3
は何か 3
とかは 3
それです 3
封 3
包 3
ここが 3
危険 3
水準 3
ゾ 3
をしていました 3
▁みんなで 3
▁ワイ 3
前に見た 3
外回り 3
行きました 3
にあ 3
になにか 3
手を 3
洗 3
カ月 3
感じがします 3
って思 3
はいるんですが 3
ども 3
ありましたね 3
▁その時 3
▁歩 3
逃げ 3
そうですねえ 3
▁井上さんは 3
▁ああー 3
b 3
トラベルサイト 3
港 3
▁船 3
船員 3
の人も 3
避難訓練 3
思って 3
前で 3
が入る 3
斉 3
階段 3
下に 3
は大切 3
方とか 3
気に入って 3
▁木下 3
この前 3
▁喜んで 3
いただけて 3
どこの 3
で検索 3
残念 3
ってきましょうか 3
お言葉に甘えて 3
新鮮 3
もいます 3
預けて 3
かもしれないので 3
もらったんです 3
担当と 3
▁言って 3
嫌が 3
昔 3
ようになって 3
OS 3
似た 3
園 3
に置 3
ような感じ 3
した時は 3
親切 3
に教えて 3
くれたよ 3
んでも 3
という事でしょうか 3
時間をかけて 3
などで 3
それ以外 3
が混 3
月まで 3
混雑 3
始発 3
いが 3
▁外国 3
剤 3
で全 3
しそう 3
挿 3
がいるんですよ 3
更に 3
スタンドアロン 3
も無 3
待た 3
▁最大 3
にもよります 3
諦 3
が早く 3
降 3
っちゃ 3
▁冗談 3
▁人事部の 3
があったから 3
らせ 3
方からお電話 3
秘書 3
様で 3
から電話 3
か伺 3
様ですね 3
ってもよろしいでしょうか 3
荒川 3
都内の 3
運用 3
▁申し訳ございませんが 3
中でございます 3
照 3
権限 3
乾燥 3
大丈夫かな 3
▁出 3
激 3
妥当 3
を贈 3
すればいいですか 3
贈 3
へのご 3
ないかな 3
▁大体 3
宅配 3
業者さん 3
らしくて 3
みたいよ 3
融通が利 3
▁その後は 3
だったし 3
募 3
到 3
っしゃ 3
なかったのですが 3
幸 3
優秀な 3
▁金 3
いらっしゃると 3
をご紹介 3
できるかもしれません 3
むしろ 3
でお会い 3
キャリアアップ 3
誘 3
先程 3
申し訳ないですが 3
りします 3
落ち着 3
かれた 3
マネジメント 3
何の話 3
にした 3
モチベーション 3
ヘル 3
がでて 3
年齢 3
早 3
を改善 3
整備 3
感心 3
が悪くて 3
判 3
だったんだけどね 3
で切 3
できるの 3
問題は 3
若干 3
たから 3
歳 3
人間 3
あとは 3
受けて 3
診 3
通りの 3
させて下さい 3
名です 3
検査 3
▁業務 3
がある場合は 3
ヶ月前 3
も可能 3
多少 3
予算を 3
都度 3
してくれない 3
に不 3
に住 3
馬場 3
▁と 3
業績予想 3
を計画 3
ることになります 3
するかどうか 3
と思っております 3
報告事項 3
大型案件の検収 3
億円 3
当初の 3
システムは 3
主 3
推進 3
社とは 3
継続 3
を申し上げます 3
に関しましては 3
と言わ 3
以上は 3
実績 3
を決めて 3
▁そのため 3
の通り 3
▁取り 3
する場合 3
終わります 3
▁お忙しい 3
ことでしょう 3
▁弊社が 3
売上高 3
を立て 3
している会社 3
またご連絡します 3
集ま 3
▁どういう 3
おうか 3
ようだ 3
▁経理 3
で進めて 3
システム導入 3
▁追加 3
予定が 3
▁先方には 3
別々に 3
そんな時期 3
煙 3
変えた 3
の品 3
▁金額 3
アイディア 3
費を 3
回る 3
をさせて 3
どれくらいですか 3
▁取材 3
並 3
もあり 3
初め 3
いただきたいと思います 3
▁事務 3
備 3
になるのですが 3
後程 3
のカ 3
▁カード 3
ご用意 3
▁動画 3
きますか 3
どうもありがとうございました 3
全体で 3
10% 3
は売り上げ 3
手軽 3
赤い 3
帽子 3
セラー 3
▁赤 3
とマーケティング 3
部門の 3
皆の 3
何件か 3
▁顧客は 3
を好 3
▁伊藤様 3
ステーキ 3
なさいますか 3
にしようかな 3
すすめ 3
合う 3
中村 3
ございませんか 3
会議も 3
ようかな 3
お互い 3
▁名前 3
働 3
夏の 3
世 3
気づかなかった 3
▁いいの 3
内陸 3
魚は 3
方もいらっしゃ 3
避けて 3
多かったです 3
おいたほうがいい 3
金曜 3
混む 3
名前で 3
慣 3
種の 3
企業で 3
不要 3
書類が 3
外部の 3
れないように 3
▁村 3
尋ね 3
しまったんです 3
いただけない 3
かと思いまして 3
▁商品の 3
123 3
みますね 3
▁お待たせしました 3
幾つ 3
この電話 3
の使い方 3
を頼 3
できるよ 3
のソフト 3
PC 3
るな 3
▁この頃 3
ッケー 3
山本さん 3
人事の 3
聞いたんだけど 3
があるみたい 3
私もちょっと 3
キャリア 3
してみるわ 3
会える 3
に行くの 3
かなと思って 3
服装 3
日本食 3
やっかい 3
鳥 3
の電車 3
俺は 3
楽しみにしてる 3
もんな 3
途中 3
身分 3
折 3
られますので 3
▁これまでは 3
連絡は 3
▁たくさんの 3
早期 3
▁これまで 3
良心的 3
気になって 3
注文を 3
損 3
連絡してみます 3
行ってきました 3
▁白 3
を確保 3
しないといけません 3
着用 3
すことが 3
必要がありますね 3
山下 3
作る 3
分かりやすい 3
発注書番号 3
58 3
つい 3
はいいですね 3
きますので 3
私たちも 3
を使い 3
▁そう言えば 3
▁会議で 3
休憩室の 3
定時で帰 3
見つかる 3
ご無沙汰 3
用件 3
新商品の 3
参入 3
についてご相談 3
いただいたんですが 3
▁そう言っていただけると光栄です 3
ですしね 3
▁川 3
日にち 3
▁田中さんは 3
の飛行機 3
疲れて 3
忙しかった 3
してこ 3
▁松 3
つなが 3
ことがあって 3
何て 3
締め切りに 3
▁このまま 3
外の 3
さなきゃ 3
いらっしゃるので 3
さんのほうから 3
となりますので 3
設定して 3
は大丈夫ですか 3
の上に 3
気軽に 3
時半に 3
予定になっています 3
背景 3
観 3
だと思いますよ 3
迷 3
このグラフ 3
▁忙しい 3
社内掲示板 3
部門間 3
▁ウチの 3
募集 3
マシ 3
雑 3
気味 3
人事に 3
元々 3
した事 3
あるんだ 3
駅まで 3
にあった 3
良くな 3
よー 3
an 3
アイコンをクリック 3
人材育成 3
を記入 3
補 3
できている 3
ステ 3
その他 3
内で 3
所で 3
様な 3
不可 3
ローン 3
についてお話しします 3
ご存じ 3
全社で 3
を行いました 3
不足している 3
が難しい 3
括 3
を実施 3
無駄に 3
超える 3
可能な 3
辛抱 3
ける事が 3
業務内容 3
できるし 3
する事も 3
要因 3
は如 3
出来なかった 3
事や 3
にもいい 3
を作成します 3
新人に 3
方に 3
付けます 3
▁日本人 3
お送り 3
▁最終 3
講習 3
無駄な 3
決めましょう 3
スキルを 3
学ば 3
ハード 3
学び 3
に設定 3
合える 3
歓迎 3
▁回答 3
分まで 3
▁プロジェクト 3
訳ではない 3
いないか 3
曜と 3
最優先 3
っても宜しいでしょうか 3
部は 3
時間がかかり 3
オープンな雰囲気 3
秒 3
杯 3
競争 3
ってやつ 3
ってますからね 3
だったな 3
と思わ 3
マーケ 3
に取り組 3
くさい 3
ませんね 3
いないんですよ 3
残る 3
かなきゃ 3
かもな 3
規模の 3
信じて 3
課で 3
信 3
存在 3
してなかった 3
んですから 3
▁あーあ 3
詳細に 3
望ま 3
リード 3
れますので 3
しやすい 3
したばかり 3
欄 3
」、「 3
ヒント 3
頭に 3
カスタマージャーニー 3
▁お送り 3
いまいち 3
るのか 3
見る 3
使用している 3
一人の 3
情報も 3
▁できるだけ 3
▁いいですか 3
をお伺い 3
春 3
▁冷蔵庫 3
好きで 3
像 3
具 3
ャ 3
チーム全体で 3
私がお 3
の時間 3
呼ば 3
方はご 3
大野です 3
主催 3
相互 3
にご興味 3
隔月 3
進行 3
会を 3
目的は 3
もお願いします 3
▁その件 3
さんで 3
を探す 3
選び 3
コーエン専務 3
周りに 3
精進 3
▁事前に 3
させていただ 3
がと 3
をお使い 3
おあり 3
アウト 3
但馬さん 3
打ち合わせで 3
こないだ 3
二人が 3
思議 3
布 3
要約 3
当社は 3
ーター 3
を含む 3
申請し 3
質問は 3
▁そうしてください 3
私に聞いて 3
故 3
▁交通 3
サ 3
キング 3
しておかないといけない 3
めない 3
ないんだ 3
僕らの 3
してすみませんでした 3
るかな 3
分休憩 3
か聞いて 3
まら 3
してるから 3
決心 3
容 3
現場 3
教育係 3
うん 3
言いたい 3
▁正直言うと 3
ティング 3
に書き 3
限 3
が無い 3
指導 3
したいと考えています 3
▁今月末までに 3
にアップ 3
伝える 3
われる 3
▁佐々 3
郊外 3
場に 3
▁課長 3
が伸び 3
悩んでいる 3
今年に入って 3
取れた 3
支社 3
地元 3
社ですよね 3
正直 3
沖縄 3
番の 3
年度の 3
法人 3
中間 3
▁連休 3
代わ 3
▁確かにね 3
まと 3
構 3
バラ 3
そこが 3
暗 3
黙 3
近々 3
いらっしゃった 3
達成 3
することになりました 3
経験を 3
転勤 3
いいでしょうか 3
いるのは 3
となれば 3
▁カー 3
件は 3
話しておきます 3
▁どうでしたか 3
▁全体 3
▁普段 3
マイクさん 3
天然 3
してい 3
▁プロジェクトの 3
まだ時間 3
チョコ 3
って言ってたよ 3
キャンディー 3
を販売 3
なると 3
を中国 3
▁なんて 3
レビュー 3
信用 3
した製品 3
▁覚えて 3
しいね 3
詐欺 3
っかり 3
-9 3
請負 3
してきて 3
不備 3
手が 3
軒 3
に乗って 3
▁トニー 3
も一緒に 3
金を 3
税金 3
に入力 3
済みの 3
棚 3
貼 3
の方法 3
が少し 3
▁使い 3
色の 3
だったんですよ 3
らないように 3
シャ 3
ルを 3
フットボール選手 3
犬が 3
明るい 3
を選んで 3
込みで 3
▁ケン 3
グラフィック 3
▁簡単な 3
だぞ 3
みな 3
名を 3
しようと思っています 3
の便 3
お土産 3
取れました 3
タブレット 3
ものすごく 3
せい 3
に変 3
▁いいんですか 3
持って帰って 3
しかないんだよね 3
休みが 3
遠い 3
ベトナム 3
からない 3
▁書類 3
ヶ月間 3
を立ち上げ 3
電話をかける 3
▁ではよろしくお願いします 3
お疲れ様でした 3
おめでとうございます 3
調子はどうですか 3
か月に 3
▁最短で 3
いるのですが 3
▁おめでとうございます 3
かという 3
可能ですか 3
させていただきますね 3
株式会社の佐藤と申しますが 3
田中さんはいらっしゃいますか 3
納入 3
間での 3
は何でしょうか 3
何と 3
面では 3
ほどで 3
を探している 3
▁ありました 3
折り返し連絡 3
株式会社です 3
▁佐藤部長はいらっしゃいますか 3
特別に 3
いただけたら 3
向か 3
見ていただけますか 3
してもらっても良いですか 3
はいつですか 3
しなければなりません 3
▁お店 3
決まりましたか 3
ばかりだから 3
項目を 3
知りたい 3
CD 3
▁100 3
メールでお送り 3
具合 3
再起動 3
オフ 3
手順書 3
にコピー 3
▁今使っている 3
したほうがいいですね 3
ってもらうように 3
スキー 3
お天気 3
▁スキー 3
達が 3
▁田沢湖 3
比 3
▁アイ 3
だったかな 3
があるんですね 3
▁最 3
乗り継ぎ 3
いるし 3
になっちゃいます 3
▁時差 3
確保 3
帯 3
航空券 3
参加者 3
▁追って 3
訂正 3
伊藤 3
すが 3
温泉 3
変わ 3
▁直接 3
順番 3
▁これです 3
コーヒーの 3
と違う 3
気付く 3
普段の 3
がなかった 3
楽しかったです 3
すのは 3
数人 3
吉田さん 3
争 3
パワーポイントの 3
パワーポイント 3
載せて 3
アイ 3
にお送りします 3
のことも 3
ほしいのですが 3
見えるのですが 3
ときには 3
紺色 3
▁やっぱりそうですか 3
にお願いします 3
再送 3
初心者 3
返し 3
けている 3
かなくなった 3
着いて 3
▁さようでございますか 3
▁化粧室 3
にお持ち 3
飲み物 3
ろうと 3
部屋に 3
近くのレストラン 3
ここは 3
最後 3
と聞いて 3
楽しかったですよ 3
西山 3
と違って 3
が大好き 3
慣れる 3
際は 3
スクール 3
▁私から 3
窓 3
エミリー 3
奈緒 3
産休と 3
▁心配しないで 3
言ってお 3
さんがお 3
妊娠 3
暑 3
代を 3
最新の 3
するのがいい 3
末までには 3
じゃなかったっけ 3
くれれば 3
どうせ 3
▁直 3
整 3
すっかり 3
人前 3
若い子 3
嫌だな 3
は三 3
二か月 3
うのは 3
メールが来てた 3
二日 3
▁休 3
以前の 3
圧倒される 3
さんのこと 3
シフト 3
を手伝う 3
支える 3
起こる 3
村です 3
くらいですよね 3
▁無理 3
だとは思いますが 3
ここでの 3
▁色んな 3
経理の 3
したかったのですが 3
経理部の 3
バグ 3
作業効率 3
ますからね 3
みようかな 3
システムに 3
頼んでみます 3
書く 3
で考えて 3
どうすればいいの 3
態 3
管理の 3
をい 3
▁ボブ 3
に適 3
会社へ 3
されていますよ 3
ってい 3
▁昨日は 3
消費税 3
だめだよ 3
酔 3
上げて 3
集まった 3
任意 3
研究開発部では 3
は無い 3
を求めている 3
当番 3
っていたら 3
田さんが 3
言ってくださいね 3
アンさん 3
ころは 3
は今 3
▁一日中 3
往復 3
ビデオ 3
のは難しい 3
が決まる 3
仲 3
の皆さん 3
人とも 3
その後は 3
招待状 3
去年と同じ 3
▁それ以上 3
、50 3
したいな 3
美味しかったですよ 3
新幹線 3
かも知れませんが 3
▁一週間 3
しないでください 3
来たら 3
がやっと 3
に分 3
すっきりして 3
文字サイズ 3
メールするね 3
と一緒 3
▁文字 3
いただけると 3
わって 3
速度 3
っちの 3
位置 3
有名な 3
かったら 3
と思 3
見てくれる 3
交 3
▁噂 3
レイ 3
▁コピー 3
▁僕らは 3
と思うけどね 3
▁ただの 3
業種 3
をご提供 3
集荷 3
の際は 3
をもっと 3
都合は 3
皆さんには 3
箱分の 3
をお渡し 3
を持っています 3
瞑想 3
分間 3
種類の 3
▁手伝って 3
滅 3
大会 3
にお金を 3
▁この件について 3
確信しています 3
を着 3
アイディアですね 3
を始めて 3
クライアントは 3
しかないですね 3
保管 3
どなたか 3
したのはいつ 3
はあるの 3
両親 3
にかける 3
手伝 3
違って 3
▁ベジタリアン 3
できるだけすぐに 3
に注文 3
かご存知ですか 3
言っておきます 3
は私が 3
小島 3
満足しています 3
できて良かったです 3
▁それは良かったですね 3
ものですよね 3
のトレーニング 3
についての情報 3
に確認 3
先を 3
額の 3
探す 3
その人 3
コピーを 3
▁ゴードンさん 3
仕事に集中 3
合わない 3
▁私もそう思う 3
スーパーバイザー 3
が変わる 3
▁と言うことは 3
手当 3
はと 3
▁それは光栄です 3
上司と 3
あたりの 3
参加人数を増やす 3
朝一番 3
のかしら 3
▁裏 3
購買 3
250 3
▁お待たせ 3
はお持ちでしょうか 3
を入力 3
g 3
できますので 3
▁名刺 3
印刷は 3
▁というわけで 3
▁このオフィスに 3
お時間ありますか 3
▁水曜日 3
完璧です 3
面接は 3
▁弊社 3
他に何か 3
▁先に 3
をすること 3
結局のところ 3
▁自信 3
だと思っています 3
申し訳ないのですが 3
して下さいね 3
▁出張の 3
がないか確認 3
そろ 3
リス 3
きつい 3
うれしい 3
地域で 3
▁all 3
しまうと 3
n 3
▁ご質問があれば 3
その都度 3
▁地域 3
サブ 3
ディング 3
社や 3
高級 3
対面 3
▁ふんふん 3
▁ふーむ 3
うまくや 3
おくよ 3
自動車部品 3
ものはありますか 3
どの程度 3
する際に 3
英会話 3
全員の 3
その時間 3
の料金 3
▁お待ちしております 3
してますが 3
字 3
中心 3
表現 3
口で 3
を変え 3
を引く 3
どうしたらいいですか 3
地元の 3
と思ったんだけど 3
短期 3
には興味 3
について話し合う 3
概況 3
フォーマットを 3
ゴミ 3
特集 3
共に 3
の原因 3
なれば 3
ヒ 3
すま 3
ここで働く 3
賃金 3
の仕事は 3
を見たり 3
後任 3
はすでに 3
たいんですが 3
27 3
の詳細 3
▁ビ 3
を押 3
今日はこれで 3
▁実はまだ 3
ミスで 3
からのメール 3
お世話になります 3
パーセントは 3
シニア層 3
ケア 3
人達が 3
してみましょうか 3
の進捗 3
しといて 3
▁この後 3
堂本さん 3
員で 3
山中君 3
したかったんです 3
▁お客様のお 3
少々お待ちくださいませ 3
できて嬉しいです 3
今週は 3
送ってくれる 3
ところなので 3
いてすみません 3
▁スケジュールを確認 3
と共有 3
よろしかったでしょうか 3
はいくらになりますか 3
加藤 3
止 3
資金提供 3
興味があります 3
▁ご連絡 3
についてちょっと 3
をしました 3
んでください 3
の上に置いて 3
あげてください 3
ご意見を 3
▁よい一日を 3
始めましょう 3
カスタマーサービスで 3
▁どうか 3
してくれる人が 3
の整理 3
リング 3
ちゃんの 3
▁思った 3
複合プリンタ 3
契約を結 3
▁経営 3
だいぶ 3
取る 3
素敵な 3
したらいい 3
▁木曜日 3
贈り物 3
と聞きました 3
89 3
87 3
卸売 3
の交渉 3
▁ただいま 3
▁25 3
トラ 3
をお待ちしています 3
▁スミス 3
箇所 3
隔 3
を示 3
を持ち合わせて 3
ご返事 3
大人気 3
▁昨年 3
破 3
して申し訳ございません 3
をお聞き 3
該当 3
ウェブサイトで 3
が可能な 3
もうまく 3
プリンタ 3
を表す 3
ティ 3
▁若松さん 3
▁おばあちゃん 3
経験豊富 3
のバランス 3
▁タ 3
お電話ください 3
まり 3
午後は 3
から始める 3
ともっと 3
に訳 3
いませんでした 3
でなく 3
チェックする 3
ドル以上 3
気づき 3
o 3
ありますけど 3
感じです 3
が机 3
ところがいい 3
ハ 3
歴史 3
も考慮 3
なら大丈夫ですよ 3
ことって 3
日本酒 3
が含まれている 3
を雇う 3
博 3
が安い 3
寝て 3
お電話ありがとうございます 3
橋 3
くつ 3
見積り 3
▁広州 3
広州 3
CZ 3
▁お二人とも 3
を購入 3
面取り 3
深 3
ズの 3
興 3
ACL 3
いだ 3
倒 3
についてですか 3
本人 3
させて頂きました 3
▁平均 3
が来る 3
ライン 3
▁来 3
▁悪い 3
それだけ 3
生徒の 3
が多数 3
防犯カメラの設置について 3
賛成 3
委員 3
はかなり 3
をすれば 3
連絡するよ 3
回数券 3
荷物 3
区 3
▁給与 3
基幹 3
順番に 3
ノート 3
話題 3
部内で 3
員の 3
クリ 3
するため 3
部と 3
までのスケジュール 3
佐伯 3
ねて 3
されたんですか 3
請求書発行 3
レート 3
と思っているんだ 3
ったほうがいい 3
かもしれませんよ 3
固体電池 3
その頃 3
の状況 3
割り 3
言及 3
と思ってました 3
▁自分 3
行ってみたい 3
んでいるようです 3
る必要がある 3
可能性はあります 3
にはない 3
会議があって 3
お知らせしますね 3
動か 3
画像 3
▁ウォーターマーク 3
公開 3
▁デザイン 3
ラップトップを 3
してくれてありがとう 3
何時に 3
盗 3
どこでも 3
用でしょうか 3
を試 3
クリス 3
▁怒って 3
▁心配しなくて 3
品質 3
げる 3
会えて 3
▁何度か 3
リーさん 3
役割を 3
についてはどのくらい 3
▁お二人 3
▁僕たちは 3
ロックアウトタグアウト 3
鍵 3
してるんだ 3
▁ブラウンさん 3
ではまた 3
質問に 3
ところだよ 3
明る 3
話しか 3
するよね 3
みるの 3
していただくことができます 3
アカウントに 3
の人々 3
高価 3
1,000 3
勤勉 3
という事を 3
なんですから 3
▁フォローアップ 3
▁では始めましょう 3
▁ここ数 3
突然 3
有難い 3
つき 3
▁今迄 3
文句を 3
損傷 3
▁返品 3
に説明 3
はないよ 3
▁相手 3
延ばし 3
家に帰 3
▁気 3
年半 3
品もあります 3
これらの 3
を一つ 3
わないでください 3
▁彼はいつも 3
今回が初めて 3
で働 3
立場に 3
者です 3
歴 3
郵便局 3
に署名 3
配達員 3
可能性はありますか 3
代替品 3
頂きます 3
コーポレーション 3
夫 3
長年 3
一緒にランチ 3
▁何でも 3
良いよ 3
ザ 3
ワクワクしています 3
▁この会社で 3
頂ける 3
記載されています 3
▁わあ 3
勤務している 3
費やす 3
じゃないですから 3
▁上手く 3
退職すると 3
貢献 3
に新しい 3
が良いです 3
▁自分たちで 3
店で 3
賢い 3
▁良い考えですね 3
下さり 3
ワイファイ 3
をしたり 3
延 3
していただく必要があります 3
アンです 3
単価 3
▁倉庫 3
はどこで 3
エリック 3
ベンだけど 3
出張中 3
に行きました 3
価格で 3
くれるか 3
所有 3
ショ 3
を保存 3
▁それについて 3
を開始 3
のト 3
初めは 3
貨物 3
をお勧めします 3
をお送りしますよ 3
米国 3
事業所 3
▁情報を 3
▁では失礼します 3
により 3
をご提供できます 3
済ませ 3
社内で話し合って 3
展開 3
で私 3
リスクを 3
▁おたくの 3
ではないんです 3
況 3
できてよかったです 3
▁リーさん 3
このミーティングを 3
を手伝ってくれる 3
と申しまして 3
受ける 3
▁今週の 3
▁記録 3
▁やっと 3
あなたのお 3
▁実際は 3
目は 3
現実的 3
優 3
っているか 3
アンナ 3
をお迎え 3
CFO 3
規範 3
▁デニス 3
真剣に 3
年棒 3
支払わ 3
せられる 3
いつか 3
紙の請求書 3
あるわ 3
お客様は 3
ナンシー 3
っていうのはどう 3
投票 3
数分 3
後には 3
で使用 3
返答 3
らす 3
話してくれる 3
謝 3
態度 3
タブ 3
消火器 3
以内に 3
▁火 3
に電話をして 3
外へ 3
建物 3
▁911 3
に関する質問 3
▁最も 3
需要は 3
いています 3
▁ティムさん 3
に貢献 3
辞め 3
をもたら 3
っていらっしゃる 3
しかった 3
でいる 3
でもこの 3
問題がありまして 3
としたら 3
▁誰も 3
犯 3
逃 3
隠 3
知らせてください 3
ことはありません 3
知っていたら 3
いずれ 3
ウェブサイトの 3
っているんですが 3
起きた 3
悪くない 3
十分な 3
良いと思いますか 3
店を 3
をしていた 3
か想像 3
つく 3
解雇される 3
うまくいく 3
とのミーティング 3
▁息子 3
▁ウィ 3
誠実 3
修士号 3
サンジェイ 3
▁そうでなければ 3
を卒業 3
▁履歴書 3
の理由 3
に聞こ 3
加えて 3
▁消費者が 3
うちの商品に 3
主張 3
泥棒 3
現行 3
監視 3
か知っていますか 3
▁真 3
すべきですね 3
消費者の 3
原材料 3
学士号 3
▁後任 3
してくれると 3
に問題 3
▁ジョンさん 3
メールをお送り 3
ペット 3
▁本当にありがとうございます 3
ラッシュアワー 3
▁まさに 3
らないといけないんだ 3
▁楽しそうだね 3
大金 3
お金を稼 3
▁美里 3
たる 3
こととか 3
を専攻 3
最適な 3
問題はないと思います 3
藤野 3
貨物輸送業者で 3
多くは 3
輸出入 3
彼らを 3
を探して 3
手短 3
専攻 3
▁とても興味深いですね 3
ぴったり 3
合った 3
押 3
私達の 3
あなたの仕事ぶり 3
厳しく 3
しなければいけない 3
さんと話 3
ロースクール 3
給料を 3
ケチ 3
職探し 3
の手伝い 3
ないといいんですが 3
事があるんだ 3
しているんだ 3
素晴らしい仕事を 3
ラッキー 3
のせいで 3
を書いて 3
薬 3
正規メーカー 3
を失 3
▁我々は 3
インフルエンザ 3
が正しい 3
側に 3
収益 3
ムです 3
79 3
心配し 3
施設の 3
ことがあるんだ 3
みんなの 3
▁ステーキ 3
なるよ 3
▁ティム 3
▁表 3
香港 3
私のために 3
を全て 3
のほとんどは 3
まったく 3
あなたと 3
何かを 3
稼いで 3
支払う 3
パーセントを 3
ではないので 3
リサ 3
のチケットを 3
▁どういった 3
御用でしょうか 3
したいんですが 3
▁xxxx 3
狭い 3
投資を 3
助けてくれてありがとう 3
を結 3
キャン 3
のがいい 3
ったな 3
アー 3
▁ナンシーさん 3
▁ウィリアムさん 3
ウィリアムさん 3
を教えてもらえますか 3
年度末 3
やめ 3
かどうか確認 3
▁やってみます 3
en 3
みるわ 3
ピーターさん 3
その後で 3
できてる 3
▁いい考えですね 3
と直接 3
関わり 3
KB 3
また連絡します 3
ミーティングがある 3
▁ミ 3
木曜に 3
心配しないでください 3
ビジュアル 3
今時間ある 3
返済 3
敷地 3
当社が 3
排出許可 3
試運転 3
いただけるか 3
木材を 3
VAT 3
石油 3
オフィスから 3
700 3
仕事と 3
フィートコンテナ 3
ビジネスチャンスを探 3
ひとつは 3
材木は 3
▁日本杉は 3
フェンス 3
アメリカに 3
から輸出 3
▁ガソリン 3
▁いくら 3
輸出しています 3
ガス 3
▁コンテナ 3
▁それでいいです 3
多国籍チーム 3
ジョンさん 3
中小企業グループ 3
が使わ 3
いいわよ 3
▁ケイト 3
▁株式公開 3
▁高さん 3
技術は 3
精 3
馬鹿 3
▁経営陣 3
まあまあ 3
投資をしている 3
業界の 3
残念ながら 3
▁ラム 3
意思 3
メールを送りました 3
ではよい一日を 3
▁なあ 3
▁見てみましょうか 3
を手配 3
スープ 3
ロジスティクス 3
▁または 3
トラック輸送 3
ご連絡しますね 3
にお返事 3
商業 3
市場は 3
採鉱場 3
を所有 3
メールをチェック 3
▁レ 3
れません 3
方がいいと思う 3
を送るよ 3
▁アドバイスを 3
フィートのコンテナ 3
彼には 3
社のブルース 3
日本の商 3
この業界 3
▁それはありがたいです 3
▁業界の 3
に価値 3
ちょっと忙しい 3
データシート 3
灰 3
シーズン 3
腕時計 3
▁トレヴィーノさん 3
▁お越し 3
飲んだ 3
▁最近の 3
関税率 3
業界を 3
言ってください 3
をお考えですか 3
▁お時間ありがとうございました 3
ノブです 3
ジョ 3
ってたわ 3
斉藤 3
▁カイル 3
語学力 3
していただきありがとうございます 3
稲 2
▁お世話様でーす 2
ごろ 2
▁株主総会 2
▁そのうち 2
ピックアップして 2
ご説明します 2
お手元にある 2
シナリオ通りに発言 2
能勢さん 2
同席 2
リハーサルを行います 2
監査役 2
いただきたく存じます 2
待機 2
議事 2
お手元の 2
▁同じく 2
株主さんから 2
網 2
▁なお 2
可能性があります 2
サポートしますので 2
と思っているよ 2
指名 2
指名された取締役 2
能勢 2
する訳 2
▁君らが 2
辛 2
になりそうだね 2
になりませんよ 2
スタートしてください 2
▁全員 2
お揃いのようなので 2
▁まず始めに 2
今期の 2
▁能勢さん 2
信託銀行の能勢 2
話します 2
についてお話します 2
しましては 2
▁今期は 2
が多かったから 2
時間程度で 2
業績の下方修正 2
おけば 2
さほど心配 2
数については 2
ようですので 2
ひと安心 2
新任 2
周りと 2
方がよろしい 2
までのスケジュールを 2
わざわざ来て 2
▁とりあえずは 2
ぱ 2
しょう 2
だけどさ 2
を作ります 2
決算 2
がありますしね 2
資料の通りです 2
順 2
書類は 2
のでよろしくお願いします 2
で大丈夫だよ 2
電話するよ 2
室の高田と申します 2
を担当しております 2
▁わざわざお越し 2
請 2
領 2
名簿 2
られませんでした 2
▁午前 2
掛けください 2
どうぞよろしくお願い致します 2
社の高 2
高梨 2
ストックオプション 2
▁詳細 2
メールに添付して 2
私宛 2
をお持ちします 2
きましたから 2
お会いして 2
ご都合いかが 2
アポイントメント 2
会議が入 2
っているんだけど 2
▁野田さん 2
分程度 2
▁よろしくね 2
田でございます 2
いま外出 2
予定となっております 2
▁確認したら 2
とお伝え下さい 2
申し伝えます 2
▁特許 2
したらどうか 2
をもらってから 2
書式 2
知的財産 2
似 2
庁 2
突 2
▁また何か 2
購入しました 2
と記載されて 2
▁注文 2
▁お手元 2
▁少々お待ち下さいませ 2
▁藤 2
あっています 2
しまったようです 2
代替 2
西川さん 2
ヵ月 2
なくなったんだ 2
されません 2
有難う 2
ってるんだろう 2
大学からの 2
の売り上げが 2
販売予測 2
えました 2
向江さんお願いします 2
この度 2
経営陣は 2
次回の 2
に含まれる 2
尾 2
納品できますか 2
▁申し訳ないのですが 2
ものでしょうか 2
口座 2
木下さん 2
まだ聞いて 2
責任者の 2
デイビット 2
だったんですね 2
これからどうなる 2
▁楽しみですね 2
玉 2
されていたので 2
▁お時間 2
位の 2
パーセントで 2
新しいビジネス 2
ことに気づきました 2
占有率 2
社カスタマーサービス 2
のことでお電話したのですが 2
▁注文番号は 2
▁XXX 2
確認できました 2
注文したのですが 2
が届きました 2
大変申し訳ございません 2
を送ってください 2
こちらからお電話 2
すればよいでしょうか 2
へお 2
▁申し訳ございませんでした 2
させていただければ 2
存じます 2
卒よろしくお願い致します 2
久 2
の出 2
欧 2
していただくことは可能でしょうか 2
らせる 2
こちらで調整してみます 2
っておりますので 2
また後ほど 2
▁楽しみにしています 2
期限 2
お疲れ様 2
会社の担当者 2
ことになってるんだ 2
の方向 2
性を 2
話して欲しい 2
▁お手数おかけします 2
長くなる 2
るよう 2
を持ってお 2
意見が 2
いつでもどうぞ 2
▁これらを 2
何か案はありますか 2
向江 2
成長している 2
メディア 2
だと考えます 2
例を挙げて 2
方法がある 2
となりそうですね 2
木野と申します 2
▁ご用件をお伺い 2
プロジェクト責任者 2
ご用意致します 2
頂きたく 2
時までには 2
中途採用の面接 2
同席する 2
大山さん 2
いつもの 2
はないでしょうか 2
渋 2
▁折り返し 2
▁よろしくお願い致します 2
会議を始めたいと思います 2
アジア地域での 2
当社商品の 2
アジア地域 2
専門の 2
徳 2
招き 2
▁本日はお招き 2
皆さま 2
お手元 2
の資料をご覧ください 2
キャンペーンの 2
▁私の意見と 2
社の商品を 2
山本さんお願いします 2
お時間良いでしょうか 2
しましたので 2
▁目を通 2
したらまた 2
▁上田さん 2
▁そうでもない 2
終えられた 2
休んでくださいね 2
お昼までには 2
▁お昼までに 2
▁お先に 2
▁どこの 2
▁新しく 2
オープンした 2
料理のお店 2
▁なんたって 2
とこれ 2
戻す 2
今現在 2
老 2
▁一般 2
リア 2
知ってもらう 2
コーナーも 2
情報の 2
エフェ 2
ことになりました 2
いただきまして 2
引き続き 2
使用されています 2
伸びる 2
大切な要素となります 2
地区 2
と青 2
を表しています 2
青 2
デザイン部 2
▁お褒め 2
ようにしました 2
若 2
男 2
顧 2
作成しました 2
ったのですが 2
グレードの高い 2
無断 2
▁山元さんの上長 2
とのことです 2
山元さんを 2
▁上長 2
偽 2
聞いたほうがいい 2
彼について 2
菅 2
護 2
信じています 2
たほうがいい 2
かもし 2
かなくなります 2
しまいましたね 2
するのはどうでしょうか 2
保留 2
▁去年同様 2
盛り上がりに欠けて 2
それで終わり 2
▁ひとり 2
申請します 2
訳がある 2
更衣室 2
を作るのはどうでしょうか 2
と考えられます 2
えるようにします 2
複数 2
方がいいと思います 2
みに 2
コス 2
があったそうです 2
ハロウィンに仮装 2
するようにします 2
▁日頃 2
管理部 2
▁それではこの 2
知識は 2
いるはずです 2
さんのところ 2
▁それはどうして 2
に行きますね 2
傷 2
作業着で出勤 2
が来た 2
インター 2
越し 2
攻 2
蓄 2
ことがあった 2
わからないと 2
に新人 2
君たちの 2
が多いです 2
滅多にありません 2
調べてきます 2
それでも 2
不明な 2
私が作った 2
▁売 2
羨ましい 2
サイトで 2
ちょこ 2
万ぐらい 2
▁そうすると年間 2
稼 2
直ぐ 2
くないんですか 2
▁実は私も 2
▁美 2
終わってから 2
の間 2
ますもんね 2
くないんです 2
ニング 2
庭 2
▁やった 2
との取引 2
視察団の受け入れ 2
▁山本さんは 2
したことがある 2
日の夕方 2
だそうだ 2
21 2
いるんでしょうか 2
交渉します 2
をお願いするよ 2
イスラム教なので食事 2
ってな 2
イスラム教 2
許されている 2
にもいくつかの 2
豚 2
純 2
を食べて 2
のお店を 2
明後日 2
いただいていた 2
上司に掛け合って 2
進めても 2
いただきたいので 2
▁それはもう 2
わかっているよ 2
なさらずに 2
八 2
サービスで 2
納 2
ドライ 2
懇意に 2
しておいてもらえますか 2
るのかい 2
誰でも 2
▁わかったよ 2
単に 2
聞き役 2
竹林 2
▁では私が 2
▁ダ 2
情報を引き 2
が好きなの 2
大野さんが 2
スルーしてしまいました 2
値段が安いと言った 2
どう思 2
モヤモヤしました 2
げて 2
ができている 2
やってみましょう 2
柴 2
があってお電話 2
親友 2
ことをお勧めします 2
かりませんが 2
役に立て 2
嬉しく思 2
わかり 2
んの 2
できるなら 2
▁自宅 2
線の 2
だろうか 2
駅のファミレス 2
になるかな 2
スケジュール帳 2
時でよろしいでしょうか 2
水曜日は 2
デー 2
やすいかと思います 2
▁こちらこそお時間を 2
▁それでは当日 2
暴 2
オペレーション 2
一度確認 2
はどのように 2
伝 2
▁公共交通機関 2
も含 2
はどうなりますか 2
停 2
かります 2
当たる 2
ストン 2
れると思います 2
出せるように 2
かろうと思います 2
するつもりです 2
菓子 2
お茶 2
もいいですね 2
っておきましょうか 2
があると思いますので 2
ができ 2
マニュアルを作 2
セキュリティカード 2
が発生しました 2
鞄 2
ごと 2
ことになっている 2
全社員に 2
カードは 2
見つ 2
忍 2
罰 2
してはどうでしょうか 2
だけに絞 2
るのはどうでしょうか 2
というのはどうでしょうか 2
らないので 2
▁具体的な 2
出勤時に 2
社の受付でカードを 2
こんな感じ 2
朝早く 2
も大きくなります 2
ヶ月ほど 2
進めましょう 2
▁藤本さん 2
▁煮 2
本さんは 2
外食 2
かなかったです 2
関西と関東 2
のかしらね 2
が黒 2
意味ですか 2
かもってこと 2
情 2
れる方が 2
んじゃ 2
カレーター 2
聞いておいて 2
白米 2
の量が多すぎる 2
しているんでしょうか 2
生野菜サラダ 2
からですね 2
▁ドレッシング 2
スタイル 2
もオ 2
とは言えません 2
▁揚げ物 2
わけですか 2
難しいんですよ 2
圧 2
ならご 2
提供は可能です 2
を呼んで 2
見積もりを取 2
らせます 2
器具 2
好評 2
サービスです 2
になりますでしょうか 2
名の予定です 2
代です 2
お料理 2
ご希望でしょうか 2
固定 2
はどんな 2
ソフトドリンク 2
ュー 2
おひとり様 2
円です 2
樽 2
持ち込み 2
鮮 2
握り寿司 2
を予定しています 2
、16 2
の者 2
払い 2
ッグ 2
最高ですよね 2
ってどんな 2
のが好き 2
幸せ 2
テン 2
ション 2
上がります 2
香 2
を入れた 2
たま 2
出てこない 2
持参 2
全然変わらない 2
▁食 2
高齢 2
ありえないですよね 2
全員で 2
が来て 2
0.5 2
ざるを得 2
どうしたらいいか 2
ちょっと相談 2
気軽 2
のは知ってる 2
で働いています 2
小売価格に転嫁 2
結 2
割も 2
できそうですね 2
どういうことだい 2
くなってしまって 2
することができません 2
▁それを活用して 2
無駄にならない 2
を増や 2
できるのでは 2
▁確かにそうだなあ 2
ーズ 2
黄 2
週間に 2
れませんか 2
廃 2
2020 2
東京オリンピック 2
外国人対応 2
を強化していきたい 2
食料品スーパー 2
お答え 2
付属 2
自炊 2
が必要ですよね 2
待ってください 2
英語が不得手 2
▁またこの 2
中国からの 2
に話しかけ 2
わからなくて 2
▁それでどうなったの 2
何が入 2
▁それに合わせて 2
しておいた方がいいですね 2
かけてみます 2
肩 2
辿 2
についてのミーティング 2
▁私の方で 2
ピックアップ 2
年間で 2
万の 2
▁広さは 2
▁私も賛成です 2
業者と話を 2
万円です 2
必要ですが 2
履歴 2
日もありました 2
のではない 2
考えております 2
様子を見てみようか 2
作ってもらった 2
になってるんだ 2
日だから 2
って表現 2
記 2
混 2
▁できたら 2
積んで 2
ての 2
変換 2
気づいてくれた 2
気づかせて 2
田中さん 2
プレス 2
ので大丈夫です 2
記事 2
本分 2
に添 2
えるかわ 2
▁70 2
などはいかがでしょうか 2
70 2
▁そうですねー 2
、80 2
効 2
確認してみ 2
▁そうしましたら 2
お急ぎ 2
ってどう 2
かつ 2
のお弁当 2
かからない 2
もスーパー 2
はちょっとゆっくり 2
食べたいんですよ 2
あったの 2
▁そうだったんだね 2
▁そうだなあ 2
あったかな 2
▁サンドイッチ 2
気がするんだけど 2
んじゃなくて 2
くるのは難しい 2
しちゃ 2
▁1500 2
配達してくれる 2
ってたんだ 2
大好き 2
ではないかと 2
いらっしゃったのですか 2
上がったり 2
問題ないと思います 2
でビジネスレター 2
語も 2
していたんです 2
▁通訳 2
経験はありますか 2
経営を 2
しておりましたので 2
▁お話 2
したくないから 2
られたらいいな 2
曜日 2
忙し 2
そうだったよね 2
▁なのに 2
産休に入 2
掛け合って 2
言うには 2
▁そうならない 2
サンフランシスコで 2
▁今年もまた 2
数で 2
込む 2
が出るんじゃない 2
もっとも 2
意見ですが 2
してもいいんじゃないでしょうか 2
声が 2
▁クライアントと 2
顔見知り 2
いい考えだね 2
くれないか 2
▁明日までには 2
月末に 2
総務 2
だろうからね 2
今いいですか 2
ことはご存知ですよね 2
聞いています 2
の準備を始め 2
治 2
とおっしゃってください 2
というわけにはい 2
お詫び 2
を用意しています 2
に移動 2
対応をして 2
ないようにしてください 2
▁お客様が 2
▁念のため 2
目撃した 2
わかっています 2
保険でカバーされる 2
我が社から 2
いは 2
我が 2
券 2
送りましょう 2
なかったらどうしますか 2
応対 2
しておき 2
した方がいいですね 2
陽 2
▁どうぞお 2
におりました 2
に通っていました 2
宿題 2
▁日本の高校 2
はいかがでしたか 2
充実 2
きたかったので 2
遂げたこととして 2
とありますが 2
くれませんか 2
震 2
災 2
中学校 2
日間で 2
かせて 2
▁お忙しい中 2
▁何か質問はありますか 2
インターンシップ 2
時給 2
ソーシャル 2
ことがたくさん 2
がいいです 2
それは承知 2
の成績 2
提出してもらいます 2
シップ 2
就 2
活 2
▁書類選考 2
絞り 2
してもらい 2
は我が社の 2
綿 2
志 2
になったから 2
ということでよろしいですか 2
議 2
は何時ですか 2
遅く 2
言われています 2
ずいぶん 2
変わりましたね 2
▁ここだけの話ですが 2
ロサンゼルス 2
田沼さんに 2
はいろ 2
決まったんですか 2
に着く 2
することになる 2
の練習 2
浅野さんの 2
楽しみにしていますよ 2
アメリカ人 2
ハー 2
同士で 2
▁我が社が 2
札 2
棟 2
になるのは 2
▁商業施設は 2
販 2
予定しています 2
▁学校は 2
時間がかかります 2
公立 2
▁いずれ 2
ニック 2
住民 2
▁それはいい考えですね 2
暫 2
定の 2
インターネットは 2
合わせた 2
管理部です 2
▁秘書室の川田と申します 2
塚 2
田部長 2
我が社に 2
なんとかなると思います 2
ほんとですか 2
ームですが 2
でご 2
フルネーム 2
は何でしたっけ 2
和 2
▁他に何かありますか 2
今日から 2
▁お役に立てて 2
ではないんですが 2
家庭教師 2
を探そう 2
んて 2
かなくちゃいけない 2
同感 2
説明をさせていただきます 2
▁私はこの 2
社の小川 2
というのを 2
聞いたことが 2
飛 2
ネットワークを 2
国語に対応 2
が増えた 2
▁このシステムは 2
みなさんは 2
現在のシステム 2
▁ご覧 2
で表示されます 2
使えませんので 2
アイコンをクリックして 2
を開きます 2
進んでください 2
スクロールして 2
選べ 2
るようになっています 2
えないように 2
▁ここまで 2
事実です 2
▁やはり実際に 2
どうだ 2
▁いくらくらい 2
になるのでしょうか 2
電力の消費量によります 2
を伺ってもよろしいでしょうか 2
どのくらいかかる 2
お願いしたいです 2
電話番号は 2
時間はどのくらい 2
聞きたいのですが 2
けますか 2
尋ねください 2
がございましたらまた 2
▁お問い合わせ 2
とんでもないです 2
させていただけ 2
とても貴重 2
▁クラウドでの管理 2
▁アプリ 2
ケーション 2
期待しています 2
社内の 2
管理する 2
効率的 2
▁社内 2
グレード 2
そうさせていただきます 2
マネージャーの 2
佐々木 2
▁一番の 2
ポイントは 2
使えます 2
時間をかけ 2
打ち合わせしましょう 2
▁クリスマス 2
迫 2
に出るので 2
問題ないです 2
頼みましょうか 2
持ってきてくれる 2
聞いてみましょうか 2
▁ぜひお願いします 2
人分の 2
▁明日には 2
見積もりを 2
はないですよね 2
やめましょう 2
勝 2
もらっていいですか 2
ことないですよ 2
出てくる 2
よくわからなくて 2
▁顧客から 2
って言われている 2
▁それくらい 2
を入れるのは 2
困っちゃう 2
▁小計の項目を 2
困ったことが 2
▁SUBTOTAL 2
関 2
SUBTOTAL 2
エラーメッセージ 2
頑 2
って言わ 2
▁うちのマンション 2
耐震 2
があるって 2
困ってるんだ 2
▁耐震 2
直下型 2
聞き取り調査 2
補強工事 2
だからなあ 2
面倒ですよね 2
しなあ 2
何とも 2
がありましたね 2
言ってたけど 2
揉 2
耐震工事済み 2
のチ 2
▁ぼ 2
取っておいて 2
かで 2
って書いて 2
ってことかな 2
泊まり放題のホステル 2
なんと 2
東京で 2
ベッド 2
置いてある 2
連 2
申し込んで 2
出張費が 2
っておいた方が 2
件だけ 2
ところにある 2
脈 2
映 2
▁予約は 2
調べたら 2
メールしておいて 2
内容について 2
そういうわけ 2
▁以前に 2
とは思います 2
らないでください 2
▁こんなことを 2
設した 2
お店を出 2
したいと思ってて 2
なに 2
できるかどうか 2
みようかと思って 2
▁でもまだ 2
しかないんです 2
常会話 2
腰 2
題 2
日本の遺跡を発掘 2
▁歴史 2
学とか 2
箇 2
と個人的に 2
んだけどなあ 2
じゃないですよね 2
考 2
しそうだよね 2
いっそのこと 2
▁アドバイスありがとうございます 2
テレビの音が 2
かったんだ 2
聞こえにく 2
が悪 2
くなると 2
困りますね 2
何々 2
補聴器 2
イズ 2
はそうだった 2
聴 2
聞こえるような 2
朝の 2
的だよね 2
分かりません 2
▁そのスピーカー 2
父親も 2
アは 2
社のテーマパーク 2
行きますか 2
再来週の 2
購入している 2
招待券 2
が送られて 2
本当ですか 2
はそんなに 2
キャラクター 2
気に入りなんですよ 2
かかり 2
時間以上かかる 2
▁大石さんは 2
年目です 2
と思うんですけど 2
さんからお話 2
良い事 2
じゃないでしょう 2
そういうもの 2
できませんよ 2
んに 2
せよ 2
この度はお買い上げ 2
曜日に 2
もちゃ 2
を入れても 2
音はする 2
商品の交換 2
という商品です 2
▁確認して 2
丁 2
XXXX 2
交換品 2
を行いますので 2
に対応していただいて 2
覧 2
前は 2
サル 2
▁週 2
が不 2
調 2
なくなりますね 2
いいんですが 2
なんですかそれ 2
酸 2
にもなって 2
気になるので 2
大変じゃない 2
風邪 2
を引 2
▁松下さんは 2
調子はいかがですか 2
がありましたが 2
▁良かったですね 2
なくなりました 2
良かったですね 2
▁本当ですよ 2
免 2
気になってしまいます 2
手洗いとうがい 2
体調を 2
ってしまいそうです 2
になりますよ 2
駐 2
ないのが 2
いきましょうか 2
っていう感じです 2
あっという間に育 2
▁じゃあさあ 2
保険って 2
だとは思うけど 2
入ってた 2
院 2
そういう事 2
ベビーシッターさん 2
もらい 2
何とかなる 2
どうしようもない 2
普通 2
保険仲介の窓口に相談 2
見たことが 2
時間を作って 2
ことあるんですか 2
グループ保険 2
になってたよ 2
いいなあ 2
▁柏木さん 2
▁あのホテルって 2
わからないけど 2
知らなかった 2
酷 2
じゃないんだけど 2
なかったですよ 2
調べてみますね 2
明後日は 2
時からです 2
よかったですね 2
ところだったよ 2
プロジェクター 2
避難すること 2
聞きましたよ 2
じゃありません 2
おい 2
しかったです 2
してみたんですが 2
お店は 2
ような気がします 2
になりませんか 2
って書いてあった 2
▁どうしましょうか 2
でいいです 2
買って 2
メモリで 2
の承認を待 2
▁USB 2
と部長 2
されるんですよ 2
に時間がかかる 2
んですよねえ 2
感覚 2
に置く 2
▁そうみたいです 2
ブラウザを開いて 2
▁井上さん 2
くなっちゃう 2
菜 2
いい人 2
分かりやすいように 2
沸 2
お客さんがいるから 2
▁そんなことないよ 2
▁あの人たち 2
人がいるなんて 2
のことですよね 2
些細なことでも 2
▁でしたら 2
ってきています 2
どういう事ですか 2
わかりませんね 2
大丈夫でした 2
などがあれば 2
今回の引き継ぎ業務 2
になりそうですか 2
けません 2
提出してください 2
道路 2
▁本当だ 2
いつまで 2
月中 2
週間くらい 2
パラ 2
出社時間をずらす 2
苦手なんですよ 2
栓 2
呼 2
吸 2
無理です 2
オリンピックの間は 2
休んじゃ 2
切り 2
っは 2
避 2
使用したい 2
弾 2
マネジャーと 2
▁そうだねえ 2
▁部長は 2
レスポンス悪くて 2
確認するだけでいい 2
繋 2
ポート 2
爆 2
すごいですね 2
人がいたら 2
▁雪 2
可能性が高いですね 2
▁歩いて 2
令 2
んじゃないかなあ 2
▁なんだ 2
ないといけなかったんだ 2
天気予報 2
したほうがいいですか 2
したほうがいいねえ 2
の高田と申します 2
ではございますが 2
どちらの 2
▁P 2
ご用件を承 2
▁私共 2
会社でして 2
ということでよろしいでしょうか 2
▁ご用件は 2
承りました 2
ご連絡先 2
ったようなので 2
から説明してもらいます 2
ロック 2
解除 2
が発生した場合 2
も大き 2
指紋 2
外部から 2
ールーム 2
▁それらの 2
決めるよ 2
▁こちらからは 2
以上ですが 2
障 2
がで 2
セキュリティレベル 2
▁生 2
ものについては 2
はありませんか 2
終了します 2
などありましたら 2
個別に 2
▁どうしました 2
就任 2
贈り 2
▁胡蝶蘭 2
でよろしく 2
胡蝶蘭 2
任せるよ 2
ビルに入っている 2
▁うちの会社にも 2
終わりに 2
良さそうな 2
華 2
キャンペーン 2
社につき 2
何より 2
結構いる 2
日中 2
張り 2
抽 2
ではないのですが 2
近いうちに 2
▁高田さんのお話 2
がございまして 2
していただけない 2
精神 2
▁今後の 2
高田さんの 2
申し上げた通り 2
もありません 2
▁それでは失礼します 2
▁友井部長 2
今ちょっと 2
社員向けに 2
人事担当者 2
スケ 2
ベンチャー企業 2
関連会社の 2
会社として 2
医 2
▁いいと思うよ 2
参加できる 2
方がいいね 2
させたいと思います 2
武 2
仕事ぶり 2
▁どうだった 2
臓 2
▁検査 2
気を付けた 2
方がいいかもしれない 2
▁40 2
を送るように 2
仕事に 2
追 2
▁同感 2
健康診断 2
万が一 2
▁実施 2
ビルディングの 2
項目については 2
人数は 2
▁費用は 2
想定より 2
計 2
が多かったので 2
金額は 2
方から 2
ってきたので 2
内線 2
お名前を 2
頂戴してよろしいでしょうか 2
がないように 2
内容については 2
カリ 2
遅延 2
今期の業績 2
られること 2
減 2
ではございません 2
新システムの導入 2
号 2
▁そうはいっても 2
下方修正するんでしょ 2
▁業績予想を修正 2
▁先程も 2
事業展開 2
して参りたい 2
のご期待に添 2
会を始めます 2
遅延について 2
▁本件 2
ご説明いたします 2
お詫び申し上げます 2
検収及び売上計上が来期に遅延 2
売上計上 2
する予定でした 2
カスタマイズの要望 2
▁当社としては 2
案件として 2
を優先させて 2
倒し 2
▁本決算の期末まで一ヶ月を切 2
がずれ込むのは 2
見込みが甘い 2
価に与える影響 2
粘 2
はどうしても 2
避けたい 2
▁今期 2
社広報 2
させていただきたい 2
▁はいはい 2
する可能性 2
が出てきました 2
機関決裁 2
その場合は 2
を作成しまして 2
を求 2
が来期にずれ込む 2
上場 2
が大き 2
いですしね 2
が大きい 2
通りです 2
が出てきた 2
なんですって 2
したいというご意向 2
▁状況 2
にはい 2
おこう 2
▁今期の売上 2
に与える影響 2
売上計上がずれ込む 2
売上が来期にずれ込む 2
案は 2
状況が 2
水口くん 2
進めている大型案件 2
かったので 2
可能性がある 2
することになっている 2
案件を 2
みようと思っています 2
セッティング 2
があるし 2
通り進めて 2
とってくれる 2
卓上カレンダー 2
壁掛けカレンダー 2
▁それは知りませんでした 2
いいアイディア 2
ルールも 2
▁消 2
程度で 2
間に合わせ 2
進めていきます 2
渡辺さん 2
があってお電話したのですが 2
今お時間よろしいですか 2
特集記事 2
新規上場した 2
インタビューを 2
方向で 2
▁まだまだ 2
感じですか 2
を想定しています 2
になるのですか 2
▁是非お願いします 2
▁そう言ってくれる 2
契約している 2
を作成して 2
主導 2
できない場合 2
頂きたいのですが 2
候補日を 2
頂けると助かります 2
どれくらいの時間がかかりますか 2
日午前 2
備品 2
サイド 2
総務部に 2
書の 2
されていますので 2
ダウンロード 2
があればご連絡ください 2
開店 2
教えてほしい 2
時から午後 2
いたいんですが 2
に行ったら 2
▁行く 2
▁もちろんでございます 2
しますので少々お待ちください 2
クレジット 2
に記載されている 2
カード番号は 2
セキュリティー 2
お願いしていた 2
とのミーティングがあって 2
できるかい 2
したいことがあるんですが 2
▁充電 2
▁保証は 2
きますが 2
▁他に何かご不明な点は 2
あるんですが 2
製品に 2
していただければ 2
こともできる 2
子供向け 2
のものが 2
懸命 2
だってこと 2
店舗での 2
伊藤様 2
伝えておき 2
いかが 2
赤ワイン 2
楽しみください 2
頂けます 2
ご希望でしたら 2
搭乗 2
宜しくお願い致します 2
宜しく 2
預かり 2
できたので 2
明日お休み 2
▁急 2
って言うから 2
▁市 2
に連れて行ってあげ 2
▁ニュージャージー 2
ひょっと 2
▁二人とも 2
▁タイラー 2
▁私も一緒に 2
狭 2
ことなかった 2
お時間いいですか 2
お魚 2
流行ってるみたい 2
だけれど 2
▁カリフォルニア 2
だって言ってた 2
ステーキハウス 2
▁私のほうで 2
へのご参加ありがとうございます 2
れましたか 2
についてお話させていただきます 2
うちの部署で 2
その話 2
さんと高 2
存じ 2
開発中 2
▁こう 2
だけですか 2
▁ちょっと急ぎ 2
社さんのほうから 2
なら出来ますよ 2
567 2
間に合 2
▁具体的に言うと 2
▁PDF 2
Word 2
まれている 2
▁このソフト 2
ターで 2
入ってる 2
出来るから 2
▁そうだよね 2
▁ありがと 2
▁細かいことは 2
に力 2
あったよね 2
▁いいんじゃない 2
いなくなる 2
のはちょっと 2
寂しい 2
するし 2
過ごし 2
ビジネスマナー 2
儀 2
なんだろ 2
▁そんなもんか 2
▁今じゃ 2
れますよね 2
っていたところなんです 2
ってました 2
に行ける 2
▁お手数おかけしてすいません 2
したようですよ 2
▁そのせいで 2
私もそう思 2
使っていた 2
なかなか良い 2
素晴 2
を見たことがあります 2
っていますよね 2
翌 2
試し 2
合っているか 2
そうしよう 2
などについて 2
▁企業 2
もありますから 2
▁話を 2
と思うか 2
始めてください 2
為になりました 2
衣 2
ということでしょうか 2
埃 2
来ないように 2
になるんでしょうか 2
に値段 2
▁この件については 2
見落としている 2
これからは 2
もらうことになります 2
これまでの 2
たちには 2
お時間よろしいですか 2
請求書について 2
▁何か問題がありました 2
発注書番号が 2
いたんです 2
▁うっかり 2
していただくのが良い 2
早く処理 2
ちょっとお待ちください 2
新しい経理 2
システムを導入すること 2
そうすると 2
することが出来 2
▁また新しい 2
▁何にも 2
▁眼鏡 2
リーディンググラス 2
小さい字 2
ちに 2
自分のデスク 2
会議室の 2
▁トイレ 2
コーヒー取り 2
お久しぶりです 2
スケジュールや 2
詳細の 2
なら時間がありますよ 2
水曜日はどうでしょう 2
時にお伺いします 2
で見て 2
マーケティング戦略 2
月後半 2
珍 2
はもうちょっと 2
時差ボケ 2
国内 2
▁ほんとに 2
休みを 2
に繋が 2
確認したい 2
間に合い 2
無料ワイファイ 2
▁山本 2
部屋の後ろ 2
▁スピーカー 2
用の資料 2
おきました 2
席について 2
について確認します 2
中山 2
分のお弁当 2
を頼んで 2
▁一緒にお 2
懇 2
かどうか見てみます 2
せっかく 2
出来ている 2
ご苦労様でした 2
▁木村さん 2
用のプレゼン 2
こちらです 2
グループからは 2
グループから 2
松田さん 2
顧客サービス 2
重視 2
かも知れないですが 2
多いですからね 2
このページの 2
フォントサイズ 2
珠璃愛 2
替わ 2
環境改善 2
幹 2
セクハラ 2
じゃないのよ 2
社内研修の 2
ヶ月くらい 2
打ち 2
ボーリング 2
あの人 2
っぽ 2
f 2
or 2
m 2
ce 2
p 2
▁先ずは 2
アンケート結果 2
と感じている 2
できる様になります 2
に入力します 2
セクション 2
を選択します 2
既存研修 2
ああ 2
項目別に 2
新規研修提案 2
に行きます 2
を選択して 2
枠 2
▁研修で 2
を加 2
どのくらいかかりますか 2
外部委託 2
がいいですよね 2
と表示 2
お伝えしましたが 2
津村 2
までご連絡ください 2
明け 2
中間研修プログラム 2
を行っております 2
診断 2
参考 2
年前後の社員に 2
といったところです 2
既存 2
育成 2
に伴い 2
研修では 2
研修管理システム 2
申請方法 2
事業企画部 2
但馬 2
という事は 2
わけです 2
める事 2
管理システムの 2
▁ご質問 2
を確認しましょう 2
離職率 2
ではないでしょう 2
▁いずれにしても 2
りますよね 2
▁さて皆さん 2
▁研修期間 2
配属予定部署の 2
するといいですね 2
▁その場合 2
が減ると思います 2
人事で 2
されてますよ 2
すぎるのは 2
事が出来る 2
欲しいとか 2
出来る様に 2
まで上が 2
部で 2
したんですよ 2
その子 2
本人に 2
お願いしたら 2
見てきました 2
に行くと 2
乱 2
トレーニング担当 2
に反映します 2
ページをご覧ください 2
ごとの 2
▁歓迎会は 2
ご提案はありますか 2
なきゃならない 2
▁必要に応じて 2
どう違うんですか 2
ビュッフェ 2
交流を促す 2
がいいんじゃないですか 2
▁対 2
ではないです 2
マクマランさん 2
気に入られ 2
▁管理職 2
定例 2
では足りない 2
▁佐伯部長 2
7.5 2
事になりますね 2
計算して 2
っているのでしょうか 2
▁ウチ 2
朝から 2
▁あり 2
になりますし 2
束 2
状況について 2
高橋 2
纏め 2
状況によっては 2
以内 2
宜 2
対応してください 2
発言 2
▁高橋さん 2
▁あのね 2
▁CX 2
すん 2
じゃないですよ 2
▁この会社 2
とは言 2
稟議書 2
言わせていただくと 2
方法は 2
識 2
が減 2
競争力 2
社の製品 2
揺 2
▁お前 2
飾り 2
我社 2
でよ 2
可能な限り 2
徴 2
づ 2
次回のワークショップ 2
このサンプル 2
を見ていきましょう 2
集めてる 2
大石さん 2
ャー 2
女性の 2
誌 2
申し上げましたが 2
勉強家 2
縁 2
語学学校 2
通ってるんだ 2
になりそうですね 2
安心してください 2
▁あーっ 2
源 2
創 2
▁では皆さん 2
のある方は 2
いつでも挙手してください 2
かったんだけど 2
言いますと 2
ッピング 2
我 2
商品やサービス 2
ご理解 2
いただけると思います 2
顧客層 2
グルー 2
ピング 2
するでしょう 2
まいち 2
技術職の 2
考えてください 2
暖か 2
DVD 2
店に 2
▁先程 2
しやすくなる 2
できないですね 2
勉強会にご参加 2
をご紹介いたします 2
させていただくの 2
取れませんでした 2
川井部長 2
どうぞよろしくお願いいたします 2
▁このワークショップ 2
申し上げました通り 2
属 2
携 2
...... 2
生産性や 2
がか 2
して欲しいです 2
足がかり 2
学びたい 2
パイ 2
がある方いらっしゃいますか 2
▁いらっしゃらない 2
よう努力 2
してまいります 2
いただいております 2
ワークショップ 2
と呼 2
遅れる旨 2
▁どうぞお入りください 2
再開 2
私共 2
企画課は旧広告宣伝課 2
設置されました 2
目線 2
のマーケティング戦略 2
を達成 2
海外出張 2
送っています 2
梨 2
代理 2
後のフォロー 2
営業部から 2
との兼ね合い 2
.... 2
室長 2
達との 2
召し上が 2
が苦手 2
塩 2
▁氏家さん 2
割烹 2
を伝えておけば 2
対応も 2
お肉 2
召し上がり 2
たければ 2
いているので 2
いき 2
しておいてね 2
病気の 2
デパート 2
どうな 2
▁それでですね 2
そっか 2
▁どっちにしろ 2
▁木曜に 2
▁木曜日は 2
しておきましょうか 2
悪いね 2
名古屋 2
の件ですが 2
間島 2
がほとんど 2
お互いの 2
人達 2
になれば 2
僕には 2
人事からの 2
社員全員に公共交通機関 2
バイ 2
車両 2
以外で通勤 2
あのー 2
▁社内掲示板 2
理 2
英語の 2
▁勤務時間外の 2
ブライアン 2
わけでもないし 2
勤務時間外 2
▁ブライアン 2
なきゃいけない 2
路 2
換 2
通勤中の事故 2
かもしれないが 2
人事から 2
▁おいおい 2
▁でも部長 2
があるといいよね 2
▁今日のところは 2
こっちの 2
▁個 2
通知を 2
レッ 2
パンク 2
疲れる 2
コツ 2
甘 2
佐々さんは 2
知財 2
そうだったし 2
かもって 2
言わない 2
頃から 2
に来 2
人事トレーナー 2
ようお願い 2
風になりたい 2
変える 2
津村課長 2
息 2
へん 2
ペーパーレス化 2
▁怒 2
を再確認 2
無断自転車通勤 2
入ってるよね 2
ったかな 2
しょ 2
入れた 2
裁 2
わないと 2
外国人社員を 2
しているのは 2
皆さんも 2
の通りです 2
ホン 2
反 2
▁自転車通勤 2
▁その際 2
詳細を確認 2
▁犀 2
模 2
ミーティングとか 2
工場の 2
はいっ 2
マジ 2
学んでください 2
▁はー 2
してもらっています 2
多いです 2
都市部の 2
でのアクセス 2
以外は 2
交通 2
▁都市 2
たんだよね 2
▁伸び悩んでいるのは 2
思い当たる 2
きても 2
おか 2
▁今までのお 2
ないし 2
▁消費 2
層が 2
っちの方が 2
難しいよね 2
はあると思います 2
集計を出して 2
を拠点 2
社の社長が 2
人の小さな 2
立ち上げて 2
かなり上手く 2
っていうより 2
潰れないよ 2
経営者 2
▁心強いです 2
社の山本 2
についてお伺い 2
▁労働 2
災害 2
どうしてですか 2
▁お調べいたしますので 2
してしまいました 2
送られた 2
っていましたので 2
見ます 2
できているようです 2
も増えました 2
確認しないと 2
申し上げられない 2
▁できればそう 2
らせて頂きます 2
家の 2
したことを 2
片付ける 2
個々に 2
▁菅原さんも 2
いなし 2
ザー 2
いですもんね 2
働いていた 2
でもどうですか 2
のサンドイッチ 2
▁売っている 2
頂けないでしょうか 2
性能 2
▁まず第一に 2
を掲げ 2
今までの 2
支店に 2
▁今年度も 2
ペットを連れて 2
の事か 2
前も 2
社長は 2
虫 2
カーペット 2
の匂 2
くだ 2
佐々木さんの 2
きたいです 2
吠える 2
ケージの中 2
ドアを 2
締め 2
ペットの 2
クリーニング 2
噛 2
という事で 2
本社から 2
▁説明 2
電車と 2
バスの 2
をしなくちゃ 2
降り 2
迎え 2
ちょっと大変だった 2
されましたよね 2
その期間は 2
教えて欲しい 2
聞こえない 2
ホリデー 2
聞こえた 2
トー 2
抜 2
挑戦 2
でよければ 2
あげようか 2
▁マイクさん 2
チョコレート 2
を配 2
▁いっそのこと 2
バレンタイン 2
▁今年は少し 2
社内の女子 2
してほしいのですが 2
祖 2
厄介 2
してくださいよ 2
メールを送信 2
も確認 2
以前に 2
▁こちらです 2
購入する 2
より安 2
くなっています 2
一つだけ 2
-2 2
気をつけてね 2
▁それは困った 2
▁トラック 2
で見てもらう 2
▁それならば 2
▁リサさん 2
できるだけ早めに 2
告 2
▁でも今 2
政府 2
閉鎖 2
伝票入力 2
が入力 2
くれると助かる 2
持ってくるの 2
パソコンの画面の 2
慣れるまでに 2
よかったら 2
確認してから 2
作業して 2
▁何かあったの 2
残っていても 2
んなに 2
促進 2
パット 2
のコ 2
で作 2
はどういった 2
アニ 2
してくれないか 2
▁イ 2
るように頼んで 2
見積もりをもらう 2
するんじゃないですか 2
コンピューターグラフィック 2
選手 2
を下 2
はどこにしますか 2
広い 2
慰労会の 2
コンベンション 2
について報告 2
ということも 2
関東地区 2
北海道 2
さんにお 2
150 2
準備を進めて 2
いきます 2
なっている 2
予定ですが 2
のないように準備 2
▁慰労会の 2
前日 2
観光へお連れ 2
に間に合うように 2
確認しておきます 2
さんお願いします 2
▁会 2
がいるので 2
▁タブレット 2
台ぐらい 2
化粧 2
洋 2
喜び 2
このコーヒー 2
もあるけど 2
安いけど 2
砂糖 2
も味 2
オーガニック 2
ものなんだ 2
▁うちの父 2
採 2
めで 2
るって言ってた 2
分ぐらい 2
大型スーパー 2
やすいですよね 2
▁同感です 2
▁お誘い 2
ニス 2
主任 2
新入社員の方々 2
運ばれて 2
がある方はいらっしゃいますか 2
時に予定 2
届いていますか 2
朝一番で 2
正面 2
しないの 2
願い 2
日前からしか申請できない 2
休みは 2
短すぎるかな 2
▁私なんて 2
▁おっと 2
▁父は 2
▁通 2
いただけるとありがたいです 2
▁ではこちらで 2
しておきますので 2
ご確認ください 2
却 2
解約防止チーム 2
がつく 2
解約 2
止めることです 2
勧めします 2
チームを 2
は決 2
来ていただく 2
お疲れ様です 2
に関しては問題ないです 2
ほしいですね 2
ら連絡 2
だと思っていた 2
話すようになって 2
いくつですか 2
年生です 2
の対応があまり良くなく 2
決定しました 2
▁いつ頃から 2
そのスケジュール 2
調整します 2
▁田中ですね 2
株式会社の 2
時以降か 2
社に変更 2
話し合いたい 2
社のメリット 2
が出来上が 2
デメリット 2
何度 2
確 2
良さそう 2
できそうですか 2
こちらこそありがとうございました 2
全て順調です 2
連絡させていただきました 2
復 2
頂いた商品の 2
請求書を 2
させていただきますので 2
▁本日はお越し 2
工場と 2
日をお 2
いつもお世話になってます 2
▁遅くなりまして 2
へどうぞ 2
少し遅れて 2
▁それは大変ですね 2
▁来週の水曜日 2
らしいですよ 2
してもらえれば 2
鈴木と申します 2
お願いしていた見積もり 2
ってまして 2
早めに予約 2
取り掛かります 2
うまくいき 2
忙しくなり 2
にお手伝いできる 2
価格について 2
ほうがいいですか 2
ライセンスと 2
申しあげます 2
できましたよ 2
▁環境 2
取り急ぎ 2
ファイル入れ替え 2
を止めて 2
▁再 2
起動 2
ログ 2
入れ替え 2
してもらっていい 2
おつかれさまです 2
っちは 2
すみませんが 2
寒 2
寒いね 2
を見ていたら 2
▁ダイヤモンド 2
見られる 2
きれ 2
見たことあるよ 2
ダイヤモンド 2
ダスト 2
ナス 2
晴 2
境 2
なんですけれど 2
旅行社の佐藤さんに 2
ってましたよね 2
回数を増や 2
別にいい 2
夜の 2
してしまって 2
だいたいの旅費 2
▁中田さん 2
かなくちゃ 2
▁それ以外は 2
各社 2
いただいていいですか 2
集計 2
▁航空券は 2
部屋ですね 2
ることになる 2
早かったね 2
▁それはいいね 2
第一 2
メールの 2
みてくれる 2
▁まあね 2
をお願いしてもよろしいですか 2
チェックするよ 2
▁夜の 2
会社ですね 2
第一システム事業部です 2
部の高田です 2
を導入する 2
▁見積 2
パターン 2
でき次第 2
っているのです 2
お使いにな 2
67 2
▁ではよろしくお願いいたします 2
淹 2
▁コナ 2
に行ってきたの 2
咲 2
見ました 2
▁思い 2
新婚旅行 2
の資料を作って 2
都道府県 2
▁営業部は 2
ってことですね 2
そうしましょうか 2
のはず 2
問い合わせが来た 2
▁価格も知りたい 2
慎重 2
要件 2
教えてね 2
してみるから 2
社の吉田と申します 2
の機能 2
確認したいことがあるのですが 2
▁紙 2
エス 2
アットマーク 2
▁アット 2
マーク 2
ジェイピー 2
▁復 2
お問い合わせでしょうか 2
宇 2
清算 2
▁帰りの 2
円ですね 2
届いている 2
かどうかの確認 2
枚ですね 2
見えますか 2
部分がちょっと 2
薄い 2
お送りいただいた 2
いたしますが 2
▁青 2
してほしいんだ 2
可能性も 2
あるよね 2
この分野 2
絞り込んで 2
ホテルに 2
▁本当だね 2
ルト 2
▁すぐにお持ち 2
しても宜しいでしょうか 2
ご用意しています 2
フリー 2
時もあります 2
▁そういう事 2
されているんですか 2
に行きませんか 2
岸 2
ほとんど毎日 2
顔を 2
ものですよ 2
だったんですけど 2
るといいのですが 2
▁それは大丈夫です 2
疲れさまでした 2
ご存知ですよね 2
が来ていました 2
避ける 2
プレッ 2
ることがあります 2
▁そうなんですが 2
が来ています 2
▁私のほうから 2
から言って 2
にありますからね 2
▁明 2
美さん 2
産休について 2
いないよね 2
っていつも 2
休んで 2
しているの 2
話した 2
▁教えて 2
▁そうして 2
そうして 2
るのを 2
だと思うけど 2
▁赤ちゃん 2
― 2
に移りたい 2
急激 2
故障 2
料金と 2
と提案 2
▁修理 2
させてもらう 2
うちのオフィス 2
話し合いましょう 2
▁オフィスに 2
忘れ物 2
▁そうなんだけど 2
会うことになって 2
しかけ 2
なくてさ 2
▁何だったの 2
せた 2
頓 2
の回 2
ってことか 2
そうかもね 2
くらいがいい 2
普段 2
こんなこと 2
▁もう一回 2
▁ほんとだ 2
▁そういや 2
どこにも 2
おかげさまで 2
▁だろ 2
変わって 2
さに 2
会社にとっては 2
だろうから 2
分が 2
▁ほんとだな 2
例の 2
▁中村さんは 2
ことがなかったので 2
▁マネージャーに 2
グループと 2
▁しっかり 2
してあるので 2
お話できますか 2
について問い合わせ 2
始まり 2
▁ヨーロッパ 2
時くらいがいい 2
～ 2
すぎますよ 2
のお客さんは 2
まっているので 2
だとは思 2
▁そうだと思いますが 2
問い合わせがある 2
▁企画 2
年齢層 2
▁そこが 2
そうなんですが 2
社さんですか 2
▁実は今日は 2
ご相談がありまして 2
▁弊社のほうで 2
検討している 2
一年前 2
以前使っていた 2
られないな 2
ダウン 2
▁全社 2
余計 2
▁うまく行く 2
▁ニ 2
人事評価 2
年度の目標 2
▁締め切り 2
いつだったっけ 2
だったと思う 2
一週間しかない 2
思いついて 2
機会がなかった 2
捕 2
したほうがいいよ 2
たて 2
遅れないように 2
と思っていても 2
それはいいね 2
について学ぶ 2
はちゃんと 2
そういうことで 2
▁向こうの 2
日中に 2
までに間に合う 2
発給 2
してもらわないといけない 2
しておいて欲しい 2
大丈夫なんじゃない 2
▁店のスタッフ 2
▁急に 2
やること 2
聞いてみようかな 2
その時 2
聞いてみるわ 2
ほんと 2
揃ってます 2
全社共通 2
データベースは 2
情報シェア 2
データベースには 2
聞いてきました 2
▁各部署で 2
やマーケティング 2
▁企業名 2
何をやっている 2
の下に 2
小売 2
したときに 2
と打ち合わせ 2
▁西 2
られないから 2
息子を迎えに行 2
するのを待 2
帰ってください 2
代わりますよ 2
融通が利きますから 2
急なお願い 2
▁ご心配なさらずに 2
▁また明日 2
ルさん 2
駅まで歩いて 2
道は 2
したいけど 2
▁そうかー 2
になるね 2
みたいよね 2
フィート 2
ようだったら 2
▁天気予報 2
▁そんな感じ 2
こちらまで 2
を見ていただく 2
のが一番 2
実際に見て 2
いただきたかった 2
研究室は 2
わけじゃないですから 2
全体が 2
新しいもの 2
でも同じような 2
施設が 2
誇り 2
誇りを持っています 2
▁コミュニケーション 2
してますから 2
囚 2
に時間がかかって 2
いらっしゃるんですよね 2
を抱えて 2
▁お待ち 2
踏み込んで 2
が始まりますね 2
かかりましたが 2
甲斐がありました 2
メラ 2
よかったですよね 2
を借りる 2
会場に電話して 2
という希望はありますか 2
▁僕は個人的に 2
と思ったけど 2
はいつもの 2
いただいてるので 2
▁ゆっくり 2
してきてください 2
▁いない 2
中山君 2
経理部のほうから 2
▁武 2
▁お願いするよ 2
▁武藤さん 2
らないようにしてください 2
私が戻って 2
それについては 2
言っておいて 2
君も 2
▁言 2
休んでください 2
でしょうし 2
▁バイリンガル 2
英語版と日本語版 2
あるなら 2
くなっちゃうから 2
しないとだめ 2
▁パワーポイント 2
後でそれ 2
▁どのくらいの 2
こないだ訳した 2
送っておいて 2
するんだっけ 2
社内の承認 2
と感じました 2
次の議題 2
に移りましょうか 2
事項はありますか 2
は以上です 2
させてもらった 2
合いはいい 2
▁情報をたくさん 2
分かるけど 2
世代 2
する必要があるね 2
▁カタログ 2
減ってもいい 2
ほうがいいかな 2
飛び 2
ここにいるんだから 2
▁そうかもね 2
▁ディ 2
とはとても思えない 2
良さそうだ 2
▁ご用件はなんでしょうか 2
社の竹 2
洗濯 2
▁高齢者 2
柄 2
御社のような 2
になりたい 2
弊社専用ランドリーバッグ 2
洗濯物を 2
ないよう 2
▁興味深いですね 2
をおつなぎ 2
ミーティングの予約 2
を承 2
▁今週の水曜日 2
▁水曜日に 2
▁各階責任者の 2
防災リュック 2
▁配布 2
の際には 2
かチェック 2
▁リュック 2
についての質問 2
織 2
▁今日出勤 2
するようにしてください 2
ところですが 2
今週末までには 2
▁火災 2
今週末までに 2
経路 2
▁まだ受け取 2
防 2
ができますよね 2
を終 2
の倉庫 2
このプロジェクトに 2
に取り組んでいる 2
アプリの開発 2
▁皆さんの 2
に対応している 2
豊富 2
バリエーション 2
があっても 2
したいんだ 2
▁それぞれの 2
良いと思う 2
つに 2
▁幸 2
義 2
意見を聞きたい 2
▁私もこれは 2
▁グラフィック 2
してくれるよう 2
素材 2
良いと思います 2
月です 2
レース 2
沿 2
▁ボランティア 2
▁そのようですね 2
書類をシュレッダー 2
▁時間がある 2
手伝ってもらえませんか 2
がた 2
リラックスでき 2
なかったな 2
はあるんですか 2
毎年恒例の 2
る予定だよ 2
▁良いお年を 2
用のお弁当 2
を提供してくれる 2
探してもらう 2
▁何人 2
▁他にもご用件はございますか 2
▁ご協力ありがとうございます 2
永 2
はじめまして 2
画面の 2
小島さんの 2
詳しく説明 2
▁ありません 2
私と一緒に 2
はありましたが 2
解決しました 2
避けられません 2
▁ソフトウェア 2
ことを願っています 2
ないといけないですから 2
将来的に 2
そうですけどね 2
ありましたら 2
▁御社と 2
いただいていますが 2
監査を 2
効率よく 2
▁前回の 2
ことになって 2
購入したもの 2
も必要ですよね 2
から大丈夫です 2
よろしくお願いしますね 2
▁お任せください 2
したいと思いまして 2
いただき光栄です 2
デザインになっています 2
ニーズに合った 2
目が 2
ベンチャー 2
もありますしね 2
今すぐに 2
いてもよろしいですか 2
▁次の打ち合わせ 2
中川 2
一年は 2
本当に忙しかった 2
に恵まれて 2
ご説明にあがりました 2
んでしたよね 2
タイムカードは 2
正規 2
寄せられています 2
早めにお願いします 2
▁何かあれば 2
きてください 2
ンの紅葉ツアー 2
会議が 2
までなら 2
▁今シーズ 2
オファーした 2
▁ツアー 2
三週間 2
必要になる 2
ぎりぎりにキャンセル 2
しなきゃいけない 2
を増やすのは 2
だけは 2
あそこは 2
冷 2
▁ボ 2
が悪くなって 2
に電話します 2
▁そうしてくれると 2
本と申します 2
ファイ 2
はずですよね 2
調べてみます 2
見てみますね 2
システム上では 2
請求書が発行 2
されていなかった 2
c 2
h 2
日に間に合う 2
▁こちらのミス 2
受け入れ 2
口座を開ける 2
決めてもいい 2
いただけるように 2
英 2
詳しいことは 2
チャ 2
支援が必要 2
迎える 2
さまはいらっしゃいますか 2
▁今お時間よろしいでしょうか 2
見ていただけ 2
金曜の 2
時なら 2
時間が空いていますので 2
階にあります 2
論 2
では金曜日に 2
合ってよかったです 2
本当にありがとうございました 2
▁遅 2
ことは全て 2
なさそうだ 2
承認される 2
ですけどね 2
人はいないから 2
与 2
忘れないように 2
▁野 2
サンフランシスコ 2
▁そう思った 2
聞いてみました 2
自動計算 2
さえあれば 2
ないんだよな 2
払い戻 2
試してみます 2
漏れ 2
▁お手数ですが 2
まとめる 2
会議室に 2
見たことがない 2
スプレッド 2
▁何ですか 2
▁聞いたことないな 2
懐 2
にはあまり 2
恋 2
社員と 2
いえ 2
毛 2
症 2
れず 2
マッサージ 2
なくちゃ 2
DB 2
技 2
フィールドに 2
et 2
al 2
ないといけないんだよね 2
シリーズファイル 2
l 2
をしましょうか 2
▁当社の各 2
ご遠慮なく 2
個数ベース 2
商品カテゴリー 2
選択できます 2
することはできますか 2
こともできます 2
することもできます 2
ができるよう 2
便利ですね 2
ベースのデータベース 2
▁デローニーさん 2
いらっしゃいました 2
▁ご存知のように 2
有名ですよね 2
をご存知ですか 2
ブランドは 2
良く知っています 2
スーパーなど 2
大衆 2
百貨店 2
大衆ブランド 2
分かれています 2
社などは 2
しているかと思います 2
腐 2
も必要かと思います 2
なければなりませんね 2
を出しました 2
ベル 2
聞き取り 2
に行ってきました 2
▁仕入れ 2
ないと言われました 2
の手 2
ノッティンガム州の 2
マンスフィールド 2
になりましたよ 2
▁大丈夫ですか 2
会い 2
館 2
自動車 2
シャー 2
レス 2
行きましょう 2
英会話スクール 2
英会話クラス 2
と考えているのですが 2
スクールでは 2
をお考えでしょうか 2
ビジネス会話 2
頻 2
という感じです 2
講師の 2
▁ネイティブ 2
文法 2
▁その点は大丈夫だと思います 2
したいと思っている 2
お越しください 2
ベテラン 2
教えていただけますか 2
月曜に 2
▁パソコンの 2
に立 2
パソコンのそば 2
スクリーンの 2
にも行って 2
うーん 2
につっこまれて 2
恐れ 2
▁落ち着いて 2
ピンク 2
に載っている 2
▁というと 2
▁たとえば 2
リネ 2
いたことはありますか 2
▁日本食 2
たくなる 2
あまりいない 2
スポ 2
があるでしょう 2
▁そうですが 2
もしろ 2
にものすごく 2
雛 2
他の人も 2
貴 2
やってみてください 2
オニオン 2
ないこと 2
査 2
テキ 2
いいんだよ 2
絶 2
に足 2
脳 2
おたずねください 2
ともに 2
前年同期比 2
▁この背景には 2
能 2
貢献した 2
▁ご覧のように 2
炭 2
伸び率 2
伸ば 2
販促 2
していないと 2
薄 2
▁おもしろいね 2
▁他に何かご質問 2
はございますか 2
ストック 2
まったくの 2
▁やってみますが 2
、90 2
たいのですが 2
大丈夫でしょうか 2
それと 2
聞いてないけど 2
お待ちいただけますか 2
あるので 2
日はいつですか 2
児 2
を始めたいと思います 2
ないといけ 2
を決めましょう 2
忘年会の 2
に行く予定です 2
カリフォルニア州 2
行け 2
クリスマスパーティー 2
いいかもしれないね 2
円くらい 2
インターネットで 2
ビンゴはその後に 2
はいくらくらい 2
にしようと思っています 2
▁他には何か 2
オーダーした 2
ご利用 2
▁お調べ 2
注文番号 2
させていただきたいと思います 2
して申し訳ありません 2
▁今後とも 2
そも 2
▁そう言って 2
るのは嬉しい 2
つもりだよ 2
▁部 2
トレーディングの斉藤 2
▁ご協力 2
いただけるとありがたいのですが 2
パーセントくらい 2
の方で 2
していただけるのであれば 2
食品の高坂 2
少々お待ち下さい 2
右側 2
のニーズ 2
アクティブ 2
と思っているんですが 2
ーツ 2
如 2
テストを開始 2
▁相変わらず 2
▁今月中に 2
した方がいいね 2
教えてもらってもいいですか 2
▁今年の忘年会 2
いいですけど 2
探してきた 2
今年も水木 2
水木さん 2
そんなに忙しい 2
こういうの得意な人 2
に住んでいる 2
楽しそう 2
そうな気がします 2
ところに来て 2
今年の忘年会の 2
メールしてください 2
折り返しご連絡 2
西田さん 2
おくけど 2
今終わっているところまで 2
四半期よりも 2
も販売 2
売上が 2
売上が伸びる 2
▁ネイル 2
いただけるのを楽しみにしています 2
忘れる前に 2
会議のために 2
マーケティングチーム 2
▁その時に 2
売上レポート 2
▁お互いの 2
ほうがいいですよね 2
では後ほど 2
日本で 2
大きな額ですね 2
銀行の 2
しやす 2
新しい工場 2
拝見させて 2
工場では 2
どうするのですか 2
る予定の 2
話し合う必要がありそうです 2
をさせていただき 2
▁また連絡します 2
▁こちらこそありがとうございます 2
▁吉田さん 2
お話しさせて 2
ご連絡を差し上げ 2
喜んでもら 2
と飲み 2
カードを取りに来 2
らいつでも 2
みようと思います 2
はただ 2
大谷さま 2
を確認したいのですが 2
いただけるよう 2
数日 2
くなり 2
▁そちらもよい一日を 2
元気です 2
▁何時 2
時ごろには 2
▁でしょ 2
にしたので 2
ファイルを見て 2
セール 2
が多かったです 2
▁何人か 2
今日はこの 2
話しましょう 2
▁先週末 2
必要ですね 2
連絡してください 2
に取り組んで 2
とても助かります 2
はいらっしゃ 2
ご自身 2
▁経費削減 2
での取り組みについて 2
▁積み 2
しますよね 2
ような気が 2
ないと思いますよ 2
すべきですよね 2
ペー 2
日後の同じ時間に 2
▁よろしいでしょうか 2
ベビーシャワー 2
▁いつですか 2
をお願いしたいです 2
▁面白そうですね 2
ケーキ 2
を作ってくれた 2
を渡 2
買えばいいと思います 2
飾り付け 2
はどうしますか 2
のみんなに 2
を出しますね 2
▁完璧 2
▁営業部の 2
65 2
ができればいい 2
確認の 2
加藤さん 2
青木です 2
提出してくださいね 2
何かご質問はありますか 2
を見てみましょう 2
を増やしている 2
があるのですか 2
データですが 2
ということですかね 2
折り返し 2
に応募 2
役職について 2
役職の 2
誤 2
機会があれば 2
してお話を 2
したとき 2
れますね 2
特にないです 2
▁ではこれから 2
▁再度 2
オンラインショップ 2
カスタマーサービスセンター 2
が届 2
中身 2
にお客様 2
▁大変お待たせ 2
、8500 2
いただければと思います 2
メールアカウント 2
講師の求人 2
▁28 2
ビザ 2
▁妻 2
有効 2
▁来週の火曜日 2
ランチをご 2
行けますよ 2
▁ないです 2
行きましょうか 2
▁近い 2
いらっしゃいますよね 2
無沙汰 2
オンライン講座 2
タブをクリック 2
ペース 2
繰り返し 2
する予定になっています 2
お会いできてよかったです 2
▁何か質問があれば 2
時間がかかってる 2
▁そろそろ新しい 2
▁それがいいと思います 2
会議を終わります 2
薄い灰色になって 2
インクジェット 2
してみていただけますか 2
を選ば 2
確認してみます 2
あっ 2
これですね 2
自分で作 2
栄養 2
うに 2
上手に作れる 2
新年の 2
パーティー用の 2
こんなに早く 2
できないから 2
材料はありますか 2
ピーナッツ 2
かしこまりました 2
ぐらいに 2
木曜日の 2
んですけれど 2
▁担当者 2
のご希望はありますか 2
時からで 2
問い合わせの 2
くと思います 2
シン 2
かもしれないから 2
表で 2
もらえるように 2
▁いったん 2
メールで送るね 2
を修正 2
スペルチェック 2
があるかもしれませんね 2
ちゃんとして 2
46 2
セントになります 2
あげられる 2
セットを 2
を超 2
でお願いいたします 2
貯 2
まると 2
と交換できます 2
▁レシート 2
させていただいた 2
詫び 2
▁いつもどおり 2
浦 2
サービスは 2
声をかけてください 2
目です 2
真剣に考え 2
メリ 2
フリーペーパー 2
にぴったり 2
毎週 2
時はいかがですか 2
時ですね 2
▁確かにそうだね 2
男子社員は 2
生ビール 2
あい 2
ではないでしょうか 2
時間がないので 2
▁ますます 2
紅 2
の予定ですか 2
するに 2
良かったですか 2
良かったですよ 2
▁台湾 2
浴 2
がなくて 2
▁タイ 2
くは 2
寄せ 2
ではよろしくお願いします 2
白雲国際空港 2
早め 2
成田 2
▁ちょっとお待ちください 2
方がいいので 2
JL 2
インでいいですか 2
書をメールで送 2
▁青木さん 2
折り返しご連絡します 2
良品 2
覚 2
気を付け 2
教えます 2
大切なんだ 2
にもちゃんと 2
工場で製造 2
になったんだよ 2
こい 2
なりますね 2
近いから 2
になりまして 2
になっております 2
▁サンプル 2
時はいかがでしょうか 2
リーグ 2
繋ぎいたしますので 2
すればよろしいですか 2
▁では後程 2
浜田が担当 2
をしたいので 2
口座変更 2
いてもよろしいでしょうか 2
返送 2
締 2
ご連絡ありがとうございました 2
▁じゃあ次は商品 2
、500 2
▁でもこの 2
▁じゃあその 2
ったらいいですか 2
好きなので 2
自転車置き場 2
防犯カメラを設置 2
意見のある方はいらっしゃいますか 2
防犯カメラの設置については 2
起きて 2
▁平田先生 2
▁これ以上 2
先生ありがとうございます 2
どうしましょうか 2
いらっしゃいましたら 2
に迎えに行く 2
▁次 2
終われる 2
▁岡田さん 2
▁今週末 2
をしてほしいんだ 2
のバックアップ当番の引継ぎ 2
をしたい 2
沢 2
当番の引継ぎ 2
があるそうです 2
になってしまって 2
作業手順書 2
ところを 2
確認してね 2
の確認で 2
▁サーバー 2
何か思いついたら 2
▁チェック 2
印鑑 2
見落として 2
▁来週の月曜日 2
スマートフォン 2
いよ 2
行ってください 2
建設の井口です 2
▁井口様 2
システムでエラー 2
が表示されています 2
が使えないと 2
▁今月の 2
そうしてもらえると 2
分後 2
システム更改 2
現行の 2
現行のシステムについて問題 2
していただきたいと思います 2
からシステムを見 2
スペック 2
▁動作が遅すぎて 2
のでそれで 2
する件 2
帳票のレイアウト 2
を入れ替えて 2
削除 2
をお見せしたいと思います 2
部内ミーティングで 2
親睦 2
するんだよ 2
プリザーブドフラワー 2
ースクール 2
に配 2
どういう風に 2
を挙げて 2
▁たかが 2
▁席 2
に戻ったら 2
▁頑張ります 2
展 2
各部署より 2
自己紹介をお願いします 2
および 2
佐 2
デモンストレーション 2
コミ 2
していただくことになります 2
この展示会 2
了 2
のではないか 2
佐伯社長の秘書 2
そうですし 2
のではないでしょうか 2
ソムリエに相談 2
を考えていますか 2
しいもので 2
を購入しました 2
だということ 2
の指示 2
SOW 2
▁サポート 2
日から来年の 2
と思っているのですが 2
を教えて頂けますか 2
買い替えはもう少し 2
リチウム固体電池 2
電池は 2
聞いたことがあるけど 2
固体 2
発火 2
容量 2
用化 2
が故障 2
が詰 2
シミュレーション 2
予想値 2
時と 2
してきている 2
通って 2
みたいですけど 2
▁それは何ですか 2
合わ 2
防水 2
加工 2
彼らの材料 2
コンピュータに戻 2
できないんだ 2
して見て 2
▁オフィス内で 2
のを覚えて 2
会社に依頼 2
という訳ではない 2
▁喜んでお手伝い 2
の使用 2
について説明したいと思います 2
きてくださいね 2
▁質問があれば 2
▁どうしたら 2
へ行ってください 2
皆さんは 2
タブ上で 2
起動してください 2
フォント 2
▁ケリー 2
は理解 2
テクニック 2
早かったですね 2
の挿入 2
のデータを 2
テーブルを作成 2
上の画像を挿入するには 2
画像の挿入 2
ウォーターマーク 2
信じられないよ 2
家に持って帰 2
ないといいんだけど 2
デスクの 2
オフィス全体の 2
見かけ 2
▁ほんとだよ 2
▁どうしたらいい 2
った後 2
探してる 2
君は命の恩人だよ 2
▁ウェ 2
なんの 2
社とうちの関係 2
欲しいんだ 2
それだよ 2
大丈夫だ 2
したことが 2
知れたら 2
関係は 2
製造元 2
していないから 2
をするんです 2
どのくらいの期間 2
製品を製造 2
気に入ってくれて 2
ントン 2
仕事をするために 2
で働いたことはありますか 2
ことがありますよ 2
ンク 2
ニューファンドランド 2
にも行きました 2
しいですね 2
うちの商品の 2
アメリカでは 2
担 2
犬の首輪 2
比べて 2
を売 2
では犬の首輪 2
に力を入れて 2
ためにここに 2
マーケティングの経験 2
名を頂けますか 2
社のルイスと申します 2
▁エレベーター 2
▁どうもありがとうございました 2
ブラウンさん 2
ジョーンズ 2
とはどのような 2
▁コーヒーか 2
ペットボトルの水 2
か何か 2
喉 2
新しいオフィス 2
教えてくれる 2
0.0 2
ことはある 2
が初めて 2
度も 2
時からだよ 2
防止 2
に違反している 2
いなかったんだ 2
メンテナンスをする前に 2
電源 2
必要があるんだ 2
キャロルさん 2
さんのアシスタント 2
について沢山 2
▁ロペスさんの 2
は予約しました 2
時にラスベガスに到着して 2
まで滞在予定です 2
いかがでしょう 2
▁土 2
▁j 2
company 2
とんでもない 2
についてどう思 2
しないからね 2
商品に満足 2
が気に入らない 2
だけなので 2
▁正直な 2
信頼関係を築く 2
かとか 2
するでしょ 2
に行ったり 2
関係を 2
る事は 2
とっても良い事 2
ケビンです 2
あなたのお仕事 2
を持っていると言う 2
ルー 2
が行きますので 2
を決めていただく 2
の事を 2
▁了解致しました 2
空手 2
問題ないはずです 2
らないでくださいね 2
とカレンダーの 2
を追加 2
することも可能です 2
えられる 2
ありませんから 2
営業チーム 2
カスタマイズされた 2
した場合 2
チーム全体 2
システム全体 2
を行っている 2
完 2
がおあり 2
があると聞いたのですが 2
している事も 2
▁けれども 2
のは確かです 2
クリエイティブ 2
事を約束します 2
をください 2
康 2
フォローアップ 2
お電話させていただきました 2
正しい判断 2
馴 2
んですがね 2
気になる事は 2
だったからね 2
お電話下さい 2
してくれて有難う 2
オーダー間違い 2
か月の間に何か 2
があったのですか 2
事が幾つかあります 2
して以来 2
▁フルタイム 2
発送しないと 2
▁発送の際には 2
に増 2
▁理解 2
▁どういう事ですか 2
すぐに破 2
れてしまうんです 2
があれば教えてください 2
▁最高 2
一生懸命 2
ましたからね 2
居なかった 2
たくなかった 2
▁気分 2
くれましたね 2
全て順調 2
になったんです 2
起こった 2
戻ってきて 2
▁ちょっと愚痴 2
を失う 2
ところだった 2
本当は 2
を頼む 2
パッケージが損傷 2
ではないよ 2
▁商品発送 2
品質チェック 2
▁どの商品の 2
商品です 2
認定販売 2
メールに送 2
私に任せて 2
問題には 2
商品を販売 2
▁今やっているプロジェクト 2
溜 2
べきですよ 2
ないでください 2
▁働き過ぎ 2
だんだん 2
吐 2
と謳 2
▁皆さんは 2
をご存知 2
我が社は 2
商品を開発しました 2
▁仰る通り 2
自然 2
▁だからこそ我が社は 2
労力を費や 2
高性能 2
イライラ 2
▁どういう意味ですか 2
’ 2
と思われた 2
ワーク 2
すればいいか教えて 2
このプロジェクト 2
っぱり 2
掛かって 2
泡 2
犠牲 2
だけじゃないよ 2
チームプレーヤー 2
▁気分転換になるだろうし 2
元で 2
▁どういったご用件でしょうか 2
品についてお電話しています 2
詳細を調べますね 2
と記載されています 2
直ぐに 2
できないんです 2
察 2
返金リクエスト 2
しても良いですか 2
事もあります 2
▁一生懸命働いて 2
事があります 2
▁彼女なら 2
すごく良い 2
悔や 2
みの 2
のを忘れないで 2
従業員も 2
葬儀 2
してないよね 2
▁イタリア料理 2
難しい選択 2
イタリアン 2
雨 2
する事はない 2
ネラル 2
チキン 2
一緒にオーダーしたい 2
か聞いてみようか 2
考えだね 2
くるね 2
スさん 2
の上に置いてあります 2
▁この番号は 2
必要になります 2
ファー 2
働ける 2
貢献できる様に 2
聞きましたか 2
▁聞きましたよ 2
ポジション 2
▁もうすでに 2
朝一 2
労力を 2
だけですよ 2
働いてきました 2
官 2
ございました 2
事も可能です 2
都合の良い 2
プライ 2
絶対にないという事を 2
のでしょう 2
のは今回が初めて 2
追跡番号 2
めている 2
年勤務 2
真面目に働いて 2
▁サプライズパーティー 2
物はなんでしょうか 2
パーティーですね 2
▁ダウンタウン 2
料理のレストラン 2
は皆 2
良いし 2
▁私の友人 2
やっていますよ 2
▁では始めましょうか 2
スポークス 2
売り上げが上が 2
っていると聞きましたよ 2
とっては 2
業界トップの 2
スナック 2
知っていますよね 2
” 2
▁消費者 2
副 2
パッケージの後ろに記載 2
確認しました 2
▁テクノロジー 2
くれますよ 2
呼んでください 2
助ける 2
私の仕事です 2
学の学士号 2
20% 2
規模な 2
知識と経験 2
仕事に相応しい 2
したばかりです 2
いかない 2
機能しません 2
トレイ 2
に何か問題 2
があるか知ってる 2
ニューヨークの 2
メールチェック 2
▁早めの昼食 2
私です 2
させていただいております 2
になりそうです 2
署名して送り返 2
CompanyB 2
▁そちらこそ 2
請求書について質問 2
ドルとなっています 2
ドルのはず 2
▁他に何かございますか 2
次の四半期の 2
したかったんだ 2
ことはできる 2
▁では今日は 2
植物検疫証明書 2
ってなんですか 2
品目 2
知っておく 2
も必要 2
原産地証明書 2
製品の原産地 2
原産地 2
船荷証券の 2
原本 2
インボ 2
学べると思います 2
今回の請求書 2
▁良かったですよ 2
とりました 2
高いよ 2
受け入れて 2
までに知らせて 2
船荷証券 2
を入 2
表示されない 2
会議の議事録 2
見つからない 2
んだと思う 2
▁ごめ 2
予約の確認が 2
おきますので 2
について教えます 2
間違いがないか 2
しないんですか 2
船荷証券草案を作 2
会社はその 2
たらいいですか 2
単位 2
めば 2
▁大抵 2
確認できますので 2
過去の 2
情報を集めて 2
内部 2
事務所では扱 2
社のティム 2
▁マニング 2
伝えました 2
貰 2
CompanyA 2
についてお電話 2
▁どの製品 2
に興味がおあり 2
か教えていただけますでしょうか 2
扱っている 2
わかりますよ 2
銭 2
用地 2
を計画しています 2
▁現時点で 2
ろうとしているんです 2
ノウハウ 2
▁資金 2
説得 2
▁正直言って 2
▁最善を尽くします 2
マンです 2
やあ 2
一緒に仕事をする 2
▁ご存知の通り 2
どもは 2
機会を狙 2
残念ですが 2
▁それは残念 2
メインビジネス 2
ことありますか 2
だというのは 2
プロジェクトに関わ 2
▁林業では 2
申し訳ございませんが 2
かというと 2
お分かり 2
しら 2
についてもう少しお話し 2
知ってます 2
くれないかと思って 2
を持って行けば 2
話したことを 2
をとって 2
といいですが 2
できましたね 2
▁沢山 2
▁具体的にどんな 2
事をする 2
べきことはありますか 2
差し上げて 2
してくださいました 2
会うことになっています 2
だけですが 2
どうなったか教えてください 2
▁どんな感じ 2
入れておきますね 2
ことにするよ 2
それによって 2
製品をリリース 2
▁ウォルト 2
ということになりますね 2
ウォルト 2
▁どう思いますか 2
ジョージ 2
言いたいことが 2
言わせて 2
かなり大きな 2
がありますし 2
とは思えません 2
夏までに 2
▁ジョージ 2
ぎり 2
▁分からないけど 2
プログラミング 2
試合 2
営業の数字が 2
カス 2
あり得ます 2
売り上げの下落 2
▁デビッド 2
▁うちの商品は 2
について話しましょうか 2
してきましたよ 2
▁ご覧の通り 2
事実 2
キャンセルする 2
思いますか 2
デニス 2
手短に説明 2
人事部に行ってもらう 2
についての説明 2
頼んだ 2
ハンド 2
会社のポリシー 2
してくれますか 2
的なビジネス 2
▁その通りだね 2
質問や気になる 2
に連絡してください 2
真剣 2
万ドルになります 2
送ってくれた 2
▁送った 2
もう一度確認 2
送りました 2
ネイト 2
ヴァンス 2
IRS 2
するのを忘れないでね 2
▁いいねえ 2
バーブーダは 2
▁二つの 2
そのうちの 2
に行ったの 2
スティ 2
に書類 2
会社がペーパーレス 2
▁森 2
をチェックして 2
ほんとに 2
農 2
料金を 2
するべきではない 2
▁テック 2
生徒さん達に 2
▁生徒さん達は 2
していただくことが出来ます 2
していただくことも 2
皆さんにとって 2
していただく事も可能です 2
をいたします 2
していただくか 2
ハードウェアを購入 2
セン 2
▁生徒達は 2
しなくてはならない 2
することはできる 2
にも対応 2
▁もし他の 2
教授 2
基地局の 2
▁投票 2
インストラクター 2
がございます 2
ことだからね 2
落ち着かせる 2
メモをと 2
覚えておかなきゃ 2
個人的に受け取 2
君のこと 2
やったこと 2
ことがほとんど 2
なんだから 2
を受け入れる 2
▁ほとんどの 2
ことを望んでいる 2
気にして 2
イライラするし 2
▁その通りね 2
声を 2
きたら 2
ことはできます 2
恥ず 2
社のホームページ 2
タブをクリックします 2
▁火災と避難 2
911 2
避難してください 2
さないでください 2
遭遇 2
隊 2
に従ってください 2
どうしたら 2
指定された救助エリア 2
不可能な場合は 2
クラスの火災は 2
タイプの消火剤 2
入ってください 2
りありがとうございます 2
が出来ている 2
▁始める前に 2
私の名刺 2
っておきました 2
▁それを使って 2
をしてほしい 2
ということについて 2
フォー 2
億 2
▁我が社には 2
成功するという確信 2
成長する 2
製品に対する 2
についてのケーススタディ 2
として働いております 2
彰 2
▁なぜあなたは 2
時間を費やす 2
人々が 2
するのを助ける 2
▁あなたの長所 2
▁それによって 2
したか 2
ビン 2
▁ラップトップに 2
プト 2
▁フロントデスク 2
パーソナルホットスポット 2
として使って 2
たった今 2
練 2
されているところ 2
ようになるんです 2
ロケーション 2
時間を割いて 2
敵 2
射撃犯 2
施 2
に電話してオペレーター 2
の質問に答えます 2
▁警察が到着 2
まってください 2
▁最も重要なことは 2
怖いですね 2
起こり得る 2
▁射撃犯が 2
射撃 2
できるだけ早く 2
救助 2
はどこにありますか 2
▁キャンディス 2
ジャッキーです 2
はどんな感じですか 2
本当に良い 2
ひいき 2
なかったんですが 2
キャンディス 2
だと思っていました 2
やっています 2
▁ディラードさんは 2
聞いたの 2
▁何百 2
社なんだ 2
▁費用 2
国内で 2
されているし 2
じゃないんだよ 2
▁新しい経営者が 2
のは確かだね 2
子供が 2
できないよ 2
大変そうですね 2
▁悪 2
ような事は 2
しかないんだよ 2
野さんとのミーティング 2
予定されています 2
この様な 2
ミーティングを変更 2
たらよいでしょうか 2
が言っていた 2
▁困った事になりました 2
気乗りしない 2
ウィリスさんに 2
▁ミーティングを 2
あれば十分な 2
▁ミーティングが 2
良かったですよね 2
▁お力にな 2
に電話しますね 2
ちに取り掛かります 2
難しい選択になり 2
アイビーリーグの 2
▁パテル 2
▁でも個人的には 2
良いです 2
▁サンジェイ 2
ーション 2
が気に入りました 2
しっかりとした 2
功績 2
サンジェイさんが 2
▁職務 2
をしっかり把握 2
オーダー情報の出し方はもう 2
にはそれぞれ 2
くるはずです 2
すれば良いですか 2
送料 2
▁この場合は 2
してみて下さい 2
写真も 2
聞いても 2
ピーナッツが混入 2
していると主張 2
工場ではナッツ 2
そう思うの 2
▁戻ってきたら 2
っていたの 2
がいるんだ 2
案だと思う 2
なんていない 2
首になる 2
がない人もいる 2
▁彼を外 2
羽 2
▁残りの 2
▁与えられた仕事を 2
朝から晩まで 2
▁聞いたところによると 2
匿名 2
ピーナッツのかけら 2
▁でも彼女は 2
アナフィラキシーショック 2
7654321 2
▁彼女から 2
写真が送られて 2
▁もしかして 2
がたいですね 2
汚染 2
情報が入り次第 2
を起こす 2
発見 2
ってしまい 2
番号を教えて頂けますか 2
イト 2
意欲的 2
▁クリエイティブ 2
事はありますか 2
ありますよね 2
▁それは確かです 2
このポジション 2
してきましたので 2
▁退職 2
責 2
う事は 2
光栄 2
願っています 2
エラーになった 2
しないでね 2
▁訓練 2
▁だからこそ 2
▁絶対 2
▁完璧です 2
らっしゃる 2
お元気でいらっしゃいますか 2
の件でお電話 2
事は無理 2
がありませんでした 2
コンサル 2
良かったのに 2
遅いよ 2
したくないね 2
▁ようこそ 2
ラリーさん 2
を探してほしい 2
▁その荷物 2
されませんね 2
可能性がありますね 2
られるか確認 2
うちの東京オフィス 2
▁何時から 2
ないといけないから 2
ってもらわないと 2
リスクマネジメント 2
▁ブルース 2
言ったように 2
にオフィス 2
こっちの日 2
書くの 2
アナ 2
財務 2
ないといけないし 2
と思ったんだ 2
▁ご理解ありがとうございます 2
▁アンディさんは 2
経験があるし 2
をしてきた 2
書類コーディネーター 2
いこうか 2
ちゃんと準備 2
▁私はマネージャーで 2
サムはうちの部署の営業担当です 2
▁どうぞお掛けください 2
書類作成コーディネーター 2
大学を卒業 2
続けてください 2
国際ビジネス 2
への興味 2
このポジションに応募 2
自らのスキルを活かせる 2
だと思いました 2
弊社にご興味 2
ポジションは 2
と呼ばれる 2
理解している 2
御自身のこと 2
コーディネーター 2
要するに 2
国際 2
次の質問へ進みましょう 2
▁さてと 2
▁えぇっと 2
が流暢 2
すぎた 2
良いアイディア 2
のは大変 2
してもらうよ 2
その人が 2
クルーズ船 2
もらえると 2
たようです 2
レイチェル 2
社のサムと申します 2
▁営業マネージャーの 2
できないかと思いまして 2
お時間を頂戴 2
を見つけられた 2
▁バー 2
致しますね 2
した時 2
勉強したんですか 2
はあるけど 2
学ぶことは 2
レストランだよ 2
考え方 2
ゼネラルマネージャーが 2
会を開 2
そうじゃない 2
くれるよ 2
▁本当にありがとう 2
が幾つか 2
ぴったりの 2
タイミングで 2
混乱 2
はもう少し 2
ヘンリー 2
オフィスに戻 2
くれてありがとうございます 2
は何をしている 2
には満足しています 2
モン 2
を提出 2
変化に抵抗 2
あなたがやっている 2
させます 2
評判の良い 2
を見つけたり 2
のんびり 2
真面目に働いていますよ 2
時代 2
疎 2
か教えてもらえますか 2
一つあります 2
はかかりませんよ 2
▁大抵の 2
ソーシャルメディアマーケター 2
マーケター 2
1、2 2
働いてもらいます 2
可能ですね 2
同行 2
してもいいかな 2
有利 2
はずなんだ 2
を持っている人が 2
人当たり 2
法的 2
フルタイムの仕事 2
弁護士 2
にしないといけない 2
AT 2
▁おめでとう 2
願書 2
アンジェリカ 2
兆 2
にはならなかった 2
しているんでしょう 2
の仕事の 2
をしていたんです 2
▁彼女の職務を 2
に分ける 2
続けてもらいたい 2
してもらってもいいかな 2
申し訳 2
嵐 2
忠さんとアシュトン 2
板 2
所です 2
に行っています 2
に行きますよ 2
▁うちから 2
▁そちらも 2
しないといけませんし 2
しないほうがいい 2
▁小坂さん 2
気持ちはわかりますよ 2
▁この状況を 2
商品に 2
返金プログラム 2
ままで 2
読んだんだ 2
▁そしてとても 2
恩 2
始めに 2
の支払いを 2
下さってありがとうございます 2
来るから 2
▁ウィルさん 2
んじゃないよ 2
事を伝えましたか 2
▁彼はきっと 2
ショック 2
してくれるといいんだけど 2
▁もう知っている 2
谷口 2
泣 2
民 2
▁谷口さん 2
良い同僚 2
になるんですか 2
貴重な存在 2
ないでしょうね 2
散ら 2
仕事に集中できないの 2
▁散ら 2
になるんだけど 2
夕飯 2
も良いです 2
らっしゃ 2
言ってるんだ 2
共 2
▁ウォルター 2
と考えている 2
彼女には 2
るといいですね 2
とはどういう 2
▁高野さんは 2
知っているでしょう 2
しないといけ 2
コントロール 2
▁私は彼の 2
が溜 2
特定の商品 2
驚きました 2
を始めてから 2
▁あらら 2
アンドリュー 2
▁出席 2
▁また後で 2
▁どういう仕組みになっている 2
つの部分 2
▁バーコード 2
るのです 2
ケットを 2
初めてです 2
▁2018 2
35 2
の小売 2
箱に 2
プレミア 2
メリッサ 2
と感じ 2
▁リック 2
そのパッケージ 2
をどのくらい 2
迷信深い 2
良い考え 2
について聞いた 2
会社全体で 2
見学を 2
はおそらく 2
仕事について 2
▁おかしい 2
に行ったことはありますか 2
コーポレートシアター 2
エキスポ 2
で会いましょう 2
言わないでくださいよ 2
ショーを見に行く 2
▁ファットボブ 2
ハウス 2
サーカスショー 2
アクロバット 2
があるんですよね 2
と言っている 2
▁議題 2
から始めよう 2
ことができるね 2
ティム 2
楽しく 2
コミッション 2
▁当初は 2
目標達成 2
が見込み 2
▁ここでの 2
以下 2
機能するのか 2
▁素晴らしいです 2
全然大丈夫ですよ 2
▁ボーナス 2
信頼できる 2
トニー 2
がないということです 2
べきですか 2
▁ちょっと待ってください 2
聞いたのですが 2
を受けている 2
▁このソフトウェア 2
CR 2
ミー 2
してもらうことになる 2
医師 2
▁間違い 2
▁ストレス 2
メリット 2
▁そのとおり 2
意味します 2
団体購買組織 2
▁場合 2
動脈インターベンション 2
▁内視鏡検査 2
門 2
あなたのチーム 2
購入したから 2
監査を受けた 2
▁フードエキスポ 2
チーズベンダー 2
▁それはうちの 2
ファーストフードチキンチェーン 2
立ち寄って 2
リル 2
あなたには 2
契約と 2
のペナルティ 2
を支払わ 2
ペナルティ 2
あなたの保険には 2
ディダクタブル 2
あるいは 2
を与 2
▁それは本当に 2
何人かの 2
フル 2
積荷 2
出荷することが 2
つ選択して 2
が得意 2
そうだけど 2
と呼びます 2
議論します 2
▁プレゼンテーション 2
プロボスト 2
ラム 2
ローンの 2
▁予測 2
を必要としている 2
はいくらですか 2
15,000 2
を救うことができたら 2
くら 2
▁ジェイソン 2
ジェイソン 2
リサです 2
馴染 2
▁シェンク教授 2
させていただいている 2
オンライン宿題 2
そうでしたか 2
しなくては 2
フェイズ 2
ったところ 2
スター 2
EO 2
ンガ 2
から戻った 2
孫 2
についてお話したかったのですが 2
簡単です 2
▁ビジュアル 2
誰でしょうか 2
▁よく分からない 2
るんだろう 2
▁クローディア 2
▁フロリダ 2
オファーを 2
持っています 2
いましたからね 2
についてお話したい 2
と話して 2
▁お名前 2
▁サリーさん 2
今日はどんな 2
ご用件でしょうか 2
していただくことはできますか 2
メールには 2
j 2
888@ 2
が届くはずです 2
ご質問があれば 2
メールが届 2
部屋を用意 2
っておいたほうが 2
消費 2
財 2
出来る限りの 2
▁心配なさらずに 2
大した 2
できて光栄です 2
パム 2
ッドタウンプロジェクトの 2
コンプライアンス部 2
エド 2
って書いてある 2
▁トムさんの 2
知ってますよ 2
待ってくれるかな 2
えたほうがいい 2
スピードについて 2
あなたを 2
助けるために 2
しますから 2
してもらえばいい 2
についてお話したいんですが 2
私もそう思います 2
についてはどう 2
を増やして欲しい 2
彼女にはもっと 2
必要があるのですが 2
やりましょうか 2
知らなかったから 2
聞いてみよう 2
▁大丈夫よ 2
後でね 2
ジョンソンさん 2
お会いできて光栄です 2
お水 2
があるか教えていただけますか 2
ものがありますか 2
に関する資料 2
封筒 2
何かご質問があれば 2
を見つけるお手伝い 2
曜に 2
ジュリー 2
▁水曜の 2
やってみて 2
ランチミーティング 2
ウォ 2
向こうは 2
合意 2
▁君はいつ 2
があるけど 2
▁45 2
後で連絡しますね 2
ムさん 2
▁ごめんなさい 2
▁この製品 2
よく知らない 2
のかなあ 2
▁たぶん 2
生産性 2
▁わかりません 2
安くないな 2
ったところなんだけど 2
られるか聞いて 2
▁知らせて 2
休暇をとる予定 2
終われば 2
承認してくださ 2
リスケ 2
社に聞いてみます 2
ましてありがとうございます 2
▁ご存知かもしれませんが 2
改 2
修 2
コストを抑 2
すで 2
▁排出許可 2
▁運良く 2
万トン 2
供給 2
に行ってみましょう 2
契約についての 2
か確認したくて 2
としている 2
を見させてください 2
を課 2
木製フェンス 2
▁貿易 2
に関する貿易 2
▁ある商品の 2
▁HS 2
キャンドル 2
パーツ 2
完全に違う商品 2
英語の勉強 2
ことないな 2
トラック輸送を手配 2
を送ります 2
▁歴史的に 2
マレーシア 2
政府は 2
檜 2
国産 2
ちょっと質問 2
住宅建築業者 2
しているのですか 2
韓国 2
日本は丸太を中国に輸出 2
建築用 2
市場では 2
何か質問 2
出荷されています 2
られています 2
きています 2
アメリカに輸出 2
カット 2
そんなに遠 2
かかりそう 2
社の紹介を 2
日本の商社です 2
プロジェクト投資 2
林業 2
めております 2
うちに紹介 2
▁サムは 2
いけなくて 2
寸 2
かによります 2
出荷量 2
▁あります 2
会社紹介 2
聞いてみたい 2
だと思うんです 2
▁単に 2
営業グループ全体 2
グループマネージャーを 2
後を 2
グローバルリレーション 2
時間が欲しい 2
アイビーリーグ 2
▁真理さん 2
ユージニアさん 2
太一さん 2
ウォンビンさん 2
▁恵子さんが 2
考えているんです 2
なのです 2
テンプレート 2
を送ってきて 2
真理さんが 2
真理さん 2
どちらかというと 2
かと思っています 2
全く知らない 2
引き継 2
がされたら 2
に来たんですよね 2
▁利永 2
▁突然 2
利永さんと高 2
のは誰 2
▁冗談でしょ 2
マネージャーが 2
だと思いませんか 2
▁ヴォーンさん 2
そんなにシンプル 2
しているように思 2
には気づいて 2
洞察 2
かについて 2
に参加して欲しい 2
慎重に 2
心配するなよ 2
個人向け製品の 2
新バージョン 2
したかったのです 2
予測に反映されていなかったのか 2
▁利永さん 2
私たちは目標を達成 2
ことなので 2
新しいバージョンの 2
過程にあります 2
控 2
バスのラッピング 2
それは良くないですね 2
例外 2
捉 2
覚えておいてください 2
ご用件ですか 2
周りにどう 2
のはどうかな 2
▁由美さん 2
利永さんの 2
由美 2
契約に関する 2
ゴルフ中に取引 2
▁これで 2
ここでは 2
信じられない 2
に力を入れた 2
▁法人 2
▁利永さんは 2
分かったら 2
▁景気 2
ソロモンさん 2
できればと思っています 2
儲 2
顧客全て 2
だと思ったんです 2
に興味をも 2
僕たちが 2
ことを伝え 2
ってことだね 2
引き継げ 2
ものがある 2
大丈夫な 2
チームの一員 2
問題がある 2
ということなので 2
ことになるでしょう 2
シリーズ 2
▁彼女には 2
▁太一君 2
▁引き出し 2
▁バイオ 2
あり得 2
▁見てください 2
食べかけのサンドイッチ 2
毒 2
ちょうだい 2
オファーを受けた 2
叱 2
って聞いたよ 2
▁あなたたちは 2
ファンドが 2
マネージャーを 2
彼女のせいじゃないじゃない 2
曜 2
のためだけに 2
ことばっかり 2
ひどく 2
▁そうよ 2
が多いんだ 2
オンラインメディアからの 2
直す 2
用語データベース 2
試してみてください 2
これだけです 2
お気軽にご連絡ください 2
行ったけど 2
ウェアラブルテクノロジー 2
業界の未開拓分野 2
を立ち上げた 2
▁タイミング 2
やったことがない 2
機会に 2
標準 2
ることが出来ます 2
マーケティング会議で 2
そうでした 2
をお待ちしております 2
スタートアップ企業に 2
倉庫に 2
▁法務 2
サービス契約書 2
▁クリーンコピー 2
▁今日の終わり 2
出来るように 2
差し上げたのですが 2
▁見積のドラフト 2
▁輸入活動 2
フォームに 2
そう思いました 2
をしようと思ってる 2
程度です 2
▁来週の月曜 2
社のジャックです 2
御社の請求書 2
550 2
番号を教えていただけますか 2
▁確認できたら 2
支払処理 2
▁来週後半に 2
僕の代わりに 2
2018 2
エレインさんに 2
今年の監査 2
なさそうですね 2
大したことない 2
おっしゃっていましたが 2
サンドイッチ屋 2
早いですよね 2
日を教えてください 2
▁ドンさん 2
総務部から 2
メールでお送りできますが 2
規制 2
▁規制 2
考えてみます 2
の量をお考えですか 2
によりますね 2
見積を出す 2
できることはありますか 2
佐野さん 2
世界中に 2
にもオフィス 2
興味深いですね 2
アメリカが 2
ヘン 2
会議を設定 2
送信 2
送りますね 2
の一部を 2
ことのできる 2
▁Excel 2
インターネットで調べた 2
にお任せします 2
上海オフィスのジムです 2
ジムさん 2
明けましておめでとうございます 2
くなりますからね 2
▁ピーターさん 2
かったです 2
貿易戦争 2
という形で 2
をみ 2
最悪の事態 2
の期間 2
することになります 2
されているので 2
サムさんが 2
に基づいた 2
船荷証券の草案 2
BL 2
▁BL 2
スタントンさん 2
▁パートナーシップ 2
にご興味がおあり 2
契約要項 2
することが可能です 2
をお送りします 2
センサー 2
グレードを 2
鉱山で使用 2
鉱山 2
できることは 2
▁受信 2
▁輸送 2
▁カリフォルニアの 2
鉄道 2
統制 2
▁記録しなかった 2
▁製品は 2
▁ご説明ありがとうございます 2
ということなんだ 2
▁テーマ 2
みたいなの 2
アドレス 2
y 2
▁本日はお時間を 2
のスケジュールを 2
くれて本当に 2
しないといけなくて 2
▁しまった 2
▁そっちの方が 2
らしくてね 2
定型の秘密保持契約書 2
すれば良い 2
天気 2
出張に行 2
しなくてはいけない 2
必要はないと思います 2
競争力がある 2
▁実は今週 2
積み降ろし場 2
コンテナに積載 2
積み重ね 2
社のマイク 2
▁ジャ 2
どんなことを 2
したりもしています 2
社に勤めて 2
▁弊社では 2
▁面白いですね 2
なっているんですか 2
についてはあまり 2
商品取引 2
新しいビジネスの 2
弊社のプレゼン 2
社ですか 2
三年は 2
東南アジアの 2
事業を行 2
これが私のです 2
お会いできて嬉しかったです 2
▁どうもこんにちは 2
西海岸 2
を拠点にしているのですか 2
お会いできて良かったです 2
とソフトウェア 2
会社の事業 2
と製造 2
ってことに気づいた 2
▁上層部はいつも 2
する必要がありますね 2
こっちに来て 2
▁この業界の 2
主要 2
を見てみます 2
サムか 2
輸入データ 2
▁今週はミーティング 2
世界的ネットワーク 2
サポートできる 2
賄 2
ニーズを理解 2
を加える 2
とかですか 2
後でリスト 2
が必要ですか 2
見せてくれ 2
▁仕事と 2
生活のバランス 2
やっているか 2
が始 2
考えない 2
▁ちょっとサム 2
社のジェイです 2
話せます 2
出荷をキャンセル 2
▁客先 2
▁できるだけ早くご連絡します 2
▁受信トレイ 2
▁この製品の 2
はずなんです 2
パーセント未満 2
▁というのは 2
どういたしまして 2
▁こちらから 2
▁マージ 2
早めてほしい 2
前倒し 2
かどうか聞いてみます 2
会社にも 2
のことですか 2
おっしゃっていました 2
▁他には何かありますか 2
聞いてもいいですか 2
引き出しに入 2
わけではないんです 2
ケット 2
贈答品を受け取 2
更新指示 2
更新して 2
社と会うこと 2
に入れたいことを 2
▁もし相手が怒鳴り始めたら 2
に戻りましょうか 2
るのはどう 2
提示価格 2
東京オフィスの 2
ところですね 2
鉄道車両整備会社を 2
▁鉄道車両 2
すればよかった 2
年末までに 2
を待っているところなんです 2
つな 2
を開発 2
トラック会社と 2
社と話を 2
▁なあサムさん 2
迎えに行 2
の支払い 2
ゴルフをする 2
▁データを 2
社って聞いたことありますか 2
分からないこと 2
▁どちらかと 2
られますよ 2
▁何か手伝 2
森 2
▁営業部長 2
業界経験 2
という点 2
ほうがいいよ 2
なければいけませんでした 2
自社資産 2
関係を結んだ 2
にデータセットを二つ 2
といいな 2
空いてるよ 2
イレイン 2
やりますよ 2
を使わ 2
貴社から紙製品を購入しよう 2
▁ドット 2
洗車 2
▁ガソリンスタンド 2
忘れないでね 2
頼まないと 2
契約書の見直し 2
レビューして頂 2
▁いつもありがとうございます 2
リストです 2
▁このリスト 2
▁いずれに 2
▁別の 2
▁どのように金額 2
四半期の料金を 2
▁でももし 2
サイトウさん 2
▁残念 2
彼らとのミーティング 2
会議を手配 2
の可能性について話 2
さないといけないですが 2
▁今日はお時間を 2
レストランはありますか 2
▁美味しい 2
スポット契約 2
▁この紙製品の 2
▁製品は日本に輸送されるから 2
西海岸のサプライヤ 2
▁スタートアップ企業 2
▁リスト 2
▁署名 2
▁住宅 2
頼まれて 2
春に 2
▁じゃあね 2
▁問い合わせて 2
向けの電気料金 2
を教えて頂けますでしょうか 2
日チェックイン 2
日にチェックアウトですね 2
何も新しいことを学んで 2
産業と関わ 2
意欲 2
に反 2
▁来週末までには 2
メールをお送りします 2
▁ジェニー 2
日本市場に参入 2
▁その他に 2
のないように 2
▁日本での 2
経験を共有 2
になるかと思います 2
のトラック 2
頂けると 2
かわかる 2
に積 2
依 2
万トンを 2
なりませんか 2
空を飛ぶ 2
工学を勉強 2
▁いつもと同じ 2
モークサーモン 2
から電話があって 2
の体調が優れないようなのです 2
なさらないでください 2
クリスマスの 2
してるんですよ 2
は御社のニーズ 2
今日この後 2
▁会計とか工学とかそういう 2
セールスアシスタント 2
できるのを楽しみにしています 2
について少し 2
使用できません 2
▁仰る通りです 2
お送りできますが 2
投資機会 2
排出 2
するべきだと思います 2
社のレイチェルと申します 2
ときに凹んだ 2
きる 2
▁いつまでにやればいいですか 2
木下 2
公共 2
▁チェックイン 2
送りたい 2
週間出荷を 2
情報の変更について 2
長期目標 2
▁澤 2
仕事をするのを楽しみにしています 2
▁スミスさんは 2
事業計画 2
見てきてますからね 2
▁稲 1
▁稲田さん 1
お忙しいところ 1
時半頃からだと 1
全体的な 1
流れはこちらの 1
が関係 1
入場から退場 1
までの一連の流れ 1
点などは 1
この会議室 1
取締役と常勤 1
のみで 1
▁総会前日には 1
実際の会場にて 1
出席者全員 1
▁前日の 1
の太田先生にも 1
空けて 1
監査法人の 1
の先生にも裏方に 1
は必ず 1
しも想定通りに 1
集は私の方で 1
予想される問答 1
羅 1
相当な数 1
各取締役 1
管轄 1
株主さん 1
私を含め事務 1
の後ろに控え 1
ご安心下さい 1
株主さんからの 1
された場合はどう 1
えた方がよい 1
リオ通り進めて 1
も行います 1
さんが株主役 1
しも想定 1
問答 1
株主役だと 1
辣 1
浴びること 1
▁お手柔 1
らかに 1
それでは特訓 1
会議室のドアを 1
入場から 1
始めたいと思います 1
高田 1
これより私が進め 1
信託銀行の 1
鑑 1
が多かったなと 1
終了する 1
企業様が多く 1
ティブ 1
企業においては 1
らは 1
ある程度の予測 1
質疑 1
の方への質問も 1
しっかりご準備 1
で特に気に 1
直接会って 1
みて名簿の中身 1
安定しているし 1
要素 1
期末行事が怒 1
濤 1
▁気が重くなる 1
頑張って乗り切 1
頼りに 1
▁日程的に 1
焦らなくても 1
能勢さんに 1
してもらおう 1
に向けた役員 1
チャー 1
候補日を絞 1
また能勢さんに 1
午前中は 1
お目 1
火曜日の午前 1
時から開始 1
▁例年どれくらい 1
▁数十名程度です 1
▁要注意 1
信託 1
確認した限り 1
名の 1
声を掛けさせ 1
▁総会開始 1
司 1
▁恐れ入りますが 1
高田です 1
登記のご依頼で 1
別途メールにて 1
見積書と 1
委任状を 1
捺印した委任状 1
▁株主総会も近 1
款 1
取締役と 1
先生の事務所に 1
明後日の午後 1
明後 1
今受付に 1
証券 1
の鈴木部長がお 1
訪 1
近くまで来た 1
鈴木部長を 1
にもいかない 1
であれば押さえ 1
に少し遅れる 1
▁お一人で来 1
られている 1
一人で対応する 1
時に帰社 1
▁頼まれていた 1
畏 1
高田より 1
聞いたらいい 1
かわからない 1
開発中の 1
システムについて 1
という意見が部 1
剥 1
斬新な 1
社に真似される 1
知的財産関連 1
も私の管轄だから 1
どういう風に進め 1
▁具体的な申請 1
元に 1
私が顧問弁理士 1
過程で 1
弁理士 1
その場に 1
もちろ 1
曖昧 1
なところがあると 1
は重要なことだし 1
その辺 1
メールを受信し 1
少々お待ち下さいませ 1
恐らく 1
不明 1
▁至急インク 1
が必要なので 1
と処理を早めて 1
▁速達便であれば 1
日後に 1
到着予定 1
配達でしたので 1
追加料金 1
▁速達 1
お手続きまで 1
期限が 1
後に欠陥が生 1
▁音量が小さ 1
について苦情が入 1
直近で 1
の予定を 1
してくれましたよ 1
保証が 1
▁恐らく 1
な対応をして 1
▁それはすば 1
熊 1
んびり 1
▁観光 1
な人 1
に置いておいたよ 1
この仕事に応募 1
いい印象 1
会っていたけど 1
▁それは偶然だね 1
が楽しみだ 1
みなさんに良い 1
みなさんに 1
すば 1
は深夜や週末 1
まで詰めて作業 1
特別手当の支給 1
矢崎さん 1
▁開発部を代表 1
是非特別手当を 1
支給 1
優れた 1
おられます 1
少々お時間 1
▁ご注文 1
期限はいつ 1
週間ほど延ば 1
支払い条件は 1
は銀行振り込み 1
の一番下に 1
最高経営 1
社長のマークは 1
との取引が彼の 1
欠席 1
占有率の内訳 1
会社の中に 1
急成長 1
に注目 1
我々を上回 1
の差がある 1
▁当社が 1
差ではないけど 1
に着目 1
消費者がゲーム 1
を追加購入できる 1
を引き付けるの 1
にも役立ち得ると 1
を超えて 1
それを試してみ 1
がお受け 1
どうなさい 1
▁間違った商品が 1
のご注文ですね 1
▁黒 1
色を 1
違う商品 1
▁至急 1
届きますか 1
▁早急にお調べし 1
欧の旅マガジン 1
▁今少しお話し 1
のビジネス街 1
についての記事を 1
記事の期限が迫 1
記事のトピック 1
崎さん 1
だの 1
製品を販売促進 1
月曜日に 1
の一部を最終点検 1
は見てもらえない 1
見学 1
沖 1
全体的に 1
肯 1
定的だったと 1
やすかったって 1
情報が一気に 1
混乱させたかな 1
次回以降は所 1
の途中で 1
を作ろうかとも 1
質問に答 1
持て 1
の販売戦略 1
野上さん 1
この商品の 1
資料を配布して 1
広告は最も 1
広告を出したり 1
▁どなたか 1
のある方はいらっしゃいますか 1
案ですが 1
▁河 1
階の寸法 1
ことに気づ 1
には少々お時間 1
木はただ今 1
▁伝言を承 1
▁電話番号 1
▁お伝え 1
司会を務め 1
需要率 1
需要率は昨年 1
投入などが 1
特化 1
他の地域も視野 1
要しそうですね 1
呼ぶから 1
終わった 1
▁残 1
ごとをしても 1
山田さんがわ 1
しを訪ねてきたら 1
お渡し 1
また明日 1
製作 1
件受注した 1
▁どんなジャンル 1
▁トルコ料理 1
結構いろいろと 1
年ぐらい 1
宮本さん中心 1
グルメ 1
月額いくら 1
月額 1
払ってるらしい 1
▁よ 1
舗 1
しも 1
料理のジャンル 1
▁宣伝として 1
のデザインを任 1
早々に決めて 1
未知のお店でも 1
▁スタッフの 1
▁トルコって 1
地図広げてどこ 1
って聞いても 1
を知ったら 1
にも興味を持って 1
きっかけになる 1
▁あとクーポン券 1
はやっぱり宮本 1
▁我が社も 1
ロゴの大幅な 1
刷新を行う 1
社さんにその 1
から見えてきたい 1
くつかの課題 1
何か理由がある 1
創業時に作った 1
年の時に作った 1
▁ロゴを統一 1
ここのマークは 1
を表 1
豆だと理解 1
にはパッと 1
するロゴはその 1
ロゴには緑と青 1
▁御社は今この 1
を代表する豆腐 1
▁豆腐といえば白 1
を連想しがち 1
敢 1
にこだわりました 1
豊 1
やかな水 1
を表現している 1
するロゴ 1
はこちら 1
▁これは予想外 1
さすが 1
デフォル 1
どの世代でもとっ 1
つきやすい 1
▁うちの商品は老 1
ロゴを心がけて 1
臭いと思って 1
きなり出てくる 1
▁ひどい 1
とはどんな 1
欠勤 1
が欠勤に気づき 1
風邪で寝込んで 1
ひどい状態だった 1
割に 1
日はかなり元気 1
時にお酒 1
▁先月はそれだけ 1
刻 1
▁まるで重役出勤 1
訳を聞いた 1
に行ってた 1
歯医者の領収証 1
上長 1
からと見せ 1
怪しいですね 1
▁山元 1
さんって実家から 1
実家 1
町で遠い 1
ので会社近く 1
で一人暮らし 1
擁 1
歯医者の話も 1
どちらかといえば 1
▁絶対に 1
から見ると沢 1
尻 1
そこそこ部に貢献 1
ってもいいのでは 1
慌 1
重にすべき 1
▁意見が分かれて 1
いっぱい 1
▁仮装 1
▁仮装してきて 1
▁コン 1
票を割り当てて 1
賞品を渡す 1
に配る用のお菓子 1
さすがに女性は家 1
辛い 1
スペースに余裕 1
男性用の更衣室 1
意見を持ってる 1
会議室を押さ 1
賞品の件に戻る 1
社員がいるので 1
プレ 1
トル 1
部署単位で賞 1
おかしな人がビル 1
兼ねて 1
その日は会議室に 1
喫茶 1
先ほどの 1
ですでに当社の 1
をもってお客 1
▁ただリフォーム 1
の受注 1
なかなか来ません 1
▁家を買いたい 1
のが一番良い方法 1
基本はスーツ 1
営業マン 1
▁その営業マンが 1
シッ 1
を着てピカピカの 1
靴 1
フォン 1
汗 1
▁かわ 1
ぐらいは話を聞く 1
作業着を着て 1
飛び込み 1
だけ使える特権 1
基礎知識は 1
▁お客様の中には 1
よりリフォーム 1
調べてきますと 1
おじいちゃん世代 1
孫世代の君たち 1
▁しっかり調べて 1
関係を築 1
された特権ですね 1
▁去年入社した 1
乗り切 1
時半に事務所に 1
▁スーツではなく 1
▁実はこのスカ 1
▁あくまで趣味 1
ちょこは売ってる 1
掃除の 1
▁お掃除きつ 1
家の掃除の 1
▁黙々と自分の 1
ペースで 1
やってます 1
キッチンで料理 1
▁知り合いが 1
手作りお弁当 1
がもともと好き 1
キツ 1
好きなことや 1
なにか好きなこと 1
凝 1
話があるかも 1
オクラ農家 1
て人手不足で誰か 1
クラ農家ですか 1
しておくわね 1
の企業が視察に来 1
▁皆にはその 1
大役 1
たちで 1
時に成田イン 1
時に成田アウト 1
それだけで終わり 1
夜は食事会 1
▁それは面白 1
▁吉田部長 1
視察団 1
は何名くらい 1
▁正式な人数は来 1
ほど前に判明 1
するが大体 1
名ほど 1
人前後ですね 1
借りれるように 1
▁皆一緒の 1
場所にしてくれ 1
お店はやはり和食 1
▁ハラール 1
総 1
称 1
ハラ 1
徒 1
戒 1
律 1
制約 1
コールがダメ 1
その製造工程にも 1
▁速 1
の方が喜びそうな 1
スポット 1
とう 1
ご依頼 1
車は非常に 1
の車種で正直 1
お値引きも 1
難しい状況では 1
贔屓 1
だけの特別価格に 1
なものでしょうか 1
買い上げ 1
何なりとご質問 1
▁先ほども申 1
▁カタログ価格 1
より随分割引 1
不満はない 1
▁オプションで 1
腹いいのかい 1
ご契約 1
社の権藤社長 1
には内緒 1
権藤さんもこの 1
特別サービスに 1
だけの特別 1
胸 1
しまっておくよ 1
にサインと捺印 1
養 1
槌 1
打つ 1
非常に高い 1
話すとは違って 1
駆 1
解説をします 1
聞き役を 1
ツで焼肉が好き 1
▁焼肉 1
どこか近所 1
でいいお店って 1
放題 1
肉はどこの部 1
美味しくて 1
値段も安い 1
お店って 1
ストップです 1
大野 1
▁焼肉の中の 1
私が解説 1
則 1
話を聞く 1
という興味深い 1
▁恐らく竹林 1
さんの中では 1
まずは相手の話 1
に意識を集中 1
表面 1
見えた 1
はただ一方的に 1
投 1
のキャッチボール 1
とは言い難い状況 1
▁ポイントは 1
相手の話 1
えて次は聞き役を 1
命の 1
▁今日は社長様に 1
の営業さんか 1
って言いたいけど 1
親友が 1
癌 1
保険に入って 1
の方はお気の毒 1
ぬ 1
杖 1
ご準備 1
宜しければ一度 1
お役に立てる話 1
ほんの少しでも 1
社長様にと 1
会社に伺った 1
になるので会社 1
どの辺りが 1
駅付近なので 1
駅付近に 1
ファミレス 1
探して参ります 1
は何時 1
その辺に着くのが 1
ちは 1
来週の火曜日か 1
火曜日は接待 1
社はノー残業 1
時でも 1
いいのかい 1
が上 1
▁その前に業務 1
メッセージも 1
が止ま 1
もち 1
領収 1
書を総務に渡す 1
▁タクシー 1
自家用車で来た 1
▁その日は会社の 1
飛来物に 1
を講じ 1
▁社用車の 1
ワゴンが数 1
▁ピ 1
捌 1
▁運転手は総務 1
何名か 1
電してしま 1
どうする 1
備えてあるので 1
▁自宅から何か 1
くるようには 1
買い出しを 1
なんかは買 1
名分ぐらい買 1
でも差し入れ 1
として配り 1
私早速買い出し 1
にも活かせる 1
皆に説明 1
該 1
紛失事件 1
▁昨夜高校時代 1
退勤後飲みに出 1
翌朝になって 1
会社には 1
が同じように 1
紛失事件を起こ 1
会社退勤後 1
あれだけ 1
カードの重要 1
▁先月は 1
落とし 1
警察 1
りしてたら 1
カードの重要性 1
に定めるのには 1
クレームが来る 1
退勤時に預 1
持って帰 1
▁退勤時に 1
同じように 1
事業部は現在 1
リーダー数名 1
外出する際 1
同様に 1
措置 1
▁では私は 1
っちゃって 1
溶 1
豚肉 1
関東では豚肉 1
▁関東では豚肉 1
般 1
▁食って結構 1
▁こっちにきて 1
そばを食べ 1
ビックリ 1
▁天ぷら食べた 1
時も天ぷ 1
らが茶色 1
で揚げてるからね 1
それは茶色 1
に感じるわよね 1
これから平井課長 1
▁関西と関東の 1
しき 1
たりの違いに悩む 1
▁平 1
井課長 1
はチャキ 1
チャキの江戸 1
っ子 1
私が入社した 1
時もそんな感じ 1
▁こっちは 1
がコテコテの関西 1
▁ミス 1
ホって言われて 1
それを知った 1
じゃんとか言わ 1
落ち込みますよ 1
だから平井課長に 1
左側 1
▁こっちは右側 1
肝に命じて 1
という意見が 1
少な過ぎると 1
クレームが出た 1
かっている 1
の減り 1
早かった 1
っその 1
を無くす 1
イル 1
結構なカロリー 1
あまりいいもの 1
全体的に揚げ物 1
が多いので調理法 1
物に 1
るとおり 1
で回しているので 1
調理 1
揚げ物 1
揚げ 1
物の調理が簡単 1
ヤー 1
一定時間放置 1
揚がって 1
煮 1
鍋 1
ある程度放置 1
しておける器具 1
がかからず焼き 1
の金額を教えて 1
私の方で予算 1
を押さえます 1
▁そうして頂ける 1
の調理法での 1
料理が冷 1
▁フード 1
ウォー 1
の金額も 1
半の社員からは 1
値段の割に 1
美味しくて栄養 1
胃袋を支 1
えてください 1
打ち上げを 1
若い方が多い 1
弁当箱 1
ずれ 1
交流を 1
が生野菜サラダ 1
▁こちらに 1
料理が体育会の 1
はないの 1
▁料理はそれで 1
は含 1
▁ビールの 1
おひとり様あたり 1
のビールは缶 1
瓶 1
のビール 1
が好きなもの 1
ひとり様 1
会場にスタッフ 1
は当日 1
すぐ渡せるように 1
袖 1
に黄色い 1
▁あらやだ 1
についちゃった 1
ごはん卵 1
毎朝卵は 1
▁卵 1
多いですよ 1
目玉焼き 1
醤 1
すのが好きです 1
▁卵は目玉焼き 1
オムレツ 1
▁バターの 1
芳 1
りと卵にナイフ 1
らないわ 1
▁想像するだけで 1
▁うちの社食で 1
にするのにな 1
▁うちの社食美味 1
▁なんか味が薄い 1
漢でもないのに 1
ならもっとそう 1
▁社食 1
外で食べるのと 1
▁社食って 1
どこが運営 1
社長の弟が 1
委託 1
で味付けが薄くな 1
食材をケチ 1
▁社食って社員 1
の一環なのに 1
社長の弟 1
サービスに委託 1
に違 1
わふわオムレツ 1
変わりません 1
あの時は 1
騰 1
えるパン屋を 1
モットー 1
そのモットー 1
でこのパン屋 1
産だともっと 1
▁小麦粉の質 1
を落とすことは 1
パンの味が美味 1
を小さくして値段 1
は変えない 1
スライ 1
ってお客さんを 1
んぱんだったら 1
あんをもう少し 1
安いものにする 1
それぐらいしか 1
新商品の開発が 1
ラスクを作る 1
ラスク販売分が 1
白身を捨て 1
白身を捨てて 1
しまっているね 1
砂糖と混ぜると 1
クッキー 1
真ん 1
派な惣菜パン 1
▁その前に 1
しきれない 1
人は民泊に流 1
需要を見込み 1
を上げて来ます 1
▁この場合民泊 1
のキッチンで料理 1
食料品 1
今のうちから 1
世界の 1
共通言語 1
▁英語は確かに 1
共通言語ですが 1
▁私たち日本人が 1
国別の日本への 1
表から読み 1
▁なので私は 1
最近電車に乗 1
▁お互い翻訳 1
オニ 1
ギリ 1
ってるか 1
スーパーで起こ 1
おかしくないよね 1
▁ポップにイラ 1
直感でわかり 1
各店舗に外国語 1
限界 1
転換 1
し活躍が期待 1
よろしく頼んだよ 1
期連続で当社の 1
りで下降線を 1
で売上アップ 1
ひとつひとつ検討 1
▁まずは現在 1
挙げていきます 1
賃料が毎月 1
掛かりなことを 1
掛 1
▁これは近藤くん 1
言い出しっぺ 1
と変わりませんが 1
賃料が半分 1
▁敷金や引っ越し 1
▁既に俺 1
して来た 1
のなら僕は 1
近藤くん 1
自動車保険 1
みました 1
半分の 1
日が半年で 1
万の削減 1
私から連絡を 1
▁これで先ほどの 1
万の削減が見込 1
までの売上アップ 1
が見込 1
めるか 1
同じことを繰 1
どこが間違ってる 1
と思わないのかい 1
特には 1
俗 1
ワードで作った 1
んだったら 1
ごらん 1
おかしな部分を 1
が教えてくれる 1
漢 1
そうじゃないのが 1
っかり間違えて 1
落ち込みます 1
入社した 1
同じように注意 1
▁木下さんが 1
説 1
に触れる機会 1
ことが大事だよ 1
▁私も新聞読んで 1
される社員もいる 1
河合さん 1
河合です 1
お手元に企画書 1
▁最後の 1
仰るとおり 1
プレスマガジン 1
お安くなり 1
万は相当難しい 1
までならお値引き 1
融通 1
とも言えません 1
今日中には 1
▁僕今日から入 1
がないので 1
し節約にもなる 1
▁僕は一人暮らし 1
▁だったら 1
外に行くけど 1
昼は 1
脂肪 1
がやばい 1
しろって言われて 1
公園の周りを 1
ぐるぐる 1
知らなかったわ 1
潮 1
和食のどっち 1
▁ハンバーグとか 1
オム 1
スが食べたい 1
ハンバーグ 1
▁カフェって少食 1
のおしゃれ女子が 1
ちょ 1
があるけどいつも 1
▁確か公園の近く 1
にお蕎麦屋さん 1
店は先月 1
十割蕎麦で 1
ったらしい 1
を満た 1
とん 1
円以上で 1
頼めなくて困 1
▁とんかついいっ 1
表から 1
▁とんかつ 1
以外にも 1
でご飯は大盛りに 1
▁まず弊社の 1
▁知人からの紹介 1
▁弊社でご勤務 1
▁通訳関係の仕事 1
この仕事 1
にも今までの 1
生かせる 1
▁Windows 1
を書くのには 1
韓国語 1
があるので韓国語 1
▁大学卒業後韓国 1
戚 1
ご経験が豊富 1
▁金曜日は 1
時間内に 1
今月と来月は 1
曜日の 1
は全部返上決定 1
宮本さん 1
用意する資料 1
準備を始めてる 1
してるのよ 1
は少 1
時で人員回せ 1
たりしないのかな 1
課長に聞いてみ 1
▁課長が 1
用の資料は当日 1
までは極秘事項 1
そうだよね 1
今のメンバーで 1
全部やっちゃ 1
日曜日まで返上 1
頑張ってる 1
えー 1
打ち上げでも 1
がやって 1
は何人くらいでお 1
アメリカ支 1
語を 1
▁三木さんは 1
から何かほかに 1
参考になる意見 1
▁日頃アメリカ支 1
社員と顔見知り 1
となり 1
▁あとこれは私の 1
人ずつでは 1
支社も心強い 1
開発が 1
アメリカ支社に 1
アポをと 1
▁では私は今から 1
技術と開発 1
人ずつ 1
▁施設事業部の 1
佐久間 1
▁佐久間さん 1
んで怪我をなさ 1
お客様を病院 1
の親指を骨折なさ 1
▁温厚な方で 1
支配人が病院 1
までご宿泊 1
の予定で 1
お泊りになる 1
支配人がホテル 1
椅 1
もスイートルーム 1
ボタ 1
▁スタッフは 1
時間対応します 1
の車でお送り 1
▁温厚 1
訴えられる 1
諸 1
示談 1
限りの 1
ご自宅にお帰り 1
転んだところを 1
方はいらっしゃいますか 1
宿泊者リストの 1
▁転んだ 1
舞 1
菓子と飛行機代 1
現金 1
治ったあとにま 1
ホテル宿泊券 1
を持ってお客様 1
に接するように 1
▁万が一示談 1
目撃 1
▁支配人が 1
戻ってきたら 1
座りください 1
▁学校は現地の 1
毎週土曜日に 1
日本語の補習校 1
補習校の 1
大丈夫だと 1
自分に言い 1
聞かせ 1
友達がたくさん 1
かげで 1
学の 1
に送ろうと決意 1
協力してもらい 1
にも声をかけ 1
ドルを集める 1
▁集まった募金 1
ことをしましたね 1
時の気持ちが 1
事業開発の実績 1
でもよく話題 1
来四半期から 1
我が社が始める 1
▁我が社に興味 1
交通費も支給 1
▁学生 1
希望に沿う 1
やってもらえるか 1
▁私の営業部では 1
営業担当者 1
の記録の整理 1
の使い方はすぐに 1
正式採用者の 1
電話応対はなし 1
部では 1
それは大学生には 1
▁今も学生 1
月いっぱいで 1
▁正規 1
その仕事には 1
▁事業開発部では 1
絡む 1
▁応募の条件 1
の一つに 1
TOEIC 1
と入れる予定です 1
OEIC 1
目安にはな 1
長所 1
ッセ 1
遂げた 1
▁書類選考の 1
通知は 1
月中旬 1
最終通知は 1
以降は 1
本人の希望 1
選考 1
競争率になる 1
正式採用を保 1
ロサンゼルス支 1
野と申します 1
さまです 1
沼 1
田沼 1
▁相変わらず残業 1
仕事を持ち帰 1
赴任 1
いろ 1
▁もうフライトは 1
ANA 1
▁しばらくは車も 1
結構近所ですし 1
お子さんは 1
歳が近いので 1
▁奥さんと 1
とアメリカ 1
奥様に特訓 1
英語と日本語 1
するつもりで 1
▁詳細は追って 1
居住施設と商業 1
▁エリア内で 1
生活の需要 1
という考えです 1
▁居住施設は 1
のマンションを 1
社は斬新な 1
クリニック 1
▁営業部の川 1
手続きに 1
圏 1
幼稚園 1
小学校 1
の高校 1
学校の建設は 1
公園を作ります 1
▁公園には 1
も設けるので 1
のデザインは 1
知られて 1
部の吉田さんに 1
▁吉 1
▁弊社で 1
▁高級という意味 1
リビングルーム 1
お風呂 1
備え付け 1
の設備を充実 1
間隔で 1
▁ワイヤレス 1
管理費 1
は備え付けです 1
ビングルームは 1
欒 1
雰囲気に 1
客室 1
社長が急遽 1
東京に 1
中尾社長と大変 1
泊まり 1
一週間は 1
▁上野社長 1
▁調べて 1
メールの方 1
スイートル 1
宏 1
▁チェックインは 1
昼前でも大丈夫 1
▁うちの社長と 1
昼食をされる 1
▁上野社長のご 1
VIP 1
対応スタッフが 1
子さんは何年生 1
塾 1
は通ってるの 1
計なお世話 1
主人との収入で 1
▁まだまだ働 1
山さんの 1
お子さんは何年生 1
っ子で中学 1
まともに大学受験 1
戦争 1
翻 1
弄 1
されるより 1
の思いをわかって 1
▁御社が 1
導入する新しい 1
▁このツールで 1
みなさんの仕事の 1
躍 1
社の共通言語は 1
時には英語が 1
外国語の者同士 1
の自動翻訳機能が 1
力を発揮します 1
もしなくていい 1
かなり似ています 1
はこのボタンです 1
ボタンです 1
▁ユーザー設定で 1
母国語 1
ボタンを 1
すべて母国語 1
▁あく 1
までも 1
データは英語で 1
日にみなさんに 1
いただか 1
▁全社員の 1
と社員番号 1
から新システム 1
に移行されます 1
日の朝 1
社員番号を確認 1
▁その次のページ 1
言語が選べ 1
はいつでも変える 1
出向いて担当者 1
と顔を合わせた 1
スム 1
▁一時はテレビ 1
経費は随分節約 1
顔を合わせた 1
明らかなほど全 1
出向 1
とても大事 1
奨 1
励 1
かかる経費は随分 1
違ってきます 1
ホテル宿泊を 1
メールを打つよ 1
ジュール 1
は何枚くらい必要 1
はお手元に 1
とモジュールは 1
▁まず弊社の見積 1
りの担当者が 1
屋根 1
契約の義務 1
でも来て 1
ご都合が 1
▁土曜日の 1
土曜日の 1
や補助金 1
土曜日に 1
担当者が 1
▁では土曜日に 1
取れませんが 1
契約しましたね 1
公表 1
全世界の 1
それは相当な数 1
手はなんだった 1
自動翻訳機能 1
▁言葉のための 1
ほぼ皆無になると 1
さには驚きました 1
▁何と比べて 1
▁コスト的には 1
▁コストも社内 1
センターで 1
するコスト 1
成長に拍車 1
▁追加の 1
▁玄関まで 1
▁開発部 1
▁新製品 1
にあたって概要 1
の結果を元に 1
使いやす 1
▁説明書を読ま 1
抑 1
は何人くらい 1
と電話 1
調査で 1
の確保が必要です 1
実行委員に立 1
に近すぎない 1
瀬 1
日あたり 1
▁その辺が 1
とケーキ 1
は会社持ちですが 1
▁私の知り合いが 1
昼食とケーキの 1
海風のメニュー 1
が得意だったはず 1
しそうですね 1
負担になるから 1
人に賞品をあげ 1
▁社長から賞品 1
内田さんから 1
では詳細を決めて 1
▁エクセル 1
▁エクセルって 1
から答えられない 1
すれば解決方法は 1
の仕方が 1
困ってる事 1
見積書の 1
書式を少し変更 1
▁小計 1
足し算 1
するセルを 1
間違えて 1
関数使うと 1
くなりました 1
そんな便利な 1
関数 1
関数で計算 1
場所を無視して 1
で計算しておく 1
の計算 1
の時には小計が無 1
視されるの 1
関数で 1
だと分かりにくい 1
どうなの 1
書式で出して 1
性に問題 1
性に問題ってや 1
ばくないですか 1
建 1
地震が絶対 1
って言ってるから 1
▁はやく耐震工事 1
理事会が動き 1
あえず 1
とか色々 1
意見が分かれて 1
人がが絡むと 1
貸 1
オーナーが決め 1
▁今どき 1
のマンションだと 1
キチンとして 1
管理費が高い 1
派 1
に何にもデータが 1
言えないなあ 1
建て替える 1
▁建て替えるお金 1
に住み替えた 1
が終わる 1
理事会が 1
臨時総会を開く 1
▁手元に何にも 1
状態で臨時総会 1
▁調査結果は来月 1
頭に配布して 1
臨時総会なんだ 1
週間くらいは 1
ラシ 1
チラシを見 1
売り文句 1
かい地震続きで 1
トラフ地震とか 1
地震とか 1
気になりますし 1
▁それに耐震済み 1
チラシ 1
お高めに設定 1
見比べてた 1
耐震済み 1
のほうが割高 1
鹿 1
とか売り込み 1
がやってましたよ 1
いくらくらいなの 1
ドミ 1
に出てたのは 1
他の泊り客 1
ときもある 1
泊まって 1
ステル 1
草のホステルで 1
もあって 1
もよさそう 1
▁羨ましいなあ 1
みておいてくれる 1
は売らない 1
値段にご不満 1
落していまして 1
折角 1
決められた理由 1
をお聞かせ 1
よいか気が引ける 1
そちらのご希望 1
に沿った案 1
お話をお聞かせ 1
土地を売るのは 1
▁出来れば 1
素敵 1
いますし 1
そういうお話も 1
を売るのは 1
▁私たちの方でも 1
お店にされたい 1
漠 1
でしかお答え 1
▁英語は 1
くらいなら 1
▁接待が大変 1
そうな人 1
柔 1
言われた 1
では発掘ツアーに 1
▁日本ではあまり 1
発掘ツアー 1
なんて聞かない 1
の発掘 1
遺跡の発掘 1
出来たら希望 1
させてあげたい 1
所の遺跡の発掘 1
土木系 1
土木はちょっと 1
▁後は地理学とか 1
化学とかが関係 1
▁ほかにも関連 1
文化財保存 1
クルの後輩が 1
文化財保存の実 1
習とか言って 1
で大変だけど 1
輩 1
人がいたら紹介 1
全社メールは 1
大学の後輩 1
とかゼミの先生 1
に口を聞いて 1
貰えるか 1
▁今回の取引の 1
▁僕の方も 1
前実家に帰 1
ってきたら 1
我慢していた 1
が痛くなってきた 1
▁お父さんか 1
耳が悪い 1
父親 1
えてないことが 1
困りました 1
▁補聴器とか 1
どこかに無く 1
▁お財布的にも 1
って聞こえたけど 1
お父さんが補聴器 1
無く 1
なって話です 1
▁補聴器 1
心地 1
に感じる人多い 1
▁父親が補聴器 1
家ではほとんど 1
うるさくて 1
困ってませんか 1
父親も耳が悪い 1
ずにテレビを見て 1
さい 1
を替えたから 1
ニュースでみ 1
状 1
えたら聞こえやす 1
聞こえやす 1
コロンブス 1
構造は全く 1
使うと 1
テレビを見て 1
いくらくらい 1
次第だから試聴 1
うちは本当に助 1
ったら試聴 1
視聴できる 1
その机に飾 1
のチケット 1
期日指定 1
または土曜日の 1
有効のチケット 1
だけの期日指定 1
勿 1
▁広瀬さんの家 1
嬢 1
▁お嬢 1
は好き 1
そのテーマパーク 1
▁広瀬さんの 1
家は千葉県 1
内陸の辺り 1
乗り換え検索 1
でもないのに 1
片道 1
れも 1
庶 1
▁来年に 1
繰り越せる有給 1
何年目 1
日ですね 1
繰り越せる 1
有給休暇も 1
してしまうと無駄 1
▁今年こそは計画 1
が義務化になった 1
関係ないですね 1
方が多いんです 1
喚 1
▁仕事が増えちゃ 1
▁お休みを取って 1
信用にかかわ 1
軽い重い 1
のウェブ 1
ニュースで 1
くペンギンのお 1
そのおもちゃが 1
動かない 1
▁電池がダメなの 1
▁ペンギンのお 1
もちゃが動かない 1
電池を交換 1
を入れると動作 1
お店の 1
動作しない 1
も動作しない 1
型番などは 1
型番 1
のペンギンエス 1
▁確認してまい 1
▁ミニチュア 1
のペンギン 1
体が階段を上 1
るというおもちゃ 1
▁承りました 1
▁名前は竹内香苗 1
は横浜市南区大 1
のつきやすい 1
不良品返送用の 1
を使って不良品 1
▁お手数 1
梱 1
でご不便をおかけ 1
血糖値の値 1
運動不足ですか 1
▁運動不足ですか 1
で体を動か 1
▁膝 1
への違和感 1
▁違 1
和感 1
を感じる前は 1
やってたんですが 1
足が 1
くしてしまうと 1
フット 1
▁病院 1
に行かれましたか 1
痛い 1
歩くのも 1
走ってると 1
る系のスポーツ 1
方がいいですね 1
▁水泳 1
ワイワイ 1
▁水泳って 1
黙々と泳ぐ 1
みんなでワイワイ 1
ワイ 1
ノルディ 1
▁両 1
ントリーの 1
選手が夏 1
になってます 1
▁本格的なもの 1
運動になるし 1
肩こり解消 1
慢性的に肩こ 1
人も会社の中に 1
この面談 1
をしよう 1
▁車で移動なので 1
定時で 1
たら翌朝何とも 1
しゃべりしてたら 1
こそ早く休め 1
疫 1
ので予防が重要 1
りでくしゃみとか 1
▁この時期は 1
回くしゃみ 1
お話が終わった後 1
とく 1
悪そうな人との 1
戻った 1
でも構いません 1
うがい薬が苦手 1
▁うがい薬を使わ 1
菌 1
今回の結果を見 1
▁血糖値が高め 1
お子さんが生 1
り始めるころ 1
▁言葉にならない 1
ってパパママって 1
り始め 1
どもの 1
▁子どもの 1
▁奥さんの実家が 1
都合が合わない 1
助かったよ 1
▁本当にあの時は 1
保険に入ってて 1
▁体が丈夫でも 1
事故とかもある 1
保険で 1
敷居が高 1
だと何か 1
所に出張 1
がとれないんです 1
の出張での予約 1
断してましたよ 1
フロント 1
が言って 1
▁柏 1
木さんは 1
▁でもあの 1
ホテルが予約 1
何かいいところ 1
▁調べては 1
▁宿泊費も 1
下げ 1
もしか 1
▁泊まった 1
名古 1
に泊まった 1
都市 1
トラベル 1
は安いけれど 1
ある程度の不便 1
さは仕方ないです 1
覚えで悪いけど 1
地図 1
盲 1
ガラ 1
ガラだって 1
押さえておいた 1
ブー 1
▁だめ 1
時後しか空いて 1
いたいからなあ 1
事って 1
らなくても 1
ヘルメット 1
を出したり 1
ワクワク 1
かわり映え 1
んないよ 1
非常階段使う 1
してないと 1
毎年してないと 1
非常食もらえる 1
は缶詰パン 1
詮 1
非常食だよ 1
缶詰パン 1
土産 1
ので自分でも買 1
地元のお菓子屋 1
んまり 1
はあるけどネット 1
再来週に 1
地元に帰る予定 1
▁お邪魔 1
もしかしたら無い 1
香りが 1
入っているもの 1
なければ簡易包装 1
簡易包装 1
もし店舗に 1
▁お金は先に 1
もし購入出来たら 1
効率悪いなあ 1
また承認が止ま 1
が必要って 1
効率悪いですよ 1
▁承認する 1
▁井上さんには 1
▁素直に 1
個人事業者 1
だからさ 1
とは違う 1
を打ち込んで 1
置くだけ 1
とわかんな 1
インターフェ 1
ときも困って 1
▁あの時はどう 1
どっさりもら 1
勘弁してほしい 1
& 1
いちゃう 1
馬鹿にされ 1
困ってる 1
そうしなよ 1
仕事のことでも 1
篠 1
のことでもどうぞ 1
転属 1
の方の引継ぎを行 1
したのが 1
という状況です 1
それで困りました 1
職の 1
引継ぎを行わ 1
▁引き継ぎの際に 1
何も参考になる 1
いないと何にも 1
引き継いで 1
田さんも自分が 1
わかっているから 1
いいという考え 1
▁引き継ぎ 1
聞くしか無くて 1
ことが出来るのに 1
この仕事はこの 1
人しかできない 1
書きの域 1
書式でなくて 1
どれくらいの工数 1
▁専門用語 1
注釈も入れ 1
来週中に一度 1
付いた点や 1
いう間に 1
首都高速とか 1
あー憂鬱だねえ 1
月の終わりから 1
リンピック 1
も開催 1
臭 1
ょっとするほど 1
香水が強い 1
人がいるから 1
鼻 1
するだけで 1
▁屋 1
何とか耐え 1
すぎると頭痛が 1
会社の人では 1
取得が義務化 1
▁ナビタイム 1
▁有料版 1
予想のサンプル 1
ビック 1
ビッグデータ 1
駄目じゃない 1
にとっては死活 1
れないんです 1
▁確認したいだけ 1
レスポンス 1
うちの部長って 1
▁今も部長待ち 1
▁そっちの部長は 1
を堅くするの 1
兵 1
ダメ過ぎるから 1
LAN 1
したんだよ 1
ゥ 1
閲覧専用機 1
課は 1
のやり取りメイン 1
で確認 1
直に 1
▁えー本当ですか 1
閲覧 1
▁閲覧専用だから 1
がやば 1
るらしいですよ 1
止ま 1
止まる 1
でも積雪 1
明日休んじゃう 1
▁古賀さん 1
無理だもの 1
▁古賀さんちは 1
傾 1
斜 1
バスも運行停止 1
それは危ない 1
泊まる 1
に追 1
今日は夕方から 1
降り始める 1
して来るなって 1
雪で大変だから 1
くらいの積雪予報 1
とかキャンセル 1
仁科さんと 1
たら前倒ししなよ 1
仁科 1
やっておこう 1
に荒川社長 1
さんとおっしゃる 1
荒川社長 1
▁大変失礼 1
うように厳 1
社の小川です 1
社長にお話 1
取り次いで 1
宛 1
不動産を取り扱 1
のご提案を直接 1
取り次いでもら 1
▁また電話します 1
解除方法が変更 1
当て 1
盗難 1
侵入 1
機密情報を 1
扱う部署や機会 1
来月末から 1
全員の指紋を 1
ロックの解除 1
オフィスへの出 1
扉 1
に選任を一任 1
部長と相談して 1
管理者と部長 1
以上になるかな 1
▁話は戻 1
の解除登録 1
社員全員の指紋 1
個別に声掛け 1
▁できれば来週中 1
何かご質問 1
でも構いませんが 1
肌 1
るような 1
▁指紋認証より 1
を考えて指紋認証 1
▁なければこれで 1
田専務 1
就任御祝の花 1
当日の朝 1
に届く 1
▁花の色に 1
▁その辺 1
でいくらくらい 1
花の本数で値段 1
変わりますから 1
▁この辺りの 1
▁話を聞いたの 1
受付電話で話を 1
▁パンフレット 1
パンフレット 1
がこれ 1
▁意外と 1
和食 1
から選べるんだね 1
▁受付 1
時間も当日の朝 1
キャンペーン中 1
継続して注文 1
もしなくてもいい 1
を移動で使 1
外出する人は別 1
▁内勤 1
パンフレットを 1
休憩室に 1
▁希望者が 1
殺 1
幸田さん 1
▁どこの幸田さん 1
繋いでください 1
▁突然のお 1
恐縮 1
上場をご検討 1
企業様 1
を伺う 1
私共とお会い 1
聞かれた 1
職場環境 1
のお話に限らず 1
も有益なお話 1
をお持ちの 1
られるのですよ 1
情報交換という 1
くらいの軽いお 1
近くまで 1
を他社に 1
▁期末 1
で忙しい時期 1
忙しい時期 1
お返事を頂ける 1
▁今後も当社 1
アップに向けた 1
▁情報の 1
引き出しは沢山 1
今後も情報交換 1
研修の案内を 1
にある通りですが 1
タル 1
鬱 1
活躍が期待 1
できるような層の 1
発見することと 1
▁折角 1
さんに声を掛け 1
人選だね 1
生懸命 1
が返ってきたね 1
肝 1
▁酒の飲み 1
胃カメラ検査で 1
プが見つかって 1
その場で切 1
経過観察 1
▁血液検査で 1
コレステロール 1
血圧も 1
少し高めに 1
軍 1
▁切 1
健康的な 1
いつの 1
深刻 1
▁わかっているよ 1
ヶ月間で分散 1
▁場所は丸の内 1
クリニックです 1
全社員で 1
日時の割り振り 1
長に連絡します 1
上日程の変更 1
が困難な社員 1
に対しては 1
クリニックの 1
枠を押さえて 1
仮押さえ 1
週間前までなら 1
中途 1
健康保険組合 1
からの補助金 1
見積も 1
でございますか 1
▁頂いたお電話で 1
まともに相手 1
手際 1
経営陣に 1
ご安心ください 1
太郎ってもの 1
ございましょうか 1
▁当たり前 1
▁こんなに大きな 1
が来期に 1
々な結果になる 1
目に見えている 1
くらい悪くなる 1
がおっしゃってお 1
ごもっともです 1
切りに 1
を通じて 1
現段階では未定 1
ら速やか 1
にお知らせします 1
期待して 1
や業績推移 1
スピー 1
▁今後も 1
事業を邁進 1
これより 1
臨時取締役 1
▁お手元の 1
招集通知に記載 1
及び売上計 1
小関取締役 1
本件 1
迷惑をおかけ 1
本件の経緯 1
ネット決済 1
▁受注金額は 1
先方より新規 1
新規受注 1
取り扱い 1
検収は 1
つまり来期の売上 1
浦田専務より 1
今回の新規案件 1
一括で検収 1
に基づ 1
向けネット決済 1
号導入先となる 1
今後も良好 1
な取引関係を 1
検収及び売上計 1
のご意向 1
で検収時期を 1
▁小関取締役 1
した段階より 1
各取締役とも 1
意見交換 1
がベターであ 1
▁坂井監査役 1
▁株 1
▁当初受注した 1
はできないと 1
関係悪化に繋が 1
くださった 1
こともあり 1
に足掛かり 1
関係悪化 1
開示事項になる 1
お手元の開示資料 1
取締役会終了後 1
証券取引所の 1
も確認済みです 1
▁業績予想の修正 1
決議事項 1
としての取り扱い 1
が予想されるね 1
▁期末に向けて 1
できる限り邁進 1
して参ります 1
以上で 1
臨時取締役会を 1
証券取引所上場 1
担当の高田です 1
恐れ入 1
ござ 1
いましてお電話 1
利益に対しては 1
影響があると見 1
▁適時開示が必要 1
サイドが交渉 1
中では 1
▁仮に遅延 1
臨時取締役会の 1
速やかに 1
開示資料 1
での売上遅延とは 1
と言われる可能性 1
での新規受注との 1
一括検収への 1
新規受注の検収 1
経緯 1
難しかった 1
新興 1
肝に命 1
水口くんから 1
か説明してもら 1
して売上計上 1
随 1
追加で 1
▁追加の発注は 1
検収は一緒に 1
はそれで決まり 1
お願いに行く予定 1
導入になるから 1
先方は 1
一括検収を希望 1
来期にずれ込む 1
可能性も否定 1
顧問 1
監査法人の耳 1
割以上を占 1
めますし 1
来期に 1
開示事項ですね 1
した段階 1
▁機関決裁が必要 1
▁決議事項 1
として残す必要 1
各所 1
に情報共有 1
でご報告とご相談 1
から呼び 1
先方より 1
今回の新規発注 1
が導入したあとに 1
期末 1
に近 1
っていうこと 1
に相当貢献 1
と今回の新規 1
のご意向には沿 1
交渉の場 1
上場会社として 1
月下旬に差し掛 1
ノベルティグッ 1
▁例年通りとは 1
はどこに 1
いっても好評 1
▁壁掛けは 1
▁壁掛けはあまり 1
喫 1
事を言っている 1
のを聞いちゃった 1
暦に関係 1
パッと 1
箋 1
メモ帳とか 1
耗 1
現場の意見を 1
はないと思うから 1
月の中旬から 1
りが始まるから 1
の高田です 1
経済出版社の 1
渡辺 1
上場した 1
が期待 1
▁特集記事 1
至 1
開き 1
してのページ 1
純粋 1
▁ライターが記事 1
弊 1
社内での確認と 1
と撮影で 1
時からのどちら 1
営業部に新任 1
サイドワゴンの 1
ゴン 1
備品申請書を 1
▁ポータルサイト 1
の総務部の 1
事務備品申請 1
がアップ 1
して必要事項 1
を入力して総務 1
翌日には 1
▁無ければ 1
▁新規購入 1
▁新規購入になる 1
▁受付後 1
を切 1
▁遅くとも閉店 1
切られたもの 1
を持ち帰 1
事前のお支払い 1
の木の種類と 1
▁松材を 1
× 1
センチの太さに 1
デビットカード 1
でのお支払いが 1
ビットカード 1
氏 1
有効期限 1
卓 1
也 1
有効期限は 1
面の 1
コードは何番 1
が完了しまして 1
は本日 1
ご不明な点などは 1
は完成してる 1
▁今週末には完成 1
時に新規の 1
▁木曜日の 1
夜に残業 1
64 1
ガバイトの 1
までご使用 1
通常保証が 1
追加料金で 1
ご自身の過失 1
日以内に返品 1
自身の過失 1
お申しつけ 1
の売上はどうだい 1
発売された 1
既存の青い靴 1
が悪いため 1
停止 1
▁青い靴が売れて 1
見極めるといい 1
をするという手 1
デザインし直す 1
▁ツイッター 1
▁新製品の中で 1
中でも特に 1
売れている 1
黄色い 1
花柄のベスト 1
は予想以上に 1
は予想 1
売り上げの比率 1
35%、 1
この調子で 1
の方が役職が上 1
▁念の為 1
食事を 1
▁和食は焼き魚 1
▁お食事の前に 1
お飲み物 1
▁ビールや 1
▁ワイン 1
リストはこちら 1
タテ 1
シャンパンと 1
▁ではシャンパン 1
▁ワインがお好き 1
の赤ワインを 1
▁楽しみだな 1
する前に伺います 1
▁本日ご一緒 1
をお預かり 1
貴重 1
▁入って 1
券と一緒にお 1
▁新聞や雑誌のご 1
▁新聞 1
ここに来て 1
研究してるのよ 1
大学は一緒 1
知ってたりして 1
▁私もいつも 1
だけだったしね 1
びっくりしたわ 1
明日タイラーを 1
タイラー 1
には内緒にしとく 1
ど真ん中です 1
お寿司とか 1
アメリカ人の方 1
がだめという 1
お寿司も 1
寿司屋さんは 1
巻きとか 1
アリーさんが肉 1
ダイエットでお 1
肉食べるの 1
彼がお肉は食べ 1
頼めば 1
一ヶ月 1
前職と全く違う 1
初めての仕事 1
勘を取り戻す 1
機密保持規則 1
と聞 1
社には 1
書類が極秘扱い 1
▁私はまだ 1
個人情報を守る 1
という点で 1
機密保持 1
は非常に重要です 1
しっかりと聞か 1
印をつける 1
大切です 1
▁印をつける 1
印を 1
▁こちらに書類の 1
判断の仕方が 1
▁突然のお電話 1
社さんの 1
手できないかと 1
うちのほうの在庫 1
残ってますよ 1
用ですか 1
すれば明日には 1
いでに 1
▁発注書だけ 1
すぐ送ります 1
御社へ 1
▁大切な 1
に変えることって 1
しにくくて 1
有料だけど 1
ord 1
変換お願いして 1
▁僕もこのソフト 1
経費で落と 1
せるし 1
方教えてくれよ 1
ちらっと 1
が変わるんだろう 1
体制になる 1
商品開発部も 1
するみたいなこと 1
▁部署を変わる 1
▁前の 1
に移ったんだけど 1
ことが出来てる 1
▁せっかくの 1
いないよ 1
書き出 1
何度も出張に行 1
ってるよね 1
ちょっと不安で 1
英語が話せる 1
がちゃんと出来る 1
▁こっちに皆が 1
カジュアル 1
とか色々ある 1
食事が心配で 1
寿司 1
かもなぁ 1
焼肉 1
さんにそう言って 1
▁いっぱい 1
動けないからな 1
頑張れよ 1
▁初めて 1
のことだから 1
だらけで 1
▁そのうち慣れる 1
楽しんでこいよ 1
話聞いてくれる 1
阪急神戸線 1
に出られる時間が 1
渡せないと 1
書類はロビーの 1
受付に 1
を説明すれば 1
代理で伺う 1
顔を出 1
警戒は 1
まで電話ください 1
には出 1
気にな 1
翌日には届いて 1
が変わった 1
業者で 1
最近リストラ 1
注文の翌日に 1
揃え 1
どう思われますか 1
料金設定 1
には特別料金設定 1
業者がよい 1
お揃 1
実験室に入る 1
谷口君と二人で 1
では実験室に入る 1
が払 1
キャ 1
透明カーテンで 1
シューズカバー 1
ものは全て使い 1
揃えるもの 1
安全対策費 1
入れる予定です 1
眼 1
検診 1
に入れたい 1
実験 1
着け 1
たり着け 1
りしていましたが 1
そこを 1
できないかと 1
実験室 1
谷口君がいずれ 1
下書きが出来 1
たらお見せします 1
▁他グループの 1
また明日にでも 1
川口さん 1
請求に対応する 1
が締め日なので 1
▁発注書 1
すぐに対応して 1
忘れちゃ 1
方は多いですよ 1
来週中に 1
正式な連絡 1
お任せください 1
から出て 1
眼鏡 1
が見にくくて 1
あちこ 1
捜 1
しまわってよね 1
さっき山口さんが 1
掃除してたよ 1
バイス 1
手に取って触 1
来週の水曜に 1
とる予定にしてる 1
月後半に休む 1
が動かせないから 1
時期に実家に帰 1
休みを兼ねて 1
舎 1
釣 1
夏の予定は 1
▁奥さんと二人で 1
海外旅行だから 1
子供たちがまだ 1
は大変だよね 1
はいつも海外出張 1
上手なだけかも 1
ってないね 1
▁何時ごろから 1
に行くよ 1
工事をしていて 1
そのせいで 1
ってるらしい 1
時までには直り 1
繋がらないなら 1
▁いつも混んでる 1
▁助かったー 1
に座っても 1
▁マイクの調子 1
確認しますが 1
出席者の方 1
もらったら 1
前に配る 1
効率がいい 1
ペットボトル 1
水を皆様の席に 1
のほうにスナック 1
の時間は 1
ワーキングの 1
談できるような 1
られたとこなので 1
時間をとらせる 1
来月発売 1
私と川口さん 1
▁商品開発からは 1
確か宮迫さんが 1
プレゼンに 1
必要なら宮迫 1
狙いを 1
ほっと 1
を見せる 1
▁数字が苦手 1
だとおっしゃる 1
的なもの 1
お客さんのほうが 1
比較表 1
字が小さすぎる 1
くらいなら収まる 1
▁この最後の 1
このスライドは川 1
▁これなら大丈夫 1
無かったよね 1
人達で社内 1
力入れてる 1
ハラスメント 1
研修受けて 1
行ってたな 1
珠璃愛んとこの 1
部長って 1
はそんな 1
行けば 1
やだ 1
恋那 1
っていうか 1
意識 1
しないでやっちゃ 1
そんな悪い人 1
はあれ行くの嫌々 1
頑張ってるかも 1
受けたい 1
わなきゃだから 1
か微妙なんだよね 1
研修リスト見た 1
受けたいのは 1
▁確か研修も社員 1
からの提案 1
▁わかんない 1
▁恋那 1
気がするね 1
してウチら 1
も環境改善貢献 1
ウチらみたく 1
達と話す機会 1
何かな 1
ありきたり 1
とかなら世代も 1
関係なくない 1
▁マクマラン課長 1
王子だよねー 1
憧れなんだけど 1
このイベントなら 1
▁次は研修申請 1
手順の説明です 1
管理システム 1
管理者 1
考えを纏め 1
が反映されて 1
全社員が入力 1
全体が研修申請 1
研修種別 1
研修選択で 1
もできますね 1
▁必要な研修が 1
を押すと前の画面 1
予定日時 1
の研修は部門長 1
も申請可能 1
尚 1
所属セクション 1
弱 1
関係者全員の 1
スが 1
▁新規研修申請 1
基準は 1
上の必要性 1
を加えて新規 1
▁承認まで 1
以 1
コスパ 1
し人事で承認可能 1
で取扱い 1
として残ります 1
申請可能 1
再び 1
▁アンケート結果 1
を含め 1
気づきの点 1
にご参加 1
進行中なのは 1
環 1
せたやつですよね 1
▁そして予想外 1
反響が返 1
まい 1
▁全社員の半数強 1
▁新たな人材確保 1
のご紹介と承認 1
▁中間研修は 1
各所責任者が 1
部の予算内で 1
▁今後は人事 1
が全て実施する 1
は各部署主導 1
で研修計画を決め 1
▁にも関わらず 1
に不安を感じる 1
人事で承認 1
入る人材育成 1
要望を人事で 1
集約して 1
研修リスト 1
▁このリストは 1
システム上で行 1
で宜しいですか 1
フロー 1
の問題点と改善 1
ヶ月以内の 1
するものであれば 1
▁当たり前ですが 1
業務知識を身 1
人の不安払 1
拭 1
不安が払拭 1
研修が最小限で 1
済みます 1
面談出来る様に 1
事前に話し合 1
は半年程残しては 1
▁異動願いが言い 1
話を詰めて 1
▁新人の不安 1
は知識不足 1
でも基礎知識は 1
が高いという事は 1
このプログラム 1
詰め込み 1
目線で研修 1
に反映 1
これこういった 1
半年でこれが 1
要望をあげて 1
電話してる時は 1
なくていい 1
って付けないと 1
▁ウチでは 1
窓見てきて 1
窓開けっ放 1
窓を 1
神 1
点と改善案は 1
からの提案を加 1
オリエン 1
研修日程の変更 1
は可能な限り簡略 1
で行う講習を 1
▁オリエンは 1
層部 1
時間を短縮し 1
規 1
怠 1
夕方からランチ 1
基礎 1
講師は外部から 1
以外にも使える 1
できると使い 1
▁部門間 1
▁部門間研修では 1
幾つかの部門で 1
営業や 1
の配属予定者は 1
▁この研修も 1
する傾向がある為 1
▁歓迎会は習った 1
社交術も 1
試せるし 1
やっぱり夕方から 1
やハラスメント等 1
社交術といった 1
短すぎる 1
会でどなたかに 1
の結果を元に現状 1
殆どの 1
後行っている 1
▁今後は朝会は 1
何名 1
名ほどですか 1
分にすると 1
毎朝それだけ 1
件費 1
に見合った内容を 1
話し合って 1
挙げた 1
を行っている部は 1
分以内の 1
だけで行なって 1
社外に出る者も 1
きたり 1
済む事以外に 1
絞って報告 1
▁毎朝は無理 1
▁議題がある場合 1
時間で結論が出 1
メンバーで別途 1
関係のない者 1
ご共有 1
仰る通り 1
▁黙 1
拘 1
優先順位確認 1
のみに目が行きが 1
部署や 1
って事を理解すん 1
甲 1
本部長 1
ではどの様に 1
効率化 1
では出席者が受け 1
になる事を防ぐ 1
と共に 1
審議時間を短縮 1
にかなり長い 1
▁実は海外知財 1
▁全ての 1
必要に応じて長 1
めの会議を別途 1
設ける等 1
▁皆が 1
な議論を避ける様 1
発言するって事 1
いや 1
を決めるのに延々 1
部署立ち上げの 1
かなり遅れを取 1
ウチも例外 1
に入った当初から 1
のやり方 1
営業から 1
へ出世コース 1
新部署立ち上げ 1
様のさらなる 1
ご活躍 1
ぐるぐる回してる 1
私の専門分野 1
トレンドに追 1
とらえ方や 1
▁国際 1
時点で 1
需 1
はそんなに見込め 1
維持して優位に 1
りゃ 1
れちまう 1
競争でもっとや 1
警 1
鐘 1
を鳴らす 1
年で 1
立ち上げちまう 1
自社 1
▁何とでも 1
を巻き込め 1
がそういう意図で 1
挙げたのは 1
▁万が一ん時は 1
泥被れば済む 1
素直に 1
CMO 1
くださった時 1
MO 1
ろうとしてる 1
オフィ 1
▁時期が来たら 1
お話しますから 1
年前はそんな 1
だろうに 1
乾杯しましょう 1
おっかねーなあ 1
あんま 1
のサンプルです 1
▁先程大ま 1
とする 1
▁実際のデータを 1
に関連する 1
とはどのような物 1
所まで設定 1
なんかアニメ 1
のキャラ設定 1
表みたいね 1
かなり古 1
倉 1
之 1
▁あくまで 1
こいつの 1
フォンの最新 1
▁好きな 1
週末の過ごし方 1
でも全部電子版 1
幅広いですね 1
刊 1
サイエンス 1
ナル 1
ってどこでこんな 1
ゲット 1
販売計画 1
ると仮定します 1
販売計画作成ね 1
ニーズを 1
気に入る方法 1
当社製品 1
気に召 1
理屈 1
家ではのんびり 1
几 1
帳 1
デスクの掃除 1
は欠かさず 1
新製品の開発 1
個人情報保護法 1
クション 1
造 1
概略 1
ゆる 1
ユーザ像です 1
その場で学べ 1
フィール 1
データでは 1
人々を連想 1
架 1
人物を具体的に 1
描 1
や職業は勿論 1
のですよ 1
にはそこまです 1
る必要性がい 1
都市部在住 1
もう思い浮かび 1
この男性が 1
時計回り 1
くなってきたから 1
物のコートかな 1
淋 1
はアニメ 1
随分と異なる 1
で思い浮かべ 1
が生 1
から生じる 1
を最小限 1
にできます 1
ものか実感 1
お時間の都合で 1
所属を挙げ 1
▁マクマラン 1
しかね 1
いるだろうに 1
場を設け 1
もご都合が 1
是非ご参加 1
仕方ないよなあ 1
恐れ入りますが 1
▁奥のお席 1
方いらっしゃいますか 1
何故 1
企画課は 1
部門に 1
課として捉えて 1
▁部門間で稼働 1
の仕事の妨げ 1
効率性 1
▁皆さんも何か 1
れば僕たちもやり 1
は色んな意味 1
ぶるからね 1
▁カスタマーは 1
迅速に関連 1
下ろ 1
壁を越えて 1
情報交換 1
他の部署の方と 1
▁いろ 1
に繋がるかもな 1
▁私も皆さんから 1
事が沢山 1
は部門 1
の高い 1
をする課と捉えて 1
を務め 1
お一人 1
定的 1
このメンバーで 1
理解を深めて 1
での意見交換 1
の場にして 1
に拍手ー 1
やたら長 1
おじさん達 1
らん 1
略 1
ともい 1
われます 1
▁お話中 1
のお席へどうぞ 1
▁改名して 1
の一課として 1
と事業企画部 1
を再編 1
は全く 1
とお考えください 1
理解を深める事 1
を打ち出す事 1
べく 1
概略の詳細 1
に届いております 1
▁先週お送りした 1
急遽社長が 1
室長平良も同行 1
▁平良不在 1
は昨日メールにて 1
の件は 1
専務と私梨本が 1
として出席します 1
記念用の手土産 1
先なので 1
菓 1
▁他は通常業務 1
▁平良 1
氏家さん 1
疲 1
社から視察に来 1
制約が多くて 1
なので予約は早い 1
全般 1
トス部長はお魚 1
上に高血圧 1
でカロリーと 1
平良室長 1
▁でもあそこは魚 1
亭 1
修行をしてきた 1
も避けられるし 1
▁でも金曜日の夜 1
ならご亭主と 1
後で私から連絡 1
氏家 1
箸 1
ナイフとフォー 1
とトス部長はお好 1
みにうるさ 1
より楽なほう 1
来週の水曜日に 1
大阪の 1
▁もしか 1
すると先月のあれ 1
みたいトラブる 1
あれ出す 1
前に必要になる 1
貰えませんか 1
その時言っとく 1
木曜の夜って 1
開いてたっけ 1
あれ出す店 1
開いて 1
▁間島さんですね 1
わかりますね 1
事を理解出来 1
謎 1
理解出来るよう 1
入りノベルティ 1
タオルですね 1
を通勤に 1
ここからが大事 1
で通勤 1
許可を得る 1
しちゃダメです 1
言っている 1
理解出来ている 1
▁無許可 1
のまま上記 1
電車やバスね 1
申請対象者 1
に適宜 1
今のはわかった 1
くれても 1
人は手を挙げて 1
.. 1
エコだよね 1
を推進するべき 1
▁サ 1
エコ 1
で健康的な移動 1
賛同 1
▁勤務地 1
ませんよ 1
ロイも 1
▁でもそれは交通 1
費を計算する為 1
▁それもあるけど 1
は労災の一種 1
電車やバスでも 1
会社は社員全員 1
あー 1
▁クイック 1
メールが来て 1
にはちょっと馴染 1
ノーティス 1
とかもあるんだぞ 1
▁ナビが全部 1
のユーザ 1
同士で情報共有 1
通知が大事 1
▁ウチでは自動車 1
▁あってるよね 1
クで来てます 1
ロイ 1
皆に説明しよう 1
▁お話中断 1
サマリーするね 1
▁たま 1
効率良く働く 1
悪くて 1
ご一緒 1
一番右のココア 1
だよねー 1
結構ペラペラ 1
とか海外知財扱う 1
将来無くなる 1
▁実はこの会社の 1
海外に居た 1
▁こんなにいい物 1
えればいいのに 1
っこいい 1
憧 1
って強い気持ちが 1
る仕事 1
課長の下で働く 1
かっこいいし美人 1
姿 1
みんなハッピー 1
ってマジで思うわ 1
資料室 1
パンフ 1
あんま静かだと 1
っちゃうから 1
が遅れてるかな 1
纏めて貰った 1
長ったらしいな 1
雑に言っちゃう 1
規定の 1
をやめてもらう事 1
面倒くさ 1
長く書いちゃう 1
最後まで 1
明確にシンプル 1
仰る通りですっ 1
書き出してみて 1
整えればいい 1
先ずそこ読 1
色んな意味 1
眩 1
近年我社も 1
人事規定の各 1
文書は日本人 1
っこしいからなあ 1
を起こした場合は 1
自家用車と同様 1
通勤途上災害と 1
労災の一種 1
数名 1
いない社員もいる 1
可能性がある為 1
申請ルールを 1
社内に周知 1
通勤の推奨 1
と承認条件 1
輪 1
▁告 1
▁各部署の 1
するとか 1
戸倉 1
今週中に纏めて 1
佐々 1
さんは金曜日まで 1
で大丈夫か 1
という意味 1
仕事には 1
資料室にいく 1
▁改定ですか 1
▁自家用車等の 1
通勤は基本的に 1
▁でもそれは申請 1
で対象者に申請 1
域 1
理由がある 1
▁駐車場も高 1
▁その前に会社 1
▁毎朝見つけるの 1
難しそうですね 1
ドライバーじゃ 1
読めますし 1
している場合も 1
通勤途上事故 1
通勤途上災害 1
まで研修受けて 1
挙手 1
時はメモをとる 1
喋 1
りは休憩中 1
あなたも 1
もう何年目 1
ないことに少し 1
▁でももう 1
かあまり自信 1
ブライ 1
開拓 1
離れしてる 1
▁しかもうち 1
対象だから余計 1
▁発行部数があ 1
▁確かに発行部数 1
けますが 1
払う側としては 1
発行部 1
生き抜いて 1
ライバル 1
差を一目で 1
東京の大手 1
会社ってあの 1
いたいところ 1
▁その中でハワイ 1
のお姉 1
今では社員 1
グア 1
▁規模 1
妹 1
▁ご相談に乗って 1
▁ではご契約番号 1
はお持ち 1
でいらっしゃいますか 1
▁ご確認のため 1
補償保険 1
の返金額がいつも 1
万円近くも 1
月に自己監査の 1
既 1
にお済みですか 1
添付して 1
に送信して頂 1
保険会社の 1
か覚えて 1
月中旬ぐらい 1
会社からのメモ 1
▁自己監査 1
の書類は 1
▁返金額に変更 1
請負業社の 1
請負業社の数 1
万円近くも上が 1
自己監査の際に 1
▁担当の 1
▁確認次第こちら 1
会社って 1
連休がほとんど 1
ないのかな 1
▁仕方ない 1
受け持っている 1
他の社員が関与 1
まりないのかな 1
感じて 1
だけどライバル 1
思いますけど 1
退社 1
いいところ 1
▁フレキシ 1
時間は本当に助 1
緩 1
会は断れない 1
毎回断る 1
目で見 1
若いから 1
娘も昼は学校で 1
に行って見 1
サラダ 1
▁楽しみ 1
白石 1
上がりましたが 1
知識をより深 1
質問に迅速 1
に少し響 1
いたと感じました 1
機械の 1
専門用語で質問 1
知識不足を感じ 1
▁機器に詳しい 1
方や 1
対応が不安 1
▁東京の本社 1
まで出向いて 1
いただく形にはな 1
今年から 1
兼任 1
人を育て 1
るような立場 1
結婚して 1
引っ越し 1
通勤に 1
と人事から伺 1
▁通勤時間は長 1
勤めて 1
環境を考えると 1
白石さんと 1
▁職場 1
▁これまた唐突に 1
犬が高齢で 1
遠くなってきた 1
話してたパイ 1
歩もできますね 1
人しか 1
吠えたりしない 1
爬 1
犬猫 1
オシッコでも 1
ですがオシッコ 1
を家の中で 1
あまり自信は無 1
てずに家の中で 1
ではやめましょう 1
はケージの中に長 1
がベット 1
もあるわけだし 1
は臭いがつく 1
敏感になる 1
▁田端さんは犬が 1
大人しいよ 1
▁田端さん 1
一度お試し期間 1
了承 1
マイクさんと 1
をされましたよね 1
に差し支えない 1
ないのに担当を任 1
難しかったのが 1
▁バスは乗らずに 1
なく高くついた 1
へのお土産探し 1
ったんだけど 1
▁道を走ってると 1
って言われて 1
は見つからないし 1
痴 1
バスでしか 1
達が大阪の 1
支店に顔を出 1
してたから 1
テレビの 1
の使い 1
って頼まれたの 1
から音量をあげて 1
音量をあげ 1
マイクさんと私 1
▁音量が低くて 1
んでしょって話 1
▁デイブさん 1
ワーキング 1
でカナダに滞在 1
英会話を学んで 1
するみたいな 1
言い方 1
っき 1
イックの点 1
▁中高大学と英語 1
をきちんと勉強 1
点までスコ 1
アをあげる 1
かりやすかったし 1
上がった 1
実感があった 1
▁義理チョコ 1
配りたく 1
わけにもいかない 1
義理 1
人と結婚して 1
はご主人様 1
バラの花を毎年 1
▁ベビーシッター 1
子供は預けて 1
毎年恒 1
高めのお財布 1
ねだり 1
▁アメリカは女 1
にチョコレート 1
▁娘 1
を交換 1
配るらしいよ 1
▁義理 1
わけか 1
さんの呼びかけで 1
社内の女子に一 1
呼びかけようか 1
になかった行事が 1
来ましたよね 1
かっている人とか 1
それこそ 1
勘弁 1
って何人いる 1
しておくね 1
使える製品で 1
購入の検討 1
▁聞いた事のない 1
上海に本社 1
▁郵送 1
▁郵送費込み 1
安すぎる 1
も受け付けない 1
のウェブページ 1
▁ページもし 1
しているし 1
視察に行って見 1
騙されるより 1
よっぽどお金 1
それぐらいなら 1
騙 1
月末がフォーム 1
業者から 1
仕方が 1
▁電話番号とか 1
▁携帯電話は 1
繋がらない 1
回収してきます 1
ブの 1
りと 1
に行って来ますが 1
郵送 1
ければ今日中には 1
▁戻って来た 1
車購入の足し 1
にする予定 1
が遅い 1
かもっていう噂 1
がある事を願う 1
準備しておくね 1
田中さんが 1
済みですか 1
で入力も済ませ 1
▁パスワードは 1
▁パスワード 1
合って 1
冊 1
写真付きで 1
先週松戸 1
さんがお休みした 1
久し 1
ぶりの 1
▁特に何があった 1
庫 1
確認が松戸さん 1
ミスをほとんど 1
尊敬します 1
必死なだけ 1
マイペースで 1
▁契約社員 1
しているところ 1
▁では今日も残業 1
肘 1
編 1
▁膝パットでも 1
に出演が交渉済み 1
と場所 1
登 1
▁選手が投げた 1
いつもお世話にな 1
ラブ 1
ゴールデン 1
バーが見栄え 1
▁くれぐれも映り 1
匹 1
映画の撮影で 1
を採用 1
▁確かに高額 1
だのホテル代だの 1
の計算だった 1
が近いので 1
ホテル代 1
いてもらうよう 1
質は上がって 1
来たとはいえ 1
に出てもらうのに 1
じゃおかしい 1
少しぐらい値段 1
万は切れません 1
スクリプトと 1
大丈夫か交渉 1
選手はお金 1
プレーヤー 1
に選 1
ばれて 1
活躍 1
横浜 1
とみ 1
ルーム 1
決まりました 1
総括 1
の方も 1
慰労 1
とほぼ同じ 1
スタイルで行う 1
も開催時間も増 1
内田さん 1
のメンバー様 1
を観光にお連れ 1
▁屋形船でランチ 1
皆さまの到着 1
到着予定なので 1
迎えのまま 1
かう 1
夕 1
渋滞が心配 1
▁日曜日なので 1
はさほど心配ない 1
伊 1
▁お土産は毎年 1
陶 1
器が多かった 1
に乗って来られる 1
軽くて 1
あまり大きくない 1
何か記念 1
からよく 1
会社のロゴ 1
ートバック 1
と一緒にお 1
と聞きますが 1
▁知り合い 1
に小物のデザイン 1
▁やはり百八十個 1
にかかってしまう 1
▁トートバック 1
ーチ 1
百八十個 1
分の見積もりを 1
▁お食事のコース 1
▁和 1
▁ここの給湯室 1
しくないよね 1
が来た時にお出し 1
スーパーで 1
クリー 1
会社に差し入れ 1
してくれた玄米茶 1
ってどこで 1
うちの実家から 1
▁うちの父が小豆 1
農家 1
をしてて 1
んこだわった食 1
が作った 1
こだわりが強 1
噌 1
全て手作りだよ 1
目玉焼きの一 1
作れないのに 1
さんのお父様 1
▁相葉 1
裾 1
▁相葉さんも 1
最寄駅は 1
から離れるから 1
家賃安いよね 1
▁私も駅から徒歩 1
バスに乗ら 1
を乗り継ぐなら 1
ぐらい離れて 1
も通勤時間は同じ 1
家賃 1
もできたし 1
暮らし 1
の電車で座れる 1
スコ 1
なんて大学生以来 1
心者 1
▁じゃあ早速来週 1
朝礼を始めます 1
よいよ 1
声掛けを積極的 1
うように 1
来ますので 1
のほど 1
室から運ばれて 1
筧 1
▁主任 1
へ移動しますか 1
資料は 1
は点検のため 1
エレベーター 1
が使え 1
宅 1
の際は東口の 1
非常階段を利用 1
朝礼を 1
里帰り 1
有給願いが 1
日前から 1
▁里帰りするには 1
ちょっと期間が 1
るのに片道 1
週間は滞在 1
▁日本経由とか 1
韓国経由とか 1
遠いな 1
この間部長から 1
有給の繰越 1
が今年から 1
日分来年まで 1
企画を夏にやる 1
少しぐらい 1
よっぽど嬉しいよ 1
▁無い物ねだりか 1
▁異動の希望 1
体調を崩 1
界 1
院などにも一人 1
▁ヒュースト 1
▁ヒューストン 1
▁特には 1
▁引き継ぎの状況 1
▁ほぼ 1
各種書類 1
はメールにて 1
署名して 1
社員証は最終 1
記入願います 1
の試みという事で 1
作成に繋がる 1
にお電話して解約 1
意図 1
佐藤さんの 1
▁契約社員の方 1
でも構いませんか 1
方でも 1
半日 1
▁では佐藤さんの 1
▁特に来月は 1
の作成をこの 1
で戻ってきます 1
会議室で待 1
長お疲れ様です 1
回納入 1
▁受注 1
半は準備期間が 1
▁工場は明日から 1
準備を始めて 1
佐藤部長の上 1
のお子 1
今年中学に入学 1
この間小学校 1
に入学したばかり 1
去年幼稚園 1
▁かわいい 1
今のうちにかわ 1
パパ嫌い 1
下の子は女の子 1
▁お嬢さんは 1
▁今年で小学 1
佐藤部長と 1
打 1
合せの予定で 1
急にお呼び 1
立てしてしまい 1
▁見積は問題 1
全面 1
回納入して 1
とも確認しますが 1
▁明日以降に 1
▁実は先日 1
明後日の 1
社で行くか 1
するかを 1
継続して 1
▁リードタイム 1
いっても 1
対応が早いです 1
受注先なので 1
の流れ 1
ですり合わせ 1
長い目で見 1
▁先日は 1
▁詳細はすぐに 1
業者との相見積 1
ご了承 1
▁確認次第 1
すぐに対応 1
もう資料室に 1
この辺り 1
のはずです 1
はペーパーレス化 1
▁久しぶりに 1
田中はただ今 1
時過ぎ 1
る予定です 1
▁私で宜しければ 1
が帰社次第 1
ように致しますね 1
納期の件 1
▁毎回と言わ 1
工場長 1
▁次回 1
短で 1
か月半ほど見て 1
か月半ですか 1
できれば遅くとも 1
動き出しますね 1
頭には具体的な 1
話できる 1
延していまして 1
着ける 1
新年 1
日程って聞いて 1
▁鈴木さんは 1
▁折角なので 1
見積もりの 1
対応します 1
こちらも期限が迫 1
回答待ちです 1
社に催促 1
電話します 1
▁見積もりは 1
日後に先方に 1
お話しした会食 1
鈴木 1
来られる 1
ことを期待して 1
▁以前からよく 1
▁和食料理のお店 1
のお気に入り 1
▁人気 1
なさい 1
▁思っていたより 1
▁先方の担当者 1
大体の方向性 1
の確認が 1
訪問してきます 1
何なり 1
がこちらです 1
増やす 1
▁私共のお客様に 1
▁お使い 1
▁台数が多い 1
▁設定が 1
複数パターンあ 1
って管理できます 1
媒 1
▁一覧 1
価格表 1
▁定価のもので 1
▁パートナー様 1
価格は若干お安 1
は御社の 1
作成したときに 1
不具合 1
▁修正 1
本体の 1
▁私の方で圧縮 1
を送ってあげてね 1
▁営業さんに送 1
できたって報告 1
のお問い合わせが 1
の対応 1
さんという方から 1
指紋認証装置 1
を連携させた 1
さんが使う端末に 1
導入する 1
変えないで 1
私の方で対応 1
が行 1
に届くと思う 1
そのメールが届 1
けばわかりますね 1
旭 1
ではマイナス 1
29.8 1
ダストが見 1
29 1
▁映画みたい 1
▁ラッキー 1
猛 1
吹 1
れたときに当 1
いたのを覚えて 1
付近のスキー場 1
ダストが見える 1
が下がること 1
以前に授賞式の 1
に着くのが 1
りの日程 1
にできればいい 1
トリップだから 1
▁前日の昼 1
に着 1
パリ乗り継ぎ 1
短時間で着ける 1
日程が長くなる 1
成田発着で 1
継 1
発着 1
来るお客さんも 1
▁パリ以外だと 1
イツで乗り継ぐ 1
▁ろくに 1
休めないね 1
翌日に式典はつ 1
宿泊者 1
参加のその後 1
にお知らせ 1
のせい 1
▁山田様と杉 1
部屋ずつ 1
栗 1
部屋ずつです 1
▁そのリスト 1
名様 1
▁ざっと私も 1
みましたけど 1
まとめて取れ 1
事務局から受賞 1
典 1
決算の 1
月末近くだと 1
▁じゃあ早速 1
報を流そう 1
のお知らせを 1
授賞式の 1
授賞式の詳細 1
きは 1
受賞した賞 1
名の組み合わせ 1
のところに銀賞 1
のスキー 1
前回 1
って張り切っちゃ 1
ロッジで 1
ビール飲んで 1
ってかんじ 1
がまた 1
とは全く 1
すがしいかんじ 1
がメインになる 1
天気がいいと景 1
湖を見下ろ 1
れるから 1
▁運転手は 1
三上くんと 1
高橋くんと井上 1
: 1
多分前回と同じ 1
直接話してみて 1
市の窓口端末に 1
▁オプション 1
機能も付け 1
▁オプションって 1
でもそちらの導入 1
パターンで 1
▁代理店 1
さんに出しますか 1
少々お待ち 1
伺います 1
▁お預かりします 1
▁秋 1
へのお荷物ですね 1
にも同じ住所に送 1
同一宛先割引 1
同じでないと 1
▁住所 1
られた送り状の 1
控え 1
冷蔵 1
などご希望ですか 1
常温でいいです 1
同一宛先割引と 1
割引を適 1
送料は 1
▁午前中着 1
の指定 1
にしましたけど 1
明日届きますか 1
▁ん 1
香りがいつも 1
を買ってきたので 1
▁課長もぜひ 1
に行ってきた 1
課長は通ですね 1
コーヒーの質が 1
ハワイと言えば 1
コナ 1
▁ハワイ島 1
アフ 1
▁ハワイ島のコ 1
ナのコーヒー農 1
花が咲いていて 1
キレイでした 1
くてキレイな 1
▁日本じゃ見 1
きたんだ 1
さすがコナ 1
の導入実績 1
導入実績 1
の業種別の実績が 1
▁業種でまとめる 1
別の実績も 1
ズくないですか 1
社外 1
秘 1
使いたくて 1
お客様にご紹介 1
使われているか 1
了解を得ない 1
仕事がズボ 1
ラな印象が 1
みたいな個人情報 1
が入った導入実績 1
渡せないです 1
▁漏洩だって 1
自体の 1
な内容で一度 1
▁業種別 1
反応を見て 1
▁竹内さん 1
の入札で 1
ってことは 1
が足りなくて 1
を考えているとか 1
は入札で 1
よく聞く 1
製品の価格とか 1
レット 1
の後ろ 1
ご希望ですか 1
エイ 1
エー 1
ジェイピーです 1
唱 1
はこのあとすぐ 1
たずね 1
ご担当 1
▁購入に関する 1
製品全般に関 1
社の吉 1
のお問い合わせ 1
製品全般 1
この商品の紺色 1
もう少し早く出て 1
残っている 1
入荷 1
▁再入荷を待とう 1
▁また来ますので 1
頃にまた来ます 1
幹線 1
往復分と 1
帰るときに買う 1
▁行きと同じ金額 1
忘れない 1
▁金額が 1
井と申します 1
届いております 1
読める 1
心配で 1
央 1
▁手書きの 1
あまり変わら 1
送信案内に 1
記載されている 1
▁お手数をおかけ 1
すぐ行きます 1
ようにね 1
該当する 1
国名を挙げる 1
▁絞り込んで 1
記載してまって 1
▁具体 1
国名 1
調べられるかな 1
事は該当する 1
▁山田様 1
もご搭乗 1
▁ジャケットをお 1
人に会う予定 1
機内で 1
少しでも 1
が使える様 1
仕事しないとね 1
機内でずっと 1
休んでる訳 1
帰りの便 1
お過ごしください 1
お帰りの便で 1
お出かけください 1
お目覚め 1
▁到着まであと 1
時間程の飛行 1
どんやフルーツと 1
ヨー 1
軽 1
やはり和食をもら 1
またお伺いします 1
お飲み物だけ先 1
眠れないんだ 1
▁カフェイン 1
のコーヒー 1
諦めて本でも 1
読もう 1
すると眠れない 1
▁いつも滞在先で 1
▁いつもは 1
あまり外には出 1
▁鈴木さんはどう 1
▁私もいつもは出 1
天気が良さそう 1
お世話にな 1
▁あら山口さん 1
あっと言う 1
濃い 1
ただこの分野での 1
知識に 1
当初は嫌 1
この二年間は 1
ほんとうに 1
日本人スタッフ 1
また日本人は一人 1
すぐなじんで 1
海外旅行 1
出来るよう 1
もうちとの関係は 1
実家が東京 1
が変わりましたが 1
▁香水や 1
匂いのきつい 1
と生徒が向き 1
合うことが多い 1
空気がこも 1
匂 1
このルールを 1
▁ルール 1
英語でも来て 1
英訳が間接的 1
の主任講師である 1
の人間が来て 1
と警戒しがちな 1
ほうが良いかと 1
絆 1
が強い 1
には匂いの強い 1
ものも多い 1
独特 1
ならいいんですが 1
全員を 1
主任講師 1
妊娠してるって 1
おめでとう 1
!!! 1
は見てみた 1
人探 1
▁私や他の 1
ためらったら 1
▁母親 1
も変わ 1
手伝う 1
るのも楽しみだ 1
を増やしたのが 1
ではあるんですが 1
かったとはいえ 1
すごくないですか 1
に増えているので 1
るとかなりの額 1
会社の方には 1
新調 1
目でのコスパ 1
今のはかなり古 1
壊れる 1
機に新調 1
決定が出来れば 1
私のほうで 1
▁できれば来週 1
直帰するん 1
どこに置いたか 1
会う予定 1
にしてる 1
▁むちゃくちゃ 1
がごちゃごちゃ 1
見た目はきっち 1
どこに置いたかも 1
しょっちゅう 1
忘れる 1
不思議 1
りの片づけ方は別 1
外回りに 1
この資料持って 1
行くの 1
とか会議での発言 1
隙 1
るからな 1
怖 1
るぞ 1
▁そのほうが 1
たちも 1
聞いたら怒 1
とか言われてるぞ 1
ごちゃ 1
の引き出し 1
物が見つかって 1
外回りに必要な 1
すんだら一緒に出 1
房 1
が必要なら休む 1
結構回復が早く 1
いっぱいは 1
休めないよ 1
休めないな 1
▁年度 1
末で 1
惜 1
消化有給の扱い 1
▁年度始まりに 1
ポリシーが変わ 1
▁これなら無理 1
なくてもいいや 1
マイナス 1
オープニング 1
このイベント 1
▁お弁当 1
いりますし 1
向こうが慣 1
少し安心です 1
▁お弁当の数 1
司会 1
ンサー 1
を入れると 1
▁メインのシン 1
で分けて 1
会場全体を歩き 1
回って 1
人を回すなど 1
▁まとめ役 1
▁バイトの皆さん 1
となるので 1
覚えるのが大変 1
名札を用意 1
▁バイト 1
表にある通りで 1
しておくようにね 1
ほどに 1
日間の 1
▁時間が 1
もう少し早く 1
してもらえないか 1
クルーズ船上の 1
風のゆっくり 1
あまりにも時間が 1
の方ばかりで 1
から夕飯の時間が 1
かなり早いよう 1
どちらかと言えば 1
られる時間が 1
企画部にお伝え 1
ツアー企画 1
お客さんの声 1
お客さんに説明 1
も長い 1
よいか分かって 1
工夫 1
▁若い人向けの 1
とは違って 1
ツアー企画の 1
面白さと言えば 1
退屈しない 1
社の谷本 1
社の谷本です 1
システムの導入 1
社さんのほうで 1
前に発売された 1
▁うちでは 1
後すぐに導入 1
かかりました 1
ものと似ている 1
覚える 1
その後順調に 1
とても使いやす 1
速く 1
がアップし 1
長い目で見ると 1
残業が一気に減 1
ことですね 1
数が少ないので 1
残業を 1
経理担当は人数 1
が少なくて 1
▁それだったら 1
してくれた 1
さんとお話できる 1
とよいですね 1
表の 1
▁まだ始めても 1
▁みさおはどこ 1
まで終わった 1
全部書 1
目標に向かって 1
一個しか目標が 1
▁上司に相談して 1
帰ってきたとこ 1
るよりずっと 1
▁今年こそは 1
的な目標が 1
▁雑用 1
関係の仕事 1
されるっていうか 1
間に合わないよ 1
▁みさお 1
の目標は何 1
固定資産 1
の三 1
唯 1
一の 1
の開発にもかかわ 1
役はいないかと 1
去年から何度も 1
ようなもんです 1
▁ずいぶん 1
良い評価を 1
▁来週末までに 1
それは困りますね 1
▁事情 1
を説明すれば確か 1
手数料 1
発給の手数料は 1
むを得ない事情で 1
がすぐに入り 1
嶋 1
▁前にも 1
▁切れたときに 1
急な 1
お願いです 1
を入れますね 1
社以外にも 1
にも挨拶を 1
阪 1
皆も楽しみに 1
▁酒井さん 1
▁何か大きなこと 1
になる話してた 1
▁社長はずいぶん 1
話してた 1
あと二週間で 1
全部片づけて 1
とか言われたらや 1
待つ 1
新年会あるから 1
かなり早い時間に 1
づらくなるなぁ 1
憂鬱 1
っていう噂 1
を聞いた 1
▁これも中 1
に見合った 1
!! 1
調査報告から 1
▁手元 1
は各部署 1
ほんの 1
が導入した 1
導入した部署の 1
効率よく管理 1
出来てる 1
そこが一番の課題 1
色々ヒアリング 1
顧客に関して 1
営業部では 1
製品やサービス 1
かが大切です 1
技術分野が重要 1
視される 1
ほんとうに様々 1
絡 1
くると 1
どの部署 1
でも顧客に関して 1
必要な情報 1
どの部署と取引 1
弊社との窓口 1
や業務分野の 1
▁大まか 1
絶対必要な情報 1
ヒアリング 1
詳しい情報 1
ると効率がいい 1
のプログラマー 1
皆揃っている 1
研究室の戸締り 1
残って片づける 1
戸締り 1
ありますから 1
当番の 1
来週の火曜日 1
川上さん 1
▁二日連続 1
よろしく頼みます 1
帰りますから 1
ないと息子さん 1
いませんよ 1
▁天気予報見た 1
▁何時ごろから降 1
時半頃から降り 1
近所の道路 1
に雪がいっぱいで 1
その点ラッキー 1
通勤は 1
できないの 1
車で行くなら 1
ないのに 1
▁長い冬 1
も長い冬 1
暖 1
引っ越した 1
とか言って 1
すっ 1
降るなら 1
ほんとに降る 1
研究室の 1
様子を実際に 1
見られて 1
るだけでしたから 1
見せる 1
機材や装置 1
積極的な姿勢 1
があるのはもちろ 1
▁皆さんの結 1
束も高いですね 1
▁たと 1
での作業が多い 1
全員で集まる 1
この分野での 1
意見交換は大切 1
周りの進歩 1
研究を進め 1
▁予算も限られて 1
短くなりますよ 1
をする側としては 1
▁いよいよ 1
コラボ研究 1
ニーさん 1
の計画 1
あっと言う間に 1
▁この時期はぼ 1
送れるように 1
の人数のお客 1
気にお部屋 1
配偶 1
者も呼ぶから 1
独身 1
から呼びたい 1
人選ぶよ 1
月の中旬で 1
その後の 1
兼ね 1
られるし 1
どう思った 1
を選んだんですが 1
感想もちらっと 1
料金は去年と 1
くれればいい 1
が早い 1
ぎりぎりに注文 1
日中に最終的に 1
お休みを取らせて 1
さんのところへ 1
で東京 1
で東京に出てから 1
まだ会ってない 1
中山君も頼り 1
私と 1
さんと楽しく過ご 1
せっかくの 1
メールも 1
終業後 1
もいつも夜 1
んと 1
が増えたことだし 1
安心です 1
うちの部署で採用 1
それは初耳です 1
▁娘さんも 1
▁キムさん 1
かっちゃって 1
▁カンファレンス 1
にすると 1
で作ったから 1
単 1
から戻ってくる 1
急な用 1
ーす 1
裕 1
▁お手元の会議目 1
録 1
スコットさんの 1
報告から 1
を訪ねてきました 1
研磨機もある 1
うちの研磨機 1
よりもずっと作業 1
が速くビックリ 1
の数は何名 1
ほうが効率がいい 1
▁そうとも言 1
体制の違い 1
の研究所での作業 1
そうかもなぁ 1
スペックは添付 1
研究所の場所 1
という印象を受け 1
を入れている学校 1
力を入れている 1
互いの 1
あう 1
研究所の課題 1
が見えてきた 1
▁と言う 1
▁お客さんを 1
待ってるけど 1
が小さ 1
対象だからなぁ 1
ても思うけど 1
を読むのは大変 1
ッと 1
ときに字が小さ 1
それだけで何も 1
経験は 1
若い人向けの 1
▁視覚的に 1
あまり刺激が大き 1
プル 1
字は大きめに 1
を心が 1
のが一番だよ 1
▁少しくらい情報 1
▁フォントも 1
▁フォント 1
は今のままで 1
の雰囲気とマ 1
ッチしてるし 1
医者の予約 1
いたところなんだ 1
オフするらしい 1
の質さえ下がった 1
とい 1
人だよ 1
年ぐらい前だね 1
れば僕らの勤続年 1
い社員から解雇 1
心配してないよ 1
勤続年数が 1
長い人から解雇 1
給料の低い社員 1
わけだし 1
噂であって 1
末に 1
に戻ったほうが 1
▁また明日ね 1
▁リネン類 1
に便利なサービス 1
物が出ること 1
事業者 1
▁リネン類の 1
集荷ドライバー 1
伺い 1
した洗濯物を保護 1
▁きれいに 1
弊社のハイテク 1
▁弊社は熟練 1
洗濯業者に委託 1
▁お預かり 1
した洗濯物を 1
それぞれの生 1
地の取扱い説明 1
遵 1
役に立つ 1
▁伝言 1
をお預かりするか 1
掘り下げてお話 1
上司の方との 1
か木曜日の午後 1
それぞれの階の 1
ひとりひと 1
食料 1
遅くとも 1
リュックの配布 1
を終えてください 1
避難経路 1
階段や出口 1
各階の避難経路 1
反射材付き 1
のベスト 1
かれた指示板も入 1
▁公園で指示板 1
階の人数確認 1
▁他にご質問は 1
▁忘れずに 1
リュックの箱 1
▁もっと必要なら 1
▁瞑想 1
▁外観としては 1
使いづらくなる 1
ような気もするし 1
リストの構造 1
分かりにくい 1
せるよ 1
▁瞑想の 1
に揃っている 1
はつけ 1
▁ユーザー 1
有料 1
誘導したいけど 1
にも高品質 1
な内容を提供 1
あれば良いと思う 1
を待っていたんだ 1
▁ヒ 1
確実だよ 1
瞑想を幾つか試 1
▁もちろ 1
行われるガン 1
撲 1
チャリティーマ 1
ラソン 1
募る意味でも 1
我が社が 1
この問題を重要視 1
伝える意味でも 1
ニエ 1
たくさんいますし 1
ナーは全員 1
会社のロゴ入り 1
▁吸汗性のある 1
快 1
のお金を 1
寄付 1
かが一目瞭然です 1
金額を寄付 1
▁募金の方法 1
▁マラソン 1
▁マラソンに参加 1
しない皆さんも 1
にも普通の 1
を用意すれば 1
が目につく 1
コミュニティ 1
りが持て 1
▁ボランティアが 1
人前後 1
▁年末で仕事が 1
残ってないね 1
▁喜んで手伝うよ 1
▁僕はまずキーボ 1
キーボードを 1
きれいに 1
▁加藤さんは休み 1
九 1
の新幹線 1
に乗る予定です 1
▁それは楽しそう 1
友達が遊び 1
る話でもします 1
▁映画も観 1
映画やってます 1
映画 1
けたら 1
越しそばを食べ 1
▁長野にスキー 1
かとも思うけど 1
総務部の 1
行われる 1
品質管理研修の 1
はたいてい 1
研修生が何人か 1
できるよう配慮 1
宗 1
ラル 1
ヴィー 1
もぜひ 1
とヴィーガンの 1
近所の 1
▁西山さんの 1
承認を頂き次第 1
ヴィーガ 1
▁トレーニングは 1
時からの 1
▁まずはどこに何 1
があるかお見せ 1
と電話を使います 1
キャビネット 1
の引き出し上段 1
▁下の二段には 1
▁永 1
▁私があなたの 1
上司の 1
▁永井さんに受付 1
▁デスクトップ 1
ここに記入します 1
誰と会う予定 1
などの情報です 1
時間を空けて 1
▁ここまではごく 1
私も同感です 1
の一連の流れ 1
▁全体的に順調 1
▁多少の困難は 1
みなさんのご 1
期待に沿う働き 1
今のところ反響 1
▁我が社には変化 1
していましたが 1
▁変化が 1
仕事の役に立つ 1
ものだと 1
理念である革新 1
と効率化 1
ための一環 1
▁ごもっともです 1
グレードを考慮 1
必要が出てくる 1
につれて 1
ニーズも変わ 1
テク 1
ご検討ください 1
▁監査係の方が 1
経理部から朝 1
後すぐに次の 1
目的地へ移動 1
すませたい 1
全て揃っている 1
▁監査の途中で 1
今から探します 1
という状況 1
質問も 1
▁固定資産の一覧 1
▁監査係 1
を食べて行かれる 1
時半だと聞いて 1
のであればテイ 1
▁長 1
わが社に 1
▁あちこち建築 1
たって 1
おたくが作った 1
雰囲気に合った 1
っそく 1
とも他とはかなり 1
見た目 1
▁こっちは逆に 1
がきちんと確保 1
できるよう 1
ようなカジュアル 1
さを前に押し出 1
ような気も 1
後ろのほう 1
れるという点で 1
は大事 1
目のデザインは 1
望まれる 1
▁この設計図は 1
預 1
は再来週の予定 1
▁じっくり 1
でご検討ください 1
▁先日メールでも 1
に任命 1
▁昇進 1
時給制から 1
としては全体的な 1
時給制 1
扱いとなるので 1
ある程度の 1
新しい名札や 1
社員証を使 1
▁正規は 1
のお給料 1
この件で話す 1
来シーズ 1
日程も 1
ちのお客さんも 1
を増やせないか 1
紅葉ツアー 1
の数を増やすかし 1
紅葉 1
時期は限られて 1
無理だ 1
の数を増やすなら 1
添乗員 1
も倍 1
少な 1
可能性もあるな 1
▁そのほうが安全 1
や添乗員の数 1
は今のままでいい 1
▁ホテルの客室 1
のも大丈夫な 1
大人数の予約 1
付けない 1
を当たってみよう 1
目玉 1
店の団体予約の 1
せないか 1
が埋まら 1
だってことを分か 1
あちこちの店や 1
所が 1
るようにな 1
気持ちは 1
来シーズンは 1
▁詳しいことは 1
ライリー部長 1
氷 1
寒い気がするね 1
暖かくなくて 1
暖房の温度 1
° 1
▁温 1
を上げてみよう 1
ままだとオフィス 1
の中は冷える一方 1
▁昨日の夜 1
にひょっとしたら 1
ファンヒーター 1
ので見てきます 1
▁去年も一回暖房 1
見てきます 1
▁午前中 1
来てもらうよう 1
とは喫茶店 1
リー部長 1
ヒーター 1
ことあそこに 1
もないよりはまし 1
までコートも着 1
たままにしておく 1
バーケーブル 1
が届いてから 1
請求書が届いて 1
▁発注日は 1
発注書 1
1564 1
ケーブルは 1
手数 1
w 1
acompany 1
すれば明日 1
予算の都合で 1
いでご迷惑おかけ 1
お互い忙しい時期 1
敏 1
でしたので 1
そう言って 1
さんが駐在で来 1
ご本人が渡米 1
▁渡米後一週間は 1
支社で研修 1
▁そうなりますね 1
私のほうでガス 1
会社や電気 1
▁いらっしゃ 1
すぐにご自宅が 1
ご本人が 1
ってから 1
マット 1
の横の席が空いて 1
マットがとても 1
好きだし 1
そこを中川 1
もいりますよね 1
お子さんは二人 1
で忙しくなる 1
山口武夫 1
山口さんですか 1
支社人事部の竹 1
この求人の直 1
口様 1
と実績 1
の内容 1
が希望通りなので 1
と申 1
面接に来て 1
▁梅田なので 1
弊社は阪急梅田 1
駅から徒歩 1
先ほどの上司に 1
時にお伺い 1
ロビー 1
エレベーターで 1
お互いの都合が 1
▁全員揃ったかな 1
商品開発部 1
待ちです 1
▁田中さんが今日 1
ちょっと不安 1
っぱ 1
をかけて 1
下さ 1
計画書は完成 1
この資料以外の 1
昨夜私と宮本で 1
▁商品開発 1
▁予算も 1
▁そう言っていただけると 1
▁上に納得 1
そう簡単じゃない 1
▁その場で 1
話してくるよ 1
▁頼りにしてます 1
をさせたら 1
トーマス 1
トーマスさんに 1
りまして 1
いたいところだが 1
大事なのは 1
計画書の中身 1
宮本 1
づくりに専念 1
三人に任せて 1
▁まだ時差ボケ 1
が残ってますよ 1
出張費の清算 1
締め日ですね 1
精算書を提出 1
翌月経費 1
▁では今日 1
整理して 1
出しますね 1
本社のマイクと 1
二人分支払 1
ひょっとしたら 1
と思い 1
▁マイク 1
車で行 1
のであれば 1
清算できるので 1
計算する 1
▁領収書 1
▁それが問題だ 1
を置いたか覚えて 1
専 1
領収書は 1
今回の出張費 1
水曜までに提出 1
▁英国産業省 1
向けの調査で 1
のサンプル 1
が並んでいるなあ 1
▁シリアル 1
▁日本人は朝食 1
にシリアル食べる 1
▁シリアルって 1
お腹空いちゃう 1
ンフ 1
巣 1
シリアル商品 1
食べるの 1
乳 1
英語学校に行 1
ステイ先で 1
食べた 1
も味もタイヤ 1
▁ミューズ 1
は家族も好き 1
ウム 1
餌 1
フルーツとか 1
があまり良くなく 1
▁ひどい腰 1
と頭痛で 1
変わらなくて 1
▁高橋 1
が溜まって 1
夢 1
でもよく仕事 1
してるし 1
脱 1
になったり 1
痔 1
になったりした 1
を抱 1
▁気持ち 1
でやるつもり 1
▁母が高齢なので 1
数年でそういう 1
僕のところに寄 1
マンドで入力 1
カテゴ 1
リートータル 1
▁prod 1
▁p 1
と入力 1
コマンドを 1
コマンドの一覧 1
データを出せる 1
るといい 1
▁name 1
と入力すると 1
むずかし 1
リーズ 1
また来ます 1
▁御社 1
シャン 1
アカ 1
が用意 1
▁一覧から 1
全国と県別で 1
▁できます 1
県別リスト 1
化し 1
年間まで遡 1
年間累計も 1
累計も可能です 1
累計 1
月までの 1
合計のほかに 1
デフォルト 1
▁シリコン系 1
ンシリコン系 1
その件は 1
▁最後の項目 1
重配荷率 1
個数 1
▁荷重配荷率 1
これ個数ベース 1
小林さんが 1
小林さん 1
ウチのヘアケア 1
サロン系では 1
メー 1
アップ化粧品は 1
ほとんど知られて 1
私共の 1
ブランドは欧州 1
浸 1
透 1
欧州 1
の位置付けは 1
▁日本では 1
輸入化粧品は 1
社などの高級 1
でも買 1
社などの 1
その中 1
意味では 1
結構高めの 1
市場を狙って 1
▁中間市場は 1
ヨーロ 1
テイ 1
ーむ 1
鉱 1
を含まない 1
素材などにも 1
こだわった製品の 1
向けには特別 1
の位置付け 1
のか変わって 1
旗艦店 1
銀座に旗艦店 1
▁興味深いお話を 1
クー 1
チュ 1
神田課長 1
さんに会いました 1
わりと 1
▁だめだったか 1
そわそわ 1
終わらせたい 1
の支給日で明 1
配られる時間が 1
若いのに 1
上野課長も同行 1
れると思った 1
▁まだ時差ボケで 1
覚めちゃって 1
やることもなくて 1
避難経路図とか 1
書まで熟読 1
貿易機構の高尾 1
の神田二等 1
書記官と誘致 1
オル 1
ダーソン領事と 1
工場を建設 1
進出に興味 1
ウェ 1
伝統レース 1
貿易機構 1
は遠いのですか 1
地下鉄で 1
地下鉄にも乗 1
宮 1
企業向け 1
▁この度 1
を社員向けに提供 1
▁場所と 1
によ 1
▁月に二回 1
とネイティブ 1
がよい 1
知識がある方が 1
力の 1
有無を重視 1
力を高める必要 1
▁海外出張 1
のビジネス 1
英会話に接 1
企業向け英会話 1
アド 1
各種用意 1
その中から御社の 1
レッスンを 1
表などがあれば 1
レッスンを月 1
二回 1
社人事部の田口 1
社の田口さん 1
けなおしてお伝え 1
これは私の直通 1
アイコン 1
タクトです 1
回す 1
▁後ろ 1
目線を動かす 1
最前列 1
でよく発言する偉 1
パーソン 1
▁その人を 1
徐 1
線を 1
スライドは 1
ごとに箇条書き 1
で簡潔 1
いえば 1
なことだと思って 1
っぱい 1
それを読もう 1
に向かって話さず 1
なるべく聴衆の方 1
画面を見ながら 1
声が聞こえにく 1
▁立ち位置も 1
に立た 1
ないで 1
▁たまには 1
▁聴衆もだんだん 1
きてくるので 1
立ち位置 1
垣 1
時間を稼ぎます 1
と言った 1
よく使えます 1
答えられない 1
にするの 1
▁知ったかぶり 1
曖昧に答えて 1
更 1
練習することと 1
が大事です 1
うろこだったわね 1
▁この企画書 1
日本人女性 1
型英語学校 1
ユニークで 1
▁大変失礼ですが 1
インテリアが 1
壊れるというか 1
のベッドカバー 1
とネオン 1
気がラブホテル 1
▁ラブホテル 1
▁英国人 1
女性はピンク 1
▁何か良い案 1
マリ 1
しゃれな 1
インテリア雑誌 1
日本人が 1
社の花柄 1
日本人女性に 1
カーテンと 1
自炊案ですが 1
を調達するとか 1
アンド 1
ップス屋 1
日本食にこだわ 1
や週末 1
この辺で何かお 1
この辺で休憩 1
づくり 1
案だわね 1
那 1
須 1
あまり時間がと 1
データの分析 1
方法で 1
やってくれます 1
教わったことを 1
別件で 1
言い出しっぺは 1
墓 1
掘 1
増やしちゃった 1
▁勤務 1
評定表の質問票 1
来年の 1
生活費を稼いで 1
▁別にここで出世 1
リストラされ 1
▁思っても 1
書いちゃうよね 1
響 1
くとか気にして 1
るのよ 1
ウに書いて 1
にあまりにも 1
気にしない 1
からすぐに席で 1
新聞読んで 1
朝はダラダラ 1
は結構見てるのよ 1
が働かないんだ 1
起きなさい 1
くして 1
半期 1
月に某 1
番組で緑茶の 1
の大幅な伸びが 1
凌 1
▁次のスライドは 1
社などが軒並み 1
この月には特に 1
月のデータでは 1
月に某人気 1
テレビ番組で 1
やビタミン 1
がコレステロール 1
を下げる効果 1
があると検証 1
芸 1
その商品が品 1
経済効果がある 1
ともいわれている 1
日本人は 1
イズ番組と健康 1
と言われています 1
の本の表紙案を 1
どれもちょっと 1
いますと 1
むずかしい 1
にもう少し 1
手を加えて 1
オリジ 1
厚ぼったい 1
ポがあったのと 1
フォントが一部 1
v 1
恵子スペンサー 1
▁マネジャーに 1
訊 1
きますから 1
言われたけど 1
あなたには教え 1
熟読 1
私に聞かないで 1
マネジャーに 1
月の終わり 1
産前産後休暇 1
産前産後休暇と 1
宮さんがお休み 1
産が近くなると 1
検診に 1
しょっちゅう行か 1
明けに小宮 1
さんの上長 1
で何人でしたっけ 1
名くらいですね 1
とマ 1
グロ 1
手配済みです 1
お酒とお惣菜は 1
終わっているね 1
皿 1
を買い 1
忘年 1
時から開始予定 1
それぐらい 1
から集まる 1
ことは何かな 1
▁いつから休 1
日なので 1
▁メールは 1
休み中でも 1
に行く予定なの 1
▁クリスマスに 1
クス 1
ビング 1
は遠いけど車で行 1
飛行機で行く 1
行ってきてね 1
らいつでも携帯 1
いたいのですが 1
はここ 1
からも近いし 1
はその日は空いて 1
押さえておこう 1
▁プログラムは 1
ってる最中ですが 1
ゲストのあいさ 1
乾杯 1
歓 1
談 1
れたほうがよい 1
食事が 1
くるから 1
その前にアワード 1
の表彰をして 1
アワードを先に 1
▁まだ決めてない 1
▁一等は 1
くらいでいいね 1
のテレビにしよう 1
のテレビ 1
たるといいですね 1
等は 1
▁また商品の詳細 1
が分かったら 1
▁プログラムも 1
直して 1
詳細を決めて 1
といいます 1
12345 1
るのですか 1
今日使いた 1
賠 1
償 1
のしるしに送料 1
円の返金を 1
▁あー納期の件の 1
無茶言ってくる 1
▁あの会社の人 1
プッシュきた 1
さんもそうだよね 1
早める 1
なんて無理だって 1
断れない 1
▁大きい会社 1
お呼びでしょうか 1
春に本社に戻 1
はもともと本社の 1
▁単身赴任 1
も喜ばれる 1
君は課長の下 1
▁課長がですか 1
考えてみて 1
からサポートに 1
カンパニー 1
▁少々おま 1
厳しい状況では 1
と相談して 1
さしあげます 1
▁坂田がすぐに 1
用エレベーター 1
をご利用下さい 1
坂さん 1
▁お茶かコーヒー 1
ニュー 1
ページの 1
デイ 1
と病院の統計 1
多数の施設で 1
謂 1
統 1
計にはそういう 1
施設が含まれて 1
積極的な高齢 1
範囲に口コミ 1
▁仰るとおり 1
供 1
今月末までに 1
みんな揃ったかな 1
▁来月頭には単体 1
君んとこの 1
小島さん 1
の状況は前回 1
ちこち 1
やってた 1
ここ数日休んでる 1
哀 1
引き継いでるの 1
▁現状でも人員 1
僕が兼任で対応 1
かん 1
ねー 1
担当は 1
田口さんだよね 1
打開 1
は早いかもね 1
繋ぎ 1
目処がたた 1
私の予定表 1
確認してアポ 1
かったよね 1
急に退社 1
しちゃった 1
回せない 1
現段階 1
工数 1
予算内で 1
思い当たるとこ 1
▁横から 1
それウチも連絡先 1
なら小島さんにも 1
▁他に当面の懸案 1
事項が無ければ 1
終業時に 1
水木 1
さんにいいところ 1
このところかなり 1
▁忘年会のこと 1
店詳しくない 1
探すくらいなら 1
幹事はちょっと 1
▁私も幹事は遠慮 1
忘年会でも一番 1
▁幹事 1
▁幹事やって 1
ならその方にその 1
話が早いです 1
中君 1
原田さんと私 1
▁忘年会 1
村上さん 1
村上は本日 1
お休みを 1
▁私で 1
ご用件を承ります 1
▁実は先日ご提案 1
新価格表 1
村上さんご 1
にあたって 1
▁明日は午前中は 1
月曜日の朝早く 1
間は日程に余裕 1
▁最新の売上 1
▁もし良ければ 1
ヘアケア商品の 1
ヘアケア商品 1
四半期は連休 1
これは良い 1
はどうだい 1
んできています 1
少し伸びては 1
スキ 1
▁ネイル商品と 1
四半期から第 1
売上が上がった 1
順調に 1
▁この調子で 1
▁売上レポート 1
販売戦略 1
チームと 1
▁加藤さん 1
ていくにつれて 1
▁工事が終了 1
工場が使える 1
になるまであと 1
ローンを返済 1
▁もし私が 1
建設の 1
りますかね 1
▁建設の予定と 1
建設の予定を 1
新しい商品全て 1
での製造は段階 1
工場は 1
に興味がある買い 1
手が見つかって 1
ちなみに 1
新しい工場で作 1
商品の試作品 1
ことは可能 1
私どもで確認 1
▁ご検討 1
▁では来週連絡 1
試作品 1
情報が入 1
ったらまた 1
お電話で 1
たにも関わらず 1
休憩中ですし 1
とのランチ 1
会議の計画は 1
イタリア料理屋 1
▁私はまだ行った 1
▁行った 1
デザ 1
デスクに 1
電話ください 1
に行こうと誘 1
のご予定を確認 1
日程で伺います 1
▁支払い 1
お返事を 1
▁申し伝えます 1
▁お陰様で 1
すぐ暗くなる 1
ぐらいに暗くなる 1
暗くなりますよ 1
はブラック 1
フライデー 1
一覧 1
▁ブラック 1
フライデーは 1
で特に有名な 1
▁送料が高い 1
▁送料で 1
のクーポンを送 1
のお客様には効果 1
ポン 1
さて 1
来週上海に飛ぶ 1
などオフライン 1
▁何か急な用 1
矢 1
婦 1
やチームへの 1
聞くのに 1
聞いてきます 1
産休と職場復帰 1
ところがあると 1
から復帰を 1
北野さんの産休 1
本日は部署単位 1
部署単位 1
重ねが大事です 1
って結構 1
は大きいですね 1
使いますよね 1
▁どこをどう削 1
の契約 1
できる印刷物も 1
の使用状況を調査 1
できる印刷 1
再び会議 1
この会議室で 1
▁サプライズ 1
▁その次の 1
月曜から 1
ジュリアは 1
計画を 1
余興の計画 1
▁余興の計画 1
▁食べ物と飲み 1
姉 1
▁グレース 1
飾り付けもお 1
▁ジュリアは赤 1
ランチのあとで 1
▁それぞれ 1
知りません 1
社で開設した 1
部品を数点発注 1
個頂きたいです 1
価格に 1
のご注文で 1
▁値引き後の 1
処理してすぐに 1
聞こえたけど 1
▁杉山です 1
青木 1
木曜日に 1
月次報告 1
資料作成中です 1
▁加藤 1
▁今週は 1
さんとベンダー 1
ベイについて 1
▁杉山さんは 1
レポートを送付 1
がよく固 1
サポートに 1
もらおう 1
▁なければ 1
は来週の月曜 1
前年 1
シェア推移 1
▁続けてください 1
軒並み売り上げ 1
の減少 1
があるのですかね 1
他社に 1
加重配荷率が低 1
には置いてあるが 1
他社と比較して 1
コンビニエンス 1
配荷 1
▁店舗展開が 1
▁さらに 1
したものですが 1
御社は苦戦した 1
▁宣伝 1
種別 1
戦略が弱い 1
社に戻りました 1
太郎です 1
ここでも 1
自分の能力を 1
発揮できる 1
候補者は他にも 1
自分に 1
▁具体的には 1
▁初めてチームの 1
困難は 1
商品を開発 1
情熱 1
決意 1
錯 1
▁当社 1
なぜ当社を選び 1
ここで働きたい 1
かれています 1
で独特な社風も 1
▁それはよく聞か 1
筆記試験 1
田辺 1
仁 1
はお手元にお持ち 1
のものでお間違い 1
円の 1
より新しい商品 1
の手続きが完了 1
客様の 1
田辺が対応 1
をご利用 1
▁お名前と 1
国籍 1
はおいくつですか 1
住まい 1
は横浜市内ですか 1
▁日本で就労 1
労働 1
配偶者ビザ 1
英会話を教 1
人を対象と 1
が希望です 1
ぜひ面接に来て 1
▁スーツ 1
にいたポールも誘 1
▁ポール 1
に行くけどどうだ 1
分も歩けば 1
が不要になります 1
僕たちも 1
▁好きな時間に 1
で社内 1
の一覧 1
にくかった 1
見られますね 1
またメールでも 1
さまでした 1
只今 1
営業所に出張 1
人が売り上げの 1
で計算 1
させてあげ 1
▁自動 1
を入れれば 1
に連絡して 1
その件は私 1
▁黒くしたい文字 1
しまうんです 1
▁真っ黒に印刷 1
▁お使いの 1
イエロー 1
ブルー 1
濃い黒で 1
色の選択で 1
色を混ぜ 1
っ黒 1
で印刷される 1
黒くなりました 1
お弁当自分で作 1
▁かぶ漬けとかも 1
かぶ漬け 1
漬 1
おいしく 1
な人じゃなきゃ 1
おいしく作れない 1
人って 1
教わった 1
お料理上手 1
若松 1
若いのにもう 1
▁私なんか買って 1
がたい 1
味にできます 1
▁でも微妙 1
な味付け 1
才能とセンス 1
▁若松 1
お料理上手のお 1
ばあ 1
血 1
を受け継いでいる 1
らやましいな 1
だと材料が用意 1
ほうがよい 1
刺 1
▁マグロは入れて 1
貝 1
鯛 1
タテとえび 1
▁支払いは当日 1
かしこ 1
サロン 1
▁コース 1
はお決まりですか 1
▁エレンの予定 1
午前はお休みを 1
調査中ですが 1
午後には手が空 1
商談 1
があってお 1
機能も要件 1
合い 1
そうだからさ 1
それもついでに 1
Windows 1
方法がざっと 1
▁ページ数 1
見ても分かる 1
そうしてもらおう 1
できたら教えてね 1
▁修正してお 1
そう思った 1
こっちで修正して 1
こっちで更新した 1
はずのところに 1
が足りなかったの 1
お買い上げ 1
されると 1
はなし 1
レジット 1
スタンプカード 1
いないです 1
してもよろしいですか 1
▁スタンプが 1
私共のどこの 1
お買い上げの際に 1
チャージ 1
▁それはたいへん 1
▁この最後の行 1
ほどは 1
多くチャージ 1
されてたみたいで 1
また来ました 1
お品物を落として 1
ダブって入力 1
▁今話できる 1
当日の朝に移動 1
に着けそうかな 1
ぐらいには 1
事務所に着け 1
るの早すぎない 1
の新幹線です 1
僕と打ち合わせ 1
と小泉も入 1
役割分担の話 1
▁17 1
ぐらいには充分 1
もらってきてね 1
▁旅費精算も 1
ハウ 1
▁n 1
ot 1
d 1
の札を外すのを 1
お掃除は 1
お掃除 1
このあとはお 1
▁今帰ってきた 1
このあとは 1
▁お掃除も 1
このあとすぐ清掃 1
▁バスタブの排水 1
どなたかに見て 1
シャワー 1
髪 1
を流 1
▁担当の者をすぐ 1
にお部屋にお送り 1
にお伝え 1
内さん 1
▁何回目だっけ 1
▁私なんか 1
行っている人も 1
そんなにいいの 1
シの木と南 1
国の花が憧れ 1
の海って聞いても 1
うらやましいです 1
▁お土産 1
それこそ台湾 1
街歩きが 1
▁ときどき息 1
リは大事 1
山田珈琲の山 1
▁よく駅に設置 1
してあるのを見 1
のようで 1
で喫茶店特集 1
楽し 1
今回山田珈琲 1
ざ 1
お店の雰囲気 1
して候補を絞 1
光景を撮影 1
少しお話し 1
▁それだったら私 1
でも大丈夫 1
▁お店の宣伝 1
▁お店の定休日は 1
も休みにしました 1
木曜日の午後 1
前もって 1
フォ 1
にしたいなあ 1
席が少なくて 1
女子社員からは 1
映えるもの 1
▁いわゆる 1
インスタ映え 1
女子 1
辺りの 1
こだわりが強い 1
男性社員からは 1
▁ビュッフェ 1
▁ビュッフェだと 1
皆が好きなもの 1
▁ビュッフェって 1
ひとり 1
会社持ちでいい 1
負担でいいよ 1
本井さんの 1
探してる人 1
▁私の知り合い 1
人はい 1
ローワークや 1
▁君たちの 1
どうしようも 1
▁本井さんの 1
がある人が希望 1
▁未 1
としては有りだな 1
即戦力になる 1
▁即戦力ですか 1
でそういう 1
王道のハ 1
ローワークなど 1
▁もうすぐ年末 1
歌 1
日間の休み 1
行き先が決 1
まらなくて困 1
▁行き 1
▁台湾もタイ 1
▁二カ国とも 1
どちらとも個人 1
▁台湾はやっぱり 1
グルメですね 1
籠 1
▁羨ましいです 1
▁観光はどんな 1
寺 1
巡 1
▁台北の北 1
初耳 1
情報です 1
個室風呂で 1
を開けたらすぐ 1
槽 1
ではどんなことを 1
毎日マッサージ 1
▁気持ちよくて 1
▁生水を口に 1
心がければ 1
どちらとも魅力 1
行き先選びに悩 1
の中井と申します 1
どの商品ですか 1
▁海外出張のお 1
日に戻ります 1
▁帰りは 1
▁一名様 1
広州のホテルの 1
▁ツ 1
禁煙の部屋 1
禁 1
ホテルが確認 1
▁行かれるお 1
サイトで積み木 1
▁どの積み木 1
電話は 1
仕様変更 1
の在庫 1
▁仕様変更って 1
より危ない 1
ッキ 1
星 1
と子供たちが 1
そういう意図 1
子供が投げたり 1
なくない 1
子供は 1
危なくて痛い 1
学習 1
▁仕様変更 1
してお伝え 1
出張に行く 1
▁どこへですか 1
楊 1
工程を見て 1
社にも行ってこ 1
▁いつからですか 1
遅いと春節に近 1
言われたよ 1
▁春節近く 1
▁帰りは遅めの方 1
話をしたいから 1
広州の空港から 1
社とわりと 1
どの辺 1
そこがいいな 1
くんもドキドキ 1
▁お互い 1
したいから 1
旅行社の草野 1
▁この度新 1
頂戴 1
構わ 1
午 1
明後日の午後二 1
御社へお伺い 1
天皇杯 1
▁レッ 1
年ぶりの 1
天皇杯優勝 1
▁めちゃくちゃ 1
奮 1
も優勝してほしい 1
来期 1
補強 1
▁僕はマリノス 1
シーズ 1
幕 1
▁レッズ対 1
マリノス 1
恨 1
ないでくださいよ 1
木村がお受け 1
いま 1
▁ご注文ですか 1
埼 1
玉の三郷営業所 1
がご希望ですか 1
▁出来れば明後日 1
ご確認のほど 1
どの商品 1
データは過去 1
したものを 1
にしてくれ 1
までに頼めるか 1
方を販促 1
候補の一つに 1
あげようと思って 1
ったら一度確認 1
カスタマー 1
▁引き落とし口座 1
引き落とし 1
のご依頼ですね 1
口に 1
お手元に 1
ご本人様確認 1
と生年月日 1
▁生年月日は 1
▁ご本人様確認 1
お手続き進め 1
は現在 1
ご不明な点は 1
引き落としに 1
月末が 1
させて頂いて 1
今月末までにご 1
翌月 1
掛けておくか 1
▁見積もりの 1
期限はいつまで 1
▁杉 1
どれくらいの 1
枚くらい 1
▁ならその後の 1
追加生産 1
数は再来週 1
枚の受注が来た 1
▁この商品は人気 1
に使わ 1
通常生産の他に 1
枚追加生産 1
生産掛けた後に 1
▁そりゃ 1
品番は先月発注 1
掛けた 1
作業が遅れてる 1
が半月ずれる 1
このままだと今月 1
無くなるぞ 1
▁じゃあ国内の 1
工場の生産 1
捻 1
他の品番 1
掲示板に貼り出 1
山田さんが異動 1
けど送別会の 1
送別会 1
のお知らせの回 1
覧板 1
辺り 1
喜ばれる 1
おすすめ 1
吟醸 1
グラス 1
とかどうです 1
使うお店で 1
▁会社の近くだと 1
大人数 1
3000 1
曜日は 1
っておく事って 1
▁車通勤の 1
人がいるから代 1
▁回覧板が戻って 1
相談に乗って 1
事件が多発 1
▁自転車の件も 1
ラス 1
▁現在は学校 1
や校門にのみ 1
防犯カメラ 1
▁監視できる範囲 1
が広がるのは 1
が多発した 1
に追われて 1
の準備も残業 1
して対応 1
時間がと 1
するコストに見合 1
のようですが 1
▁子 1
育園 1
時間に間に合わ 1
緊急でしたので 1
勤務時間 1
招集 1
実行委員 1
▁社長がですか 1
野球経験者でね 1
やたらと張り切 1
っていたよ 1
野球経験者 1
▁社長が来られる 1
何か用意する 1
▁来週は 1
商談があるので 1
怪我を 1
されても困る 1
来るからには始 1
球 1
は実行委員の岡 1
確認してないな 1
のこと頼んだよ 1
粗相 1
▁工 1
▁菊池先輩 1
はその後にしよう 1
▁沢 1
筆記用具 1
に沿って作業 1
くらいでいい 1
と見比べて 1
いてね 1
確認する 1
って作業 1
が出ることがある 1
僕か菊池さんに 1
とテープの 1
分と 1
のテープ交換 1
くれば半分の 1
▁沢村さんは 1
くれて助かったよ 1
と給湯室の 1
の時間はまた 1
▁今度の月曜日に 1
簿 1
ついた上司の印鑑 1
▁押印してから 1
この書類に印鑑を 1
月曜日の出張 1
▁先日お話しした 1
▁押 1
書類に印鑑もら 1
出かけよう 1
お渡ししますね 1
書類に記入と押 1
印してから 1
何度開き 1
試してみたけど 1
してみたけど状況 1
にデータを送る 1
電話では状況が 1
把握しきれない 1
して対応しよう 1
くらいには御社に 1
朽 1
に伴 1
▁まず初めに 1
営業担当 1
▁まず初めに社外 1
▁社外からでも 1
れる機能が欲しい 1
が低 1
細かい点はい 1
くつか 1
この二つが 1
スペックは 1
▁社外から 1
さんと同じで 1
動作が遅 1
残業を幾 1
度か 1
の項目を 1
自由に追加 1
できるような 1
機能が欲しい 1
の紙詰まりもひど 1
用紙に印刷 1
紙詰まり 1
字項目の件は 1
何社かシステム 1
メールで予定を 1
会を開くんだよ 1
するっていう 1
親睦会の 1
とその家族も希望 1
まです 1
プレゼンの訓練 1
って位置付け 1
にとっては洗 1
時は何を 1
教室と食事会 1
丘 1
女性の割合 1
にはそういう家族 1
慮 1
いけばいいか見当 1
みんなの意向を 1
親睦会の企画 1
められるからね 1
に担当させている 1
か月後に開催 1
終わらせたいね 1
早速みんなと 1
情報共有して 1
▁おいおい相談 1
は部長から厳しい 1
かかってね 1
本件の統括 1
役割分担 1
阿 1
▁配布資料の作成 1
▁カスタマー 1
招待及び当日の 1
島です 1
資料の作成と 1
▁技術サポート 1
部の吉 1
筐 1
調達及び当日の 1
におけるインフラ 1
対応を含めた 1
▁各部署の担当骨 1
越えて 1
忌憚 1
持ち帰って 1
叩 1
する新製品を 1
に打ち出 1
▁既に 1
するパンフレット 1
の作成 1
では詳細な資料 1
からの資料作成 1
で印刷 1
ヶ月あれば用意 1
▁詳細資料は 1
▁詳細を詰める 1
資料の作成完了 1
感でいけ 1
▁それくらい余裕 1
新製品の 1
資料作成 1
役に 1
来月還暦を迎え 1
当社としてお祝 1
見当 1
▁秘書 1
の方と 1
との食事会の 1
佐伯社長は特に 1
嗜 1
ことが多い 1
の品揃え 1
に定評がある 1
▁佐伯 1
社長は特に 1
▁私や 1
に詳しくない 1
銘 1
柄を用意すれば 1
懇意にしている 1
日あたりに 1
伺う予定に 1
▁品物の 1
ラッピング 1
還暦 1
いに 1
▁実は先日も同じ 1
産の赤ワイン 1
▁懇意にしている 1
デパートの 1
ヴィ 1
ンテージ物が 1
気絶するほど 1
▁大変お気に召 1
直後に追加で 1
当社と契約を結 1
食事会の 1
手土産まで 1
贈答 1
▁弊社ではサイン 1
提示頂ければ 1
サービスを進め 1
させて頂いてお 1
▁基本は 1
提供させて頂く 1
レートでのご 1
▁では直近で処理 1
する場合のレート 1
と比較して 1
レートで問題 1
レートでの 1
と見積書の修正 1
車の買い替え 1
しハイブリッド 1
車にしたいなあ 1
でやってた 1
が実用化され 1
チウム 1
リチウム電池は 1
電子のやり取り 1
電解 1
っていうから 1
っていうからには 1
▁電解質が液体 1
だと何かいい 1
電解質は可燃性 1
でやってたよね 1
発火もしないし 1
▁液漏れの心配 1
レーター 1
事尽くしだね 1
充電 1
とはどうなの 1
容量も倍以上 1
本当にいい 1
事尽くし 1
が目 1
途 1
にはハイブリッド 1
搭 1
測定が間に合わ 1
▁どうして測定が 1
測定機器 1
で終了 1
中ですが 1
号棟の測定機器 1
号棟 1
で終了予定 1
をつけ 1
測定機器の都合 1
値の差分は 1
ミュレーション 1
して数値 1
をまとめるだけ 1
▁予想値での 1
▁予想値 1
のリリース 1
リリースは 1
まとめて私のほう 1
数値 1
結果は前回 1
に比べてどう 1
▁要注意が 1
ほっとしたよ 1
ジムに週一回 1
だけで随分と 1
結果が出てくる 1
▁乗り換え駅の駅 1
を選んだから 1
興味はあって 1
なく敷居が高 1
病気になっても 1
会社の福利厚生 1
お試し入 1
開発中の新材料 1
▁秋の商品ライン 1
コーティング 1
▁理屈では 1
月末までに 1
完了するはず 1
を数回重ね 1
市場に出すのを 1
遅らせることは 1
▁うちでは他の 1
コーティング用 1
過ぎる 1
ってから幾つか 1
情報を集めて周 1
▁前の会社に 1
会社を試してみ 1
のレイアウトとか 1
が選べるんだよ 1
の件も見てて 1
ワー 1
今日が初日で 1
を再 1
▁他の皆さんは 1
のオプションから 1
タリ 1
どれかを選択 1
を開けました 1
みんなこのソフト 1
が戻ってきたら 1
もっと上級の 1
が全部 1
行と列 1
を罫線で区 1
の情報や数字 1
を挿入 1
したい行と列の数 1
罫線上で 1
あなたの写真や 1
盗んで 1
挿入 1
下書き 1
には使えますか 1
▁一晩中机 1
に置いておいたの 1
るのを忘れたんだ 1
▁誰かに盗 1
▁忘れ物置き場は 1
▁忘れ物置き場 1
レベッカに 1
▁彼女はフロント 1
▁昨夜 1
机に 1
置きっぱなしに 1
今朝来たら 1
も仕事も全部 1
入っている 1
▁どこにあったの 1
▁昨日の夜残業 1
に置きっぱなし 1
ったのよ 1
馳 1
明日おごる 1
会いましょう 1
について話す 1
訳じゃないけど 1
▁最後にかけた 1
僕が見込み客に 1
チャン 1
彼らの製造元 1
秘密保持 1
忠 1
であることは 1
が彼らの製造元 1
▁特定の商品 1
社に売っている 1
秘密を漏ら 1
かなり気を悪く 1
▁企業秘密は渡し 1
もらったらとても 1
▁そこには我々が 1
を見込み 1
顧客に見せ 1
に電話するときに 1
他の人にしろ 1
みんなお互いに 1
このことは言わ 1
を少し 1
さらにビジネスを 1
レキシ 1
から来ました 1
この国へ到着 1
リと 1
で初めての仕事 1
田舎ですよね 1
▁どうしてそこへ 1
に伸びてきて 1
ペット用品の 1
ちょっと不安です 1
やキッチン用具 1
最初は初めて 1
ことを伝えますね 1
▁ジョーンズ 1
お知り合い 1
彼は私の元上司 1
とは存じ上げ 1
何年か 1
▁ジョーンズさん 1
全てを教わ 1
お知り合いですか 1
営業部にいた 1
とても重要な指導 1
いでください 1
渇 1
整理されていて 1
広いですね 1
工場の生産量は 1
全体の生産量の 1
35% 1
を占めてるんだ 1
目標は何 1
▁三年 1
▁頑張れよ 1
の欠陥比率は 1
効率的で 1
高く 1
▁労働時間帯 1
▁作業要員は 1
番目は 1
番目は夜 1
達は月曜から 1
金曜日まで 1
▁聞くのを 1
ためら 1
っていたけど 1
それを知 1
何日たった 1
は起きていないよ 1
ことを見つけた 1
▁ラッキーな事に 1
に違反していたの 1
規則を守って 1
アウトタグアウト 1
予期しない 1
電源投入や機械 1
や装置の起動から 1
守るための 1
々が機械の電源 1
を切って機械に 1
鉄 1
ないようにね 1
▁従業員は 1
ならないの 1
▁機械の電源 1
を落とす 1
機械を 1
に取り 1
環境規制 1
はリサイクル 1
有害な排水は 1
社のロペスの 1
と飛行機はもう 1
ホテルに泊まる 1
▁日曜日 1
日曜日 1
▁ラスベガスに 1
▁ブラウンは 1
空いていますので 1
ロペス 1
金曜日の夜 1
のご予定は 1
▁土曜日の夜 1
ブラウンは会議 1
▁ロペス 1
さんは土曜日の 1
夜にお客様を 1
▁ランチで会合 1
の食事に詳しい 1
どこかおすすめ 1
▁もしよかったら 1
▁高級 1
デザイナーで 1
君は若いから 1
構わないから 1
誰も気を悪く 1
はワイヤレス 1
▁全体的に 1
出る 1
リッチな音 1
▁低 1
どのくらい勧める 1
勧めるとしたら 1
買う 1
ように説得する 1
▁低価格 1
だと勧める 1
同じ様な商品 1
▁ヘッドフォンの 1
をいつも使用 1
▁商品をもっと 1
するべきか 1
世代に人気が出 1
防水だともっと 1
お役に立て 1
▁入ってくる 1
あっと 1
と思わない 1
溢 1
▁どんな感じなの 1
教わってるのよ 1
▁出来ないわ 1
▁恥ずかしいもん 1
▁そうじゃなきゃ 1
会ってない 1
理由があるもの 1
何か目の前に 1
あるもの 1
有意義な 1
教わったコツの 1
つは 1
▁私達はいつも 1
ってるけど 1
ハッピーアワー 1
▁すごく役に立ち 1
▁どこに情報 1
のリンク 1
▁うちら従業員の 1
利益になる事 1
申し込もうっと 1
▁単刀直入に 1
他社の面接 1
をお受けになる 1
▁現在のお給料 1
酬 1
俸 1
お仕事とほぼ 1
リク 1
▁では明後日は 1
レンダー 1
その日もダメです 1
▁木曜日の午後 1
▁木曜日の夕方 1
▁ロジャー 1
さんという 1
▁その方は副社長 1
の会社ですか 1
先方は至急 1
ので大変気を使 1
かなり有利なお話 1
秘密は守ります 1
アク 1
と同期できますか 1
と同期 1
が加 1
ただし 1
▁機密情報を 1
漏洩させ 1
には何人 1
人の担当者が 1
外回りに出て 1
を必要 1
購入できる 1
るのであれば 1
に着目しないと 1
まあそのせいで 1
プログラマー 1
営業を 1
▁私個人的には 1
さにはとても感謝 1
まず最初に 1
▁ここで働く事が 1
携帯電話の使用 1
電話を頻繁に 1
君が携帯電話 1
雇った 1
とても才能 1
▁仕事に 1
没頭します 1
君の仕事振り 1
には満足して 1
裏切 1
太という 1
▁先週我が社 1
よりご購入 1
▁ロバート 1
▁我が社と取引 1
がちゃんと可動 1
▁おたくの商品 1
何日かかかった 1
我々皆効率性の 1
▁何か質問や 1
詳 1
▁スタッフ 1
が良い人 1
か月後に 1
のお知らせ 1
▁都合の良い日を 1
顧客満足 1
度が下が 1
部が 1
人手不足です 1
フルタイム 1
数が増える前 1
▁でもあの有名な 1
ブロガーが 1
も販売数が増え 1
をしていると結局 1
してと頼んでいる 1
を一人増やす 1
が少し減ります 1
オーダー対応し 1
全てを 1
のオーダー対応 1
幅 1
考えると 1
丈 1
っぺ 1
▁ラベルを印刷 1
を使う事で時間も 1
から戻って来た 1
▁五年ぶりの休暇 1
作成や締切日 1
しろ言ってくる 1
▁戻って来 1
かかって 1
が詰まって 1
床 1
が水浸し 1
浸し 1
の時には 1
居たくなかった 1
紫 1
本人の非だよね 1
文句 1
礼儀 1
正しく 1
期間とっくに 1
付けないと 1
にも同じ 1
呆 1
呆けてたよ 1
メールがきた 1
我が社が著作権 1
侵 1
社が著作権 1
所持を主張 1
▁問題になるはず 1
時間以内に 1
をしなければ法的 1
処 1
会社と勘違い 1
事はないです 1
疲労が溜まって 1
▁最近睡眠不足 1
の事で 1
深夜 1
残って 1
疲労 1
憊 1
完成予定日 1
より大分 1
遅れを取 1
はずだったんです 1
自分を追い込ま 1
提出日までに 1
早退して 1
本当に体調を崩 1
気も 1
▁主任にこの 1
代表のジョン 1
我が社の新商品 1
の紹介ができ 1
新商品は業界 1
▁業界一 1
どう違う 1
他社の 1
成分 1
刺激 1
の強い有毒成分 1
が含まれています 1
▁その様な 1
商品を使う事で 1
有毒成分を吸い 1
のお子さん達に 1
その様な化学成分 1
に触れて 1
▁その様な理由で 1
植物 1
成分を原料 1
を幾つか使用 1
よく聞く消費者の 1
性能を高め 1
表面を使ってお 1
二時間以内に 1
書を提出 1
より随分 1
あなたも自分の 1
▁実は月次 1
期限が迫 1
をする事を推奨 1
してますよ 1
いましょうか 1
の準備が終わる 1
楽しみにして 1
心変わりしたか 1
腹立た 1
徹 1
労力を費やした 1
のかを知ってる 1
▁私が決めれる 1
苛 1
って仕方ないです 1
わかるよ 1
▁岡田社長が 1
起こったこと 1
はもう終盤に差し 1
▁彼は何 1
知られてるから 1
我慢 1
▁父親 1
会社を引き継い 1
どれだけ一生懸命 1
ライラ 1
良い考えです 1
愚痴 1
田良太という 1
▁先週配達予定の 1
畳 1
傘 1
▁今日はもう 1
盗難に遭 1
物も盗難に遭 1
責任は取れ 1
▁返金 1
のは嫌なんです 1
▁この電話 1
迷惑 1
▁ただ盗難に遭 1
う事は腹立たしい 1
他にお力 1
▁近藤夫人が亡 1
悔やみ 1
▁近藤 1
社長にお 1
悔やみのお花 1
新しい花屋です 1
▁花 1
に応 1
花屋を使った時 1
出来栄え 1
だったんです 1
幾 1
ら位お考え 1
ドル位です 1
は皆葬儀に参列 1
近藤 1
はお決まり 1
これが全てです 1
仰って 1
に行かない 1
イタリアンは 1
ストリートの 1
キン 1
ルメ 1
あそこで失敗 1
ォチキンはここ 1
満た 1
を調べてみるね 1
オーダーしたい 1
のは確実だよ 1
▁同僚たちと 1
みんな働き過ぎ 1
の為になるはず 1
ようこそ 1
名前はリンダ 1
リン 1
入社員の 1
働く事ができ 1
部です 1
▁自分のデスクが 1
週間は 1
為の 1
ペン 1
も忘れずに持参 1
従業員番号も 1
にログイン 1
さまざまな場所で 1
番号を 1
とても頻繁 1
には自然と 1
覚えている 1
休憩室の案内を 1
見た中で最高の 1
能率も上が 1
ナック 1
配給 1
うちのスタッフが 1
充 1
従業員は皆フ 1
レンドリーで 1
▁何か質問や心配 1
を迎える事が出来 1
新しい求人の 1
▁リード 1
▁実はこの 1
仕事に応募 1
▁応援してますよ 1
あまり自信がない 1
そう思う 1
応募者 1
▁競争率 1
が高いですね 1
名前を記入 1
一番最後まで 1
▁仕事に時間と 1
苦 1
す事ができるし 1
その事を高く評価 1
▁職場でのいざこ 1
ざを避けたい 1
▁お陰 1
で自信が沸いて 1
忠実にこの 1
▁その事も面接 1
▁応援 1
▁岡田 1
▁広 1
1234567 1
▁品物の栓 1
中身がこぼ 1
▁なので返金を 1
直ちに 1
すぐに送る 1
▁もちろん送料は 1
こちらで持た 1
品物の 1
がきちんとされて 1
▁我が社が故意 1
頂きたいです 1
色んな 1
品を貴社から 1
▁このような事が 1
したメールを送信 1
してしまい 1
末に田中さんが 1
知っていた 1
おられますよね 1
が社に 1
▁退職祝いを企画 1
▁パーティー 1
を開催 1
以前田中さんが 1
▁田中さんが 1
▁じゃあルアウ 1
喜びそうな 1
▁場所 1
▁でもあそこは 1
値段が高め 1
▁お手頃な 1
ルアウ 1
レーション 1
▁パーティー用品 1
よいですね 1
のお姉さんが 1
腕 1
シェ 1
予約の 1
ライバル商品に 1
パーソンとして 1
▁我が社に 1
不利でしたよ 1
伸ばす 1
パーソ 1
旬 1
な人を雇うには 1
かなりの額 1
自然派志向 1
▁我が社が自然派 1
を生産している 1
記載して 1
立た 1
の表 1
成分のみ配合 1
と記載 1
やつの成分に意識 1
着色料の取り 1
着色料のみ 1
▁材料の写真を 1
消費者は成分 1
志向 1
の親達は喜ぶ 1
▁良い結果になる 1
ところなんです 1
ボタンを押 1
▁コンセントが 1
▁インク切れ 1
▁インク 1
▁紙が詰まって 1
プリンターはた 1
故障するはず 1
考えですね 1
▁プリンター 1
ようなのです 1
電源を切って 1
参加ありがとうございます 1
▁店長として達成 1
売り上げの月 1
▁店長としての 1
▁この仕事 1
を持たれた理由 1
▁当社が大きく 1
楽な 1
しっかりと 1
▁部下をまとめる 1
▁部下 1
やる気を高める 1
な分野です 1
▁イレイン 1
▁変だな 1
ブラウザ 1
がいつ解決 1
か知ってる 1
時点では 1
知らせてね 1
が機能してない 1
社に買収される 1
社も 1
▁なので私は監査 1
仕事を続け 1
な移行を提供 1
社の顧客様の 1
▁ご確認いただき 1
変わる予定です 1
メールの方に送 1
のところを見てて 1
があることに気づ 1
形として使って 1
に違いないです 1
▁訂正したものを 1
直してすぐに 1
四半期は月に 1
と思うかい 1
確かめる 1
では知らせてね 1
と情報が必要 1
製品に必要か 1
▁植物検疫証明書 1
▁一部の製品 1
ことを示す 1
製品に必要 1
農産 1
が何かを調べ 1
を取得すること 1
原産地証明書と 1
に間違いがないか 1
原本を取得する 1
▁全ての書類の 1
原本を取得し 1
見学しても 1
声をかけますね 1
にあてますか 1
又 1
量の間違い 1
先が 1
分にあてて 1
いつこの 1
をするか知ってる 1
▁トラックに 1
積み込み 1
を出荷 1
から積み込み 1
に会いに行った 1
提案を話し 1
▁大きさも 1
級 1
値段も 1
忘 1
にお電話して 1
善を尽くします 1
ご苦労様 1
▁この日本への 1
追跡サービスに 1
▁船の到着 1
から到着予定日を 1
サイトから追跡 1
撮 1
会議のこと 1
あった会議のこと 1
見つから 1
信済みメールは 1
確認した 1
のメール確認 1
にフォルダを移動 1
忘れたんだ 1
お聞き 1
船会社に確認 1
船の予約ごとに 1
の見直し 1
が戻ってきます 1
に打ち 1
仕事です 1
草案 1
▁運送業者は 1
草案を見直し 1
▁では誰ですか 1
はもちろんですが 1
つをつか 1
かりますか 1
同様に役 1
書類の収集 1
あと彼らが所持 1
している免許 1
から仕 1
社内の品質管理 1
▁一部の 1
質問や 1
供給元は通常 1
用意する書類の 1
送れますよ 1
▁ノルウェーから 1
日本への 1
事務所では 1
という男性が 1
集金部です 1
前もって教えて 1
▁金額がいくら 1
TManning 1
社集金部の 1
▁未払いの 1
払いの 1
請求書が 1
にはノル 1
ウェーから 1
発送された 1
事務所にご連絡 1
▁連絡先 1
Manning 1
今送りますね 1
社のカイル 1
▁元気に 1
大豆のご 1
かどうかを伺う 1
では大豆のような 1
農産物は扱 1
▁大豆については 1
ポートランドの 1
が一部食 1
▁ポートランド 1
合同会社を設立 1
への進出に興味 1
名もご提供 1
番目の用地 1
獲得に少々 1
ウチは資金 1
を必要と 1
ヶ 1
用地の目処 1
オーナーが引退 1
に納得し 1
オーナーが 1
を受け入れそうな 1
百万ドルかかる 1
詰める 1
潜 1
獲得 1
▁弊社に運営の 1
▁ユニークな見解 1
▁このような 1
追って 1
▁そちらで何か 1
近況をお 1
自社工場を建設 1
していない新技術 1
を取るのに 1
ちょっと苦戦 1
決めたんです 1
もう工場は建設 1
▁でも新技術 1
滞 1
から興味を持って 1
まだ導入先 1
鶏 1
リスクを負う 1
自分たちで 1
経営陣はそれに 1
負う 1
譲 1
そのリスクを負う 1
▁商品を買うこと 1
▁偶然御社の 1
見つけて 1
▁見つけて 1
▁ざっとだけです 1
に対応するワン 1
ストップ 1
▁弊社には資材 1
社と取引 1
さんですね 1
大手企業と取引 1
かなり良い評価を 1
▁見積もりは無料 1
伺った 1
北米では 1
を計算するにも 1
コストが大体 1
するかを判断 1
するにあたって 1
終わりに何か 1
▁リンダ 1
話がある 1
書くものと 1
がどんなもの 1
書きとめ 1
まずはみんなが席 1
全部書かなくて 1
簡潔 1
が初日ですね 1
▁お仕事 1
今日が初日です 1
教わ 1
ほとんどは 1
の仕事に慣れて 1
▁主な 1
▁データをアプリ 1
設定は得意 1
に出てもらう 1
▁どなた 1
目に入るの 1
ゲストの 1
▁約束のある方 1
▁約束 1
のない方には予定 1
▁ポールさん 1
▁はいジョアン 1
月曜日の会議は 1
契約条項に全て 1
▁経験も豊富 1
最終的な詳細の 1
すり合わせのため 1
▁僕も出た 1
▁全て明確に 1
そうしたら今度は 1
を決めますから 1
▁私は式典 1
という程の堅苦 1
頼まれていた 1
っきり 1
▁計画書の主な所 1
▁計画書 1
は三項目に 1
分かれて 1
つ目 1
の紹介も 1
読んでから 1
アシュ 1
▁皆さんいつこの 1
月には 1
初版のリリース 1
早すぎますよ 1
にするべき 1
市場に参入 1
優位に立たれて 1
リリースは実現 1
▁バグだらけの 1
が遅れるうんぬ 1
離れていって 1
に時間を取り 1
過ぎるから 1
あうんだよ 1
めに言っておいて 1
昨夜 1
ボストンの試合 1
▁ニューヨークが 1
▁君はいつもわざ 1
しく言うよね 1
ボストンの 1
今まで見た中で 1
これ以上バスケ 1
る時間なんて 1
▁うちら 1
みんな毎晩残業 1
ているので 1
で話す 1
に数字を発表 1
▁数字がどうな 1
▁本年度の本日 1
付の売り上げ 1
に気づ 1
▁本年度の予算 1
私の考えでは 1
策を講じ 1
には賛成 1
力な労働力 1
を取り戻すことも 1
より高いって 1
詳細を見てみた 1
これは良い情報 1
とても重要な情報 1
▁最後まで 1
回営業から 1
アフター 1
に対応する 1
▁オリビア 1
ビッド 1
そして左側 1
書類に記入 1
そして福利厚生 1
▁給与と福利厚生 1
ランチ休憩 1
だと思いましたよ 1
ランチの 1
ブックを配 1
規範は 1
価値を 1
手段です 1
▁その規範は 1
らし 1
水準を公約する 1
ユーザーの確保 1
与えられた機会 1
盤 1
柄であります 1
疑いがある場合 1
▁匿名が良ければ 1
匿名で電話 1
または法律に違反 1
疑い 1
においては 1
最前列の手 1
を挙げている 1
えた分に対して適 1
▁去年働いていた 1
分も 1
▁派遣社員の分 1
は送ってくれた 1
▁すっかり忘れて 1
から高額の罰金が 1
派遣社員の 1
▁それぞれの派遣 1
の一番 1
会計に渡す 1
▁気にしない 1
でいいよ 1
▁旅はどうだった 1
音楽も 1
▁僕はカリブ海 1
▁クルーズもした 1
どこへ行ったの 1
▁マイアミで乗船 1
はどこへ行ったの 1
のセントジョン 1
ズに止まった 1
▁聞いた事ないよ 1
▁セントジョンズ 1
カリブ海 1
バーブーダの首 1
都 1
で主要な 1
▁二つの国の首都 1
独立連邦国だよ 1
▁連邦国は 1
つの州を除いて 1
以前は大英 1
帝 1
つの州が違 1
▁ルワンダとモ 1
ザンビーク 1
間違ってる 1
何をしたの 1
ビーチにいたね 1
砦 1
▁1779 1
ってる最中に 1
▁行った行った 1
シア 1
チン 1
あとジャマイカ 1
ジャマイカ 1
▁僕は音楽 1
んだよなあ 1
▁優しいじゃん 1
▁私達も 1
に移行するべき 1
時間の節約にも 1
▁クラウド 1
ジタル 1
文書は暗号 1
アクセスは少 1
▁面白 1
一本に相当 1
を丸ごと救える 1
クト 1
優しい 1
とも言えないなあ 1
弱い 1
障害 1
には料金 1
るし 1
▁選べるように 1
を選んだからって 1
と思うんだよなあ 1
を選んだお客様に 1
ダでもらえる 1
みんな好きだし 1
発表会 1
ことによって 1
が生まれます 1
ハードウェアの 1
であります 1
生徒さん 1
▁教授の 1
現場においての 1
幻 1
▁その場で質問 1
▁積極的な学習 1
採点まで完了 1
学習の手助け 1
を全て持ち帰って 1
教材として使用 1
教材をお渡し 1
回答を付ける 1
分以下で 1
ご質問は 1
教授の皆さんの 1
デスクトップを 1
問題に答えて 1
テージ 1
魅 1
的なツールで 1
感覚で学んで 1
お一人につき 1
一学期ごと 1
ではどのプレゼン 1
すでに持っている 1
している場合 1
干渉しあったり 1
の基地局が近接 1
場合は干渉し 1
副周波数は 1
干渉 1
周波 1
基地局の新しい 1
副周波数 1
教室 1
結果を教室 1
で表示 1
スクリー 1
結果を教室全体 1
に公表なさる 1
ツールバーで 1
セッションは 1
セッション 1
日時のファイル 1
名の付いた 1
に保存されます 1
▁成績表内には 1
エク 1
▁ねえジェラルド 1
叫 1
んだり怒鳴 1
ったりしてるのよ 1
まだ怒ってるのよ 1
って言ってるわ 1
沢山の人を 1
まく 1
ってる客に当たる 1
傲 1
慢 1
は精神的に消耗 1
のかひとつひとつ 1
お願いして 1
とか言って相手を 1
してくれたと 1
お客は 1
理性 1
を取り戻すからね 1
共感 1
とわかるともっと 1
かつ理性的に 1
しておけるし 1
事実をきちんと 1
ジェラルド 1
ことに責任を負う 1
挨拶する時は 1
会社の代表 1
対応するんだ 1
面倒く 1
お客は怒り 1
っぱなし 1
客は問題 1
されたり共感 1
▁明らかに何も 1
を伝えるのは 1
▁私は会社の代表 1
責任を受け入れ 1
▁でももし誰かが 1
罵 1
浴び 1
稀 1
口の悪い人 1
割合で効き目 1
▁こう言うんだ 1
対応しかねます 1
効き目はある 1
かしくなって謝 1
防災 1
火事が起きた 1
警報を鳴らして 1
あきら 1
めてドアを閉めて 1
▁火災警報が鳴 1
ストロ 1
建物から 1
歩いて最寄りの 1
避難出口 1
他の人に 1
後ろの 1
▁体 1
に障害がある人が 1
建物から自 1
で避難 1
人を危険から離 1
死亡の危険 1
がある場合を除き 1
そこへ残して 1
▁その人を運 1
物理的に 1
最後の手段です 1
の使い方はどこで 1
火災の種類を 1
ある火災の種類は 1
などの通常の可燃 1
物の火災です 1
および家電などの 1
火災です 1
クラスの火災 1
にはその消火剤 1
警告 1
消火剤 1
乾 1
いた化学物質 1
湿った化学物質 1
は時間を作って 1
▁先日は卒業生の 1
うれ 1
久しぶりに 1
のを見 1
を見ながら 1
メモをとる 1
この質問 1
この短期間で 1
急成長したか 1
この短期間の間に 1
ことによって自然 1
社員全員 1
とって最善 1
この規模で 1
正直な 1
ところかなり 1
▁特に注文の追跡 1
すべてが完全に 1
深刻な妨げ 1
▁規模に関しては 1
に良く似ています 1
▁内勤営業部門 1
に導 1
ティムさん 1
人事部ジョアン 1
そのお仕事に 1
顧客対応担当者 1
社では顧客満足 1
▁現在の部署 1
より良い 1
に対する情熱 1
短所は何ですか 1
抵抗 1
ほとんど毎晩残業 1
りましたが 1
ご自身がどうな 1
理解を深め 1
ハイテク企業 1
事と 1
訴 1
と電話で話を 1
▁その方はただ 1
満足して 1
少し上が 1
適切だろう 1
こだわ 1
時間は何をなさ 1
▁ソフトボール 1
あとは身体を 1
鍛 1
運動神経が良い 1
ルギー 1
が機能していない 1
お客様を保留 1
▁購入 1
会が 1
が繋がらないんだ 1
スマートフォ 1
▁設定 1
次にモバイル 1
luetooth 1
▁ラップトップ 1
を入力して 1
御社のカスタム 1
外観です 1
お伺いします 1
ケーススタディ 1
▁従業員の 1
作業効率は 1
上昇しました 1
にし 1
▁ただ一本のズボ 1
を丸ごと購入する 1
四半期に彼らに 1
増収をもたら 1
▁さらに言うと 1
増収 1
おたくのシステム 1
に設置 1
射撃犯が現れた 1
▁緊急の場合は 1
意のある 1
侵入者または 1
があなたの 1
建物の外にいる 1
錠 1
▁すべての窓を 1
閉めて 1
灯 1
外から 1
全員を床 1
に座 1
したりして来た 1
その場に留 1
何か質問ですか 1
▁状況と場所 1
は違ってきます 1
▁この場合 1
は外にいるので 1
うことを忘れない 1
まず最初に安全 1
遭遇した場合は 1
直ちに建物を出 1
ことを心がければ 1
▁射撃犯 1
立ち止まる 1
▁エリアの安全 1
と救急医療 1
▁警察 1
の人を 1
被疑者として扱 1
▁落ち着いて行動 1
バッグ 1
手を挙げて 1
目に見 1
どこにいるか 1
▁危険から逃 1
当局の指定する 1
に留 1
釈 1
ページに全部 1
情報提供者の 1
スタンに拍手を 1
オープニングの 1
▁従業員の離職率 1
▁数週間で 1
からもう少し管理 1
を深 1
せいで 1
腹を立て 1
あなたは今 1
権 1
威 1
と知り合い 1
を払って 1
毎日みんなと 1
偏 1
明確 1
ビジョン 1
適切な人物を 1
雇う 1
している事をわか 1
達が望んでいる 1
のビジョンを共有 1
するような 1
▁店舗 1
責任を負う 1
自分の仕事 1
視野 1
が広 1
がりました 1
▁長い 1
ことこの仕事を 1
つアドバイスを 1
を建設的な 1
方法で記録 1
作業効率は上が 1
買収される 1
噂なら何年も 1
世話をする為に 1
ラード 1
社の経営者と 1
ジュリーが 1
▁何か良い事が 1
始まるかの様に 1
握 1
うちはしてないよ 1
で製造 1
かわからないよ 1
他の国で製造 1
うちの工場を閉鎖 1
従業員は皆職 1
ジョージは 1
に障害 1
の事を考えてみて 1
▁多くの人は 1
忠実に勤務 1
工場を閉鎖 1
どうにかして阻止 1
できればいい 1
と共に抗議 1
はわからないよ 1
を受け入れて順 1
▁工場は閉鎖 1
事を願う 1
困った事になりました 1
▁どうしたんだい 1
が重な 1
がウィリスさん 1
と全く 1
▁君はいつも 1
私の予定 1
管理をしっかり 1
発表会に出席 1
リスさんとの 1
して北 1
を守るべきですよ 1
短気で 1
さは 1
はそのままに 1
同日の朝 1
を早めて 1
私たちを責める 1
私の予定を頼む 1
計画的性のある 1
ウィリス 1
北野さんの 1
に電話して 1
私の元で働いて 1
▁この三人に 1
込め 1
▁有力候補 1
はこちらの 1
経験が豊富な 1
▁美咲さん 1
をお持ちのベン 1
モンさん 1
の事も忘れずに 1
年の経験に勝る 1
同じ位有能 1
でしたから 1
明確で自信 1
新卒だし 1
有望 1
▁美咲さんは一番 1
著 1
フォーマンスは 1
を知っています 1
▁私の考えでは 1
有力候補です 1
功績もプラス 1
▁人当たりも 1
ニー 1
票 1
▁結論が出ました 1
決定です 1
と返金リクエスト 1
▁返金が絡む 1
が記載されている 1
どうやったら 1
として写真を送 1
様に頼めば親切 1
より良いサポート 1
正直な顧客 1
こない場合はどう 1
数日内に催促 1
処理をしても 1
が開いていて 1
中身がこぼれた 1
されても 1
額を入れますね 1
罪 1
のメッセージも 1
頼まれた商品 1
届きました 1
▁何が問題なのか 1
同じ商品と写真 1
▁私も見ても 1
見えますよね 1
が混入 1
配合の商品 1
製造さえ 1
が間違っている 1
▁でもこの写真は 1
な事になります 1
スペンサー 1
彼女にこの一件 1
レットを盗 1
にお弁当箱を取り 1
▁何処かに 1
書をするつもり 1
にお弁当箱を 1
▁物が無くなった 1
▁先週ステイシー 1
が無くなったのを 1
結局見つから 1
なかったよね 1
休憩室に監視 1
▁監視 1
窃 1
▁自分の物が盗 1
まれてごらん 1
隅 1
がこ 1
人たちと 1
するのは嫌 1
▁グ 1
キャメロン 1
とスーザン 1
そう見えますよね 1
▁私が彼の告げ口 1
メロン 1
させている 1
ものにする 1
をさせられて 1
スー 1
とは全く疑い 1
携わ 1
する事を真剣に 1
▁でもキャメロン 1
▁怠けすぎです 1
さにはとても 1
▁告げ口した 1
▁彼には気持ち 1
真面目にな 1
を見つけた 1
▁幸いにもナッツ 1
怒り心頭で 1
脅 1
してましたよ 1
品の製造さえも 1
▁その事も 1
見つかった混入 1
目で確かめて 1
転送しますね 1
工場長にこの件 1
製造は 1
故意的に 1
混入 1
▁意図 1
犯罪 1
犯罪責任を負う 1
ような事をする 1
▁じゃあ一体 1
出そう 1
としているんです 1
マイカ 1
▁うちの子が 1
▁お名前と状況を 1
▁名前はアマンダ 1
モー 1
ビル在住です 1
でおたくの商品 1
おたくの 1
が含まれて 1
▁小さなピーナツ 1
のかけ 1
らを 1
この様な事が起こ 1
迷惑をお掛け 1
事はない 1
た物の写真を送 1
▁明らかに 1
▁それらの写真 1
ロット番号も 1
工場長にこの 1
すぐに連絡を入 1
出る事が 1
すぐに連絡 1
▁ナ 1
があと二週間で 1
▁これは予期 1
▁何処かで 1
開業 1
するらしい 1
求人募集を掲載 1
サーチ 1
レクターで 1
知識がある 1
遂 1
似た分野の 1
も望ましい 1
もプラスだね 1
を重視できる 1
応募者が必要だ 1
目を向 1
求人募集を 1
▁締切日はいつ 1
完璧な候補者 1
を選びたい 1
早まった決断 1
を務めてもらおう 1
れる事 1
知りませんでした 1
▁ジョ 1
を務 1
▁知っている事 1
後継者として 1
▁貴方と取引 1
▁こちらも同じ 1
して頂きたいです 1
ご健闘を 1
▁貴 1
でのご活躍を祈 1
可動してる 1
今同じ質問 1
しても動かないの 1
終了するところ 1
▁また初めから 1
トミー 1
さんを呼んで 1
ぶのが一番だよ 1
ハイテク 1
修理したんだよ 1
情報入力 1
良い所まで修理 1
顧客情報入力 1
量が半端 1
ないのよ 1
▁でも勘違い 1
でトミーさんが 1
▁全員参加の 1
▁いつ行ったら 1
▁朝一番でした 1
▁さっさと 1
終わらせる事で 1
▁朝一番 1
▁時間が経つ 1
皆仕事に没頭 1
▁考え 1
は理解できる 1
▁意図的に一番 1
忙しい時間帯 1
にするべきですよ 1
地震 1
凶 1
侵入者など 1
出来事は予測 1
不利 1
▁事前にその様な 1
で避難する 1
より心構え 1
するのは嫌ですね 1
▁常に時間内に 1
ちゃんと心構え 1
を救 1
救 1
リーさんが 1
仰る通りですよ 1
▁熱心さにとても 1
はしませんよ 1
スクリプト 1
を読む機会 1
▁スクリプトを 1
力を尽く 1
言ってくる 1
▁その様なコール 1
を個人的に受け取 1
良い印象を与え 1
やってみて下さい 1
孝 1
▁フレンドリーで 1
▁そこまで活気が 1
▁礼儀正しく 1
お客様を苗字で 1
▁ミスター 1
精神的に疲れて 1
助けを求める 1
▁あなたを助ける 1
トレード 1
のジョン 1
▁来週配達予定の 1
▁何か問題 1
倉庫が浸水被害 1
半の品は水浸し 1
でもそちらの 1
▁幸いにも 1
いつ新しい商品 1
工場から明日 1
を含めた 1
テーション 1
のギル氏だろう 1
セクハラ疑惑の 1
不適切な 1
を連れてくると 1
彼の近くに居 1
るの申し訳ないね 1
▁我が社がギル氏 1
と取引 1
をしていると 1
▁セクハラ疑惑 1
会社の評判 1
になる事 1
かわからないな 1
を公に与えて 1
する手はないの 1
が決めれる事 1
由 1
紀 1
▁クラフト 1
奥田 1
▁巧と共に参 1
新商品 1
▁ここに来る 1
事ができ 1
▁クラフトが 1
▁また商品の 1
デザイナー 1
の奥田 1
▁巧 1
引く 1
バート 1
ローレンス 1
設立 1
オ州の田舎町で 1
▁ローレンス 1
年に犬猫 1
の衛生 1
▁発売 1
当初から国内で 1
最も売れている 1
商品の一つです 1
商品のほかにも 1
▁この新商品は四 1
の衛生用品をお 1
▁クラフトに 1
荷物の 1
はおわかりですか 1
▁その荷物の 1
サマリーを 1
がいつこちらの 1
施設に 1
届いたかお 1
わかりですか 1
▁昨日のはずです 1
お電話を折り返す 1
時過ぎのどっち 1
かだと思うけど 1
ちゃくちゃ 1
混んでるからね 1
の乗 1
電車に乗 1
の中にいた 1
湿 1
に電話すると 1
▁メールは送った 1
向こうが朝一で 1
メール確認 1
歩くの 1
までに戻 1
までに戻るよ 1
社の件 1
社に投資 1
だってことを 1
はできるよね 1
思うけど 1
審 1
のスペシャリスト 1
チームに話して 1
これについて 1
君の意見は 1
君とサムが 1
シリコンバレー 1
開設した 1
完全に 1
っちに 1
先に連絡して 1
聞こうかな 1
タクシーで行 1
と思うし 1
▁睡眠時間を取り 1
▁めっちゃ 1
来週の朝一で 1
午後だからか 1
▁土曜には完成 1
に書いて 1
わからないよ 1
講 1
▁コースの詳細 1
あんまり使えない 1
で学んでることや 1
このコースで扱 1
学びたいんで 1
数字に強く 1
先ず 1
それを待って 1
ずはそれを待って 1
磨 1
に興味があるって 1
も考えてたんだよ 1
が必要だ 1
があんまり 1
お休みを頂きたい 1
▁熱ですか 1
▁今日はもう一日 1
そうなったらまた 1
コープ 1
さんの方が 1
少し経験が豊富 1
▁二人とも良さ 1
うまくやっていけ 1
さんの方が野 1
心的 1
僕もそう思った 1
転勤の可能性 1
じゃぁないからな 1
▁もし彼を採用 1
への転勤の可能性 1
僕らにとっても 1
を選ばないことが 1
最良だね 1
美里さんで 1
就労 1
新しい経歴 1
じゃぁ 1
知らせるよ 1
▁この仕事では 1
の輸出書類作成 1
御自身 1
会社でコープ 1
をさせて頂く機会 1
ことを決められた 1
▁国際ビジネス 1
を考えると 1
幼少の頃に 1
と日本語 1
勤め始めた 1
では経営管理 1
働き始めようと 1
業は 1
要素だと理解 1
御社で活か 1
貨物輸送 1
候補者に絞 1
▁東京オフィスと 1
連絡を取るのに 1
カバーレター 1
経験はさておき 1
けてたよ 1
ミスがあったり 1
しただけだった 1
日本とアメリカ 1
▁いつ面接したい 1
面接したい 1
候補者は 1
すぎる人たちは 1
手一杯だからか 1
▁その意味では 1
このことは 1
アップロ 1
▁応募 1
したら知らせるよ 1
▁そらそうだろ 1
最終的に 1
面接するんだよ 1
▁先日お客さんに 1
▁どの日程も 1
全体的な評価 1
▁人気商品になり 1
細かい点 1
いろいろと 1
▁食事の時間が 1
長すぎる 1
に関したことが 1
の食事 1
苦情が入 1
ツアーに限らず 1
オペレーター 1
に乗る前後の 1
での時間を増や 1
での時間が欲しい 1
すぐに船に移動 1
してから船に移動 1
ご意見が多いです 1
の日程が長くなる 1
二日ほど延ば 1
それで反応を見て 1
▁クルーズ 1
だったこともあり 1
清 1
潔 1
かと思いましたが 1
がよく出てる 1
▁日にちを延ば 1
すと 1
少し上がること 1
が対応します 1
▁元気にや 1
▁御社製品の購入 1
この製品の担当者 1
を調べ 1
▁少々 1
ロバ 1
頂け 1
▁お入りください 1
武田信五です 1
武田信五 1
▁日本で産 1
幼 1
▁どれくらい居た 1
の最終学年を 1
単純に 1
会社で働きたい 1
国際貿易に関わ 1
力を活かせるの 1
性と 1
への優れた視点 1
やり抜く 1
やり抜くことが 1
募集してたから 1
▁学校では何を 1
を勉強 1
▁大学卒業後 1
賭 1
しまわって 1
▁経験が全く必要 1
日本企業は 1
新卒 1
▁彼らを社風に 1
合うように型 1
何もないな 1
▁会計 1
過ぎないで 1
から来てる時 1
休みがいるよな 1
彼らと外食 1
会社持ち 1
スタント 1
ラーメンが 1
くんだよ 1
▁お客さんを楽し 1
彼らと 1
を丁重に扱 1
夜は食事を楽し 1
▁いっぱい食べよ 1
に連れて行ったら 1
▁だったら簡単 1
この辺りでは 1
は大変 1
▁駅のそばの 1
あそこで貸し切り 1
しゃぶしゃぶ 1
屋さんは 1
▁しゃぶしゃぶか 1
▁それは面白いな 1
▁オー 1
座れる席がある 1
混ざっていたよ 1
のスタンプが 1
申し訳ないね 1
件続きで入 1
っていたんだ 1
昨 1
送ったのか確認 1
▁彼は月曜日に 1
迷惑をかけて 1
配達員がまた 1
回目よ 1
▁このビルには 1
郵便受けは隣 1
▁受け取る手紙 1
の中には 1
郵便物を誤配達 1
わけにはい 1
▁次回誤配達 1
郵便局長に連絡 1
この様な事が 1
起き 1
郵便受け 1
ラベルを張 1
った方がいいね 1
追われている 1
も正しい郵便受け 1
やすいだろうから 1
さんも気にしない 1
亮 1
時はいつでも 1
▁昇格 1
▁部署を管理する 1
の仕事に就 1
所にもちゃんと 1
目を向けて 1
確かです 1
建設的な批判 1
はちゃんと受け取 1
れますよ 1
繋がりますから 1
日までに 1
▁それが問題 1
委 1
先延ばしに 1
助言や批判も 1
▁みんな怠けても 1
会社の有意義な 1
になる事を学ば 1
手際良く 1
のならば 1
歩 1
▁和夫さん 1
人事部の 1
会う機会 1
全員会いました 1
困った事 1
親切な事で有名 1
していて大らかな 1
▁日本人は 1
でやる事 1
▁一般的に日本の 1
はにもう少し 1
真剣な感じです 1
点尊敬します 1
▁その真剣な姿勢 1
方も同じ位 1
▁伝統的な 1
うことができたし 1
とも親しくな 1
知る事ができて 1
業務できる様に 1
色々工夫 1
▁数週間後には 1
トリ 1
デーには緑の 1
▁その日は 1
▁和夫 1
ここに来てくれて 1
転勤して来る 1
事が心配でした 1
な移行が 1
未知 1
アダムスさんの 1
ダム 1
程度は好評です 1
のページ 1
は好評でした 1
の若者は以前ほど 1
をきちんと 1
ダムス 1
に追われていて 1
かとれないんです 1
かけたいのならば 1
ナン 1
となかなか 1
アダムス 1
▁どの様な仕 1
か説明 1
商品の宣伝 1
▁多くの 1
写真付き投稿を 1
▁あと投稿に残 1
ドル払うとして 1
を雇うように説得 1
来週の木曜日に 1
センターで開催 1
される就職説明会 1
えますから 1
就職説明会 1
すれば良いかは 1
しているはずだね 1
志願者を勧誘 1
志願者を最低 1
人探して欲しい 1
と販売部の規模 1
▁どの様な 1
英語と日本語の 1
バイリンガル 1
スペイン語 1
実際スペイン 1
語を話す従業員 1
スペイン語圏 1
志願 1
望ましい 1
広報でも大丈夫 1
すべて書き留めて 1
▁大きな 1
年の経験 1
▁希望 1
▁経験が長い 1
ほうが良い 1
が良い人がいいな 1
もらう予定だよ 1
にはちょっと 1
安すぎると思 1
た方がよい 1
▁提案はあるかい 1
▁53000 1
ドル位が 1
の就職説明会 1
を教えてあげてね 1
奈 1
▁大きな決断 1
に行こうか迷 1
言うほど 1
簡単じゃない 1
▁卒業しても 1
高額の借金が 1
を専門にする予定 1
▁ここ何年かエド 1
を学ぶのがすごく 1
大学は夜に 1
勉強する為の 1
叔 1
ガル 1
在学中は 1
心強いな 1
の願書 1
が正しいのか確認 1
きている様だね 1
悔 1
を送ってみるね 1
友人がいて幸せ 1
オカヤマさん 1
が辞めたんです 1
辞めた 1
会社に就職した 1
社に就職した 1
週間前 1
通知をくれても 1
大変な事 1
▁わざ 1
普通の 1
ずっと人手不足 1
二人分 1
尚更です 1
カヤマ 1
に取り掛かります 1
▁でもオカヤマ 1
メールは 1
▁悪天候の為 1
臨時 1
のハ 1
買い出し 1
キーさんは浸水 1
嚢 1
かからないので 1
さんにくれぐれも 1
ヶ月あれば 1
充分あります 1
▁この商品は 1
▁もし問題がある 1
仰る通りです 1
商品を来月発売 1
するんですよ 1
どう思ってるか 1
知る事ができる 1
品に勝る商品に 1
▁発売日を早める 1
も充分あります 1
月に決定です 1
君が興味 1
ビリングスさん 1
とは初耳です 1
に戻り 1
高額 1
▁学生ローンを 1
の為に大きな額 1
このプログラムは 1
必要事項ですか 1
▁ここで働く 1
のが本当に 1
学生ローンを借 1
くわく 1
している様だね 1
勧めて 1
▁ビリングスさん 1
回り 1
い言い方してます 1
を伝える役には 1
首になる様な事 1
リストラ 1
はここで一番勤務 1
をしなければいけ 1
子供が生まれる 1
も手伝うよ 1
会社が求人募集 1
の有給休暇も 1
日残っている 1
やっていけ 1
といいんだけど 1
気が重 1
くてね 1
難い 1
私だって落 1
胆 1
▁でももう事実 1
を受け止めました 1
場で別れ 1
の挨拶を 1
ないといい 1
とラミレスさん 1
陰 1
す事が 1
最高の指導 1
知識と 1
耐 1
力に 1
飲み込みが早い 1
ラミレスさん 1
勇 1
この国で 1
気が出ました 1
▁こんなに 1
人は大役を務め 1
あなたは長年の 1
▁健闘を願 1
隣の散らかり 1
放題のデスク 1
▁ビリーの机 1
みたいね 1
▁もう耐えられ 1
▁あんなに 1
散らかり放題 1
▁浦田さんが 1
▁彼は何度もビ 1
▁あんなに散ら 1
まま効率良く 1
人が居 1
るんだね 1
それが不思議 1
でならないの 1
はいつも申し分 1
▁浦 1
田さんも 1
どれだけ有能か話 1
彼の散らかった 1
恥 1
怒らせ 1
レター 1
みるのはどう 1
使え 1
このままずっと 1
彼の散ら 1
かし放題の犠牲 1
手紙を書くの 1
あまり対立的 1
▁来週の火曜日が 1
望な候補者 1
した労働観 1
▁直ぐに 1
彼女の事を 1
気に入る 1
を通して雇われる 1
▁ただ彼女の事を 1
応募者にもし 1
前に願書を提出 1
とカバーレター 1
を送付して 1
の願書のみ 1
紹介者として 1
もいつも見 1
親友が病気で亡 1
人生で何が大切 1
か優先順位 1
を付ける 1
合併は大きな 1
社の経営者とは 1
そういうお話 1
話をしてきて 1
▁でもまだ公式な 1
プロの意見を 1
聞きたくてね 1
より大分規模 1
をお考え 1
▁この合併は 1
可能な会社なら 1
▁じっくり考慮 1
可能か確か 1
めたいんです 1
助けてくれるね 1
どう思われている 1
▁でも喜ぶはず 1
の事を後回し 1
事が沢山起こ 1
高野さんと 1
出張に行く様で 1
者が必要なので 1
特別なお世話 1
▁例えば投薬 1
用する事を忘れ 1
部屋に泊まって 1
と言われる 1
寝る仕事にな 1
んて申し込んで 1
時の為に 1
誰かが近くに居 1
▁様子を見る 1
一晩中起きて 1
▁もし助けが必要 1
になった時の為に 1
彼のスイーツに 1
彼は食事制限 1
彼は食事 1
嫌がるんです 1
良さそうな食事 1
高野さんも 1
投薬の手助けと 1
彼のスイーツ 1
で寝る事は 1
従業員であって 1
▁でもメソメソ 1
世話をする人が 1
時間を楽しむ 1
ものも 1
商品自体の事を 1
ほとんどが 1
から仕入れた本物 1
件以上 1
同じ様な苦情 1
▁ほぼ同一商品に 1
所異なります 1
▁チャックと外ポ 1
ケットの色 1
ビデオブロガー 1
のスポンサー 1
ブロガー 1
達が視聴者 1
物商品の宣伝 1
偽物を本物と 1
批 1
直ぐに阻止 1
正規販売者 1
するのは違法 1
▁違法 1
措置を取 1
違法 1
良ければ 1
しておか 1
は出さなくていい 1
正規販売 1
書いておいて 1
がどんな措置を取 1
希 1
早退せざるを得 1
▁今娘の保育園 1
嘔 1
にかかってないと 1
▁直ぐに迎え 1
早退 1
できないのは承知 1
▁もうすぐ 1
が始まりますし 1
▁家族も皆市外 1
に行ける人が居 1
はアンドリューに 1
代わりを務める 1
も今終わった 1
か確かめている 1
▁礼儀として坂口 1
欠席せざるを得 1
先に許可を頂き 1
▁緊急 1
早退させてあげ 1
まれます 1
▁同僚の皆も 1
可愛い子供 1
看 1
娘の事で 1
ランド 1
オープ 1
熱意のある 1
今日はお店で 1
棚に 1
縫 1
い付けられている 1
バーコードを 1
対応する価格に 1
▁バーコードって 1
▁視覚 1
的なパターンで 1
持っているこの 1
で読むことが 1
バーコード 1
桁 1
で構成 1
スキャナーは 1
ことによって黒と 1
ログ信号がデ 1
コーダ 1
に送信 1
▁デコーダがその 1
信号を解釈し 1
してバーコードを 1
検証 1
とスキャナー 1
インターネットで調べ 1
ハン 1
のが本当に速 1
▁ジャケット 1
ーンズ 1
▁男性用の 1
甲斐 1
はありました 1
に何かアドバイス 1
を学ぶことを 1
▁私達の市場調査 1
推 1
つけると安っぽく 1
倫理的に育て 1
オーガニックの 1
摘みのアッサム 1
お茶を買いたい 1
だけどユニット 1
▁仮に 1
さらに高価に感じ 1
消費者は 1
のものと比較して 1
異な 1
考えを聞きたい 1
で小売り 1
コラ 1
ラは私の 1
雄 1
の乗数に不 1
基づ 1
それは結構 1
掘り 1
ユニ 1
ット数を稼げて 1
それでも棚に 1
並んでいる 1
丸ごとの損失 1
収入の損失 1
確かな 1
に聞こえますから 1
安っぽく 1
って誰 1
スタリカ 1
コーポレート 1
マネージ 1
▁彼が何をしたの 1
みんなが 1
が現れた 1
ロベルトが 1
▁ビルははるばる 1
コスタリカ 1
まで飛行機で 1
ロベルト 1
寝坊したの 1
寝坊したんだ 1
そべっていたんだ 1
コスタリカの 1
バーで 1
状態だった 1
ものだと言った 1
心が 1
ロベルトは数 1
日前に大規模な 1
案件を成約 1
したよう 1
顧客を 1
注意されたの 1
宝 1
大分 1
考えても 1
が入社した時に 1
ストロンボリと 1
ホット 1
を食べに連れ出 1
ネーム 1
タグ 1
全部持ってきた 1
時間程度で着 1
▁主に会議での 1
デザインし 1
営 1
体するんですよ 1
明日の午前 1
さないようにね 1
リサと私は 1
マジック 1
とクッキーです 1
▁コメディショー 1
彼らはマジック 1
とコメディ 1
していて冗談を言 1
面白いけれど 1
マジックも上手 1
▁クリス 1
あなたは今夜何を 1
何人かの顧客を 1
に連れ出す 1
▁サーカスショー 1
も有 1
ロックバンド 1
奏 1
ブバンドも有 1
のどれも 1
▁デイブ 1
▁要するに会議 1
リモートで見 1
悪を言っている 1
最初は紹介 1
オースティンの 1
リモートで 1
について知ったら 1
騒 1
を計画していたの 1
の表彰をしよう 1
デッキを 1
ーンと 1
アマンダに送 1
▁思い出させて 1
客について話す 1
デッキを含む 1
会議は長引く 1
傾向がある 1
腹を立てた 1
とてもよく理解 1
してくれました 1
積荷が 1
税関で止ま 1
港湾当局 1
に適宜情報を 1
らに 1
割引を適応 1
社で働きたい 1
峰 1
であることは周知 1
最高経営責任者 1
天 1
才 1
革新 1
御社で 1
友人が何人かい 1
お互いに深 1
っていると聞きました 1
わざ 1
パフォーマンス 1
は単純に 1
お考え 1
ボーナスと販売 1
以来この会社に 1
▁私は頼り 1
になるし熟練 1
▁人当たり 1
この会社にいて 1
している事を 1
考えると私の 1
を稼いでいます 1
が悪いからと 1
すべて投げ出 1
たら経済的に 1
▁誰かに 1
わけにはいき 1
▁大事にして 1
に話してみますよ 1
が上がるとしたら 1
▁一生懸命 1
ビルには貸し 1
るように説得 1
する自信はある 1
どの位貰える 1
この面談を予定 1
▁オースティンの 1
筋 1
神経 1
届いた技術教授 1
▁新しい道を追求 1
きっかけ 1
かなり良いお 1
言うまでも 1
売っているのか 1
▁クリスパー 1
傑 1
にもかかわらず 1
営業担当者のせ 1
私よりもずっと 1
にとっても 1
▁どの書類に記入 1
チームを去 1
だと思わない 1
この仕事を 1
したいのなら 1
が重すぎます 1
間違えた場合は 1
医者の 1
と健康 1
その通りよね 1
死 1
ミスをしたら 1
免許 1
も仕事も失い 1
には訴えられる 1
僕は数ヶ月前に 1
死亡 1
かなければ 1
が避けられない 1
ですねキャメロン 1
私は自分の仕事 1
を取得したわ 1
を取得することの 1
▁様々な 1
ッド 1
すべてのコースで 1
すべての病院が 1
平価 1
▁価格平価 1
内のそれぞれの 1
病院が 1
▁病院法人が 1
のメンバーである 1
医療機器の小売 1
▁すべての 1
製品部門で 1
製品部門 1
の契約があります 1
購買組織では 1
契約に 1
が含 1
どんな医療機器 1
の部門 1
視鏡検査 1
泌尿 1
救急医療 1
▁内視鏡検査は 1
医師があなたの 1
消化管 1
が不要 1
なことです 1
消化管を見 1
肛 1
コードは電子 1
備えて 1
すべての領収書は 1
に保存してある 1
見たがって 1
酷かったね 1
命の恩人だよ 1
部屋も予約 1
カゴ店にお電話 1
ですでに埋 1
社名とご予約 1
にご使用 1
カードの番号を 1
を知っていますよ 1
ストフードの 1
を生産して 1
いとこは毎年行 1
のバイヤーです 1
ブースに 1
カゴ店 1
何があった 1
のバイヤー 1
サンド 1
▁彼に 1
ドンブルー 1
彼がブースに 1
一体 1
ことが無くて 1
繰 1
雇用 1
援 1
▁それは口座に 1
きそれを受け取 1
計画のように思 1
その通り 1
病院 1
診療所を 1
咽 1
炎 1
何か単純な 1
ものであれば 1
回の 1
ドル払う 1
だけで済みます 1
それは結構お得 1
だけの話 1
けがをした場合 1
をした場合 1
労働者補償に 1
どう機能するのか 1
ビジネスを 1
成約 1
協 1
プラ 1
クティスに 1
重点を置いて 1
製品について 1
▁前職 1
困難な状況 1
パレ 1
税関 1
で問題 1
▁荷物を積んで 1
けが 1
往 1
の港湾当局に連絡 1
できたので次の 1
すべてが問題なく 1
内の顧客に 1
▁レベッカ 1
▁スプレッド 1
したいだけなんだ 1
ソース 1
データのセルを 1
▁ここまでは順調 1
どこに何がある 1
全部覚えている 1
のが難しいんだよ 1
ほど上達するのよ 1
物を売る 1
ことをする自信 1
だけのことだから 1
ますために冗談を 1
言うんだ 1
▁僕はまず 1
キャンペーンを 1
ものですが 1
メリウェザーが 1
学生の維持と減 1
少においての 1
術 1
リソース 1
パス 1
コミュニティを 1
いくか 1
部長は 1
および学務部が 1
学務と予算関係 1
学生の維持にも 1
が少 1
稼ぎは減ります 1
▁彼らを 1
ことの最終目的 1
▁メリウェザー 1
を迎える 1
学生が 1
大学を中退 1
▁成績 1
キュ 1
借 1
データが 1
が集約され 1
どの学生が特別な 1
かを知 1
この質問をする 1
▁ル 1
が売り文句 1
の特別割引 1
聞こえますから 1
▁私達はあなたを 1
できて嬉しいわ 1
▁ここに来る前 1
が多かった 1
▁前職では 1
猿 1
ストリートミュ 1
▁自動車保険 1
よく遊び 1
▁あなたを 1
嬉しいわ 1
シェンク教授 1
のは何故か 1
ブスと申します 1
という出版社で 1
働いております 1
▁私たちは教科書 1
生徒がハン 1
なさることを検討 1
いらっしゃる教科 1
書と 1
▁今目の前に 1
今デスクに 1
リンクをメール 1
▁届きました 1
を受信ボックス 1
ボブさん 1
ようにテイラーメ 1
イドのカスタム 1
選べるのですか 1
▁まずは現在取り 1
チームへの 1
直接の影響 1
が加わった 1
デート 1
/ 1
月前半は 1
テストで 1
予定だよ 1
▁私達の 1
からもう一人参加 1
ロール 1
もう一人参加 1
に話しておくわね 1
分遅れます 1
▁パロアルト 1
ばかりで時差ぼけ 1
▁よくわかるよ 1
▁パロアルトでは 1
セミ 1
▁マリアは 1
さんが生 1
可愛い 1
に興味がある 1
▁効率的で 1
▁この二つの 1
とビジョン 1
の中で写真を撮 1
商品の写真を撮 1
って誰でしたっけ 1
方向性に導いて 1
僕の食べ物をと 1
▁持ってきた 1
をランチに 1
持ってきた 1
食べ物を盗んで 1
に何か入れてる 1
▁食べ物泥棒 1
食べ物を盗 1
できる範囲 1
ご用ですか 1
や用品の責任者 1
明日の午前遅め 1
▁お邪魔します 1
オフィスへの 1
転属が出来る 1
▁まだ決めて 1
にすごく興味は 1
完全 1
評価は優れて 1
▁皆がそうです 1
▁私にとっても 1
去っていくのは 1
▁マイアミ 1
何が出来るか 1
▁時期 1
うまく行くといい 1
商品の一つ 1
サリー 1
▁何が問題 1
▁製品が 1
抜いて 1
のボタンを押 1
コンセントが 1
他の家電製品 1
▁製品を買われた 1
▁私が送る 1
のオプション 1
が全て 1
弊社から 1
案内に 1
くのを 1
▁プリンターがつ 1
ピー 1
鳴 1
廊 1
下を行った 1
やつは赤のト 1
ナーが 1
どこにもないのよ 1
クリスと私は 1
をオフにして 1
全部の部屋 1
が埋まってる 1
をたくさん入 1
を押さえておく 1
ぜ 1
もらえたら 1
も下降してる 1
四半期に 1
本当にいい利益 1
年始 1
年度末の手当 1
始めるわね 1
努 1
今年まだあと一 1
不穏な時期に 1
▁高速で事故 1
▁お二人とお会い 1
ダニエル 1
▁テイラー 1
ダニエルです 1
条項が幾つか 1
あるんです 1
話し合えますか 1
関係の全面 1
収益予測 1
と実績を見直して 1
▁来年の収益予測 1
も入れ 1
▁できますけど 1
▁今週の末までに 1
確かめて 1
変だな 1
ちゃんと来てる 1
おかしいよね 1
技術サポート 1
ご迷惑 1
▁仕事を続け 1
オフライン 1
そうだな 1
▁アンジェラさん 1
▁ディナーの予定 1
全部片づけ 1
五 1
遡 1
事業開発から 1
▁そのグループの 1
助けてくれる 1
▁彼の内線は何番 1
アンジェラさん 1
お話できる 1
ランチ休憩もと 1
らせるようには 1
彼女もパンク 1
しば 1
になるって 1
彼女に事業開発 1
の手当額 1
色々考えても 1
時期は 1
はいい年です 1
職場環境を保 1
ちゃんとなじ 1
大変気配 1
いけるようにな 1
さんと一緒に作業 1
聞いてないわよ 1
に入るのかしら 1
に聞いてみるの 1
彼なら何か 1
皆で外に出 1
られるかな 1
彼がお昼に時間 1
アンジェラ 1
ジュ 1
▁ウィルソンです 1
▁ではボブさん 1
水を 1
で高齢者向け 1
構造 1
高齢者向けビ 1
ジのコンドミ 1
ものがいいと 1
ビス 1
来年秋に 1
ロリダ 1
のパンフレットで 1
ものになりますよ 1
▁定年退職 1
家に持ち帰って 1
の老後のお住まい 1
が出来れば光栄 1
全部の資料 1
も中 1
誕 1
片づける用事 1
休みがいるな 1
尽 1
からもう少し 1
情報が必要 1
君の助けが必要 1
▁ランチの後で来 1
▁様子 1
を外 1
予定を確認 1
から水曜まで 1
いちにはパリにい 1
曜の夜 1
か来週に予定変更 1
▁パリで 1
会うこと 1
遅らせる 1
してくれましたね 1
ならもっと遅く 1
に始めても 1
やってくれますね 1
そばの 1
ーターフロント 1
を見せる前に 1
はいいことね 1
なら時間 1
を押さえて 1
にも都合のいい 1
くわ 1
がちゃんと設定 1
の準備を 1
▁ベイエリアでの 1
ことありますよね 1
縛 1
ジュリーが行く 1
一緒に作業 1
台本が 1
明確で簡潔 1
大丈夫だといい 1
分遅れた 1
では詳細 1
微 1
▁現場用の 1
▁自分でも探 1
レクターの 1
ちょうどあそこに 1
▁最新情報を 1
▁ニューヨーク 1
▁どう思います 1
がそんなにいいの 1
安全対策 1
作業員 1
の生産性 1
も上が 1
▁製造業界や 1
業界がこれ 1
の作業員用に 1
したという記事を 1
▁安全性と 1
に値段はつけ 1
支払条件は正味 1
日以内に 1
いいと言っている 1
出荷分から変更 1
出荷分から 1
▁総務部にも 1
おいてくれる 1
かなり長いので 1
今年はまだあと 1
日も 1
▁来年に持ち越せ 1
へ行きたいとは思 1
今はお金がない 1
結婚 1
ほどあるんです 1
いつ頃 1
▁月にいくら返 1
▁将来 1
頑張れ 1
▁子供は車 1
もっとお金 1
今週の金曜日 1
諾 1
進めている 1
▁来週のご予定は 1
▁その他の 1
どうです 1
▁他の日はかなり 1
大丈夫か 1
▁施設の 1
操 1
をやめて 1
遊 1
を買い取ることに 1
もとも 1
▁基礎と建物 1
排 1
気が少ないので 1
数ヶ月前に 1
万トンで稼働 1
起きた山火事が 1
▁その火事は 1
近かった 1
煙の臭いは 1
ヶ月くらい先 1
契約では 1
付加 1
中国のメーカー 1
にさらに加工 1
をどう処理 1
切り落としてる 1
イヤー 1
坑柵 1
ら教えてくれ 1
にくかったりで 1
重要なこと 1
コードは 1
国で商品分類 1
統一商品分類 1
輸入国は関税 1
からないときは 1
機関 1
ワックスキャン 1
がワックスで 1
でできた商品 1
ワックス 1
とみなされ 1
パーツが中国製 1
日本で組み立て 1
も製品は中国製 1
に加工 1
幅な 1
転換とみなさ 1
の原産地は 1
木材の原産地 1
研修生が 1
研修生 1
のはいいこと 1
英語のテストで 1
だったはず 1
▁こちらから誰か 1
へ行きたい 1
されていると受付 1
がおっしゃ 1
ランタにいます 1
▁リーといいます 1
社内にいない 1
木工 1
国から仕入れた 1
木工製品の 1
主要な 1
スウェーデン 1
々から木材を調達 1
近年 1
を推進 1
▁国産種の推進 1
する国産木材 1
▁ポイントは電気 1
▁国産 1
でできた住宅を 1
イド 1
▁建設業者 1
日本産 1
▁大手 1
が国産木材で作 1
を宣伝 1
▁国内での 1
行と 1
日本企業は海外 1
もう一つの市場 1
そこで材木に加工 1
他国へ輸出 1
日本産材木 1
の市場が 1
できています 1
特に日本産材木 1
州での住宅は 1
建設されていて 1
をつけなくて 1
▁ですから自然と 1
州でのフェンス 1
の需要が多 1
アメリカでの 1
建設が急速 1
に増えている 1
耐久性 1
いため 1
▁先ほども 1
で材木に加工 1
日本からのもの 1
から出ています 1
▁タクシーで 1
▁車で 1
▁君の家は 1
空港から 1
結構遠いな 1
からタクシーで行 1
車で行くことも 1
経費で出 1
ますかね 1
料金も会社が出 1
▁レシートを 1
お招き 1
っていたより 1
近かったですよ 1
今日はこの機に 1
▁お伝えしたい 1
義は商品取引と 1
繊 1
維 1
林業と 1
機に 1
▁航空機 1
代理店を務 1
には何人くらい 1
▁ほとん 1
ど日本人スタッフ 1
大学に行ってた 1
工学を 1
▁それに近いし 1
不満はないです 1
ガイ 1
さらい 1
社が新興企業を 1
何社か 1
してみますよ 1
▁施設見学を 1
しか空いていない 1
車で行こう 1
早めに出た 1
おきましたが 1
▁有料ですが 1
▁何を話すか心算 1
また何を話すか 1
さらいする 1
ましておめでとうございます 1
▁良いお 1
旅行に行かれる 1
離れ 1
隻 1
乙 1
が船会社にコネ 1
船の予約 1
がいっぱ 1
って聞いて 1
▁次回はよく 1
るか予測 1
最新情報 1
旧正月の後 1
月初めの旧正 1
▁輸入割り当て 1
さらに判明 1
確認とれてます 1
▁日にちと 1
変わり 1
社の親会社は 1
たくさん事業展開 1
について話し合い 1
があったり 1
についての話です 1
営業グループ 1
を再編成 1
するいい機会 1
当初は 1
雇った人たちに 1
継いで 1
ことを引き継いで 1
ズに新しく 1
さんが営業を 1
管理できます 1
が必要な息子さん 1
▁大学中退なのは 1
雇われる 1
科学者たち 1
ハーバードを首 1
ブリッジ 1
へ行った 1
候 1
結果だけですよ 1
▁経験も豊富です 1
▁恵子 1
ことを高く評価 1
これは私の決断 1
運営の 1
ここでも誰かが 1
▁月末 1
▁手 1
全体を 1
の一人に送り 1
結果を見 1
小企業グループ 1
のやり方でや 1
をするという 1
▁私が入社した時 1
遺 1
の違いは 1
かかわ 1
▁配偶者 1
悪くないですか 1
外には出 1
入札 1
▁ソフトや供給 1
残念なことです 1
▁残るように説得 1
継ぐ 1
思い浮かべ 1
真理さんが昔は 1
多国籍 1
まるで回転 1
パート 1
人だからね 1
▁皆がとっても 1
だったわね 1
やることがあった 1
に引っ越すの 1
カイラーの結婚 1
▁その人って昔 1
ヴォーンと 1
ヴォーンが彼の 1
薦 1
家を買 1
別の人間 1
さんがお別れ 1
何にもし 1
は何も期待して 1
近しい同僚たち 1
言っちゃう 1
ごめ 1
決められた 1
ことじゃないんだ 1
胃 1
瘍 1
ってとこ 1
▁手術の後で 1
▁アレックスと 1
もって見当 1
▁まったく 1
同感です 1
なら尚更 1
をもう少し慎重に 1
他とは違 1
に失敗 1
▁彼らもきちんと 1
のある会社ほど 1
大きくない 1
ッシュフローも 1
少ないので 1
この会社を経営 1
▁投資家たちは 1
即時の見返り 1
ことと言ったら 1
に目がくら 1
とりわけ経営 1
本心で心配 1
業界や会社の 1
全体的にかなり 1
役立ちます 1
に株を所有 1
日々の経営 1
▁彼らは最善策 1
監 1
督 1
何がそうでない 1
投資家たちは 1
私たちを前向 1
きに 1
の仕事に対しては 1
なくてもいい 1
誰でも失敗 1
▁思い付きで大 1
会社を経営する 1
▁経営陣を何とか 1
には賛成なの 1
さんがこれ以上 1
二人で 1
まっしぐらだよ 1
フェ 1
君に賛同するな 1
乗り気 1
しているところだ 1
も皆 1
そうしたら彼ら 1
対立するのを 1
嫌がる人もいる 1
避けられない 1
持ち込む 1
のは嫌だから 1
評 1
沙汰 1
にしないように 1
否定的な報道は 1
したっていうこと 1
回し 1
乗り気かどうか 1
進めていくか 1
を発表 1
消費者が裏切 1
来月末 1
▁本年度の 1
を出した時には 1
取り組みが十分 1
はその反映でも 1
去年からずっと 1
は去年役員 1
▁何かが 1
予測に反映されていなかった 1
お言葉 1
▁私たちに大きく 1
心配する 1
▁アレックスさん 1
遮 1
飛ぶ 1
今の一時的な 1
も解決されると 1
▁現在の 1
新バージョンの 1
売り込み 1
広告は 1
を宣伝方法 1
だと決めたんです 1
が多すぎます 1
は前もって計画 1
付きで 1
ように思われます 1
費やしたのに 1
▁私が決め 1
誰でも失敗をし 1
もうすでに取引 1
ラウ 1
かりました 1
はは 1
▁君は関係ない 1
私が一番大切 1
を仕事に持ち込む 1
のこうのではなく 1
見られてるか 1
▁この会社の評判 1
見られている 1
きち 1
いないという印象 1
印象を与 1
君次第だね 1
手元にある限 1
になって彼女も 1
本当に堂々巡 1
▁どうやったら 1
あれだけ空気が 1
読めないと 1
と話さないんだよ 1
堂々巡 1
全然結論が出 1
いけなくて悪いね 1
むちゃくちゃ 1
▁いい同僚たちが 1
何か執行 1
時はどう 1
最終的な決定権 1
マクガイア由美 1
ウィルヘルムと 1
一で電話 1
に興味をもつ 1
希望はあるよ 1
高さんが君に 1
貿易の名刺を渡 1
したってことは 1
せめて直接 1
ってことだよ 1
▁知ってるように 1
が鳴 1
▁マクガイア 1
貿易の 1
ウィルヘルム 1
▁ロフストロ 1
フストロ 1
かと思いました 1
がこの週末の 1
これについて知ら 1
高さんが 1
周り 1
不真面目な印象 1
▁思い出して 1
ざり 1
だけだった 1
座り 1
考えてたわ 1
かなり夢見てて 1
現実離れしてる 1
なんて無理 1
ずっと夢見て 1
彼らを止め 1
存在する 1
必死 1
あの会議が議論を 1
招 1
この会社はきっと 1
長続き 1
を考えておくべき 1
の方向性は 1
単に間違ってる 1
▁思い付きで大衆 1
たて続けに失敗 1
その過程で 1
額のお金を 1
リアル 1
見られるという 1
見返りのある 1
▁恥ずかしいよ 1
社の評判を悪く 1
を理解する 1
を聞こうと 1
だと言って 1
さんは賢くなくて 1
士号 1
買うのをやめる 1
くらいには賢い 1
にさらに 1
がとっても 1
先延ばし 1
▁引受人たちとの 1
に達する 1
えず 1
引受 1
人たちは 1
IP 1
のせいだけですか 1
▁弊社には 1
に注 1
科学者 1
▁適した人材 1
のが難しい 1
学者たちが回復 1
が遅いか 1
皆無と予測 1
しているはず 1
予測に反映 1
じっくりとよく 1
研究所の 1
▁ゴ 1
というアイデアを 1
で会社を設立 1
▁とんでも 1
▁皆さんも 1
わくわく 1
はいいことづく 1
しのようですが 1
手元にある 1
小売客 1
売上を 1
個人向け 1
商品を生み出す 1
引き継ぐのには 1
辛いんだよ 1
▁私には怒る 1
優良顧客だよ 1
▁売上を伸ばす 1
とかここで一番 1
には興味ないわ 1
親切な 1
人たちと楽しく 1
経営陣がまとも 1
に分けましたので 1
優良顧客を 1
件ご担当 1
進行中 1
の顧客や確かな 1
弊社との仕事 1
引き継ぐことは 1
全員に連絡して 1
ひとりひとりが 1
引き継ぐ 1
すべて片づけて 1
私だって寂しい 1
おかげ 1
時点からすぐに 1
ますから 1
▁君たちのと僕 1
でダブっている 1
引き継いだと 1
られたもの 1
▁大切な財産 1
▁週一の定例 1
▁ソロモンさん 1
最新の近況報告 1
工場から弊社 1
まだ同じ 1
を見てみた 1
製造から調達 1
▁いったい何個 1
不具合品 1
製造から 1
弁 1
償するつもりで 1
で会議を開きます 1
ジェット 1
者は誰ですか 1
の顧客がタイ 1
にいます 1
会議を別途 1
高さん 1
すませましょう 1
▁誰か意見は 1
手伝えますよ 1
今終わった 1
とこなので手伝 1
▁ウォンビンさん 1
袋いっぱいの 1
▁動かすには重 1
ザードってこと 1
ほとんどがゴミ 1
ぐしゃぐしゃ 1
を持ってる 1
ぺ 1
ったん 1
だわね 1
気持ち悪い 1
▁ハザード 1
と使い捨て手 1
はいらないわ 1
▁雑 1
巾 1
を集 1
腹空 1
るときに呼ばれる 1
利永さんに懇願 1
働き始められる 1
ほどに日本での 1
においては最大 1
級の 1
ることが出来た 1
ファンドがジョ 1
イント 1
とするまでは 1
ように見えた 1
▁言っとく 1
▁話は 1
を怒らせたって君 1
先が読め 1
やることが 1
ことと気持ち悪い 1
遭 1
やることも 1
リエ 1
一旦利永さんに 1
って思ってた 1
▁出来ないのよ 1
ソロ 1
ら何にも出来ない 1
だと思って 1
してるってわけ 1
められる 1
利永さんに 1
▁アレックス 1
ファンドに強く 1
勧 1
私に直接話 1
▁何でも高さん 1
ぴ 1
レイアウト 1
への直通ラインが 1
ど真ん中を通 1
を何とか 1
か知ってるよね 1
ニーズを伝え 1
たり研究室の進捗 1
▁知ってるよ 1
電話線を 1
動かせないから 1
フロアを斜めに 1
は予約 1
電話線を直す 1
自分たちで責任 1
▁もう限界 1
ここにお金 1
のためだけにいて 1
禅 1
すごく出来るから 1
野心があれば 1
でもっとお金 1
ところに満足して 1
別に見下す 1
ないわよ 1
▁残業もしないし 1
立場を取って 1
野心 1
責める 1
あきらめるわけ 1
投資をしたが 1
京語を話す 1
されたの 1
さんと一緒の大学 1
ェ 1
▁大学中退 1
スクリ 1
プション 1
使えないんです 1
▁メイン 1
だけを見たい 1
ものは全て削除 1
関係のない 1
▁本当に時間をと 1
自動 1
しくな 1
なら時間をかけ 1
▁HTML 1
する解決方法は 1
TML 1
のデフォルト 1
お話したリソース 1
のリンクをメール 1
▁al 1
アリスさん 1
▁これらをまず 1
金曜の新年会 1
はいなかったよね 1
毎年毎年同じ 1
感じだよ 1
▁何か用事 1
があったの 1
たちと家で待 1
からまっすぐ 1
特にあなたは今 1
込もうと 1
競 1
のは知ってるだろ 1
先月の 1
何か聞いた 1
ップス 1
にリソースを集中 1
するっていう話を 1
▁どうしたんだ 1
サリーによると 1
調べたらしいよ 1
その結果新しい 1
チームが出来た 1
褒め 1
いたいけど 1
が出来た 1
娘のカイラー 1
のことは気の毒 1
わなきゃ 1
嫌なこと思い 1
▁嫌なこと 1
でお話できる 1
の細かいところを 1
じゃ見 1
一つは従来の 1
準 1
あとの二つが 1
斬新 1
をもう少し派手 1
結論を出した 1
つ目のデザイン 1
に絞られる 1
透明 1
過ぎる人々が 1
ただし一 1
展示の写真を 1
とることが出来 1
ビジ 1
ターが 1
ルを読むことが 1
にもう少し不透明 1
われますか 1
の細かい 1
にご不満 1
にいい印象 1
ブースに待機 1
営業マンに人々 1
を引き付ける 1
で行きますか 1
私はそう感じて 1
からの最終確認 1
当初 1
は来週の金曜 1
▁彼女には来週の 1
木曜にはお返事 1
お話した 1
結論 1
私のほうは 1
全てです 1
足労 1
目を配るべき 1
かなり長いリスト 1
短くするの 1
宙 1
からの新材料 1
シナ 1
ジー効果がある 1
最適化し経営 1
▁ロボットとか 1
ボット 1
▁ロボット工学は 1
おくべきところ 1
工知能やビ 1
ッグデータ 1
を作ることですね 1
▁うちの子 1
をオフ 1
正午までに 1
送りたいから 1
としてお電話 1
での売上 1
額はいくら 1
社のト 1
の売上額はいくら 1
だと聞いてくる 1
▁まったく持って 1
なかなか来ないし 1
今の保険会社の 1
料金も 1
今手元にある額 1
▁断ってしまって 1
茂 1
を考えている 1
来週の月曜に払 1
いたいのであれば 1
今週の 1
▁今日届きました 1
間違っている 1
早くに 1
グラント 1
▁お手数おかけ 1
総務部 1
が来週の月曜に 1
もらえたらな 1
製品を出荷 1
そうしたら 1
▁今週の木曜には 1
渡せると思う 1
書類の一覧を 1
毎年同じ 1
さんにその 1
月までの分 1
事業は 1
印刷して後で 1
ややこしく 1
▁シェ 1
▁彼女とのランチ 1
▁下の 1
久しぶりです 1
▁前にお話し 1
さしあげ 1
▁時の経つのは 1
ホリデー休暇 1
の中で都合のいい 1
私のほう 1
▁監査 1
書類の一覧 1
一覧について 1
早く受け取る 1
▁発注 1
▁普通はそちらの 1
わけか郵送 1
してしま 1
電子版を 1
では今送りますね 1
世話にな 1
へ大きな機械を 1
する場合の 1
州の 1
大きな機械を 1
▁重量制限や特 1
さまざまな 1
に係わる問題 1
くるの 1
高速でさえ守 1
のほうにルート 1
すればコストを抑 1
緩いオレゴン州 1
を選 1
まで機材をバージ 1
▁ほかには 1
機材を小さな 1
部品にばらして 1
部品にば 1
設計図など 1
扱う 1
安くないことを 1
思います 1
それはかなりの額 1
はまだ見つけて 1
▁ロジ 1
スティクス 1
企業と取引 1
何が最良策か 1
▁お手伝いできる 1
▁航空 1
▁荷 1
よりもずっと 1
▁大きさのほかに 1
のに必要な情報 1
しに参 1
社の佐野健司 1
佐野 1
拠点 1
営業所が二つ 1
カナダに 1
商業部では 1
組み立て工場 1
遇 1
恵 1
授 1
へ共同投資 1
共同 1
投資を望まれる 1
▁施設の開業 1
よりも現地の 1
係わ 1
▁それはよく 1
ートル 1
はいかがお過ごし 1
の方との 1
▁そのメールには 1
今週か来週なら 1
▁そちらで 1
▁表を等間隔配置 1
からず 1
画像に変える 1
▁一度そうすると 1
縮 1
ページに違う 1
表がいくつも 1
られないときは 1
は得意 1
は使えますか 1
なのか知りません 1
▁セル内の数式の 1
▁セルに数字 1
▁幸い 1
買おうと予定 1
で比較表 1
には何を入れれば 1
本体の写真や 1
月末までに配送 1
▁業者から 1
もらえない 1
に今年もっと購入 1
業者に 1
もっと購入 1
一日を 1
食べに行かない 1
来月ここに来る 1
▁会社から経費 1
行こうか 1
洞察力に満 1
観客の皆さんに 1
▁私からの質問 1
された市場を 1
▁貿易戦争は 1
米国と中国の 1
▁大豆のような 1
米国の農作物 1
米国の製造業 1
価格上昇 1
観客の 1
皆さんから 1
社のグラントメ 1
▁この貿易戦争 1
▁この貿易戦争は 1
よりも長引く 1
両国とも 1
経済的に無理 1
があると見なし 1
運営をやめる 1
して悪くなる前に 1
▁貿易戦争 1
▁両国ともに 1
ほど大きなこと 1
拍手を 1
ご参加 1
を務めるエレイン 1
田村美里です 1
ベンさんの書類 1
さんの書類 1
必要に応じて 1
業務を手掛けて 1
商品を輸出 1
すると仮定 1
なくては 1
頼みます 1
情報提供をする 1
それを受け取 1
は銀行からの資金 1
に使います 1
銀行は資金 1
拒 1
否 1
の仕組み 1
▁これは国際貿易 1
の仕組みをよく 1
今日は単刀直入 1
にお話します 1
▁弊社は御社の株 1
の大部分を買収 1
非常に唐突なお 1
▁承知 1
があるのは 1
▁けれど 1
を買収 1
する意向をほぼ 1
とご相談されて 1
判断しかねます 1
とお考えですか 1
御社の株 1
を増 1
促す 1
▁株の大部分は 1
には重役を 1
にありがとうございます 1
要項 1
ベーション 1
に努めております 1
ベルト 1
の生産性を上げ 1
▁センサーは 1
物質の 1
では何を加工 1
▁センサー 1
の種類と 1
即座に判断 1
を送るかを選択 1
を節約できる 1
の低い物質の加工 1
革 1
のは何故 1
アイデアは常に 1
の大手 1
▁現在は 1
銅 1
パートナーシップ 1
世界中に鉱山 1
ことを存じ上げて 1
施設にそちらの 1
断る 1
▁じゃあ営業や 1
パートナーを探 1
採鉱 1
▁より詳しい情報 1
は沢山でてくる 1
圧倒 1
件以上もあって 1
整理してますか 1
▁各項目に 1
経過を追い 1
▁僕の真似をする 1
が増えるばかり 1
寒さから逃れた 1
▁山火事は 1
秋に 1
消火 1
▁一時は上海の空 1
気の 1
地元にいたよ 1
▁作業の記録 1
じゃないんだ 1
つの部分で構成 1
セス 1
モニタリングだ 1
モニタリング 1
任務に沿った 1
内部統制は大切 1
▁では内部統制 1
地点 1
地点へトラック 1
▁製品が積み込 1
船で 1
輸送されるから 1
起こり 1
に感じる 1
価値は必ずある 1
々の 1
教えてくれ 1
部門に頼まれて 1
▁今日はこれに約 1
考えることだ 1
を表現 1
象 1
人の光景とか 1
リーフォール 1
フォール 1
そんな感じの 1
ゴを組み立て 1
るのが得意な人 1
手ではないけど 1
そこそこって 1
▁もう何年も 1
やってないわ 1
組み合わせ 1
会社のサム 1
▁お元気そうで 1
製品の購入 1
と思いお電話 1
製フェンス 1
でできています 1
▁御社がフェンス 1
ことは存じ上げて 1
を主にご使用 1
を取り扱 1
のいい 1
大変値段が安い 1
ときの見た目 1
に比べて耐久性 1
軟 1
会社のサムだよ 1
搬 1
訂正したものを 1
消去して空き 1
をいつも 1
イブ 1
▁大きい 1
があるものは消去 1
メガバイトの 1
が分かりませんが 1
▁運 1
があると見 1
かしな 1
方針ってとこ 1
アーサーです 1
▁やあアーサー 1
▁機密保持 1
してもらえない 1
説明したいんだ 1
計画をしてて 1
共同投資 1
の供給も援助 1
時に情報を漏ら 1
つのはどうかな 1
▁うちの契約では 1
会社が長すぎる 1
偉 1
社外に出る時も 1
彼女にこの事を 1
にいる時でも 1
立ち上がって話 1
すぐにメール確認 1
時間をあげよう 1
の出張 1
中の会議の予定 1
全会議の予定 1
▁航空券 1
レンタ 1
割高 1
とかキャンセルで 1
もっとお金を払 1
備え 1
憂 1
旅行する時は 1
等の天候で 1
あれば車で行こう 1
の影響が少ない 1
他の空港に車で 1
今のままで良い 1
に直面している 1
がありそうです 1
をご検討 1
の市場が安定 1
の一時的な調整 1
のお客様には 1
の為にお力 1
替 1
有り 1
を決めるのに 1
と話す機会 1
午後には価格 1
申し分 1
▁長年のお客様に 1
の大切なこと 1
▁積み降ろし場 1
前に名前を記入 1
反射ベストと 1
ヘルメットを 1
▁準備万端です 1
ろし場 1
上あまり高く 1
袋入る 1
んだり 1
しても責任は 1
積む 1
▁しか 1
さん袋を詰め込み 1
過ぎると 1
とお伝え 1
▁これが私のです 1
商品取引と 1
ほかにも鉱山や 1
どちらかと 1
がメインなんです 1
の市場のみで販売 1
市場に進出 1
一緒に働ける 1
可能性もある 1
があれば弊社から 1
に関してご質問等 1
宜しければ 1
スコット 1
同じ分野です 1
いつか日本に帰 1
日本に帰ります 1
ここにいる 1
▁シアトルは好き 1
郷 1
すみ 1
先を知っていた 1
亘 1
をお持ちの製品 1
▁連絡先を 1
社のケリー 1
ケリー 1
を高めたくて 1
この展示会に参加 1
国内でも一番 1
▁沢山の面白い 1
望んでいます 1
製品を販売 1
小売客はい 1
▁企業にのみ販売 1
広げていこう 1
でパートナーを探 1
グロー 1
ルソ 1
シング 1
も行 1
会議をする 1
興味を持って 1
▁そう仰って 1
名前を挙げて 1
年です 1
こともあり航空機 1
等の商品を輸出 1
技術設計 1
▁沢山の 1
アイデアは持 1
そのアイデアを 1
弊社に技術設計 1
を外注 1
一緒に働ける時 1
お会いできて 1
トレードショー 1
での時間を 1
楽しんで 1
需要を見つけて 1
言うほど単純 1
極め 1
も大変そうですね 1
日本からの 1
製品を買 1
製品が北米では 1
ビジネスから新 1
事業が生まれる 1
占 1
一つは 1
がどうな 1
常に最新情報 1
時事問題をキャ 1
ことだ 1
起きるか予測 1
取引で何が 1
尋 1
相乗効果がある 1
お気に召 1
さないんだよ 1
投資をテコに 1
新たな業界には 1
どう参入 1
益 1
かなり上手く説明 1
市場調査を 1
をこのオフィスに 1
呼んでくれるか 1
▁メモ帳をとって 1
どう参入するか 1
ところなんだ 1
▁知っている 1
純粋な投資 1
を得る 1
には純粋な投資 1
ほかに 1
する市場調査を 1
監査法 1
▁情報の出 1
所を忘れずに 1
▁頼りに 1
お忙しいですか 1
なのは知ってます 1
処理できるよう 1
に電子署名 1
を送るようずっと 1
プッシュ 1
時間以内に署名 1
する時間がとれる 1
▁急なお願いです 1
▁輸入 1
データを探せる 1
▁この製品の過去 1
を見たいんだ 1
からの輸入データ 1
ピボット 1
表で出しますか 1
▁借りができたね 1
に行かれる 1
▁主な理由は 1
づくりと関係構築 1
あの業界には 1
関与 1
提携先や質問 1
トレンドや 1
▁国内製品で 1
▁前にも言った 1
素人だからね 1
憶 1
測 1
よりはましだろう 1
大切なこと 1
名刺をたくさん 1
ちょっと頼みたい 1
と資料がいるんだ 1
▁具体的には何 1
プレゼンの最新 1
ような追加資料 1
▁会社プレゼンに 1
強調するような 1
▁地図 1
▁地図に入れたい 1
追加資料 1
のか示すような 1
を通じて企業 1
▁ビジュアルも 1
▁チャ 1
良い方法が何か 1
ゃ 1
を求めるのは 1
なら何か 1
用電話 1
歩いているので 1
が来たとわかる 1
と開けずに 1
か聞かれた 1
くっちゃうから 1
持た 1
ないことにしたの 1
▁僕の社用電話 1
返せますかね 1
キスでとめて 1
▁それ印刷して 1
▁それほどは 1
いい機会だから 1
価格交渉だよ 1
顧客対応 1
を見てて 1
ひど 1
もう行こうか 1
▁今日は直帰 1
になるから 1
まだありますから 1
その出荷分には 1
出荷量を出せる 1
この製品の 1
▁この製品って 1
どこかにある 1
キャビネットに 1
▁助かった 1
水分含 1
▁この水分含量 1
灰分 1
きっちり 1
▁灰分 1
合うように装置 1
当社製品を使 1
▁現状で 1
いいのでは 1
を超えた分 1
えた場合は若干 1
節 1
▁客先と価格交渉 1
できるかお聞き 1
する製品は高品質 1
少しでも値引き 1
オフィスのジムです 1
より高い 1
マージ 1
上乗せしすぎた 1
が何と言うか 1
▁値引き 1
が長年の 1
してるからとかな 1
季 1
の特別価格とか 1
中旬の出荷予定 1
▁精一杯やって 1
はみます 1
だと聞いて 1
その点ご了承 1
願います 1
ジェイです 1
▁先月出荷分 1
のお支払い 1
いつ頃お支払い 1
こちらの総務部に 1
▁すぐ戻ります 1
別件でたてこ 1
処理して 1
▁明日には御社の 1
社か 1
あげます 1
にログインします 1
かに書いておいて 1
主と 1
記入します 1
ブックに 1
んだら 1
ボタンを押す 1
送り状が印刷 1
されてくるから 1
封筒に貼 1
▁総務部近くの 1
行ってあげ 1
探しますんで 1
メールも電話 1
もしたんだよね 1
ろうとして 1
▁それはもう十分 1
はいないかと 1
週一回 1
様子をみたら 1
返事が来ない 1
ないってことだよ 1
メールや電話を 1
マナー 1
会社なら 1
待つことに 1
成り 1
に任せる 1
とはどんな意味 1
▁違法なことは 1
▁ルールに従 1
▁一目瞭然 1
のように思 1
に沿 1
るという 1
単純なことも 1
契約の 1
が豪華な 1
豪華 1
賂 1
贈答品 1
そうでないかの 1
判断基準は 1
▁状況を調査して 1
適切な 1
をしてくれますよ 1
が必要って指示 1
いいものか迷 1
の人も見たことが 1
▁デスクトップに 1
が出てくる 1
とは違うようです 1
戻ってきます 1
で悪いんですが 1
してくれませんか 1
▁事業 1
かに価値を付加 1
出来るか 1
から成り立ちます 1
▁始め 1
番目の 1
っているのか 1
▁メールを 1
読んでからまた 1
▁メールを読んで 1
が分かったらすぐ 1
▁提案書 1
役に立ち 1
一番大切 1
相手の側につく 1
せめて 1
相手の側 1
のが重要です 1
何もないときは 1
場合はどう 1
すことが大切です 1
がいずれ経験 1
精神的に覚悟 1
と思われたくない 1
▁もう少し間接 1
君が興味津々 1
を受け入れようと 1
したように見せる 1
▁もう一回これ 1
助かった 1
ジェイ 1
▁トレヴィーノ 1
斎藤 1
多数の 1
鉄道車両を保 1
有されていると 1
今では 1
全国 1
▁様々な州に 1
鉄道車両整備 1
を外注しています 1
経済的に道 1
してみる価値は 1
レヴィーノ 1
会社は地理 1
的な展開が 1
限られて 1
が見えて 1
▁提案書に 1
来週中に提案書 1
今日はお呼び 1
使われている 1
が使われています 1
▁その中で 1
蓋ホッパ車です 1
▁ホッパ 1
とはどういう意味 1
▁ホッパとは 1
部から貨 1
物を下す方法 1
▁下 1
に積まれた製品を 1
ッパ 1
あるものには 1
蓋 1
のホ 1
ッパ車 1
▁一般的に 1
濡 1
蓋ホッパ車 1
穀 1
▁重量制限 1
軽くて低密度の 1
大きな車両 1
高密度の製品と 1
大きな車両に積 1
車両の最大容量 1
量制限を超えて 1
に使われる車両 1
空になってても 1
んないよなぁ 1
言うか 1
したのに 1
もう空になって 1
干 1
に来てるからな 1
のを落としてる 1
仕方ないよ 1
中国からの輸出 1
ベビー 1
チェ 1
合意でき 1
商品を見つけて 1
他の国 1
出来事は 1
に大きく影響 1
▁とりわけ 1
に携わ 1
▁提示価格 1
▁今月初旬から 1
出張に出ていた 1
気分がすぐ 1
舶 1
会社からの 1
と心配でした 1
をまとめる 1
バック 1
グラ 1
の適切性を検討 1
アイデアは 1
優れて 1
知識に欠けた 1
団体とよく繋が 1
▁運送業者は船 1
会社や 1
密に関係 1
▁それは安心です 1
点は重要です 1
▁単にお金 1
のではなく 1
が簡単 1
以下だと言って 1
▁シリコン 1
バレーの 1
が始ま 1
もう少し早く始め 1
▁何時がいいんだ 1
正午 1
に空港に人を 1
終わらせる 1
をしたが 1
▁知ってる 1
君だけで行 1
▁前に彼らが 1
▁接待費申請の 1
送っておくよ 1
を見直す 1
存性のある事業 1
医者の予約が入 1
予定変更 1
はできる 1
との最終確認 1
会議の議事録を 1
くないと思うし 1
どおり 1
医者に行くよ 1
▁キングさん 1
▁お仕事のほう 1
▁彼らにご紹介 1
ナーと知り合い 1
に話して 1
互い 1
輸出データを探 1
前まで遡 1
後回し 1
これに集中 1
▁聞いた 1
近所に建設中 1
社って聞いた 1
社員が何名か起 1
社員の一人に 1
君の仕事 1
▁飲み込みが早い 1
経つのは 1
学ぶのに 1
かなり前向き 1
ずに聞いてきます 1
そんなもんです 1
手に回るほう 1
一日中話をして 1
▁彼には 1
教えられること 1
▁感覚をつかむ 1
ジャック 1
ヘッドハン 1
部長から急に 1
連絡がきた 1
▁ドローン 1
画像処理をする 1
画像処理 1
どの木が 1
▁普通は 1
いってどの木が 1
はずいぶん楽 1
▁収穫時にも 1
材木 1
収穫 1
職務を 1
の経験があんまり 1
はあるよ 1
るよりずっといい 1
▁それもあり得る 1
▁話聞いて 1
▁考えとく 1
一杯 1
東京に研修 1
月初旬か 1
▁トレーニング 1
▁インフラ 1
にさらなる投資 1
撤 1
に会う機会 1
▁今どこにいるの 1
来れる 1
▁東京オフィス 1
と電話会議をする 1
戻れるように 1
▁少しくらい 1
も構わないから 1
を伝えて 1
▁事情により 1
よく理解 1
社に売った 1
な取引 1
株を所有 1
じゃなさそうだ 1
するというだけだ 1
力を持つことを 1
避け 1
▁分かんない 1
何か聞いたか 1
したいんだよ 1
トレンド 1
を示したいんだよ 1
データが互いに 1
ごちゃごちゃ 1
二つの違う軸 1
に置くことが出来 1
▁簡単にできたね 1
ランチおごるね 1
ラーメンかな 1
▁来週は二つ 1
▁スポット 1
ができるか調べて 1
渋滞が 1
ないといいけど 1
▁その次の週は 1
がだめ 1
やっておきます 1
ついでに 1
さんに送 1
ゼル 1
メーター 1
きたかったんです 1
とのランチとか 1
▁あなたの口座に 1
振り込み 1
まいませんよ 1
▁額が少なくて 1
提出するべきか 1
これが現金です 1
ライルです 1
▁フロント 1
来年まで在庫 1
の都合 1
▁カンパニー 1
ではすぐ送ります 1
ご購入 1
▁再検討して 1
その商品が 1
▁社用車 1
社の社長が明日 1
ちょっと手が空 1
▁一番近いのは 1
迎えに行くから 1
入れてる時間が 1
▁一番近い 1
スタンド 1
▁洗車 1
▁洗車所は 1
▁警告 1
会合 1
▁借りが 1
社のリサです 1
関係者 1
▁訂正 1
子会社なので 1
何も不適切な 1
かったんです 1
▁すでに存在する 1
ことのできる新規 1
ものは全て地元 1
近いので会う 1
のは簡単です 1
重点を 1
置く産業 1
のある会社 1
もう一つの 1
▁スポット契約を 1
仮に 1
万ト 1
契約にサイン 1
は年間を通して均 1
四半期に交渉 1
料金に合意でき 1
配給の取り 1
▁東京の同僚たち 1
社の親 1
なが 1
コンタクト 1
返事が来ないよ 1
で聞いてみよう 1
▁ジョーイー 1
▁ジョーイーが 1
結局彼のことは 1
▁正面玄関から 1
彼のことは 1
ことどう思った 1
▁イレインは寂 1
の書類を送るよう 1
あの会社ですか 1
ったか 1
は私が出張に行く 1
以降に 1
▁現在製作中 1
▁先週お送り 1
パラメーター 1
がやや高めの 1
バッチの製造 1
バッチの 1
ッシュ 1
お座りください 1
▁後ろに 1
ご自由にどうぞ 1
はブラックで 1
社の技術本部長 1
レンド 1
たいへん 1
万ドル以下で 1
よろしかった 1
年末年始の休暇 1
▁西洋料理 1
[...]
